// File ini dibuat secara otomatis
#ifndef G_KASUS_C_MODEL_3_INT8_H
#define G_KASUS_C_MODEL_3_INT8_H

// Model: Kasus C Model 3 INT8
// 3L, 32N, int8 quantized
// Size: 6072 bytes (5.93 KB)
const unsigned char g_kasus_c_model_3_int8_model_data[] = {0x1c,0x00,0x00,0x00,0x54,0x46,0x4c,0x33,0x14,0x00,0x20,0x00,0x1c,0x00,0x18,0x00,0x14,0x00,0x10,0x00,0x0c,0x00,0x00,0x00,0x08,0x00,0x04,0x00,0x14,0x00,0x00,0x00,0x1c,0x00,0x00,0x00,0x8c,0x00,0x00,0x00,0x0c,0x01,0x00,0x00,0x80,0x0e,0x00,0x00,0x90,0x0e,0x00,0x00,0x4c,0x17,0x00,0x00,0x03,0x00,0x00,0x00,0x01,0x00,0x00,0x00,0x04,0x00,0x00,0x00,0x2e,0xf1,0xff,0xff,0x0c,0x00,0x00,0x00,0x1c,0x00,0x00,0x00,0x3c,0x00,0x00,0x00,0x0f,0x00,0x00,0x00,0x73,0x65,0x72,0x76,0x69,0x6e,0x67,0x5f,0x64,0x65,0x66,0x61,0x75,0x6c,0x74,0x00,0x01,0x00,0x00,0x00,0x04,0x00,0x00,0x00,0x68,0xff,0xff,0xff,0x0d,0x00,0x00,0x00,0x04,0x00,0x00,0x00,0x08,0x00,0x00,0x00,0x6f,0x75,0x74,0x70,0x75,0x74,0x5f,0x30,0x00,0x00,0x00,0x00,0x01,0x00,0x00,0x00,0x04,0x00,0x00,0x00,0x06,0xf2,0xff,0xff,0x04,0x00,0x00,0x00,0x0d,0x00,0x00,0x00,0x69,0x6e,0x70,0x75,0x74,0x5f,0x6c,0x61,0x79,0x65,0x72,0x5f,0x33,0x00,0x00,0x00,0x03,0x00,0x00,0x00,0x5c,0x00,0x00,0x00,0x2c,0x00,0x00,0x00,0x04,0x00,0x00,0x00,0xb8,0xff,0xff,0xff,0x11,0x00,0x00,0x00,0x04,0x00,0x00,0x00,0x13,0x00,0x00,0x00,0x43,0x4f,0x4e,0x56,0x45,0x52,0x53,0x49,0x4f,0x4e,0x5f,0x4d,0x45,0x54,0x41,0x44,0x41,0x54,0x41,0x00,0xdc,0xff,0xff,0xff,0x10,0x00,0x00,0x00,0x04,0x00,0x00,0x00,0x13,0x00,0x00,0x00,0x6d,0x69,0x6e,0x5f,0x72,0x75,0x6e,0x74,0x69,0x6d,0x65,0x5f,0x76,0x65,0x72,0x73,0x69,0x6f,0x6e,0x00,0x08,0x00,0x0c,0x00,0x08,0x00,0x04,0x00,0x08,0x00,0x00,0x00,0x0f,0x00,0x00,0x00,0x04,0x00,0x00,0x00,0x13,0x00,0x00,0x00,0x6d,0x69,0x6e,0x5f,0x72,0x75,0x6e,0x74,0x69,0x6d,0x65,0x5f,0x76,0x65,0x72,0x73,0x69,0x6f,0x6e,0x00,0x12,0x00,0x00,0x00,0x70,0x0d,0x00,0x00,0x68,0x0d,0x00,0x00,0x54,0x0d,0x00,0x00,0x1c,0x0d,0x00,0x00,0x8c,0x0c,0x00,0x00,0x7c,0x08,0x00,0x00,0xec,0x07,0x00,0x00,0xdc,0x03,0x00,0x00,0x4c,0x03,0x00,0x00,0xdc,0x00,0x00,0x00,0xd4,0x00,0x00,0x00,0xcc,0x00,0x00,0x00,0xc4,0x00,0x00,0x00,0xbc,0x00,0x00,0x00,0xb4,0x00,0x00,0x00,0x94,0x00,0x00,0x00,0x74,0x00,0x00,0x00,0x04,0x00,0x00,0x00,0xf2,0xf2,0xff,0xff,0x04,0x00,0x00,0x00,0x60,0x00,0x00,0x00,0x0c,0x00,0x00,0x00,0x08,0x00,0x0e,0x00,0x08,0x00,0x04,0x00,0x08,0x00,0x00,0x00,0x10,0x00,0x00,0x00,0x28,0x00,0x00,0x00,0x00,0x00,0x06,0x00,0x08,0x00,0x04,0x00,0x06,0x00,0x00,0x00,0x04,0x00,0x00,0x00,0x01,0x00,0x00,0x00,0xeb,0x03,0x00,0x00,0x0c,0x00,0x18,0x00,0x14,0x00,0x10,0x00,0x0c,0x00,0x04,0x00,0x0c,0x00,0x00,0x00,0xc1,0x2e,0x09,0xaa,0x65,0x32,0x2e,0x3f,0x02,0x00,0x00,0x00,0x02,0x00,0x00,0x00,0x04,0x00,0x00,0x00,0x06,0x00,0x00,0x00,0x32,0x2e,0x31,0x38,0x2e,0x30,0x00,0x00,0x5e,0xf3,0xff,0xff,0x04,0x00,0x00,0x00,0x10,0x00,0x00,0x00,0x00,0x00,0x00,0x00,0x00,0x00,0x00,0x00,0x00,0x00,0x00,0x00,0x00,0x00,0x00,0x00,0x7a,0xf3,0xff,0xff,0x04,0x00,0x00,0x00,0x10,0x00,0x00,0x00,0x31,0x2e,0x31,0x34,0x2e,0x30,0x00,0x00,0x00,0x00,0x00,0x00,0x00,0x00,0x00,0x00,0xd0,0xf2,0xff,0xff,0xd4,0xf2,0xff,0xff,0xd8,0xf2,0xff,0xff,0xdc,0xf2,0xff,0xff,0xe0,0xf2,0xff,0xff,0xaa,0xf3,0xff,0xff,0x04,0x00,0x00,0x00,0x60,0x02,0x00,0x00,0x54,0x1f,0x52,0x1d,0x60,0xe7,0xf9,0x16,0xdd,0xee,0xdd,0xc6,0x90,0xd8,0xbd,0x41,0x56,0xd3,0x18,0x96,0xa7,0xd7,0x4f,0x20,0xf8,0xf9,0xac,0x1e,0xa9,0x23,0xac,0x06,0x33,0x67,0xe6,0xfd,0x3f,0xf7,0xc4,0x9f,0xb1,0xd3,0x24,0xc0,0x47,0xa8,0x9e,0x0b,0x07,0xd3,0xce,0xe2,0x7b,0xcb,0xbc,0x40,0xe6,0x04,0xbf,0x1b,0x0e,0xca,0x3a,0xcc,0x56,0xb7,0x01,0x43,0x3b,0xe6,0x96,0x1d,0xb8,0xa9,0xd1,0x4a,0x47,0xa9,0xfc,0x5a,0x06,0x36,0x52,0x2f,0x02,0x01,0xb7,0xd2,0x0b,0x1f,0x2b,0x3a,0x3e,0x03,0xb1,0x1a,0x03,0xb1,0xb3,0xec,0xbc,0x35,0xd0,0x05,0xfb,0xaa,0xe4,0x39,0x4f,0x2d,0xb9,0xa7,0xd9,0x52,0xa2,0xe8,0x30,0x4a,0x9b,0xe1,0xc6,0xd0,0xd4,0xdb,0x64,0xad,0x54,0x68,0x94,0xca,0x16,0xd9,0x33,0x5d,0xad,0x1c,0x28,0x27,0x44,0x28,0xc3,0xd7,0x46,0x3b,0xfc,0x12,0x0a,0xb4,0xcc,0xd8,0xbb,0x1e,0xf2,0x1d,0xe4,0xf0,0xcd,0xc1,0xa9,0x2a,0x79,0xf6,0xfa,0xbf,0x39,0x66,0xe9,0xfb,0x1b,0x16,0xae,0x2f,0x14,0xe1,0x58,0x59,0xfb,0x64,0xd9,0xab,0xd4,0x48,0xcc,0xbd,0x57,0x9a,0xeb,0x19,0xef,0x01,0xad,0x66,0xf1,0xd0,0x2f,0x29,0xb5,0x5d,0xdf,0x0a,0xd9,0xcb,0x49,0x41,0x81,0x3f,0x4f,0x37,0xe5,0x36,0xf6,0xd0,0xdb,0xf6,0xc0,0xa3,0x16,0x1c,0xab,0xd9,0xdd,0x3f,0x91,0x66,0xf4,0x39,0x95,0x55,0x36,0xcb,0x29,0x37,0x48,0x49,0x68,0x76,0xbb,0x36,0x8f,0x41,0x2d,0xcc,0x9d,0xe3,0xdf,0x1e,0xc8,0xd9,0x0a,0xe8,0x53,0xe1,0x06,0x24,0x35,0x04,0xb9,0x37,0x9d,0x2d,0xe8,0x4e,0xae,0x08,0x28,0xe8,0x49,0xc3,0x64,0xe0,0x52,0xc1,0xb0,0x04,0x31,0x3e,0xcf,0xdd,0xe1,0x2c,0x64,0xfd,0xf8,0x33,0x58,0xe0,0x07,0x57,0x2c,0x27,0xfa,0xcd,0x4d,0xed,0x51,0x56,0xf5,0xf3,0x22,0xd0,0x16,0xe0,0xa8,0x45,0x04,0x72,0x16,0xf4,0x0d,0x2d,0xe9,0xf3,0xc2,0x2f,0x3a,0xee,0xa3,0x30,0xd4,0xe3,0x4e,0xab,0xb5,0xff,0xf0,0xbe,0x18,0x1d,0x31,0xb1,0xa9,0x3f,0x15,0xe9,0xb9,0x39,0x16,0x11,0xdd,0x47,0xa5,0x43,0x01,0x2e,0xd6,0xbb,0x59,0x33,0xbb,0x42,0x4f,0x69,0xc9,0xe6,0xb9,0xb4,0x25,0xac,0x5d,0x95,0xc3,0x59,0x46,0x07,0x73,0x07,0xc5,0xf8,0xd9,0x1a,0x15,0xeb,0xc7,0x40,0x79,0xa7,0xc2,0xa1,0x00,0xc7,0x99,0xa5,0xad,0xe6,0xe9,0xda,0xb0,0xa9,0xb9,0xf2,0x51,0xbc,0xf5,0xa5,0x4e,0xa4,0x45,0xa8,0x21,0x35,0xef,0xcf,0x03,0x9a,0x25,0xa1,0xb2,0xf5,0xa4,0x33,0x43,0x37,0x8a,0xf2,0x9a,0xb5,0x01,0xf7,0x10,0x29,0x06,0x41,0xa8,0x50,0xaa,0x07,0x3b,0xb6,0xd4,0xd0,0x4a,0xfb,0x52,0xcc,0xcb,0x2a,0x5e,0xf5,0x63,0xe9,0xbc,0xc2,0x0b,0x11,0xcc,0x3a,0x43,0x12,0x38,0x27,0xff,0xf5,0xe1,0x61,0x55,0x05,0x12,0xce,0x05,0x1d,0xbe,0x4a,0x9b,0x3d,0xa6,0xfe,0xe7,0x1f,0xfb,0x97,0xf9,0x33,0xe8,0xcb,0x62,0xc0,0xea,0xed,0x9f,0xa1,0x2d,0xcc,0xda,0x97,0x0d,0x0d,0x68,0x4a,0x25,0xec,0x0a,0xb0,0xde,0xb6,0xdb,0xf9,0x49,0x1a,0x23,0x14,0xe7,0x3d,0xe5,0x47,0x13,0x60,0x23,0x9e,0x4d,0xb5,0xbc,0x27,0x49,0x42,0xc2,0xdd,0xec,0x03,0xdd,0xda,0xdd,0xbb,0x14,0xe4,0xc2,0x41,0xbe,0xf4,0xec,0x0a,0x0b,0x47,0x0b,0xfb,0xeb,0x47,0x0c,0x67,0xb8,0xce,0xe5,0xa9,0x1b,0xff,0x50,0x12,0x46,0x9f,0x34,0xa6,0x2a,0x03,0x28,0x4e,0x23,0x0d,0xad,0x2c,0x4f,0xe0,0x02,0x96,0xcd,0xc6,0x33,0x28,0x34,0x65,0x56,0x02,0xe4,0xab,0xd5,0x96,0x3c,0xad,0x2b,0xee,0x37,0x46,0x68,0x2b,0x54,0xcb,0xea,0xaf,0xab,0xd2,0x4a,0xf5,0xdd,0x1b,0x42,0x1a,0xa8,0x6b,0x53,0x29,0x06,0xff,0xd1,0x2f,0x63,0xde,0xf5,0xa2,0xf6,0xa5,0x16,0xf6,0xff,0xff,0x04,0x00,0x00,0x00,0x80,0x00,0x00,0x00,0x8d,0x02,0x00,0x00,0x93,0xff,0xff,0xff,0xe1,0x03,0x00,0x00,0x2a,0x03,0x00,0x00,0x37,0x02,0x00,0x00,0x81,0x00,0x00,0x00,0x64,0x02,0x00,0x00,0x79,0xff,0xff,0xff,0xcf,0x03,0x00,0x00,0x01,0x03,0x00,0x00,0x4e,0x01,0x00,0x00,0x0e,0x03,0x00,0x00,0x7d,0x02,0x00,0x00,0x8e,0xff,0xff,0xff,0x8f,0x01,0x00,0x00,0x12,0xff,0xff,0xff,0xf9,0x01,0x00,0x00,0x84,0xff,0xff,0xff,0x7b,0x00,0x00,0x00,0x41,0x04,0x00,0x00,0x00,0x04,0x00,0x00,0xfc,0x00,0x00,0x00,0x49,0xff,0xff,0xff,0x71,0xff,0xff,0xff,0xf2,0x01,0x00,0x00,0xa1,0x01,0x00,0x00,0xec,0x01,0x00,0x00,0xc0,0xff,0xff,0xff,0xf7,0x01,0x00,0x00,0x9e,0x02,0x00,0x00,0x40,0x01,0x00,0x00,0x30,0x03,0x00,0x00,0xa2,0xf6,0xff,0xff,0x04,0x00,0x00,0x00,0x00,0x04,0x00,0x00,0x47,0xb8,0x04,0x3d,0x52,0x06,0x57,0x4a,0x4a,0x44,0xcc,0xd1,0x42,0xdd,0x47,0xcb,0x4d,0x32,0x00,0x58,0xaf,0x18,0xd7,0x47,0x48,0xef,0xfa,0xe0,0x13,0x3f,0xa4,0xeb,0xab,0xc3,0xdf,0xf0,0x01,0x0b,0x11,0xa9,0xbd,0x21,0xd9,0xf0,0xe9,0xbb,0xb7,0xd4,0x06,0xc0,0xdc,0x1c,0xbb,0x26,0xa2,0xbf,0x50,0xdd,0x36,0xa4,0xf3,0x32,0x23,0xde,0x3a,0x13,0xd8,0xcc,0xec,0x38,0x1c,0x16,0xba,0xb1,0x03,0x10,0xcd,0xe5,0x51,0x2d,0xaf,0x20,0x0b,0xbe,0x0b,0x2d,0x53,0xf2,0xd5,0xca,0x46,0xcb,0xa1,0xbd,0xae,0xac,0x50,0xca,0xd3,0x1b,0xb7,0xc3,0xa6,0xf3,0xa8,0xab,0x12,0xc9,0xb8,0x31,0xa4,0xa6,0xae,0xa5,0xb0,0xd4,0x1a,0x3f,0xbb,0x3f,0xfd,0xe1,0xb0,0xae,0x13,0xb3,0x12,0xeb,0x6b,0x36,0x06,0xf8,0xd6,0x48,0x0f,0xe3,0x2e,0xfc,0x43,0x41,0x63,0x16,0xe0,0xce,0x43,0xe5,0x65,0xb8,0x01,0x4c,0x00,0x60,0x5f,0x4e,0xf3,0x49,0x76,0x33,0x33,0x2e,0xd3,0xa1,0x52,0xc3,0xed,0xe0,0x61,0x5e,0x07,0x00,0xb9,0xe1,0x47,0x5c,0x10,0xd6,0x5b,0x27,0x29,0xc7,0x18,0x29,0x34,0x51,0xe0,0xc9,0xb8,0xab,0xb6,0x3f,0xcf,0xfd,0xf9,0xc1,0x1b,0x19,0xf0,0xf0,0x07,0xf4,0x12,0x37,0x1b,0x36,0xd8,0x0d,0xfa,0xc8,0x50,0x40,0xce,0x50,0xcc,0xc3,0x3c,0xbc,0xc7,0x43,0xb2,0xd8,0x4a,0xd5,0x2c,0x6f,0xeb,0x32,0x7a,0x73,0xed,0x34,0x26,0xcb,0xbe,0xac,0xb3,0x56,0xc1,0x16,0xcf,0x44,0xcb,0x2d,0x33,0x99,0x5a,0xba,0xd0,0x34,0x4c,0x59,0x66,0xc2,0x41,0xe2,0x65,0x00,0x43,0x19,0x50,0x21,0xd7,0xf0,0xec,0xfa,0xea,0x0b,0x20,0xad,0xd6,0xb7,0xc7,0xa3,0xb6,0xae,0xe2,0x26,0x63,0x65,0x5a,0x31,0x46,0xdc,0xf8,0x38,0x0a,0x18,0x60,0x09,0xe7,0xbf,0xdb,0xec,0x47,0xe9,0xf0,0xab,0xf8,0x3c,0x3b,0xbe,0xa3,0xcd,0x38,0xc0,0x49,0x27,0xe0,0x9c,0x24,0xb7,0xc8,0xdd,0x4e,0x00,0x46,0xd8,0x10,0xf8,0x1a,0x18,0x4b,0x48,0xf5,0xee,0x49,0x55,0xd0,0xba,0x10,0x97,0xd3,0x2a,0x13,0x0f,0x1d,0xf3,0x5a,0xee,0xde,0x90,0x64,0x2c,0x21,0x12,0x10,0x11,0xf9,0x2b,0xe0,0xc4,0x3c,0x15,0x58,0x0a,0xb5,0xf4,0xbc,0xd6,0xbb,0x28,0xe5,0xe4,0x26,0x00,0xf8,0x4e,0x02,0xf9,0xdf,0xed,0xf2,0xab,0x32,0x12,0xc6,0x46,0x2b,0x24,0x6b,0xed,0x32,0x10,0x3f,0x1d,0xf2,0x28,0xf7,0x34,0x10,0x21,0xea,0x35,0x27,0x41,0xb8,0xf0,0xac,0xdc,0xc4,0x2d,0xd0,0xfe,0x0d,0x23,0xfd,0xf6,0x1a,0x22,0x0e,0x44,0x41,0xea,0xfe,0xcb,0xb6,0xb4,0xfe,0xee,0x71,0x4e,0xc0,0xf3,0x4b,0xc4,0x2c,0xba,0xda,0x41,0xdb,0xcc,0x62,0xfe,0x35,0x14,0x37,0xde,0x62,0xee,0x04,0xbd,0x70,0xb7,0xfd,0x17,0xcd,0xe6,0x00,0xe4,0xba,0x0b,0xe5,0xda,0x59,0xe8,0xc7,0xb5,0xed,0xa9,0x04,0xc5,0x26,0xd5,0xa0,0xcf,0xae,0x55,0x99,0x06,0x26,0x17,0xea,0x17,0xf2,0x0d,0x21,0xf6,0x4d,0x36,0xa6,0xb6,0x2b,0x42,0x4a,0xcb,0xc4,0xe0,0xe6,0xad,0xd4,0xc1,0xc4,0x2f,0x13,0xe0,0x3c,0xc8,0xf8,0xc2,0x40,0x6c,0x25,0xe7,0xc0,0xb8,0xa3,0xb6,0x1e,0x45,0xe0,0xca,0xd8,0x6a,0x32,0x28,0x73,0x68,0xc7,0xe2,0x09,0xdb,0x23,0xd4,0xa4,0x33,0xd9,0x3b,0x5c,0xdd,0xc5,0xc8,0xc6,0xcc,0x54,0x53,0x0e,0xbd,0xca,0x4b,0x55,0xda,0xc6,0xf0,0x3f,0xf1,0xe6,0x29,0xa6,0xcb,0xe5,0xdc,0xed,0x23,0x0d,0x50,0x99,0x3c,0xf2,0xfb,0x11,0xf8,0x32,0x36,0xc4,0x47,0xf6,0x25,0xdc,0x52,0x49,0x04,0x1d,0x08,0x10,0xa4,0xae,0xa6,0xdb,0xe5,0xed,0x01,0xe7,0x5c,0xef,0x15,0xab,0x1a,0x3d,0xf2,0xc6,0xc3,0x18,0x11,0x13,0x41,0x57,0xc0,0xeb,0xcb,0xc8,0xfa,0x2f,0x0d,0x42,0xe0,0x4e,0x24,0xab,0xc1,0x10,0x00,0xd0,0x4b,0x55,0x1c,0x0b,0xda,0xf3,0x5c,0xa8,0x05,0x02,0xfd,0xda,0xa8,0xc0,0xdd,0x2f,0x35,0xb9,0xf0,0x5e,0xb1,0x5e,0x67,0x69,0x0e,0x59,0x68,0x4e,0xf1,0x56,0x18,0x30,0x36,0x67,0xed,0x4a,0x4a,0x05,0x43,0x47,0xee,0x29,0xa9,0x99,0x2c,0x1d,0xd2,0xc4,0xe9,0x2d,0xed,0x31,0xa7,0xee,0x3d,0x2f,0xc3,0x03,0xbe,0xe3,0x28,0x17,0xe1,0x54,0x2c,0xec,0xc5,0x31,0x41,0x6c,0x74,0x05,0x25,0xd0,0xa8,0x01,0x1b,0xf8,0x36,0xbd,0x08,0xd7,0xe2,0xfe,0xe7,0xb2,0x20,0xb8,0xa6,0x37,0xcc,0x0f,0x3d,0x1b,0x4e,0xbf,0x32,0xe2,0xb3,0x2f,0x4d,0x18,0xf5,0x66,0xc6,0x43,0x0c,0x4d,0xd9,0x46,0xd7,0xcc,0x3f,0xa1,0x10,0xc6,0x30,0x3a,0x3d,0xc4,0x04,0xd1,0x01,0xc1,0xef,0xec,0xcf,0x43,0x65,0x5b,0x31,0xe5,0xb0,0x49,0xbe,0xa4,0xcf,0xbd,0xf6,0x60,0x2e,0x47,0x6a,0x0c,0x17,0x4e,0x2b,0x3c,0xf7,0x13,0xf5,0x03,0x20,0x1e,0x03,0x62,0x2a,0xd8,0x00,0xb2,0xf6,0x5c,0x63,0xc1,0xf6,0x1b,0xe6,0x5d,0x06,0x47,0xdc,0xb7,0x37,0x26,0x20,0xc6,0x68,0x3a,0x05,0x14,0x28,0xf0,0xdb,0xe4,0xf8,0xe4,0x5f,0xe0,0x40,0x71,0xab,0x33,0x15,0x3b,0xcc,0xc7,0x1d,0x66,0x24,0x45,0xda,0xbb,0x57,0xb8,0xc7,0x31,0x99,0xad,0x3a,0x31,0x45,0xe7,0x4c,0x1f,0xe5,0x0d,0x3d,0x05,0x6a,0x26,0x23,0xf1,0xd3,0xc7,0xd6,0x2c,0x3e,0x15,0x7f,0xd1,0x39,0x24,0xe0,0x41,0xd0,0xbc,0xfe,0x3d,0x31,0xbd,0x5a,0xcd,0xc8,0xe8,0x4d,0x15,0xbe,0xfb,0xda,0x01,0x5b,0xb7,0x0c,0xbc,0xba,0xc0,0xf7,0xab,0xf8,0xa1,0x14,0xa8,0x0f,0x45,0x44,0xb3,0xcd,0x9e,0xc4,0xd1,0xe0,0x57,0x42,0xdd,0x56,0x99,0x09,0xb5,0xb9,0x1d,0x03,0x08,0xfa,0xc4,0xb0,0x6c,0x2c,0xf4,0xb4,0xf9,0x12,0x24,0xb7,0x10,0x53,0xdd,0xad,0x6b,0x13,0x07,0x76,0xc9,0xca,0xe2,0xd7,0xed,0xfd,0x35,0xd8,0xbc,0x11,0xd3,0xe8,0x19,0x53,0xe4,0x6e,0x4b,0x3a,0xdd,0xbd,0xea,0x1e,0xea,0xd7,0x10,0xcc,0x43,0xfc,0x05,0x11,0x54,0xda,0x1d,0x41,0x12,0xac,0xfd,0x18,0xe7,0xda,0x17,0xed,0xc1,0x5f,0x69,0xf7,0xf7,0x10,0xf8,0xb3,0xfe,0xca,0x00,0xff,0xb9,0x4e,0x47,0xe0,0x0d,0xce,0xfe,0xd4,0x07,0x33,0xfe,0xf8,0xdc,0x05,0x33,0x43,0xb0,0x3f,0xea,0xb4,0x19,0xcf,0xa0,0x53,0xf8,0xd9,0xbd,0x3e,0x34,0x2d,0xba,0x10,0xa9,0x19,0x0b,0x27,0xa9,0x62,0xdf,0x24,0xea,0xaf,0xff,0xaf,0x2b,0x8f,0x74,0x68,0x3b,0x31,0xc6,0x59,0x4f,0x14,0x5a,0x4d,0xc4,0x05,0xae,0xfa,0xff,0xff,0x04,0x00,0x00,0x00,0x80,0x00,0x00,0x00,0x9f,0x03,0x00,0x00,0x00,0x00,0x00,0x00,0x85,0xfe,0xff,0xff,0x00,0x00,0x00,0x00,0x28,0x05,0x00,0x00,0xd6,0x00,0x00,0x00,0xb8,0x00,0x00,0x00,0x15,0x04,0x00,0x00,0x96,0xfe,0xff,0xff,0x0f,0xfd,0xff,0xff,0xe2,0x02,0x00,0x00,0xf9,0x03,0x00,0x00,0x59,0xfe,0xff,0xff,0x1e,0x04,0x00,0x00,0x79,0xfd,0xff,0xff,0xf6,0x02,0x00,0x00,0x37,0x06,0x00,0x00,0x9a,0x00,0x00,0x00,0x9a,0xfe,0xff,0xff,0xbb,0x03,0x00,0x00,0x37,0x04,0x00,0x00,0xa3,0x04,0x00,0x00,0xdc,0x02,0x00,0x00,0x6d,0x03,0x00,0x00,0x47,0x04,0x00,0x00,0x6e,0x02,0x00,0x00,0x97,0x07,0x00,0x00,0x27,0xfe,0xff,0xff,0x02,0x04,0x00,0x00,0xc8,0x00,0x00,0x00,0xe9,0xff,0xff,0xff,0xcf,0x00,0x00,0x00,0x3a,0xfb,0xff,0xff,0x04,0x00,0x00,0x00,0x00,0x04,0x00,0x00,0xfb,0xa8,0x3c,0xe4,0xe3,0xaa,0x0a,0x3b,0x05,0x1d,0xd7,0xcb,0x4f,0xac,0xde,0x4e,0x25,0xe3,0xe1,0x44,0x20,0x63,0xe6,0xbe,0x43,0x31,0x29,0x0a,0x4c,0xf6,0xcf,0x0f,0xdc,0xb0,0x15,0x54,0xc0,0x49,0x0f,0x48,0x18,0xb0,0x14,0x09,0x4b,0x0f,0xd7,0xb3,0x32,0xcc,0x4b,0xd2,0xf5,0xb0,0xc6,0x0d,0x13,0x48,0xcd,0x58,0x44,0xf1,0x1a,0x6d,0xd4,0x21,0xa8,0x4a,0x3c,0x52,0xcd,0xe2,0xae,0x07,0xa1,0xf0,0x40,0x0f,0xcd,0x05,0x3a,0x17,0xe7,0xc4,0xd1,0x2e,0xd6,0x57,0xfc,0x4a,0x50,0xbb,0x0c,0xdd,0x3e,0xbb,0xff,0x30,0x1f,0xb7,0xd9,0xeb,0x0e,0x09,0xe0,0x00,0xd5,0xc8,0xaf,0x49,0x5b,0x48,0xe4,0xde,0x06,0xcc,0x46,0xf4,0x1c,0x0b,0xa4,0x50,0xec,0xf9,0xa7,0xff,0xb3,0x20,0xf4,0xff,0x44,0xc7,0x3e,0x0a,0xf5,0xb6,0xf0,0x1f,0xb1,0x19,0x3c,0xe5,0x28,0xcb,0x40,0xf6,0x20,0xdc,0x3c,0x13,0x49,0xb8,0xe9,0xd1,0x7f,0xc0,0x2a,0x15,0x08,0x03,0xaa,0xac,0xb8,0xe5,0x56,0xd6,0xb5,0x23,0xdd,0x27,0x4b,0x45,0xfb,0xff,0x31,0x1b,0x4f,0xf8,0x3f,0x5f,0xb9,0x3c,0x05,0xe1,0xf5,0xbc,0xf3,0xb5,0x34,0xb4,0xbc,0x2d,0xdf,0xab,0xb9,0xfd,0x4a,0xd8,0x1e,0x55,0x20,0x18,0xd2,0x0a,0x5d,0x21,0x4f,0xe9,0x21,0x53,0xbe,0x5c,0xdc,0x11,0x10,0xf2,0xa0,0xfb,0xdd,0xdb,0xe6,0xec,0x49,0x15,0x58,0x03,0x58,0x10,0xf0,0x16,0xc8,0xb0,0xf3,0xb2,0xee,0x5b,0xd5,0xb9,0xb2,0x15,0xa2,0xb8,0x36,0xcf,0xdf,0x2a,0x11,0xbe,0x50,0xf9,0x24,0x22,0x50,0xdf,0xde,0x25,0x3f,0x4e,0x0c,0x0a,0xb8,0x3f,0x1c,0x03,0x0c,0x36,0xd9,0xd9,0x0a,0x39,0x08,0x5d,0xec,0x53,0xbf,0x25,0xba,0xf6,0xc1,0x26,0xf1,0x3b,0x25,0xbd,0x2a,0x39,0xfe,0xe7,0x35,0x0f,0xf9,0xe3,0x3e,0xc0,0x44,0xe8,0xf3,0xc0,0xec,0x14,0xbe,0xfe,0x2e,0x12,0x27,0x3b,0xd4,0x0d,0x37,0x5e,0x16,0xdc,0x52,0xd3,0x70,0xd1,0x32,0xc5,0x4f,0xa9,0x5b,0xb2,0x33,0x48,0x30,0xf0,0xf9,0xf0,0xac,0xf7,0xe9,0xac,0x33,0x09,0x25,0xce,0xac,0xa7,0x1b,0x31,0xc6,0x1b,0x1b,0x16,0x18,0x45,0xed,0x24,0x50,0xf5,0xeb,0x36,0x30,0x30,0x49,0xd6,0x62,0xe4,0xfc,0xc5,0xda,0xb2,0xe7,0x1c,0xca,0x22,0xc8,0x5f,0xc9,0xee,0xd9,0xe0,0x50,0x28,0x38,0xd3,0x6a,0x47,0xf0,0xc6,0x54,0x15,0x30,0xbf,0xc1,0x11,0xcd,0xbd,0x1c,0x14,0xe4,0xdf,0x1e,0x40,0x34,0xdc,0x57,0x5e,0xeb,0x3b,0x52,0xbe,0x03,0x19,0xc0,0xb9,0xc1,0x08,0x2a,0xf5,0x07,0xf2,0x15,0x1c,0x19,0x11,0x02,0xc9,0xf8,0x10,0xec,0x26,0xf0,0x10,0x17,0xea,0x71,0xea,0x10,0x20,0xeb,0xaf,0x5d,0xbd,0x17,0xfa,0x45,0x30,0xc2,0x36,0x31,0xff,0xaf,0x31,0xd8,0x56,0xac,0x11,0x66,0x37,0xf5,0x35,0x2a,0x4b,0x63,0x27,0xdc,0xd7,0xf9,0xaf,0x15,0xc4,0xa3,0xbb,0xe4,0xd2,0x1d,0x11,0x4f,0x3e,0xbd,0xdc,0xe0,0x42,0x6e,0x49,0x4e,0x0d,0x1f,0xf1,0xda,0x18,0x48,0x23,0xd3,0xa4,0xd1,0xde,0xd1,0x17,0xed,0x11,0x4f,0x25,0x39,0xd7,0xcd,0xdc,0xf7,0xae,0x4a,0xfe,0xed,0xca,0x29,0x2d,0xe6,0xe4,0x41,0xe1,0x44,0xf2,0x32,0x3a,0x18,0xdd,0xdc,0x1f,0xd9,0x9d,0xf5,0xee,0x3f,0x37,0xe6,0x35,0xb5,0x63,0xce,0x30,0xcd,0x4e,0x66,0x25,0x49,0x45,0xf3,0x1d,0x3b,0x04,0xda,0xc9,0x4d,0xd1,0x02,0xeb,0x37,0x22,0x19,0x1d,0x55,0x1b,0x02,0x4f,0xb5,0x5f,0x08,0xb8,0x50,0xc1,0x1d,0xe5,0xd6,0xde,0x20,0x1e,0x51,0xc3,0xcd,0xdf,0xda,0xfd,0x54,0x0a,0x4a,0xb5,0x3e,0x50,0x1f,0xda,0x25,0x3e,0xca,0xff,0xab,0x4c,0x16,0x4a,0xb1,0xb3,0x4b,0x57,0xc4,0x40,0xd3,0xd5,0x52,0x0b,0x36,0x45,0x1f,0x32,0xeb,0xfa,0x4f,0xf8,0xbc,0xfa,0x06,0x48,0x13,0xbf,0xe5,0x2b,0x22,0x48,0xf2,0xef,0xaf,0xda,0x49,0xb4,0x1e,0x4f,0x29,0xed,0xf7,0xa2,0x23,0xd4,0xf0,0x14,0xbc,0xee,0x48,0xe0,0x2a,0xcd,0x2a,0xf4,0xbf,0x52,0x36,0x2f,0x09,0x48,0xdc,0x3d,0xd5,0xb8,0xe1,0x32,0xc6,0x54,0xc2,0x4e,0x5c,0x0f,0x45,0x64,0xd5,0x0d,0xf9,0x62,0xc2,0x00,0x17,0xeb,0xb1,0x61,0xff,0xe6,0xbe,0x07,0xb1,0xe4,0xed,0x47,0xcb,0x62,0x44,0xfe,0x29,0xc9,0xdc,0xe9,0xc8,0xea,0x48,0x02,0x3f,0x43,0x30,0xf8,0x42,0x0d,0xa7,0x5d,0x9c,0xd5,0xa5,0x00,0xae,0x21,0x47,0x12,0x20,0xdb,0xfd,0x2a,0x39,0xf2,0xca,0xe6,0x1a,0xcf,0x32,0x49,0xb2,0xf6,0xc2,0xd2,0xbf,0x22,0x0e,0x69,0xe0,0x4c,0x26,0x0e,0x7a,0x18,0xf7,0xeb,0x37,0xcb,0x0d,0xc5,0xd7,0x3a,0x40,0xa9,0xda,0x51,0xaf,0xd4,0xce,0x02,0xdd,0xdb,0x08,0x03,0x0b,0x2b,0x28,0x2f,0xc0,0xac,0xf4,0x2b,0x23,0xad,0x3a,0x39,0x25,0xb0,0xf3,0xc3,0x5e,0xa9,0xae,0xd8,0x4f,0x53,0xdb,0xe6,0xaa,0xc2,0xba,0xbc,0x26,0xa4,0x07,0x18,0xcc,0x3c,0x20,0x54,0x05,0x70,0xd6,0x1a,0x6a,0x72,0x79,0x25,0x17,0x26,0x28,0x17,0xdb,0x4b,0xb7,0xd4,0x37,0x4d,0x42,0xc6,0xc8,0xd1,0xe1,0xd8,0x26,0xdf,0x3e,0xc6,0x00,0x19,0x0f,0x50,0xe8,0x60,0x5d,0xcf,0xd2,0x4e,0xe6,0xcb,0x64,0xdd,0xb8,0xd5,0xac,0xd5,0x0b,0xc7,0x57,0x54,0xf8,0x62,0x41,0x17,0x07,0x62,0x40,0xd3,0xe4,0xda,0x60,0xb8,0xac,0x06,0x03,0xcd,0xae,0x3b,0xe2,0xf2,0xb5,0x2c,0x39,0x21,0xe1,0xf3,0x1e,0xc0,0x36,0x02,0x16,0x14,0x44,0x05,0xb4,0xce,0x2b,0x3d,0x1b,0xb2,0x3e,0xd7,0x22,0xc8,0xda,0xd3,0x32,0x52,0x3f,0xc9,0x5c,0xe1,0x56,0x2e,0xbe,0x2a,0x22,0x34,0xbb,0xfc,0xfe,0x3b,0x31,0xfb,0x1e,0x2a,0x18,0xa8,0x57,0x11,0xea,0x30,0x13,0x28,0xf3,0x44,0x52,0x55,0x4b,0xb8,0x24,0x4e,0xaa,0xb8,0xd5,0xd9,0x41,0xe3,0x03,0x53,0x1f,0x1d,0xb7,0xc3,0x60,0xc2,0xb7,0x51,0x29,0xd4,0x32,0xf7,0xda,0x20,0xff,0x54,0x69,0xff,0xd1,0xcc,0x04,0x9f,0xa7,0x24,0x3c,0xb4,0x28,0xcb,0xb2,0x44,0xdb,0x5d,0xd7,0x17,0xc6,0xec,0xba,0x05,0x41,0xdf,0x3a,0x1c,0x10,0xcf,0x30,0x2a,0xc0,0xff,0x16,0xb8,0x02,0xbb,0xc2,0xc9,0xdb,0xe2,0xb1,0x34,0x45,0x2c,0xe3,0x2c,0x29,0xcc,0xef,0x23,0x2d,0xe3,0x08,0x12,0xbb,0xc1,0x0b,0x00,0xc6,0x1a,0xd4,0x20,0x49,0x3b,0x04,0x42,0x09,0xd5,0xb9,0x18,0x4b,0xf2,0x1f,0xbf,0xf3,0xfa,0x3e,0xb9,0x40,0xbd,0x46,0xff,0xff,0xff,0x04,0x00,0x00,0x00,0x80,0x00,0x00,0x00,0x7e,0x00,0x00,0x00,0xcf,0x02,0x00,0x00,0x24,0x00,0x00,0x00,0xe6,0x01,0x00,0x00,0xa8,0x04,0x00,0x00,0x31,0x02,0x00,0x00,0x2a,0x02,0x00,0x00,0x85,0xff,0xff,0xff,0x18,0x00,0x00,0x00,0xde,0x04,0x00,0x00,0x1c,0x02,0x00,0x00,0xb7,0x02,0x00,0x00,0x7c,0x00,0x00,0x00,0x92,0x01,0x00,0x00,0x99,0x01,0x00,0x00,0xdb,0xfd,0xff,0xff,0xbc,0x03,0x00,0x00,0x54,0x03,0x00,0x00,0x83,0x01,0x00,0x00,0xcd,0xfe,0xff,0xff,0x67,0x02,0x00,0x00,0xd0,0x02,0x00,0x00,0xe8,0x00,0x00,0x00,0x5d,0xfe,0xff,0xff,0xb7,0x02,0x00,0x00,0xcc,0x05,0x00,0x00,0xa0,0x01,0x00,0x00,0xa7,0xff,0xff,0xff,0x83,0x00,0x00,0x00,0x3d,0x01,0x00,0x00,0xd7,0xff,0xff,0xff,0x62,0xfe,0xff,0xff,0xd2,0xff,0xff,0xff,0x04,0x00,0x00,0x00,0x20,0x00,0x00,0x00,0x53,0xdd,0x3f,0xb2,0x7f,0xb0,0xa1,0x08,0x3b,0x63,0x16,0x78,0x91,0xc8,0x44,0xb1,0x53,0x52,0x4b,0x55,0x97,0xbb,0x60,0xcb,0x0f,0x3b,0xdd,0x54,0xaf,0xcf,0xd7,0xb2,0x00,0x00,0x06,0x00,0x08,0x00,0x04,0x00,0x06,0x00,0x00,0x00,0x04,0x00,0x00,0x00,0x04,0x00,0x00,0x00,0xac,0x00,0x00,0x00,0x50,0xff,0xff,0xff,0x54,0xff,0xff,0xff,0x0f,0x00,0x00,0x00,0x4d,0x4c,0x49,0x52,0x20,0x43,0x6f,0x6e,0x76,0x65,0x72,0x74,0x65,0x64,0x2e,0x00,0x01,0x00,0x00,0x00,0x14,0x00,0x00,0x00,0x00,0x00,0x0e,0x00,0x18,0x00,0x14,0x00,0x10,0x00,0x0c,0x00,0x08,0x00,0x04,0x00,0x0e,0x00,0x00,0x00,0x14,0x00,0x00,0x00,0x1c,0x00,0x00,0x00,0x44,0x01,0x00,0x00,0x48,0x01,0x00,0x00,0x4c,0x01,0x00,0x00,0x04,0x00,0x00,0x00,0x6d,0x61,0x69,0x6e,0x00,0x00,0x00,0x00,0x05,0x00,0x00,0x00,0xec,0x00,0x00,0x00,0xa4,0x00,0x00,0x00,0x6c,0x00,0x00,0x00,0x34,0x00,0x00,0x00,0x10,0x00,0x00,0x00,0x00,0x00,0x0a,0x00,0x10,0x00,0x0c,0x00,0x08,0x00,0x04,0x00,0x0a,0x00,0x00,0x00,0x0c,0x00,0x00,0x00,0x10,0x00,0x00,0x00,0x01,0x00,0x00,0x00,0x01,0x00,0x00,0x00,0x0d,0x00,0x00,0x00,0x01,0x00,0x00,0x00,0x0c,0x00,0x00,0x00,0x62,0xff,0xff,0xff,0x14,0x00,0x00,0x00,0x00,0x00,0x00,0x08,0x10,0x00,0x00,0x00,0x14,0x00,0x00,0x00,0x04,0x00,0x04,0x00,0x04,0x00,0x00,0x00,0x01,0x00,0x00,0x00,0x0c,0x00,0x00,0x00,0x03,0x00,0x00,0x00,0x0b,0x00,0x00,0x00,0x02,0x00,0x00,0x00,0x01,0x00,0x00,0x00,0x96,0xff,0xff,0xff,0x10,0x00,0x00,0x00,0x00,0x00,0x00,0x08,0x10,0x00,0x00,0x00,0x14,0x00,0x00,0x00,0x86,0xff,0xff,0xff,0x00,0x00,0x00,0x01,0x01,0x00,0x00,0x00,0x0b,0x00,0x00,0x00,0x03,0x00,0x00,0x00,0x0a,0x00,0x00,0x00,0x04,0x00,0x00,0x00,0x03,0x00,0x00,0x00,0xca,0xff,0xff,0xff,0x10,0x00,0x00,0x00,0x00,0x00,0x00,0x08,0x10,0x00,0x00,0x00,0x14,0x00,0x00,0x00,0xba,0xff,0xff,0xff,0x00,0x00,0x00,0x01,0x01,0x00,0x00,0x00,0x0a,0x00,0x00,0x00,0x03,0x00,0x00,0x00,0x09,0x00,0x00,0x00,0x06,0x00,0x00,0x00,0x05,0x00,0x00,0x00,0x00,0x00,0x0e,0x00,0x16,0x00,0x00,0x00,0x10,0x00,0x0c,0x00,0x0b,0x00,0x04,0x00,0x0e,0x00,0x00,0x00,0x18,0x00,0x00,0x00,0x00,0x00,0x00,0x08,0x18,0x00,0x00,0x00,0x1c,0x00,0x00,0x00,0x00,0x00,0x06,0x00,0x08,0x00,0x07,0x00,0x06,0x00,0x00,0x00,0x00,0x00,0x00,0x01,0x01,0x00,0x00,0x00,0x09,0x00,0x00,0x00,0x03,0x00,0x00,0x00,0x00,0x00,0x00,0x00,0x08,0x00,0x00,0x00,0x07,0x00,0x00,0x00,0x01,0x00,0x00,0x00,0x0d,0x00,0x00,0x00,0x01,0x00,0x00,0x00,0x00,0x00,0x00,0x00,0x0e,0x00,0x00,0x00,0xbc,0x06,0x00,0x00,0x44,0x06,0x00,0x00,0xc8,0x05,0x00,0x00,0x64,0x05,0x00,0x00,0x00,0x05,0x00,0x00,0x9c,0x04,0x00,0x00,0x38,0x04,0x00,0x00,0xd4,0x03,0x00,0x00,0x70,0x03,0x00,0x00,0xac,0x02,0x00,0x00,0xe8,0x01,0x00,0x00,0x24,0x01,0x00,0x00,0x80,0x00,0x00,0x00,0x04,0x00,0x00,0x00,0x92,0xf9,0xff,0xff,0x00,0x00,0x00,0x01,0x18,0x00,0x00,0x00,0x20,0x00,0x00,0x00,0x3c,0x00,0x00,0x00,0x0e,0x00,0x00,0x00,0x00,0x00,0x00,0x09,0x50,0x00,0x00,0x00,0x02,0x00,0x00,0x00,0xff,0xff,0xff,0xff,0x01,0x00,0x00,0x00,0x7c,0xf9,0xff,0xff,0x08,0x00,0x00,0x00,0x10,0x00,0x00,0x00,0x01,0x00,0x00,0x00,0x80,0xff,0xff,0xff,0xff,0xff,0xff,0xff,0x01,0x00,0x00,0x00,0x00,0x00,0x80,0x3b,0x1b,0x00,0x00,0x00,0x53,0x74,0x61,0x74,0x65,0x66,0x75,0x6c,0x50,0x61,0x72,0x74,0x69,0x74,0x69,0x6f,0x6e,0x65,0x64,0x43,0x61,0x6c,0x6c,0x5f,0x31,0x3a,0x30,0x00,0x02,0x00,0x00,0x00,0x01,0x00,0x00,0x00,0x01,0x00,0x00,0x00,0x0a,0xfa,0xff,0xff,0x00,0x00,0x00,0x01,0x18,0x00,0x00,0x00,0x20,0x00,0x00,0x00,0x40,0x00,0x00,0x00,0x0d,0x00,0x00,0x00,0x00,0x00,0x00,0x09,0x78,0x00,0x00,0x00,0x02,0x00,0x00,0x00,0xff,0xff,0xff,0xff,0x01,0x00,0x00,0x00,0xf4,0xf9,0xff,0xff,0x08,0x00,0x00,0x00,0x14,0x00,0x00,0x00,0x01,0x00,0x00,0x00,0xed,0xff,0xff,0xff,0xff,0xff,0xff,0xff,0x00,0x00,0x00,0x00,0x01,0x00,0x00,0x00,0x34,0x2c,0xe6,0x3d,0x3e,0x00,0x00,0x00,0x73,0x65,0x71,0x75,0x65,0x6e,0x74,0x69,0x61,0x6c,0x5f,0x33,0x5f,0x31,0x2f,0x64,0x65,0x6e,0x73,0x65,0x5f,0x31,0x30,0x5f,0x31,0x2f,0x4d,0x61,0x74,0x4d,0x75,0x6c,0x3b,0x73,0x65,0x71,0x75,0x65,0x6e,0x74,0x69,0x61,0x6c,0x5f,0x33,0x5f,0x31,0x2f,0x64,0x65,0x6e,0x73,0x65,0x5f,0x31,0x30,0x5f,0x31,0x2f,0x41,0x64,0x64,0x00,0x00,0x02,0x00,0x00,0x00,0x01,0x00,0x00,0x00,0x01,0x00,0x00,0x00,0xaa,0xfa,0xff,0xff,0x00,0x00,0x00,0x01,0x18,0x00,0x00,0x00,0x20,0x00,0x00,0x00,0x40,0x00,0x00,0x00,0x0c,0x00,0x00,0x00,0x00,0x00,0x00,0x09,0x98,0x00,0x00,0x00,0x02,0x00,0x00,0x00,0xff,0xff,0xff,0xff,0x20,0x00,0x00,0x00,0x94,0xfa,0xff,0xff,0x08,0x00,0x00,0x00,0x14,0x00,0x00,0x00,0x01,0x00,0x00,0x00,0x80,0xff,0xff,0xff,0xff,0xff,0xff,0xff,0x00,0x00,0x00,0x00,0x01,0x00,0x00,0x00,0x93,0x54,0xf4,0x3c,0x5e,0x00,0x00,0x00,0x73,0x65,0x71,0x75,0x65,0x6e,0x74,0x69,0x61,0x6c,0x5f,0x33,0x5f,0x31,0x2f,0x64,0x65,0x6e,0x73,0x65,0x5f,0x39,0x5f,0x31,0x2f,0x4d,0x61,0x74,0x4d,0x75,0x6c,0x3b,0x73,0x65,0x71,0x75,0x65,0x6e,0x74,0x69,0x61,0x6c,0x5f,0x33,0x5f,0x31,0x2f,0x64,0x65,0x6e,0x73,0x65,0x5f,0x39,0x5f,0x31,0x2f,0x52,0x65,0x6c,0x75,0x3b,0x73,0x65,0x71,0x75,0x65,0x6e,0x74,0x69,0x61,0x6c,0x5f,0x33,0x5f,0x31,0x2f,0x64,0x65,0x6e,0x73,0x65,0x5f,0x39,0x5f,0x31,0x2f,0x42,0x69,0x61,0x73,0x41,0x64,0x64,0x00,0x00,0x02,0x00,0x00,0x00,0x01,0x00,0x00,0x00,0x20,0x00,0x00,0x00,0x6a,0xfb,0xff,0xff,0x00,0x00,0x00,0x01,0x18,0x00,0x00,0x00,0x20,0x00,0x00,0x00,0x40,0x00,0x00,0x00,0x0b,0x00,0x00,0x00,0x00,0x00,0x00,0x09,0x98,0x00,0x00,0x00,0x02,0x00,0x00,0x00,0xff,0xff,0xff,0xff,0x20,0x00,0x00,0x00,0x54,0xfb,0xff,0xff,0x08,0x00,0x00,0x00,0x14,0x00,0x00,0x00,0x01,0x00,0x00,0x00,0x80,0xff,0xff,0xff,0xff,0xff,0xff,0xff,0x00,0x00,0x00,0x00,0x01,0x00,0x00,0x00,0x48,0x3d,0xb3,0x3c,0x5e,0x00,0x00,0x00,0x73,0x65,0x71,0x75,0x65,0x6e,0x74,0x69,0x61,0x6c,0x5f,0x33,0x5f,0x31,0x2f,0x64,0x65,0x6e,0x73,0x65,0x5f,0x38,0x5f,0x31,0x2f,0x4d,0x61,0x74,0x4d,0x75,0x6c,0x3b,0x73,0x65,0x71,0x75,0x65,0x6e,0x74,0x69,0x61,0x6c,0x5f,0x33,0x5f,0x31,0x2f,0x64,0x65,0x6e,0x73,0x65,0x5f,0x38,0x5f,0x31,0x2f,0x52,0x65,0x6c,0x75,0x3b,0x73,0x65,0x71,0x75,0x65,0x6e,0x74,0x69,0x61,0x6c,0x5f,0x33,0x5f,0x31,0x2f,0x64,0x65,0x6e,0x73,0x65,0x5f,0x38,0x5f,0x31,0x2f,0x42,0x69,0x61,0x73,0x41,0x64,0x64,0x00,0x00,0x02,0x00,0x00,0x00,0x01,0x00,0x00,0x00,0x20,0x00,0x00,0x00,0x2a,0xfc,0xff,0xff,0x00,0x00,0x00,0x01,0x18,0x00,0x00,0x00,0x20,0x00,0x00,0x00,0x40,0x00,0x00,0x00,0x0a,0x00,0x00,0x00,0x00,0x00,0x00,0x09,0x98,0x00,0x00,0x00,0x02,0x00,0x00,0x00,0xff,0xff,0xff,0xff,0x20,0x00,0x00,0x00,0x14,0xfc,0xff,0xff,0x08,0x00,0x00,0x00,0x14,0x00,0x00,0x00,0x01,0x00,0x00,0x00,0x80,0xff,0xff,0xff,0xff,0xff,0xff,0xff,0x00,0x00,0x00,0x00,0x01,0x00,0x00,0x00,0x7b,0x73,0x96,0x3c,0x5e,0x00,0x00,0x00,0x73,0x65,0x71,0x75,0x65,0x6e,0x74,0x69,0x61,0x6c,0x5f,0x33,0x5f,0x31,0x2f,0x64,0x65,0x6e,0x73,0x65,0x5f,0x37,0x5f,0x31,0x2f,0x4d,0x61,0x74,0x4d,0x75,0x6c,0x3b,0x73,0x65,0x71,0x75,0x65,0x6e,0x74,0x69,0x61,0x6c,0x5f,0x33,0x5f,0x31,0x2f,0x64,0x65,0x6e,0x73,0x65,0x5f,0x37,0x5f,0x31,0x2f,0x52,0x65,0x6c,0x75,0x3b,0x73,0x65,0x71,0x75,0x65,0x6e,0x74,0x69,0x61,0x6c,0x5f,0x33,0x5f,0x31,0x2f,0x64,0x65,0x6e,0x73,0x65,0x5f,0x37,0x5f,0x31,0x2f,0x42,0x69,0x61,0x73,0x41,0x64,0x64,0x00,0x00,0x02,0x00,0x00,0x00,0x01,0x00,0x00,0x00,0x20,0x00,0x00,0x00,0x5e,0xfd,0xff,0xff,0x00,0x00,0x00,0x01,0x14,0x00,0x00,0x00,0x30,0x00,0x00,0x00,0x09,0x00,0x00,0x00,0x00,0x00,0x00,0x09,0x3c,0x00,0x00,0x00,0xc4,0xfc,0xff,0xff,0x08,0x00,0x00,0x00,0x10,0x00,0x00,0x00,0x01,0x00,0x00,0x00,0x00,0x00,0x00,0x00,0x00,0x00,0x00,0x00,0x01,0x00,0x00,0x00,0xd0,0x21,0x63,0x3b,0x12,0x00,0x00,0x00,0x74,0x66,0x6c,0x2e,0x70,0x73,0x65,0x75,0x64,0x6f,0x5f,0x71,0x63,0x6f,0x6e,0x73,0x74,0x37,0x00,0x00,0x02,0x00,0x00,0x00,0x20,0x00,0x00,0x00,0x13,0x00,0x00,0x00,0xbe,0xfd,0xff,0xff,0x00,0x00,0x00,0x01,0x14,0x00,0x00,0x00,0x34,0x00,0x00,0x00,0x08,0x00,0x00,0x00,0x00,0x00,0x00,0x02,0x40,0x00,0x00,0x00,0x24,0xfd,0xff,0xff,0x08,0x00,0x00,0x00,0x14,0x00,0x00,0x00,0x01,0x00,0x00,0x00,0x00,0x00,0x00,0x00,0x00,0x00,0x00,0x00,0x00,0x00,0x00,0x00,0x01,0x00,0x00,0x00,0x25,0xff,0xd3,0x38,0x12,0x00,0x00,0x00,0x74,0x66,0x6c,0x2e,0x70,0x73,0x65,0x75,0x64,0x6f,0x5f,0x71,0x63,0x6f,0x6e,0x73,0x74,0x36,0x00,0x00,0x01,0x00,0x00,0x00,0x20,0x00,0x00,0x00,0x1e,0xfe,0xff,0xff,0x00,0x00,0x00,0x01,0x14,0x00,0x00,0x00,0x30,0x00,0x00,0x00,0x07,0x00,0x00,0x00,0x00,0x00,0x00,0x09,0x3c,0x00,0x00,0x00,0x84,0xfd,0xff,0xff,0x08,0x00,0x00,0x00,0x10,0x00,0x00,0x00,0x01,0x00,0x00,0x00,0x00,0x00,0x00,0x00,0x00,0x00,0x00,0x00,0x01,0x00,0x00,0x00,0xaf,0x10,0x4e,0x3b,0x12,0x00,0x00,0x00,0x74,0x66,0x6c,0x2e,0x70,0x73,0x65,0x75,0x64,0x6f,0x5f,0x71,0x63,0x6f,0x6e,0x73,0x74,0x35,0x00,0x00,0x02,0x00,0x00,0x00,0x20,0x00,0x00,0x00,0x20,0x00,0x00,0x00,0x7e,0xfe,0xff,0xff,0x00,0x00,0x00,0x01,0x14,0x00,0x00,0x00,0x34,0x00,0x00,0x00,0x06,0x00,0x00,0x00,0x00,0x00,0x00,0x02,0x40,0x00,0x00,0x00,0xe4,0xfd,0xff,0xff,0x08,0x00,0x00,0x00,0x14,0x00,0x00,0x00,0x01,0x00,0x00,0x00,0x00,0x00,0x00,0x00,0x00,0x00,0x00,0x00,0x00,0x00,0x00,0x00,0x01,0x00,0x00,0x00,0x76,0x35,0x72,0x38,0x12,0x00,0x00,0x00,0x74,0x66,0x6c,0x2e,0x70,0x73,0x65,0x75,0x64,0x6f,0x5f,0x71,0x63,0x6f,0x6e,0x73,0x74,0x34,0x00,0x00,0x01,0x00,0x00,0x00,0x20,0x00,0x00,0x00,0xde,0xfe,0xff,0xff,0x00,0x00,0x00,0x01,0x14,0x00,0x00,0x00,0x30,0x00,0x00,0x00,0x05,0x00,0x00,0x00,0x00,0x00,0x00,0x09,0x3c,0x00,0x00,0x00,0x44,0xfe,0xff,0xff,0x08,0x00,0x00,0x00,0x10,0x00,0x00,0x00,0x01,0x00,0x00,0x00,0x00,0x00,0x00,0x00,0x00,0x00,0x00,0x00,0x01,0x00,0x00,0x00,0x57,0x54,0x61,0x3b,0x12,0x00,0x00,0x00,0x74,0x66,0x6c,0x2e,0x70,0x73,0x65,0x75,0x64,0x6f,0x5f,0x71,0x63,0x6f,0x6e,0x73,0x74,0x33,0x00,0x00,0x02,0x00,0x00,0x00,0x20,0x00,0x00,0x00,0x20,0x00,0x00,0x00,0x3e,0xff,0xff,0xff,0x00,0x00,0x00,0x01,0x14,0x00,0x00,0x00,0x34,0x00,0x00,0x00,0x04,0x00,0x00,0x00,0x00,0x00,0x00,0x02,0x40,0x00,0x00,0x00,0xa4,0xfe,0xff,0xff,0x08,0x00,0x00,0x00,0x14,0x00,0x00,0x00,0x01,0x00,0x00,0x00,0x00,0x00,0x00,0x00,0x00,0x00,0x00,0x00,0x00,0x00,0x00,0x00,0x01,0x00,0x00,0x00,0xe9,0xc3,0x9d,0x38,0x12,0x00,0x00,0x00,0x74,0x66,0x6c,0x2e,0x70,0x73,0x65,0x75,0x64,0x6f,0x5f,0x71,0x63,0x6f,0x6e,0x73,0x74,0x32,0x00,0x00,0x01,0x00,0x00,0x00,0x20,0x00,0x00,0x00,0x9e,0xff,0xff,0xff,0x00,0x00,0x00,0x01,0x14,0x00,0x00,0x00,0x30,0x00,0x00,0x00,0x03,0x00,0x00,0x00,0x00,0x00,0x00,0x09,0x3c,0x00,0x00,0x00,0x04,0xff,0xff,0xff,0x08,0x00,0x00,0x00,0x10,0x00,0x00,0x00,0x01,0x00,0x00,0x00,0x00,0x00,0x00,0x00,0x00,0x00,0x00,0x00,0x01,0x00,0x00,0x00,0xa5,0xf3,0x8a,0x3b,0x12,0x00,0x00,0x00,0x74,0x66,0x6c,0x2e,0x70,0x73,0x65,0x75,0x64,0x6f,0x5f,0x71,0x63,0x6f,0x6e,0x73,0x74,0x31,0x00,0x00,0x02,0x00,0x00,0x00,0x01,0x00,0x00,0x00,0x20,0x00,0x00,0x00,0x00,0x00,0x16,0x00,0x1c,0x00,0x18,0x00,0x17,0x00,0x10,0x00,0x0c,0x00,0x08,0x00,0x00,0x00,0x00,0x00,0x00,0x00,0x07,0x00,0x16,0x00,0x00,0x00,0x00,0x00,0x00,0x01,0x14,0x00,0x00,0x00,0x30,0x00,0x00,0x00,0x02,0x00,0x00,0x00,0x00,0x00,0x00,0x02,0x3c,0x00,0x00,0x00,0x7c,0xff,0xff,0xff,0x08,0x00,0x00,0x00,0x10,0x00,0x00,0x00,0x01,0x00,0x00,0x00,0x00,0x00,0x00,0x00,0x00,0x00,0x00,0x00,0x01,0x00,0x00,0x00,0x21,0x9e,0x04,0x39,0x11,0x00,0x00,0x00,0x74,0x66,0x6c,0x2e,0x70,0x73,0x65,0x75,0x64,0x6f,0x5f,0x71,0x63,0x6f,0x6e,0x73,0x74,0x00,0x00,0x00,0x01,0x00,0x00,0x00,0x01,0x00,0x00,0x00,0x00,0x00,0x16,0x00,0x20,0x00,0x1c,0x00,0x1b,0x00,0x14,0x00,0x10,0x00,0x0c,0x00,0x00,0x00,0x00,0x00,0x08,0x00,0x07,0x00,0x16,0x00,0x00,0x00,0x00,0x00,0x00,0x01,0x18,0x00,0x00,0x00,0x2c,0x00,0x00,0x00,0x48,0x00,0x00,0x00,0x01,0x00,0x00,0x00,0x00,0x00,0x00,0x09,0x60,0x00,0x00,0x00,0x02,0x00,0x00,0x00,0xff,0xff,0xff,0xff,0x13,0x00,0x00,0x00,0x0c,0x00,0x0c,0x00,0x00,0x00,0x00,0x00,0x08,0x00,0x04,0x00,0x0c,0x00,0x00,0x00,0x08,0x00,0x00,0x00,0x10,0x00,0x00,0x00,0x01,0x00,0x00,0x00,0xe8,0xff,0xff,0xff,0xff,0xff,0xff,0xff,0x01,0x00,0x00,0x00,0xdf,0xf0,0xee,0x3c,0x1f,0x00,0x00,0x00,0x73,0x65,0x72,0x76,0x69,0x6e,0x67,0x5f,0x64,0x65,0x66,0x61,0x75,0x6c,0x74,0x5f,0x69,0x6e,0x70,0x75,0x74,0x5f,0x6c,0x61,0x79,0x65,0x72,0x5f,0x33,0x3a,0x30,0x00,0x02,0x00,0x00,0x00,0x01,0x00,0x00,0x00,0x13,0x00,0x00,0x00,0x02,0x00,0x00,0x00,0x24,0x00,0x00,0x00,0x04,0x00,0x00,0x00,0xf0,0xff,0xff,0xff,0x0e,0x00,0x00,0x00,0x02,0x00,0x00,0x00,0x00,0x00,0x00,0x0e,0x0c,0x00,0x10,0x00,0x0f,0x00,0x00,0x00,0x08,0x00,0x04,0x00,0x0c,0x00,0x00,0x00,0x09,0x00,0x00,0x00,0x04,0x00,0x00,0x00,0x00,0x00,0x00,0x09};
const unsigned int g_kasus_c_model_3_int8_model_data_len = 6072;

#endif // G_KASUS_C_MODEL_3_INT8_H
