// File ini dibuat secara otomatis
#ifndef G_KASUS_E_MODEL_1_FLOAT_H
#define G_KASUS_E_MODEL_1_FLOAT_H

// Model: Kasus E Model 1 Float
// 1L, 8N, float32
// Size: 21404 bytes (20.90 KB)
const unsigned char g_kasus_e_model_1_float_model_data[] = {0x1c,0x00,0x00,0x00,0x54,0x46,0x4c,0x33,0x14,0x00,0x20,0x00,0x1c,0x00,0x18,0x00,0x14,0x00,0x10,0x00,0x0c,0x00,0x00,0x00,0x08,0x00,0x04,0x00,0x14,0x00,0x00,0x00,0x1c,0x00,0x00,0x00,0x98,0x00,0x00,0x00,0xf0,0x00,0x00,0x00,0x74,0x4d,0x00,0x00,0x84,0x4d,0x00,0x00,0x38,0x53,0x00,0x00,0x03,0x00,0x00,0x00,0x01,0x00,0x00,0x00,0x10,0x00,0x00,0x00,0x00,0x00,0x0a,0x00,0x10,0x00,0x0c,0x00,0x08,0x00,0x04,0x00,0x0a,0x00,0x00,0x00,0x0c,0x00,0x00,0x00,0x1c,0x00,0x00,0x00,0x3c,0x00,0x00,0x00,0x0f,0x00,0x00,0x00,0x73,0x65,0x72,0x76,0x69,0x6e,0x67,0x5f,0x64,0x65,0x66,0x61,0x75,0x6c,0x74,0x00,0x01,0x00,0x00,0x00,0x04,0x00,0x00,0x00,0x90,0xff,0xff,0xff,0x07,0x00,0x00,0x00,0x04,0x00,0x00,0x00,0x08,0x00,0x00,0x00,0x6f,0x75,0x74,0x70,0x75,0x74,0x5f,0x30,0x00,0x00,0x00,0x00,0x01,0x00,0x00,0x00,0x04,0x00,0x00,0x00,0x76,0xb2,0xff,0xff,0x04,0x00,0x00,0x00,0x0d,0x00,0x00,0x00,0x69,0x6e,0x70,0x75,0x74,0x5f,0x6c,0x61,0x79,0x65,0x72,0x5f,0x34,0x00,0x00,0x00,0x02,0x00,0x00,0x00,0x34,0x00,0x00,0x00,0x04,0x00,0x00,0x00,0xdc,0xff,0xff,0xff,0x0a,0x00,0x00,0x00,0x04,0x00,0x00,0x00,0x13,0x00,0x00,0x00,0x43,0x4f,0x4e,0x56,0x45,0x52,0x53,0x49,0x4f,0x4e,0x5f,0x4d,0x45,0x54,0x41,0x44,0x41,0x54,0x41,0x00,0x08,0x00,0x0c,0x00,0x08,0x00,0x04,0x00,0x08,0x00,0x00,0x00,0x09,0x00,0x00,0x00,0x04,0x00,0x00,0x00,0x13,0x00,0x00,0x00,0x6d,0x69,0x6e,0x5f,0x72,0x75,0x6e,0x74,0x69,0x6d,0x65,0x5f,0x76,0x65,0x72,0x73,0x69,0x6f,0x6e,0x00,0x0b,0x00,0x00,0x00,0x80,0x4c,0x00,0x00,0x78,0x4c,0x00,0x00,0x08,0x4c,0x00,0x00,0xec,0x4b,0x00,0x00,0xbc,0x4b,0x00,0x00,0xac,0x00,0x00,0x00,0xa4,0x00,0x00,0x00,0x9c,0x00,0x00,0x00,0x94,0x00,0x00,0x00,0x74,0x00,0x00,0x00,0x04,0x00,0x00,0x00,0x1e,0xb3,0xff,0xff,0x04,0x00,0x00,0x00,0x60,0x00,0x00,0x00,0x10,0x00,0x00,0x00,0x00,0x00,0x00,0x00,0x08,0x00,0x0e,0x00,0x08,0x00,0x04,0x00,0x08,0x00,0x00,0x00,0x10,0x00,0x00,0x00,0x24,0x00,0x00,0x00,0x00,0x00,0x06,0x00,0x08,0x00,0x04,0x00,0x06,0x00,0x00,0x00,0x04,0x00,0x00,0x00,0x00,0x00,0x00,0x00,0x0c,0x00,0x18,0x00,0x14,0x00,0x10,0x00,0x0c,0x00,0x04,0x00,0x0c,0x00,0x00,0x00,0x3d,0x13,0x29,0xd5,0x02,0x0f,0x37,0xe2,0x02,0x00,0x00,0x00,0x02,0x00,0x00,0x00,0x04,0x00,0x00,0x00,0x06,0x00,0x00,0x00,0x32,0x2e,0x31,0x38,0x2e,0x30,0x00,0x00,0x8a,0xb3,0xff,0xff,0x04,0x00,0x00,0x00,0x10,0x00,0x00,0x00,0x31,0x2e,0x35,0x2e,0x30,0x00,0x00,0x00,0x00,0x00,0x00,0x00,0x00,0x00,0x00,0x00,0x9c,0xae,0xff,0xff,0xa0,0xae,0xff,0xff,0xa4,0xae,0xff,0xff,0xb2,0xb3,0xff,0xff,0x04,0x00,0x00,0x00,0x00,0x4b,0x00,0x00,0x70,0xca,0x00,0xbe,0xcb,0x14,0x14,0x3e,0xbe,0x1e,0x0b,0xbd,0x0b,0xdd,0xbd,0x3d,0x2e,0x73,0xd7,0xbd,0xe3,0x53,0xa7,0xbd,0x5e,0x06,0x6e,0xbb,0xe3,0x7f,0x59,0x3d,0x0e,0x4f,0x23,0xbc,0x11,0x3c,0x44,0x3c,0xf4,0x63,0x06,0xbd,0x5f,0x89,0x8c,0xbd,0x24,0xbf,0x04,0xbe,0xd8,0xaa,0x05,0x3d,0xc8,0x18,0xb7,0x3c,0x56,0xcb,0xd8,0x3d,0xff,0x90,0x89,0xbd,0x9f,0x47,0xe4,0xbd,0xd8,0x96,0xe5,0xbc,0xc7,0x83,0x23,0x3e,0xb8,0x34,0x36,0x3d,0x86,0x66,0x13,0xbd,0xeb,0xa0,0xbe,0xbd,0xd3,0x85,0x3d,0xbd,0x15,0x94,0x0d,0xbe,0x15,0x18,0xe1,0x3c,0x57,0x2f,0x0b,0x3d,0x5c,0xfe,0x15,0x3d,0xbb,0x67,0x12,0x3c,0xd0,0x10,0x19,0xbe,0x35,0x06,0x00,0xbe,0x62,0xdd,0xe5,0x3d,0x98,0x3a,0xa3,0xbb,0xfe,0xb6,0x9f,0x3d,0x82,0xbd,0x24,0xbe,0xe5,0x39,0xe7,0xba,0xe8,0x11,0x76,0xbe,0xd5,0x4f,0x02,0x3e,0x8e,0xbe,0xb4,0xbd,0x0e,0xde,0x19,0xbb,0x4d,0xb6,0x44,0x3d,0x52,0xd2,0x21,0xbe,0x7f,0xcb,0x27,0xbd,0x03,0x4f,0x1e,0x3e,0x9e,0x24,0x68,0x3a,0xb4,0x83,0x14,0x3e,0xec,0xca,0x76,0x39,0x1f,0x17,0x9a,0xbd,0x3c,0x82,0x72,0xbe,0x37,0x4a,0x81,0x3d,0x22,0x5e,0x22,0x3d,0xf0,0x51,0x67,0x3d,0x0b,0x45,0xa4,0xbd,0x19,0x66,0xc1,0xbd,0x84,0xe5,0x3b,0xbd,0xcd,0xb1,0x77,0x3d,0xe0,0xbf,0xc7,0xbd,0x4e,0x2c,0xb7,0x3d,0xf7,0xce,0xc1,0x3d,0x51,0x73,0x63,0xbd,0x16,0x8c,0x3c,0xbe,0x1f,0x36,0x3c,0x3e,0x1d,0xc1,0xae,0x3b,0xc0,0xf7,0x4b,0xbc,0x54,0x4d,0x68,0x3d,0xb1,0x48,0x37,0x3b,0xc0,0xb7,0xf6,0xba,0x00,0x8b,0xa9,0x3d,0x73,0xba,0x9c,0x3c,0xbb,0x0e,0x7e,0xbd,0x41,0x9f,0x2b,0x3e,0x83,0xb7,0x35,0xbe,0x11,0xb6,0xfb,0xbd,0x9c,0x7b,0xb2,0x3d,0xdc,0xbd,0x41,0xbd,0x26,0xfe,0x8c,0x3d,0xb8,0xa9,0x9b,0x3d,0x9f,0x14,0x28,0xbe,0x57,0x0a,0x6d,0xbd,0xab,0x22,0xe3,0x3c,0x50,0x02,0xb3,0xbd,0x17,0xfa,0xba,0x3d,0xfb,0xdb,0x93,0x3d,0xdc,0xcb,0x0c,0x3c,0x85,0x21,0xae,0x3c,0x4a,0x93,0x08,0x3d,0x8f,0x6f,0xa7,0xbd,0x15,0xac,0xbb,0x3d,0x26,0xea,0x56,0x3c,0x93,0xab,0x3f,0xbe,0xbd,0x12,0x06,0x3c,0xb7,0x9d,0x20,0x3d,0x16,0x7e,0x06,0xbe,0x4c,0xb7,0xe6,0x3d,0xbc,0x82,0x15,0xbd,0x9b,0x3a,0xb5,0xbc,0x25,0x5d,0x38,0xbd,0x4d,0x4f,0x99,0x3d,0xbd,0xee,0x5f,0x3d,0xc4,0x87,0x2f,0xbd,0xc7,0x5e,0x40,0xbb,0xe0,0xe8,0xf3,0xbd,0x0b,0x60,0xd2,0xbd,0xc1,0x4d,0xaf,0xbc,0xc5,0x4c,0xb2,0xbc,0x49,0xae,0x06,0xbd,0x27,0x66,0x73,0x3c,0x74,0xff,0xf9,0xbb,0xdf,0x97,0x64,0x3d,0xd7,0x55,0x8d,0x3d,0xa8,0xc6,0x8a,0x3b,0x3a,0x90,0x78,0xbd,0x8e,0x09,0x1b,0xbd,0x6c,0xad,0x1a,0x3d,0xa9,0x14,0xf6,0xbd,0x4a,0x0d,0xa8,0xbb,0x8d,0xff,0x9d,0xbc,0x44,0x82,0x1c,0xbd,0x62,0x28,0xfb,0x3a,0xfe,0xac,0x08,0xbd,0x02,0xb6,0xd0,0xbd,0xe8,0xb6,0x9b,0x3c,0x19,0x8d,0x45,0xbd,0xc4,0x7f,0xf5,0x3c,0x9b,0xea,0xa9,0x3d,0x67,0x46,0x7e,0x3c,0xe8,0x40,0xc8,0x3d,0x4e,0x79,0x4d,0xbd,0xd6,0xa1,0x2f,0xb9,0xdd,0x4d,0x84,0xbd,0xf2,0x78,0x8d,0xbc,0x6c,0x49,0x89,0xbd,0xaa,0x7b,0xf2,0xbd,0xa7,0xa6,0x00,0xbe,0x8a,0xb1,0xf4,0x3c,0x34,0x97,0xeb,0xbd,0x4b,0x12,0xb2,0x3d,0x6e,0xe8,0xac,0xbc,0xe0,0x2d,0x02,0xbd,0x4d,0xad,0x89,0xbc,0xd0,0xc0,0xe3,0x3c,0xba,0x95,0xa9,0xbd,0x8d,0xa3,0x97,0xbd,0x8d,0xca,0x96,0x3d,0x3c,0x0e,0x4f,0x3d,0x02,0x81,0x0c,0xbe,0xe2,0xfe,0x88,0xbc,0xd2,0xd4,0xc9,0xbd,0x34,0x07,0x05,0xbd,0xa5,0x52,0x3d,0x3d,0x0d,0xcb,0xa8,0x3d,0xc7,0x2e,0x46,0xbd,0xd9,0xe4,0xa3,0xbd,0x28,0x5f,0x7c,0xbe,0xf6,0x2c,0x4a,0x3b,0x83,0x89,0x95,0x3d,0xb8,0x81,0x8e,0xbc,0x08,0x31,0x00,0xbe,0xf4,0x61,0x84,0x3d,0xaa,0xd0,0x2f,0xbe,0xc9,0x8b,0x9d,0x3d,0x82,0xc9,0xa0,0x3d,0x4e,0xf7,0xd6,0xbd,0x82,0xce,0x0c,0xbd,0xdc,0xde,0xdc,0x3d,0x04,0x12,0x69,0xbd,0x07,0xe8,0x8c,0xbd,0x20,0xd7,0x1d,0xbd,0x57,0x35,0xdb,0xbd,0x0b,0x8a,0x8d,0xbd,0xbd,0x3d,0xcd,0x3c,0x43,0x29,0x4d,0xbe,0xeb,0x6a,0xde,0x3b,0xa1,0x6d,0xe2,0x3d,0x7c,0x8b,0xd6,0xbd,0x9e,0xbd,0xd0,0x3b,0x08,0x82,0x84,0x3d,0x9f,0x4e,0x3b,0xbe,0x7d,0xce,0x07,0x3d,0xfa,0xff,0x12,0x3c,0x9c,0xaa,0x03,0xbe,0x12,0x88,0x01,0x3c,0x2a,0xbb,0x57,0x3d,0x02,0xac,0xe3,0xbd,0x9f,0x2e,0x0f,0xbc,0x45,0x90,0x26,0x3e,0xcd,0xb9,0x2f,0xbe,0x6e,0x79,0xcc,0x3d,0x03,0xab,0x07,0x3d,0xc6,0x02,0x87,0xbc,0x4c,0x27,0xc2,0x3d,0xc3,0xa4,0x17,0x3e,0xc9,0x07,0x30,0xbe,0x1d,0xad,0x86,0x3d,0xbe,0xf0,0x86,0xbc,0x88,0x7b,0x13,0xbe,0xdd,0x44,0x07,0x3e,0xde,0x88,0x1f,0x3e,0xa0,0xbb,0x4f,0xbe,0xca,0x2f,0x86,0x3d,0xdc,0x6d,0xa9,0x3b,0x78,0x33,0x30,0xbe,0x74,0xa0,0xd6,0x3d,0x8f,0x9b,0xf6,0x3c,0x86,0x80,0xac,0xbd,0xf1,0x0b,0x9e,0xbd,0x18,0xf1,0xee,0xbb,0xf9,0x48,0x04,0xbe,0x15,0x75,0xac,0x3d,0x3d,0x6f,0xf4,0x3b,0x63,0x68,0x28,0xbe,0x09,0xc4,0x00,0xbd,0xfb,0x9a,0xba,0xbc,0xca,0xc8,0x3b,0x3d,0xf3,0xd9,0xfb,0x3d,0x10,0x45,0x13,0x3e,0x6c,0xd0,0x2e,0xbe,0xa6,0xba,0xfd,0xbc,0xc0,0x63,0x08,0x3e,0xab,0x74,0x4a,0xbd,0x68,0x92,0xf8,0xbc,0x61,0x61,0x1a,0xbb,0x6a,0xd3,0xb6,0xbd,0xa1,0xf2,0x52,0x3d,0x63,0x51,0x56,0x3d,0xf4,0x33,0x5e,0x3c,0xea,0x17,0x18,0x3e,0xc9,0x6d,0xf5,0x3d,0xfc,0x37,0xb8,0xbd,0x06,0x00,0xf1,0xbd,0xd4,0xd3,0xa6,0x3d,0x2b,0x0c,0x40,0xbd,0xdf,0x5c,0xa3,0x3b,0xd0,0x81,0x67,0x3e,0xd3,0x35,0x37,0x3d,0x0e,0x05,0xc2,0xbd,0xd2,0x0f,0x89,0x3d,0xc0,0x35,0x06,0xbd,0x97,0x8a,0x8c,0x3c,0x00,0x4f,0x64,0x3e,0xa2,0x6b,0xcc,0xbd,0xec,0x6e,0xe8,0xbd,0x14,0x84,0xf2,0xbc,0x56,0xfb,0x92,0x3d,0x3b,0xd3,0xd9,0x3c,0x71,0xc1,0x4a,0x3d,0xdd,0xa6,0x6b,0xbd,0x12,0x23,0xe2,0xbd,0x47,0xe2,0xf2,0xbd,0xd5,0x67,0xb1,0x3c,0xc7,0x29,0x79,0x3d,0x22,0xe6,0x09,0x3d,0xb2,0xa3,0xeb,0xbb,0x8c,0xcc,0x01,0x3d,0x8d,0xd9,0xc1,0xbc,0x86,0xa4,0x73,0xbd,0x9b,0x51,0xad,0xbd,0x0c,0xd0,0x7d,0x3d,0xa7,0xfe,0x29,0xbe,0x19,0xe0,0xf3,0xbd,0x35,0x79,0x69,0xbd,0x61,0x5d,0x8a,0x3c,0x7b,0xb8,0x7e,0xbd,0x6b,0x37,0x4a,0x3d,0x1e,0xd9,0x01,0xbe,0xfc,0x0c,0xce,0xbd,0xa2,0x9c,0x29,0xbd,0x4f,0x2b,0xc2,0xbd,0xf8,0xf0,0x3c,0x3d,0x15,0xb2,0xa7,0x3d,0xf8,0xf1,0x10,0xbd,0x7b,0x10,0x61,0xbc,0x43,0xc5,0xca,0xbc,0xf4,0xe9,0xdb,0xbd,0x2c,0xf3,0xa5,0xbc,0xd6,0x75,0xbc,0x3d,0xa7,0xf7,0x81,0xbe,0x2f,0x9e,0xb1,0x3d,0xac,0xe8,0xe2,0xbd,0x03,0x41,0x58,0xbd,0xf7,0x92,0x88,0xbc,0x63,0xb5,0x27,0x3e,0xc1,0xb2,0x41,0xbe,0x6e,0x02,0x82,0xbd,0x1d,0x9d,0x01,0xbd,0x05,0x00,0x6f,0x3d,0x5f,0x74,0x5f,0x3d,0x66,0x52,0x11,0x3b,0x90,0x25,0x4d,0xbe,0x33,0x19,0xe4,0xbd,0x61,0x26,0x15,0xbd,0x8d,0xc6,0xf2,0xbd,0xbd,0x99,0x88,0x3d,0x6d,0xa9,0x9b,0x3c,0xa6,0x1f,0x3b,0x3c,0x8e,0x4b,0xb9,0x3c,0xc9,0xdc,0x53,0xbd,0x34,0x24,0xa7,0xbd,0xd6,0x20,0x8e,0xbc,0x26,0x68,0xed,0x3c,0xec,0x3d,0x02,0xbe,0xa3,0xeb,0x3a,0x3d,0xe6,0x24,0xa8,0x3d,0x6d,0xe2,0xff,0xbc,0xbe,0x30,0x7c,0xbd,0x63,0xfc,0xf1,0x3d,0xc3,0xac,0x21,0xbd,0x4d,0x71,0x21,0x3d,0x82,0x36,0x85,0x3d,0x01,0xd9,0x7f,0x3d,0xa7,0x4e,0xcd,0xbc,0xda,0x2d,0x58,0x3d,0x68,0xcf,0x4e,0x3d,0xe7,0xe8,0xc7,0x3c,0xa3,0xf3,0x9f,0xbd,0x41,0x16,0x2d,0xbd,0x8f,0x54,0x22,0xbd,0xc5,0x68,0x40,0x3d,0xa5,0x05,0xe0,0xbc,0x19,0x1e,0xf2,0x3d,0x97,0x87,0xe9,0xbc,0xc6,0x26,0x86,0xbd,0x06,0x04,0xd5,0x3b,0x0a,0x0b,0xb0,0x3c,0x16,0x08,0x26,0x3c,0x08,0xba,0x12,0x3e,0x83,0x3b,0x19,0x3d,0xbf,0x87,0x3d,0xbd,0x2c,0x1c,0xd4,0xbd,0x35,0xb2,0x7a,0xbd,0x33,0xea,0xc8,0xbd,0x7e,0x99,0x12,0x3c,0x0f,0x26,0xf9,0xbd,0x16,0x68,0x19,0xbd,0x71,0xb0,0x1e,0x3c,0xd1,0x1c,0xa9,0xbd,0x10,0xa3,0x1c,0xbd,0xff,0x90,0x79,0xbd,0xab,0x82,0x7e,0xbd,0x9f,0x2f,0x2c,0x3e,0xb2,0xc1,0xb2,0xbd,0xd7,0x6e,0x4f,0xbd,0x1f,0x59,0xd2,0xbd,0x61,0x3c,0x2f,0xbc,0x6b,0x9b,0x74,0x3d,0x5a,0xb0,0xb2,0x3c,0x08,0xcc,0xda,0xbd,0xc4,0xac,0x2d,0xbc,0xd1,0xaa,0xa0,0x3d,0x42,0x77,0x4c,0x3d,0xc4,0xab,0xed,0x3d,0xcd,0xb9,0x13,0xbc,0x85,0xcd,0x86,0xbd,0x73,0x62,0xf3,0xbd,0xdf,0x5e,0x09,0xbd,0x06,0x7e,0x74,0xbd,0x1f,0x5d,0xb6,0xba,0x1f,0x8f,0x29,0x3e,0x90,0x64,0x84,0x3d,0x22,0x7f,0x41,0xbd,0xd0,0x9a,0xa1,0x3d,0x9d,0x9f,0x98,0x3d,0x79,0x57,0x3c,0x3e,0x6d,0x16,0xfc,0x3d,0xa7,0x19,0x96,0x3d,0xe4,0x8a,0x1a,0xbe,0x65,0x1f,0xf4,0xbd,0xc3,0x94,0xad,0x3d,0xb2,0xc5,0xd4,0x3d,0xf6,0xf8,0x15,0x3c,0xb6,0xcc,0x82,0xbd,0x86,0x6f,0x9a,0x3c,0xa6,0xa0,0x18,0xbe,0xd3,0x42,0xcc,0x3d,0xd5,0xde,0xdd,0x3d,0xe2,0xf9,0x27,0x3d,0x94,0x49,0x9e,0xbd,0x92,0xf7,0xfe,0xbd,0xc2,0x06,0xfc,0xbb,0x18,0xb9,0xb3,0x3d,0x85,0x46,0x2c,0x3e,0x3e,0x5f,0xf4,0x3d,0x87,0x98,0x91,0xbd,0x9c,0x2a,0x24,0xbe,0xbb,0x7f,0x1b,0xbd,0x86,0xb6,0x7b,0x3d,0x76,0x20,0x01,0x3e,0xf4,0x7c,0x77,0x3d,0x56,0x23,0xec,0xbd,0x08,0x95,0x08,0xbc,0x70,0x6a,0x88,0xbd,0x61,0xc5,0x69,0x3b,0xd8,0x22,0xf4,0x3d,0x2f,0x91,0x21,0xbd,0x8e,0xd7,0x3c,0xbe,0x9c,0x21,0xe3,0xbd,0x82,0x0b,0x5a,0xbd,0x8c,0x39,0xc6,0xbc,0x86,0xa2,0x53,0xbb,0x6a,0x7b,0xf0,0xbc,0xba,0xbc,0xd2,0xbd,0x1e,0x00,0x1b,0x3d,0xcf,0xa1,0x3d,0xbe,0x2e,0xef,0x1d,0x3e,0xe4,0xa2,0x2e,0x3b,0x83,0xb8,0xdd,0xbc,0x8e,0xc5,0xb4,0xbd,0x09,0x5b,0x10,0xbe,0xb9,0xe8,0x22,0xbe,0xca,0x99,0x0c,0x3d,0x66,0x90,0x0c,0x3d,0x6c,0x65,0xd0,0x3b,0x56,0xd3,0xbb,0xbc,0xb0,0x93,0x01,0xbe,0x33,0x26,0x1d,0xbe,0x32,0x6d,0x13,0x3e,0x19,0x69,0x72,0x3d,0xa9,0x0e,0x35,0x3d,0xa1,0x6a,0x9d,0xbd,0xdc,0x59,0x23,0xbe,0xbc,0x2e,0x59,0xbd,0x1b,0x79,0x70,0x3e,0xd2,0x7e,0x45,0x3d,0xff,0xed,0xcd,0x3d,0x5b,0x94,0xf1,0x3d,0xb7,0x2e,0x15,0xbd,0xa6,0xae,0x74,0xbe,0xf2,0x4e,0x26,0x3e,0xae,0xec,0x34,0x3d,0x18,0x08,0xd8,0x3d,0x89,0x73,0x78,0x3d,0x4f,0x44,0x27,0x3d,0xed,0x69,0xa4,0xbe,0x5d,0x8e,0x66,0x3e,0xbe,0x70,0x9d,0x3d,0xd3,0xd3,0xb2,0x3d,0xee,0x2b,0xf4,0x3c,0xa8,0xa9,0x49,0xbc,0x08,0x97,0x81,0xbe,0xaa,0xa1,0xc3,0x3d,0x48,0x95,0x44,0xbd,0x16,0x1f,0x55,0x3e,0xc6,0x4a,0xea,0x3d,0xb7,0xf1,0x22,0xbe,0x31,0x69,0x0e,0xbe,0x0e,0xc8,0x64,0x3c,0x18,0xbd,0x5e,0x3c,0xb6,0xd2,0x24,0x3d,0xc8,0x69,0xbf,0x3c,0xce,0xaa,0x35,0xbe,0x99,0x6e,0x6f,0xbe,0x67,0x76,0xc2,0x3d,0xce,0x03,0x51,0xbd,0xf8,0xcf,0x1e,0x3e,0x40,0xc0,0x11,0x3e,0xe6,0x20,0x2f,0xbe,0x6f,0xd0,0x84,0xbe,0xf6,0xac,0xf5,0x3d,0xb2,0x61,0xc7,0x3b,0xc7,0xb2,0x2e,0x3d,0x01,0x31,0x0f,0x3e,0x43,0xf6,0xf4,0xbd,0x33,0xed,0x76,0xbe,0x04,0xdc,0xa9,0x3d,0x28,0xd1,0x0e,0x3e,0xa1,0xb3,0x61,0x3d,0x76,0xab,0x37,0x3c,0x3a,0x92,0xa6,0xbd,0xeb,0x12,0x78,0x3c,0x90,0xb8,0xcb,0xbc,0xcd,0x5a,0xbf,0xbc,0x3d,0xf3,0x54,0x3c,0x6c,0x0d,0xb4,0xba,0x3b,0x26,0xc2,0xbc,0xba,0xb6,0x91,0xbd,0xe0,0xba,0xc2,0x3d,0x0c,0x8b,0x75,0x3d,0x10,0x6a,0xb2,0x3c,0xe2,0xbd,0xda,0x3d,0xa3,0xfa,0x0c,0xbe,0x5b,0x4e,0x1b,0xbc,0xc4,0x2f,0x94,0xbd,0xad,0x7c,0x03,0x3e,0xf2,0x53,0xf0,0x3d,0x61,0x45,0x9d,0xbd,0xff,0x77,0x6a,0xbc,0x3b,0x02,0xcc,0xbd,0x1e,0x47,0x0e,0x3d,0x13,0x1f,0x97,0xbd,0x6e,0xd7,0xbe,0xbd,0x55,0x6c,0x08,0xbd,0xe5,0x1c,0xfd,0xbb,0x02,0xc3,0xc4,0xbd,0xbd,0xfd,0x4f,0x3d,0xde,0xb8,0x1c,0xbe,0x49,0x78,0x2a,0x3c,0x98,0x87,0x36,0xbd,0x08,0x8a,0xec,0xbb,0x27,0x0a,0x2c,0xbe,0x96,0x0a,0x25,0x3d,0x77,0x4d,0xd5,0x3b,0x13,0xae,0x4b,0xbd,0xbe,0x85,0xc5,0xbc,0x79,0x93,0x88,0xbd,0x24,0x7c,0x56,0xbc,0xc6,0x6a,0xda,0x3c,0x5d,0x93,0xf5,0xbc,0x5d,0x47,0xa4,0xbb,0xef,0xa6,0xf1,0xbc,0xb4,0x96,0x74,0x3d,0x72,0xec,0x73,0xbc,0xab,0x7d,0x26,0x3c,0x9a,0x5b,0xfd,0xbd,0xa2,0x2b,0x89,0xbd,0x8b,0x4b,0x80,0xbc,0x18,0x3e,0xfa,0x3c,0x38,0xb3,0x25,0xbd,0x01,0xf7,0x3b,0xba,0x62,0xbc,0x0b,0xbc,0x92,0x1a,0x89,0x3d,0xc6,0x2f,0x85,0x3d,0x79,0x68,0x8c,0x3c,0x74,0x89,0x68,0x3d,0x86,0x2c,0xd1,0xbd,0x81,0xe4,0x85,0x3c,0x5b,0x2f,0x27,0x3d,0xa0,0xc7,0x86,0x3d,0x64,0x35,0x46,0x3d,0x50,0x7b,0xa7,0x3d,0xbf,0x2c,0x52,0x3c,0xfc,0x4d,0x5e,0x3d,0x85,0xb1,0x0c,0xbc,0x83,0xfc,0x31,0x3d,0xb6,0xf1,0x8c,0x3d,0x63,0x0d,0x20,0x3b,0xf8,0x70,0xbe,0xbc,0x7e,0x6a,0x44,0x3c,0x9c,0x2c,0x8d,0x3d,0xa7,0x85,0xe1,0x3c,0x70,0x1d,0xc2,0xbd,0xf2,0xaf,0x3a,0xbd,0xe7,0xdc,0xad,0x3c,0x45,0x0a,0x18,0x3e,0x81,0x38,0x88,0x3d,0x43,0x89,0x39,0xbd,0x99,0x75,0x1f,0x3d,0x6d,0x05,0x96,0xbc,0x0e,0xef,0xba,0xbd,0x1c,0x35,0x3c,0x3c,0x8f,0x5d,0x46,0x3d,0xeb,0x08,0x81,0xbd,0xfd,0x1b,0xa2,0xbd,0x88,0x4c,0x94,0x3d,0xa4,0xaa,0xcb,0xbd,0xdb,0x45,0xf8,0x3d,0x76,0x18,0xa2,0xbd,0x3c,0xc5,0xa6,0xbd,0x6c,0x69,0xc5,0xbc,0x32,0x2b,0xa7,0xbd,0x32,0xe4,0xea,0xbc,0x61,0x0a,0xc9,0x39,0x83,0x40,0xb3,0x3d,0xcb,0xe4,0x84,0xbd,0x9b,0xe4,0x46,0xbd,0xcd,0x77,0xce,0x38,0x96,0xd8,0x13,0xbe,0x2f,0xaf,0xc3,0x3d,0xd5,0x7e,0x87,0xbd,0x90,0xc0,0x2a,0xbd,0x54,0xa9,0x85,0x3d,0x4b,0xa0,0x0e,0xbe,0xb9,0x91,0xe6,0x3c,0x25,0x65,0x99,0xbc,0xb3,0x74,0x59,0xbd,0x03,0xd4,0x8f,0xbd,0x13,0x25,0x87,0x3d,0x98,0x68,0x31,0xbe,0x99,0x4f,0xed,0xbd,0x90,0x27,0xc9,0xbc,0xa6,0x85,0x8b,0x3d,0x9d,0x0a,0x8b,0x3d,0x9c,0xb3,0xf2,0x3d,0xd6,0x94,0xc5,0xbd,0x96,0x5d,0x34,0x3d,0xa1,0x3d,0x36,0xbd,0x6c,0x0b,0x78,0x3d,0x1b,0x3c,0x31,0x3d,0x4c,0x62,0x21,0x3d,0xe7,0x40,0xa5,0xbd,0xf3,0x6b,0xff,0xbd,0xf4,0x64,0xd3,0x3d,0x6c,0x78,0xad,0xbd,0x83,0x28,0x47,0x3d,0xb7,0xc0,0x34,0x3e,0x2d,0x61,0x46,0xbe,0x81,0x0f,0xfd,0xbd,0x41,0x3c,0xc1,0x3d,0x51,0x2a,0x4c,0xbd,0xee,0x3f,0xf1,0xbd,0x57,0xbf,0x0a,0x3e,0x8a,0x99,0x8f,0xbc,0xe3,0x2f,0x0d,0x3e,0xe3,0x81,0x13,0xbd,0x5e,0x50,0x90,0xbc,0x07,0x8b,0x4b,0xbc,0x7c,0x1b,0xfc,0xbd,0x26,0x4a,0x89,0xbc,0x34,0x5c,0x6e,0x3b,0xf8,0xe5,0x23,0xbd,0x3d,0xe6,0x65,0xbc,0xee,0xd6,0xbf,0xbb,0x6b,0xe7,0x0b,0x3d,0x18,0x1b,0x03,0x3d,0xec,0xfa,0x3c,0xbd,0x5d,0x98,0x18,0x3e,0xc1,0x96,0xa9,0xbd,0x47,0x07,0xea,0x3d,0xc6,0xc8,0x72,0x3c,0x08,0xd9,0x42,0xbd,0x55,0xa8,0xe5,0x3d,0x64,0x2b,0x03,0x3e,0xa9,0xe4,0x13,0xbd,0x8d,0x3e,0xae,0xbc,0xf6,0x34,0x8f,0x3d,0x46,0x29,0x26,0x3b,0xd2,0xad,0xcd,0xbb,0x6c,0x63,0x34,0xbd,0x79,0x31,0x84,0x3b,0xec,0x0b,0xdf,0x3d,0x0b,0xd7,0xd8,0xbd,0xf7,0xef,0x2f,0xbd,0x70,0x22,0x0b,0x3d,0xf1,0x48,0xbf,0x3d,0x2d,0xcd,0xc7,0x3b,0x23,0xa9,0x8b,0xbd,0x48,0x25,0x87,0xbd,0x60,0x7f,0x28,0x3e,0x7d,0x0f,0x31,0x3d,0xd5,0x27,0x84,0xbc,0x53,0x2a,0x1e,0x3c,0xf8,0x2a,0x11,0xbd,0x5d,0xdc,0xca,0xbd,0xc2,0x4d,0xb8,0x3d,0xbd,0xd0,0xc4,0xbc,0xc9,0x1e,0xea,0x3d,0xfd,0xe9,0xef,0xbc,0xf7,0x0d,0xc6,0xbd,0x71,0x11,0xbb,0x3d,0x1f,0x4e,0x57,0x3d,0xcc,0x2a,0xf2,0x3d,0x9b,0x40,0x3f,0x3d,0x11,0x79,0xda,0xbc,0x77,0x43,0xc4,0xbc,0x21,0xd1,0x68,0xbd,0xa9,0xfb,0x8f,0x3d,0x05,0xb9,0x29,0x3d,0x4c,0xb4,0x05,0xbe,0x01,0x52,0x8c,0xbd,0xaf,0xbc,0x1c,0xba,0x63,0x54,0xc9,0xbd,0x0c,0xc4,0xda,0xbd,0x48,0x52,0xc0,0x3d,0xcf,0xf2,0xb7,0x3c,0x0e,0xd5,0x38,0xbd,0x2e,0x6a,0x0c,0xbd,0xfa,0x53,0x77,0xbd,0x95,0xb0,0xdd,0xbd,0xfe,0x0b,0x31,0xbd,0x95,0xc5,0x26,0xbe,0xc4,0x42,0x85,0x3d,0x77,0x18,0x84,0xbd,0x91,0x6e,0xcc,0xbd,0x84,0x7c,0x1b,0xbe,0x2d,0xae,0xe9,0xbc,0x40,0xe5,0xa1,0xbd,0xe6,0x27,0x07,0x3e,0x98,0xfd,0xe8,0xbd,0xe1,0xb6,0x9d,0x3d,0xca,0xc3,0x1e,0xbe,0x9b,0x6c,0xa6,0x3d,0x1b,0xce,0xad,0xbd,0x5f,0x56,0x95,0x3c,0x02,0x04,0xcd,0xbd,0xcc,0xfc,0xc7,0xbd,0x93,0xe8,0x1a,0x3a,0x57,0x41,0x85,0x3d,0xba,0xbd,0x8e,0x3d,0x16,0x68,0x0a,0xbe,0x9b,0x53,0x2f,0x3c,0x40,0xeb,0x99,0xbd,0x9a,0x7f,0xc2,0xbd,0x6a,0x16,0xff,0x3d,0xa2,0xf7,0x04,0x3e,0xa0,0x61,0x15,0xbe,0x31,0x0e,0xd5,0xbd,0xf7,0x20,0xc4,0x3c,0xa7,0x10,0x90,0xbd,0x94,0x31,0x79,0x3d,0x6b,0xb3,0x01,0x3e,0x11,0x06,0x29,0xbe,0x14,0x19,0x6d,0x3d,0x8a,0x6b,0xae,0x3d,0x21,0x3c,0x1f,0x3c,0x5d,0x8e,0xd1,0xbc,0xf7,0x95,0xfc,0x3d,0x18,0x0b,0x62,0xbc,0x69,0xc3,0x80,0x3a,0x3e,0xe8,0xb1,0xbd,0x90,0x68,0x1e,0x3d,0x75,0xa5,0x3b,0x3e,0xf1,0xf6,0x1c,0xbd,0xc8,0x47,0x86,0x3d,0x0e,0x70,0xd4,0xbd,0x62,0x29,0x6f,0x3d,0xf2,0xd1,0x80,0x3d,0x61,0x95,0x07,0x3e,0x52,0x63,0x4e,0x3d,0x03,0xfc,0x62,0x3d,0x62,0x4c,0xc7,0xbd,0x1b,0xfa,0xd9,0x3c,0xed,0x57,0x05,0xbe,0xb2,0xaf,0x1d,0x3e,0xa4,0x09,0xf0,0x3d,0x64,0x78,0x34,0x3d,0x90,0x82,0xa9,0xbc,0x2b,0xff,0x7d,0xbd,0x4f,0xdb,0x6e,0x3d,0x98,0x5b,0xf9,0x3d,0x4a,0x39,0x90,0xbc,0xf6,0x14,0xb3,0x3d,0x1a,0x8b,0xb1,0xbd,0xca,0xe7,0xaa,0xbd,0x8c,0x63,0xb3,0x3d,0xf1,0xf9,0x8c,0x3d,0x0a,0x87,0xc2,0x3d,0xa8,0xb1,0x2f,0xbd,0x1b,0x6e,0xce,0x3d,0x6e,0x0a,0x96,0xbd,0x74,0x0b,0xc4,0x3d,0xb3,0x77,0x25,0x3d,0xad,0x31,0x6e,0x3d,0xc7,0xad,0x47,0x3d,0x72,0x4f,0x42,0x3d,0xf2,0x7f,0xb0,0x3b,0x42,0xfe,0xaf,0xbb,0x2d,0xbb,0xa5,0xbd,0xd0,0x29,0xa9,0xbc,0x5b,0x07,0x04,0x3c,0xe7,0xa7,0x61,0xbd,0x64,0xb8,0xb8,0x3d,0x74,0x4e,0x8d,0x3d,0x64,0xe7,0xc8,0x3d,0x79,0x4c,0xdb,0x3d,0x9f,0x38,0x4c,0xbe,0xa7,0x9d,0xa9,0xbc,0x60,0xc0,0x52,0x3d,0x17,0x8f,0x26,0x3d,0x73,0xc7,0x86,0x3d,0x60,0x1a,0xbc,0xbd,0xc0,0x56,0x3c,0xbb,0xda,0xf6,0xa7,0xbc,0x08,0xa4,0xd2,0x3d,0x08,0x4f,0x24,0xbd,0x9e,0x3b,0x9e,0x3d,0x7c,0xb1,0x0b,0xbe,0x7b,0xfe,0x52,0xbd,0x93,0x0e,0x09,0xbd,0xed,0x04,0xae,0x3c,0x68,0x04,0xaa,0xbb,0x56,0x3b,0x7c,0xbc,0x85,0x09,0x9e,0x3d,0x1f,0xb5,0x4f,0xbe,0x6b,0x40,0x5c,0x3c,0xc2,0x6b,0x00,0x3e,0x7a,0x3a,0x88,0xbd,0x85,0xdd,0x67,0x3d,0xa4,0x15,0x48,0xbb,0x6c,0xfb,0x0a,0x3d,0x56,0x70,0x89,0xbd,0xff,0xca,0xaa,0x3d,0x3f,0xe9,0xd6,0xbd,0xe3,0x75,0x05,0x3e,0x8d,0x24,0xb7,0xbd,0xa2,0x82,0xb8,0x3d,0xac,0x7c,0xf7,0xbd,0x79,0x7b,0xd5,0x3d,0x78,0x21,0x8d,0xbd,0x2f,0x44,0xa1,0xbb,0x83,0x6a,0x47,0x3d,0xef,0x73,0xb7,0x3c,0xfd,0x30,0x9b,0xbd,0x4a,0xde,0xb6,0xbd,0xe6,0x6f,0x5f,0xbb,0xfa,0x46,0xaa,0x3c,0x55,0x6c,0x8e,0x3c,0x2c,0x34,0xf9,0x3d,0x76,0x81,0x60,0x3a,0x15,0x1c,0xdb,0x3c,0xea,0xd0,0x05,0x3d,0x88,0xa5,0xab,0x3c,0xa1,0x85,0x78,0x3b,0x65,0xf5,0xce,0x3d,0xe9,0xf9,0xb8,0x3b,0x95,0xa5,0x92,0x3c,0xb4,0x34,0x03,0x3c,0xf5,0x21,0x43,0x3c,0x3a,0xe1,0x56,0xbd,0x93,0x5c,0xe8,0xbc,0xe8,0xf6,0x93,0x3d,0x3b,0xda,0x22,0x3c,0x7d,0x7f,0xf8,0xbd,0x1d,0x4d,0xd3,0x3d,0x9d,0x65,0xbb,0x3d,0xb1,0xe7,0xe6,0xb9,0xe3,0xd0,0xc2,0x3c,0xf4,0xa0,0xe6,0xbc,0x1a,0x22,0x0f,0xbe,0xac,0xa1,0xa2,0x3d,0xe1,0x30,0x89,0xbd,0xe8,0x92,0x87,0xbd,0x57,0x27,0x37,0x3b,0x76,0x78,0x59,0x3c,0x57,0x45,0xb4,0xbd,0x94,0x26,0x80,0xbd,0x73,0x30,0x0c,0x3d,0x28,0x06,0xbb,0x3c,0x48,0xcf,0x04,0x3d,0x1f,0xdb,0x1b,0x3d,0xd0,0x6b,0x85,0x3d,0x3b,0x3d,0x31,0xbd,0xd7,0x87,0xa9,0x3d,0x41,0xd4,0xcc,0xbd,0x80,0x64,0x3e,0x3c,0x1a,0x6b,0x52,0xbd,0x8e,0x35,0xa8,0xbd,0xf9,0x75,0x1f,0xbd,0x1c,0x4e,0x37,0x3d,0x40,0xbf,0xa0,0xbc,0x0b,0x47,0x0f,0xbd,0xae,0x31,0xdb,0xbd,0x37,0x4f,0x31,0x3d,0xc0,0x17,0xac,0x3d,0x86,0xd0,0xda,0x3d,0xd5,0x53,0x3c,0xbc,0xbe,0x82,0x5e,0x3d,0xfa,0xaa,0xca,0x3b,0xfa,0xb0,0x38,0xbd,0xdf,0x7b,0xda,0x3d,0xa7,0x28,0xf3,0x3d,0xec,0x00,0x82,0xbc,0x9b,0x79,0xf6,0x3a,0xc6,0x34,0x7e,0xbd,0x77,0x11,0x0d,0x3d,0x15,0x9d,0xc4,0x3d,0xb1,0xb0,0x2b,0xbc,0xfc,0xfa,0xfb,0x3d,0xa7,0xd1,0x84,0xbd,0x01,0x2c,0xa4,0x3c,0x70,0x25,0xcb,0x3c,0xf3,0x28,0x0b,0x3e,0xdb,0x46,0x07,0x3e,0xdc,0xbc,0xa8,0x3b,0x45,0x03,0xdd,0xbd,0x6f,0x26,0xe7,0xbb,0xb6,0x4d,0x08,0xbd,0x1b,0xd1,0x3d,0xbd,0x63,0x8c,0xb9,0x3d,0xe8,0xe8,0xb4,0x39,0x12,0x22,0x63,0x3d,0x3a,0x8e,0x03,0xbe,0xe4,0x44,0x96,0xbc,0x93,0x5b,0xb8,0x3c,0xec,0xcd,0xa4,0xbd,0x13,0x18,0xa4,0xbb,0x83,0x77,0x07,0xbe,0x13,0xbe,0x23,0xbd,0x1c,0x1f,0x23,0xbe,0xcf,0x2f,0x18,0xbd,0xaf,0xa5,0x3c,0x3d,0xab,0xfa,0x40,0x3e,0xdc,0xa4,0x0a,0xbe,0x33,0x34,0xa7,0x3c,0x1e,0x9c,0x28,0xbe,0x8b,0x73,0xc7,0x3d,0x36,0x54,0x8f,0xbd,0xdf,0x52,0x33,0xbc,0x76,0x57,0x1e,0xbe,0x5e,0x97,0x35,0xbd,0xcd,0xc3,0x88,0x3d,0x1b,0xd4,0x0e,0x3e,0x33,0xac,0x0c,0xbe,0x12,0x0e,0xf8,0x3d,0xe2,0xd4,0xba,0xbd,0xf8,0x08,0x9b,0xba,0x2a,0x70,0x07,0x3d,0x68,0x4a,0x9f,0x3d,0x83,0xca,0x80,0xbd,0x19,0x71,0xc0,0x3d,0xbe,0xd6,0x14,0xba,0x3e,0x0c,0x4e,0xbd,0x8e,0x54,0xd8,0xbd,0x66,0x11,0xb1,0xbb,0xb0,0x9a,0xde,0xbd,0x4a,0x33,0xbc,0xbd,0xf6,0x87,0x98,0xbd,0x13,0x4c,0x18,0xbd,0x79,0xad,0x70,0x3d,0xac,0x22,0x86,0xbc,0x9f,0xa5,0xbd,0xbc,0x35,0xc7,0xb6,0x3d,0x17,0xd7,0xbb,0xbd,0x2e,0x82,0x1a,0xbd,0xcf,0xde,0xb3,0x3c,0xc7,0xfe,0x09,0x3e,0x4c,0x75,0x5d,0xbd,0x16,0xef,0x58,0x3d,0x34,0x6a,0x19,0x3d,0x07,0x63,0xa7,0x3d,0x56,0x7f,0x64,0xbb,0x40,0x2c,0xe7,0x3d,0x89,0x71,0xce,0x3d,0xb4,0x5b,0x92,0xbc,0x23,0x8d,0x90,0x3c,0x81,0xa7,0x8e,0x3d,0x9f,0x88,0x61,0xbc,0x31,0x41,0x97,0x3d,0x58,0x48,0x08,0x3d,0xfd,0x17,0xe2,0x3b,0xaf,0xec,0x76,0x3d,0xca,0x21,0x7a,0x3d,0x1d,0x2a,0x25,0x3c,0xcb,0x74,0xd6,0x3c,0x6d,0x50,0x1f,0xbd,0xcf,0xda,0x50,0x3d,0x1a,0x7e,0x43,0xbb,0x0f,0xd8,0x37,0x3d,0x46,0x7a,0xcd,0x3d,0x7c,0x04,0x13,0x3e,0x3b,0xf6,0x9b,0x3c,0x39,0x9c,0x0c,0x3e,0x49,0xb5,0x34,0x39,0x94,0x13,0x08,0xbe,0xa6,0x94,0xbe,0x3c,0x41,0xa2,0xdc,0x3d,0xda,0x02,0x14,0x3e,0x15,0x4d,0xc2,0x3d,0xf1,0xbf,0x56,0xbd,0x52,0xeb,0x09,0xbe,0x39,0xb7,0xbe,0xbd,0x2d,0x74,0x08,0x3e,0x8a,0xb7,0xa5,0x3d,0xb8,0x4b,0x47,0xbd,0x6c,0x34,0xcb,0xbd,0xf9,0x0e,0xf8,0x3c,0x79,0x70,0x0d,0xbd,0x56,0x5e,0x79,0x3d,0x59,0x9b,0x15,0x3e,0x10,0x24,0xdc,0x3d,0x11,0x35,0xaf,0x3d,0x0d,0x41,0x8c,0x3b,0x9b,0x2c,0xc8,0x3d,0x46,0xb8,0x09,0x3e,0x15,0xc4,0xea,0x3d,0xab,0x3e,0x75,0xbd,0x57,0x45,0x0e,0xbd,0x6d,0xdd,0x5a,0xbd,0xb8,0x62,0xf6,0x3c,0x77,0xda,0xe8,0x3d,0xf5,0x44,0xa7,0xbd,0xc0,0xc2,0xee,0xbd,0x46,0xd8,0x06,0xbd,0x5b,0x1d,0xf6,0x3d,0x61,0x7f,0xe8,0xbd,0x80,0x38,0x1e,0x3d,0x48,0x37,0x2f,0x3d,0x0d,0x93,0x0b,0xbe,0x63,0x0d,0x8e,0x3d,0x9e,0x20,0xcd,0x3d,0x38,0xf5,0xf0,0x3c,0xc0,0x9d,0x96,0xbb,0x79,0xf0,0xd9,0xba,0xd4,0xf3,0x3f,0x3d,0x91,0xe6,0x2b,0x3d,0x36,0x20,0x3f,0xbd,0x1d,0xef,0xeb,0xbc,0x52,0xd4,0x7d,0x3d,0x49,0x8c,0xe4,0xbd,0x6b,0x8b,0xcb,0xbd,0x71,0x37,0xdc,0xbd,0x2b,0x20,0x0f,0x3d,0xd4,0x74,0x76,0x3c,0xb9,0xea,0x8b,0x3c,0xd3,0xe3,0xf2,0xbc,0x6f,0x05,0x0f,0xbd,0xfa,0x7e,0xdc,0xbd,0x82,0x9d,0x5b,0x3d,0x40,0x4d,0x1c,0xbe,0xac,0x6e,0x82,0x3d,0x2c,0xff,0x3c,0x3d,0xf0,0x7e,0xce,0xbc,0x77,0x74,0x86,0xbd,0x2d,0xfd,0x1e,0xbc,0x74,0x89,0x1e,0xbe,0xe1,0x32,0x02,0x3e,0x88,0xd2,0xbf,0x3d,0xb5,0xa4,0xc6,0xbc,0x29,0x09,0xf1,0xbc,0xed,0x06,0xd2,0x3c,0xe9,0xaa,0x9a,0x3c,0x44,0x70,0x7e,0xbd,0xd7,0x3f,0x08,0xbd,0xf4,0x27,0x16,0x3d,0x1b,0x59,0xe9,0x3d,0xde,0x6d,0xb4,0x3d,0x4f,0x65,0x25,0xbe,0xcf,0xbc,0x07,0x3e,0x6f,0xf0,0x07,0x3e,0x99,0xf1,0x00,0x3d,0xd9,0x2d,0xca,0xbd,0x64,0x52,0xd6,0xbd,0xa7,0xaa,0x2c,0xbd,0xee,0xf1,0xd6,0x3d,0x6d,0x90,0x9f,0x3d,0xb9,0x96,0x03,0xbe,0x3d,0xa9,0x3d,0xba,0xfd,0x5c,0xd1,0xbc,0x41,0x54,0xe4,0xbd,0x59,0xd7,0x4c,0x3b,0x19,0x2b,0x00,0xbd,0x18,0x27,0x42,0xbc,0xbe,0x5f,0x08,0xbe,0xce,0x26,0x0b,0xbd,0xbf,0x3d,0x29,0xbd,0xe2,0x4d,0xe0,0xbb,0x1c,0x05,0x59,0x3d,0x17,0xfb,0x19,0xbe,0x15,0xc6,0x81,0x3c,0xcf,0x12,0x4b,0xbd,0xdf,0x7f,0xf1,0x3d,0x78,0xae,0xb4,0xbd,0xea,0x28,0x9e,0xbb,0x89,0xda,0x31,0xbd,0xe5,0x08,0xd4,0x3d,0xb9,0x3d,0x0c,0x3c,0x5d,0x86,0x2e,0x3d,0xb8,0xe3,0x01,0x3c,0xe3,0x20,0x0b,0x3e,0xe8,0x4b,0xe6,0xbd,0xf6,0x01,0x38,0x3c,0x97,0xfa,0x7e,0xbc,0x09,0xb7,0xba,0x3d,0x6d,0x0e,0x23,0x3d,0xce,0xa4,0x43,0x3d,0x09,0xf5,0x28,0x3d,0x8f,0x68,0xc1,0x3d,0x82,0xd4,0x54,0xbd,0x46,0x9a,0xa6,0xbb,0x8c,0x89,0x0a,0x3e,0x77,0x1a,0xc2,0x3d,0xbd,0xab,0x7c,0xbd,0x2f,0xfa,0x85,0xbd,0x64,0xac,0xc8,0xbc,0x4e,0x4d,0xa9,0xbd,0x24,0x83,0x2c,0x3d,0xd5,0xc5,0x9c,0xbc,0x15,0xe9,0xde,0xbc,0x9e,0xc8,0xd2,0xbd,0x1c,0xae,0x27,0x3d,0xe7,0x33,0xe6,0x3d,0x08,0x4e,0x72,0xbc,0xc8,0x40,0x4d,0xbd,0x5f,0x42,0x20,0x3e,0xa3,0x30,0x35,0xbd,0xa4,0x7d,0x79,0xbd,0xde,0xdd,0xa3,0xbd,0xe7,0xbe,0x5e,0xbc,0x21,0xef,0xaf,0x3d,0x08,0xc0,0x18,0x3e,0x8d,0x65,0xb6,0xbd,0x52,0x73,0x26,0xbe,0xcd,0x3f,0x04,0xbe,0x32,0x72,0xea,0x3d,0x05,0x71,0x90,0x3d,0x51,0x66,0x3a,0x3d,0x1c,0x44,0xb3,0xbd,0x35,0x65,0x4e,0x3d,0xfa,0xa6,0x82,0x3d,0xb5,0x8f,0x04,0xbd,0xe3,0x12,0xc5,0xbd,0xc9,0xc1,0xbf,0x3d,0x51,0x56,0xe2,0x3c,0xcb,0xc2,0xf1,0x3c,0xd0,0x8b,0xad,0xbd,0x39,0x3d,0x43,0x3d,0x9a,0xc8,0x97,0xbd,0x8a,0x48,0x21,0x3e,0x1b,0x26,0x10,0xba,0x59,0xcc,0xc6,0xbc,0x9c,0xd5,0x0a,0xbd,0x95,0x79,0x6b,0x3d,0x37,0x3e,0xc9,0x3c,0x4b,0xf9,0xeb,0x3d,0x0a,0x9d,0x3e,0xbe,0x1c,0xa1,0xdb,0x3d,0x2f,0xaf,0x29,0x3d,0x3a,0x54,0x46,0x3d,0xa8,0xb1,0xc7,0xbd,0x1a,0xee,0xed,0x3d,0xb6,0x70,0xd6,0xbd,0xf3,0x2a,0x99,0xbd,0x21,0xa8,0xaa,0x3c,0xe7,0x9d,0x95,0x3d,0xc6,0xb8,0x90,0xbc,0xbb,0x7d,0xe1,0x3b,0x3e,0x60,0x85,0x3d,0xa5,0x42,0x03,0xbd,0x97,0xcc,0x7f,0xbd,0x6c,0x4c,0xce,0x3d,0xcd,0xe0,0xa5,0xbd,0x5d,0x55,0xe6,0xbc,0x22,0x8b,0xfc,0xbd,0x31,0xb2,0xab,0x3c,0xfa,0x2b,0x0d,0xbe,0xbd,0xe2,0xf2,0x3d,0xa5,0x1a,0x92,0x3d,0x16,0x43,0x63,0xbd,0x3b,0x4a,0xf1,0xbb,0x1b,0x6a,0x95,0xbd,0x6b,0xa3,0x03,0xbe,0xd0,0xc0,0x87,0xbc,0x14,0xf7,0xff,0x3c,0x37,0xe4,0xde,0x3c,0x52,0xa5,0x86,0xbb,0xaf,0xdb,0x2b,0xbd,0xe1,0xbc,0x58,0x3c,0x4d,0x17,0xd4,0x3d,0x2d,0xae,0xfb,0x3d,0x2a,0x36,0xa6,0xbc,0x43,0x8c,0x7d,0xbd,0x12,0x0e,0xb4,0xbd,0xaf,0xf7,0xa5,0x3c,0x3a,0x38,0x75,0xbd,0x22,0x13,0xf2,0x3c,0xa6,0x42,0xff,0x3d,0xc2,0x45,0xa5,0xbc,0xfa,0x9a,0xcc,0xbd,0xbf,0xc7,0xee,0xbc,0x5f,0x2f,0xf1,0x3d,0xeb,0x65,0x8d,0x3d,0x00,0x01,0x00,0x3e,0x4f,0x97,0x5a,0x3d,0x93,0xa4,0xcf,0xbb,0xac,0xeb,0x18,0x3c,0x3f,0x21,0x21,0x3e,0x9c,0x2a,0x8d,0x3d,0xc3,0x41,0x59,0x3d,0x74,0x45,0x86,0xbd,0xb3,0x4f,0x13,0x3d,0xac,0x64,0xc5,0xbd,0x65,0x5f,0xce,0x3d,0xd8,0x37,0xa0,0x3d,0x0d,0x2f,0x20,0x3c,0xc4,0xa6,0xcb,0x3b,0xb2,0x43,0xef,0xbb,0x68,0xf1,0x6b,0x3d,0x86,0x3f,0x23,0xbb,0xce,0xb2,0xfb,0x3d,0x91,0x66,0x0b,0xbe,0x84,0x83,0x1f,0x3d,0x13,0xc0,0x86,0x3d,0x5e,0x2b,0x90,0xbd,0x63,0xc5,0xcb,0xba,0x13,0x87,0x7f,0x3d,0xc1,0x25,0x8e,0x3d,0x59,0x81,0x1a,0xbd,0xcf,0xf7,0xdd,0x3d,0xaa,0xe3,0x8a,0xbc,0x0a,0xf2,0x2f,0x3e,0x6d,0xa2,0xae,0x3d,0x86,0xa4,0xca,0xbd,0x4c,0xe0,0xde,0xba,0x2e,0x32,0x18,0xbc,0x4c,0x07,0x9e,0xbc,0x7f,0x3a,0x33,0x3e,0x05,0x0f,0xc7,0x3d,0xdc,0x89,0x59,0xbd,0x7e,0x03,0xce,0xbd,0x70,0x23,0x98,0x3d,0x44,0xb4,0x04,0x3d,0x8c,0x54,0xf9,0x3d,0x05,0x76,0xe8,0xbd,0x4b,0x6e,0x7f,0xbd,0x9e,0x07,0xad,0xbd,0x4e,0x87,0x3f,0xbd,0x74,0xf2,0xbc,0x3d,0x77,0x53,0x26,0x3e,0xcb,0xd2,0xcf,0xbd,0xba,0x93,0x1e,0x3e,0xda,0xac,0xf0,0xbd,0x93,0x2b,0xb0,0xbc,0xcc,0xa4,0x39,0xbe,0xc1,0x20,0x30,0x3d,0xf3,0xcb,0xb3,0x3d,0x78,0x9a,0x09,0xbd,0xd4,0x1a,0x03,0xbe,0x3e,0x07,0xfd,0xba,0xfc,0xb1,0xbf,0xbd,0x52,0x68,0x94,0x3d,0xa5,0x0d,0x63,0x3d,0x0c,0x42,0x1a,0xbd,0x54,0x13,0xbc,0xbc,0x98,0x63,0x3e,0x3d,0x7f,0x9e,0x04,0xbd,0x44,0xee,0xc1,0x3d,0xf2,0x79,0x64,0x3e,0xee,0xa6,0x0f,0x3c,0x61,0x23,0x18,0xbd,0x99,0xae,0x93,0xbd,0x13,0x36,0x17,0xbd,0x66,0xdf,0x28,0x3e,0x11,0x56,0x5e,0x3e,0x5e,0x8a,0xb7,0xbd,0x40,0xe2,0x21,0xbe,0xd1,0x74,0x0a,0xbd,0x87,0x9f,0x24,0x3d,0xdd,0xa8,0xc1,0x3c,0x0f,0x48,0xcc,0x3d,0xd4,0x44,0x37,0x3d,0x38,0xe0,0x90,0xbd,0xbb,0x69,0x0b,0xbe,0x55,0xda,0xcd,0xbd,0x96,0x5b,0x0e,0x3d,0xab,0x0f,0x8d,0x3d,0xb2,0xae,0x44,0x3d,0xb4,0x8d,0x8c,0xbe,0xb5,0x8e,0x3e,0xbd,0x85,0xe9,0x61,0xbe,0xea,0x59,0xcb,0xbb,0x90,0x31,0xaa,0x3c,0x27,0x38,0x2d,0x3e,0xaf,0x60,0x99,0xbe,0x1f,0x4b,0x91,0xbd,0xf8,0xcd,0xcf,0xbe,0x6e,0xd7,0x10,0x3e,0x47,0x80,0x27,0x3e,0x56,0x1a,0xf8,0x3d,0xe4,0xf9,0x00,0xbe,0x77,0x7e,0x67,0xbd,0x44,0x00,0x07,0xbf,0x31,0xbe,0x57,0x3d,0xd2,0xc3,0x99,0x3d,0xe6,0x15,0xc7,0x3d,0xb5,0x7d,0x6b,0xbe,0x02,0xbc,0x16,0xbe,0xe7,0x1f,0xf0,0xbe,0x53,0x47,0x5c,0x3d,0x29,0x45,0x24,0x3d,0xab,0x7d,0x2d,0x3e,0x95,0xb7,0xd5,0xbc,0x1e,0x6d,0xbc,0xbc,0xe3,0x0a,0x04,0xbf,0xe9,0x71,0x41,0x3c,0x5c,0x4a,0x46,0xbb,0xdb,0x4c,0x2b,0x3e,0x6d,0x63,0x60,0xbd,0xd5,0x56,0x68,0xbd,0x2f,0x23,0xb8,0xbe,0x7d,0x6e,0x59,0xbc,0x89,0x78,0x47,0xbd,0x59,0x55,0xa0,0x3d,0x10,0x37,0x0c,0xbe,0xa3,0x3c,0xca,0xbd,0x62,0x9f,0xe7,0xbe,0xfa,0x04,0xa7,0xbb,0xdb,0x21,0x6f,0xbd,0x3b,0x62,0x88,0x3c,0x6a,0xf0,0x04,0xbe,0xe5,0xa4,0x30,0x3d,0xfd,0xc0,0x89,0xbe,0x20,0xe3,0x71,0xbd,0x5a,0x2c,0x08,0x3d,0x5d,0x18,0xf1,0xbd,0x7e,0x30,0xf0,0xbd,0x37,0x68,0xb1,0xbc,0x6b,0x34,0xaa,0xbd,0x4a,0x17,0x46,0xbc,0x12,0x44,0x5d,0x3d,0x77,0xeb,0xc7,0xbb,0xac,0x22,0x16,0x3c,0xd9,0x80,0x12,0x3c,0xea,0x9a,0xaf,0xbd,0x4a,0x08,0x13,0xbe,0x2d,0xe3,0x07,0x3d,0x88,0x5c,0x0b,0xbe,0x1e,0x05,0xeb,0xbd,0xe7,0xf0,0xd5,0xbd,0xc5,0x1e,0xf1,0xbd,0x7a,0x07,0xd7,0xbd,0xb8,0xb2,0x5d,0x3c,0xc0,0x2a,0x2b,0xbe,0xf2,0xa9,0xcd,0xbd,0x8f,0x7b,0xf0,0xbd,0x32,0x2b,0x98,0xbc,0x2c,0x06,0x26,0x3d,0xd8,0x57,0x14,0xbc,0xa4,0xf8,0xfd,0xbd,0xad,0xd6,0xfc,0xbd,0xe7,0xa9,0x4b,0xbd,0xfe,0xb0,0x7a,0xbc,0xd7,0x02,0xff,0xbd,0x04,0x54,0x27,0xbd,0x67,0x80,0xb1,0xbd,0xb1,0x3b,0x89,0xbd,0xbc,0xa1,0x96,0x3a,0x05,0x46,0x00,0x3e,0x9e,0xd7,0xf9,0xbc,0xe9,0x0b,0xe2,0xbd,0xcc,0x2b,0x42,0xbe,0x2c,0xbd,0xf9,0xbd,0xbc,0xbe,0x46,0x3c,0x2f,0xef,0x5e,0x3d,0xd4,0x30,0x01,0x3d,0xed,0xf1,0x00,0xbd,0xd9,0x6c,0x83,0xbd,0x0f,0x08,0x83,0xbe,0x01,0x13,0xcf,0x3d,0x53,0x39,0xce,0x3b,0x1f,0x99,0x1b,0x3e,0x81,0xff,0x1a,0xbe,0xa2,0x4b,0xf9,0xbc,0x26,0x7e,0x48,0xbe,0xed,0xca,0x75,0xbc,0xfb,0xc2,0x91,0x3d,0x99,0x86,0x37,0x3e,0x86,0xaf,0xdd,0x3c,0xa6,0x8b,0xd8,0xbd,0x83,0xde,0xa4,0xbc,0xac,0xec,0x95,0x3d,0xd1,0xc2,0x15,0x3e,0x41,0x32,0xc0,0x3d,0x97,0x5a,0x03,0xbe,0x7a,0xce,0xf0,0xbd,0xf2,0x60,0x09,0xbd,0xcb,0xb9,0xe2,0x3c,0x6c,0xe1,0x2a,0x3e,0xb8,0x08,0xd2,0x3c,0xec,0x9d,0x08,0xbe,0x52,0x4e,0x93,0x3d,0x21,0xcf,0xf8,0xbd,0x2e,0x33,0xc1,0x3d,0x67,0x6a,0xcc,0x3b,0x83,0xe1,0xb9,0x3d,0x53,0xa5,0x1a,0xbd,0x98,0x8a,0x8b,0x3c,0x17,0x29,0x2c,0xbe,0xad,0x34,0xb2,0x3d,0x74,0x6c,0x2d,0x3e,0x2f,0xce,0xba,0x3d,0x27,0xc4,0xfa,0x3c,0x13,0xd6,0xb4,0xbb,0x54,0xf9,0xf7,0xbc,0x7e,0xa5,0x0c,0x3d,0x0a,0xcf,0x68,0x3e,0xe7,0x9a,0x55,0xbd,0x8f,0x84,0x15,0xbe,0x95,0x39,0x30,0x3d,0x05,0x91,0xc7,0xbd,0x98,0xfe,0x03,0xbe,0x41,0x1e,0xe4,0x3d,0xc5,0x65,0x7c,0x3d,0xac,0xa8,0x39,0x3d,0x8c,0x03,0x8d,0x3d,0x09,0x6d,0xab,0x3b,0x58,0x99,0x43,0xbd,0x6b,0x2e,0xea,0x3d,0x1a,0xaa,0x7d,0x3d,0xfb,0xd8,0x86,0x3c,0x87,0x20,0xe6,0x3d,0xb7,0x55,0x0b,0x3d,0x75,0x29,0x67,0xbd,0xc4,0x06,0x0a,0xbd,0xb3,0x85,0x75,0xbb,0x05,0x70,0x5e,0x3d,0x00,0x7b,0xe0,0x3d,0x84,0x16,0x39,0xbd,0x0a,0x5b,0xfe,0xbd,0x8f,0x7e,0x15,0x3e,0x4f,0xb0,0x7b,0x3d,0xe5,0x21,0xa5,0x3c,0x18,0xda,0x7a,0xbd,0xb6,0x79,0xe4,0xba,0x32,0x60,0x87,0x3d,0x36,0x6f,0xc7,0x3d,0xf1,0x12,0x92,0xbd,0xc4,0x2e,0x34,0xbd,0x57,0x5f,0xac,0xbd,0xa1,0x10,0xdc,0xbd,0xb3,0x9a,0x3f,0x3d,0xea,0x9e,0xba,0x3d,0xad,0x2b,0x6e,0xbc,0xe7,0x52,0x85,0x3c,0x94,0x60,0x4d,0x3d,0xb3,0x0b,0x1a,0xbe,0xbc,0x7a,0xcf,0x3d,0x8c,0x80,0xdd,0x3c,0xd8,0xfa,0x88,0x3d,0x24,0xcf,0xeb,0x3c,0x49,0x19,0x9a,0xba,0xaf,0x60,0xc1,0xbd,0xbd,0x77,0xaf,0x3d,0x53,0x80,0x24,0xbe,0xd5,0xdf,0x82,0xbc,0x48,0x71,0xa5,0x3c,0xac,0x96,0xab,0xbd,0x5a,0x24,0x6e,0xbd,0x80,0xfd,0x2c,0x3e,0x63,0xf6,0x28,0xbe,0xac,0xc7,0x09,0xbd,0x30,0xb9,0x4b,0x3e,0x26,0x02,0x2b,0xbe,0x7c,0x0f,0x11,0x3c,0xf8,0xaf,0x23,0x3e,0x13,0x29,0x08,0x3c,0xbe,0xfc,0x81,0xbc,0xa2,0x52,0x87,0x3d,0x70,0x85,0x4c,0xbc,0x4c,0x90,0x2e,0x3e,0x5e,0x61,0xc5,0x3d,0xd9,0xff,0xe3,0xbd,0x25,0x17,0x2d,0xbc,0xbf,0x7c,0xe4,0x3d,0x9b,0x77,0xe2,0x3c,0xa6,0xb6,0x25,0x3d,0xd3,0xfc,0x11,0x3e,0x30,0xb5,0x06,0xbe,0x43,0x5c,0x93,0xbd,0x2a,0xef,0x57,0x3e,0xc0,0xfe,0x05,0x3d,0x7e,0x77,0x55,0x3e,0xa4,0x92,0x19,0x3e,0xdd,0x58,0x7f,0xbd,0x37,0xf3,0x2f,0xbc,0xd7,0x43,0x2b,0x3e,0xc1,0x07,0x2e,0x3d,0xc9,0xe1,0xb5,0x3d,0x43,0xaf,0x02,0x3d,0x11,0x68,0x3f,0xbe,0x25,0x12,0x49,0xbd,0x0e,0x52,0x32,0x3e,0xa8,0xe0,0xac,0xbd,0x13,0xdb,0xdb,0x3c,0x9b,0x6f,0x56,0x3d,0x00,0x6e,0x22,0xbe,0xc9,0x43,0xa9,0xbc,0xb6,0x89,0x57,0x3d,0x02,0x34,0x37,0xbc,0x04,0xb7,0x95,0x3d,0x6e,0x37,0xea,0xbb,0x27,0xb6,0xc5,0xbe,0x0b,0x65,0xed,0x3c,0x9a,0x5c,0x12,0x3d,0xc4,0x8e,0x68,0x3d,0x0c,0x1f,0xb5,0x3c,0x7d,0x7b,0x59,0xbd,0xaa,0xd4,0x43,0xbe,0x7a,0xde,0xe1,0x3d,0x8e,0x31,0xa1,0xbd,0xf8,0x99,0x98,0xbd,0x0a,0xe5,0xe7,0xbc,0x90,0xca,0x98,0x3d,0x7d,0xe8,0x4b,0xbe,0xbf,0x66,0xd6,0x3d,0x8c,0xb4,0xeb,0xbc,0xb9,0xe6,0x14,0x3d,0x1a,0x08,0xe5,0x3a,0xa1,0x5a,0xa2,0x3d,0x63,0xef,0x94,0xbe,0x59,0xb0,0x0d,0x3e,0x68,0x16,0x0a,0xbe,0x5f,0xe6,0xd7,0xbd,0x48,0x5c,0xeb,0x3b,0x52,0xa4,0x1c,0x3d,0xf3,0xdb,0x04,0xbe,0x79,0x3e,0xe6,0x3c,0x22,0xc2,0xc8,0xbc,0xfa,0xfa,0xb8,0x3d,0x95,0x5b,0x6c,0xbd,0xa0,0xeb,0xa5,0x3c,0x94,0x6a,0x61,0xbd,0x63,0x59,0xc9,0x3c,0xff,0xfa,0xda,0xbd,0xb0,0x0e,0xc6,0xbc,0x98,0xbf,0x6e,0x3d,0xdd,0xf4,0xf2,0x3d,0xbd,0x37,0x91,0xbb,0xed,0xc2,0x53,0xbd,0x1e,0x5d,0xfc,0xbd,0xa0,0xf8,0x18,0xbd,0x3c,0x63,0xad,0xbd,0xe0,0x9e,0x9f,0x3c,0x1b,0x3a,0x22,0x3c,0xe0,0x72,0xb4,0xbc,0x49,0xc6,0x45,0xbc,0x77,0xcb,0xa1,0xbd,0x35,0xa6,0x15,0x3d,0x8b,0xf9,0xa6,0x3d,0xd3,0xe7,0x44,0x3d,0xdb,0xe3,0x88,0xbc,0xf8,0x5f,0xcb,0xbd,0x17,0xd5,0x1a,0x3d,0xb4,0xf7,0xf6,0x3b,0xda,0x6f,0x1b,0x3e,0x13,0x35,0xf2,0x3d,0x18,0x39,0xd4,0xbd,0x80,0x50,0x23,0xbd,0xa0,0x5e,0x12,0x3d,0x98,0x62,0x87,0xbd,0xad,0x99,0x16,0x3d,0x77,0x90,0xd8,0x3d,0x6d,0x19,0x3c,0xbe,0x0d,0xd7,0x88,0x3c,0x64,0x41,0x37,0x3d,0x7d,0x02,0x1d,0x3d,0x95,0xb3,0x8d,0x3d,0x43,0x9b,0x8a,0xbd,0x8f,0x71,0x4f,0xbe,0x52,0x7b,0xb2,0xba,0x2d,0xe0,0x38,0xbd,0xd0,0x30,0xab,0x3c,0x27,0x34,0x95,0x3b,0x57,0xef,0xac,0xbc,0xc7,0x66,0x06,0xbb,0xbe,0x62,0xe0,0x3b,0xf4,0xe9,0x19,0xbd,0xa3,0x67,0x1a,0xbd,0x8e,0xa2,0x17,0x3d,0x6e,0x62,0xa7,0x3d,0xf1,0xb7,0x3a,0xbe,0x8d,0x92,0xbf,0xbd,0x9e,0xe9,0xd1,0x3c,0xd5,0xac,0x25,0xbe,0xd1,0xd6,0x2e,0x3e,0x7b,0xbe,0xb8,0xbd,0xb7,0x5d,0xa5,0x3c,0xf7,0x3c,0x59,0x3d,0x57,0x41,0xac,0xbd,0x9d,0x56,0xd8,0xbb,0x4e,0xc3,0xb1,0x3c,0x3a,0x34,0xd4,0xbc,0xc6,0x1c,0x1b,0xbd,0x40,0xc2,0x4a,0x3d,0xb0,0x24,0xed,0xbd,0x2e,0xe2,0x2b,0x3d,0xae,0xef,0x5f,0x3c,0x2a,0x0c,0x7a,0x3d,0x53,0xe5,0x1d,0xbe,0xc5,0xc3,0x52,0xbd,0xe0,0x15,0x24,0x3d,0x77,0xf3,0x83,0xbd,0x81,0xc0,0xab,0x3c,0x00,0x1b,0x12,0x3e,0x13,0x26,0x11,0xbe,0x9d,0x67,0x51,0xbd,0x94,0x8e,0x8e,0x3c,0xcc,0x16,0xc4,0xbc,0x1b,0xab,0xc9,0x3d,0xf8,0x08,0x02,0x3e,0x60,0x2b,0x1d,0x3d,0x9a,0xc3,0xd6,0x3d,0xf3,0x7e,0x93,0xbc,0x88,0x31,0x4f,0xbd,0x44,0x98,0xbb,0xbd,0x50,0x37,0xb1,0x3c,0x13,0x8d,0xf8,0x3c,0x45,0x6d,0x18,0xbd,0x73,0x12,0x13,0xbd,0xe4,0xef,0xbf,0x3d,0xd0,0xe5,0x1f,0x3d,0x38,0xb6,0xfe,0xbc,0x10,0x16,0xc6,0x3c,0x31,0x54,0xa1,0x3d,0x80,0x40,0x42,0x3d,0x50,0x00,0x9d,0xbd,0x66,0x62,0x3d,0xbd,0xa4,0x09,0x04,0x3d,0xe7,0x24,0x09,0x3e,0xd6,0xe5,0xb9,0x3c,0xe5,0x85,0x19,0x3e,0xf3,0x6b,0xfd,0x3c,0x0f,0x60,0xc3,0xbd,0x56,0xeb,0xb6,0xbd,0xa8,0x9e,0x31,0xbc,0x7f,0x77,0x8d,0x3d,0x2e,0xd5,0x5d,0x3d,0x33,0xbb,0x21,0x3d,0xdc,0xb7,0x8d,0xbd,0x4b,0x11,0xfb,0x3b,0x7e,0xbb,0x24,0x3d,0x8c,0xf3,0xd3,0xbc,0x50,0x1c,0x74,0x3d,0x88,0x90,0x5f,0x3d,0xf9,0xb6,0xd9,0xbc,0x43,0x15,0x05,0xbe,0xdc,0x38,0x1a,0x3e,0x1a,0xd1,0x8e,0x3d,0x2f,0x60,0xda,0x3c,0xc4,0xb4,0x92,0x3d,0xfa,0xff,0xaa,0x3d,0x65,0xdc,0x7e,0xbd,0x95,0xb7,0x05,0x3d,0x61,0xa9,0xf7,0x3c,0x79,0x5d,0x2a,0x3e,0x76,0x31,0x9f,0x3d,0x4a,0x8f,0xe8,0x3d,0x4b,0xca,0xbc,0xbd,0xf1,0xd4,0x97,0x3d,0x88,0x66,0x11,0x3e,0x9b,0x89,0x09,0x3e,0x51,0xa6,0xff,0xbc,0x99,0x08,0xbc,0x3d,0x24,0x7a,0x35,0xbe,0x1d,0x3d,0x03,0xbe,0xb3,0x4f,0xa5,0x3d,0x2d,0xc6,0xfb,0x3d,0x33,0x14,0xee,0xbc,0xf7,0x27,0x25,0x3b,0xe9,0x02,0x37,0xbe,0x42,0x1d,0x15,0xbe,0x84,0xc9,0xfd,0x3d,0x42,0xdf,0x51,0x3e,0x3e,0x4c,0xf6,0x3c,0xed,0x84,0x78,0xbd,0x6e,0xaa,0xa6,0xbe,0x61,0x66,0xb0,0xbd,0x1c,0x4f,0x8e,0x3d,0x54,0xf3,0x7e,0x3d,0x3a,0xe5,0x81,0x3c,0x5b,0xff,0x21,0xbe,0x59,0x78,0xbf,0xbe,0xaa,0x30,0x94,0x3c,0x2b,0xeb,0x32,0x3e,0x56,0x7c,0x2b,0x3e,0x8c,0xe4,0xd3,0x3d,0x2e,0xb5,0x59,0xbd,0x1b,0xd9,0x8c,0xbe,0x2a,0xa5,0x10,0x3e,0x0f,0xa6,0xb7,0x3d,0x15,0xb2,0x0d,0x3e,0x86,0x81,0xcc,0x3c,0x0f,0x0e,0x1a,0xbe,0x0a,0x30,0xca,0xbe,0x39,0xbf,0xfe,0x3d,0x74,0x6b,0xfb,0x3d,0x48,0xa4,0xb5,0x3d,0x7c,0x7d,0x5d,0x3e,0x7d,0xb0,0x4c,0xbe,0x5a,0x9a,0x75,0xbe,0xc8,0xab,0xf7,0x3c,0x47,0xe6,0x54,0xbd,0x3e,0x93,0x27,0x3d,0x35,0xc2,0xcc,0x3d,0x10,0xf4,0x17,0xbe,0x1e,0xc6,0x81,0xbe,0x2d,0x60,0xcf,0x3d,0x29,0x73,0x04,0xbd,0xa0,0x44,0xfe,0x3c,0x3f,0xda,0x76,0x3e,0x2f,0xc3,0x5c,0x3c,0x79,0xc7,0x81,0xbe,0x16,0xcc,0x2d,0x3c,0x53,0x34,0x05,0x3d,0x6c,0x75,0x14,0x3e,0xd9,0xfd,0x48,0x3e,0xce,0x97,0x1f,0xbe,0x7f,0xe8,0x67,0xbd,0xc7,0x6e,0xb7,0x3d,0x3a,0xc2,0xb0,0x3c,0xa1,0xf1,0x3c,0xbd,0x86,0xf2,0x9f,0x3e,0x4f,0x0a,0xcc,0xbd,0x3a,0xf2,0xb1,0xbc,0xbb,0x0a,0x2e,0xbd,0x9e,0x57,0xbb,0xbd,0x1d,0xfa,0x53,0x3d,0x7c,0xc5,0x1f,0x3e,0x4a,0x03,0x1f,0xbd,0xce,0xd7,0x13,0xbe,0xf2,0xf7,0x99,0xbd,0xc1,0x82,0x94,0x3d,0xaa,0x3c,0x4d,0x3d,0xc6,0x6c,0xac,0x3d,0xea,0x8f,0x08,0x3c,0x5a,0xdf,0x37,0xbd,0x24,0x80,0x11,0x3d,0xbf,0x39,0x53,0x3d,0x76,0xb0,0x92,0x3d,0x00,0x6d,0x4d,0x3e,0x8e,0x64,0xd5,0xbd,0x13,0xd8,0x1d,0xbd,0xe2,0x2c,0x8c,0xbd,0x5c,0x58,0x10,0xbe,0xff,0x8f,0xc0,0xbc,0xc4,0x0f,0x65,0x3e,0xfd,0xa2,0xcf,0xbb,0x5d,0x2e,0xa8,0xbd,0x55,0xc5,0xae,0x3d,0x6f,0xbd,0x8e,0xbd,0x7e,0xdc,0x4a,0x3d,0x70,0x4f,0x48,0x3d,0x2f,0x54,0xdc,0xbd,0xe6,0x66,0x0a,0xbe,0x39,0x55,0x1b,0x3d,0x9e,0x57,0x8d,0x3c,0x9f,0x9a,0xb2,0x3c,0xfe,0x18,0xb1,0x3d,0x77,0x53,0xa4,0xbd,0x2e,0x31,0xdd,0x3c,0x3f,0x09,0xc6,0x3d,0x11,0xd4,0xed,0xbd,0x0b,0xd2,0x0a,0x3e,0x4c,0x23,0x07,0x3e,0xc4,0xcc,0x84,0xbd,0xab,0x92,0x1c,0xbe,0x63,0x1a,0x8f,0x3d,0x51,0x65,0x0d,0x3d,0xdb,0x6b,0xa7,0x3d,0x5a,0xd0,0x87,0x3d,0x31,0xa3,0xfd,0xbc,0xd5,0xae,0x9c,0xbd,0x61,0xda,0x27,0x3c,0xaf,0x35,0xae,0xbc,0xcf,0x31,0x3c,0x3d,0x9f,0x84,0x95,0x3d,0xd7,0x50,0xc0,0x3b,0xd1,0xf9,0x24,0x3d,0x7d,0xaa,0x96,0x3c,0xb1,0x07,0x6e,0x3c,0x20,0xfc,0x89,0x3d,0x77,0x3d,0x8a,0x3d,0x8e,0x54,0x99,0xbd,0xe4,0x8f,0x97,0xbd,0x2a,0xf7,0xb4,0xbc,0x20,0xba,0x34,0x3e,0x4c,0xbb,0xed,0x3d,0x15,0xb0,0x6b,0xbc,0x31,0xee,0xc6,0xbd,0xef,0xfe,0xb6,0xbd,0x9a,0x26,0x81,0x3c,0x57,0x55,0x7f,0x3d,0x8d,0x59,0x58,0x3e,0x9e,0xa5,0x16,0xbc,0xd4,0x39,0x00,0x3d,0x26,0x1a,0x2b,0x3d,0xef,0xee,0x17,0x3e,0x7f,0xbb,0x9b,0x3d,0x00,0x2b,0xe4,0x3d,0xe2,0x9c,0x19,0xbe,0xdb,0xad,0xf2,0xbd,0xec,0xba,0x71,0x3d,0x8b,0xf7,0x82,0x3b,0xe4,0xb2,0x9b,0x3d,0x1f,0xb0,0x1f,0x3e,0x10,0x13,0x8e,0xbd,0x7b,0xf2,0x09,0x3d,0x52,0xa0,0x92,0x3c,0xba,0xa6,0x1e,0x3e,0xa6,0x66,0xa1,0x3d,0x35,0x2f,0x7b,0x3d,0x7c,0xa9,0xca,0xbc,0x45,0x32,0x5f,0xbb,0x80,0x5a,0x97,0xbd,0x03,0x2a,0xbd,0x3d,0xdf,0x86,0x26,0x3e,0x61,0xcb,0x63,0x3d,0x1a,0x8e,0xdc,0xbd,0xdf,0x74,0x92,0x3c,0xed,0x39,0x12,0xbd,0x79,0xc5,0x78,0xbc,0x17,0x7c,0xa7,0x3d,0xae,0x90,0xba,0x3d,0xc8,0x82,0xe8,0xbd,0xca,0x32,0xc2,0xbc,0xbf,0x08,0x0c,0xbe,0xd8,0xea,0xa4,0xbc,0x14,0x22,0x36,0x3c,0x35,0x9e,0x48,0x3d,0x9e,0xa3,0x45,0xbe,0xed,0xf6,0xc2,0xbd,0x3f,0x53,0x03,0xbe,0xc9,0x57,0x68,0x3e,0xe8,0xf9,0xbe,0x3d,0xfd,0x8b,0xbc,0xbc,0x98,0xbb,0xbb,0xbd,0xa2,0xa0,0xd2,0xbd,0xc9,0x2b,0x8a,0xbe,0xfe,0x93,0xbe,0x3d,0xde,0x84,0xb6,0xbd,0x6f,0x14,0x8c,0x3c,0xba,0xbd,0xd8,0xbd,0xa7,0x00,0xb3,0x3d,0x7b,0xd5,0xcd,0xbc,0x37,0x06,0x69,0x3e,0x7e,0x4f,0xb6,0xbd,0xaf,0x96,0xb4,0xbd,0x9a,0x88,0xc8,0x3d,0x3a,0x5d,0xca,0xbd,0x3a,0xc7,0x1e,0x3c,0x0d,0x9b,0x38,0x3d,0x86,0xbb,0x58,0xba,0x72,0xdf,0xa1,0xbd,0x25,0xcb,0xd7,0xbb,0x4f,0x12,0x94,0xbd,0xf7,0xd0,0x64,0xbd,0xd4,0x33,0x74,0x3c,0xa6,0x6d,0x47,0xbc,0x01,0xf2,0xfa,0x3d,0x21,0x15,0x39,0xbd,0xb0,0xa3,0x76,0x3d,0x8a,0xdd,0x1c,0xbe,0xbf,0x23,0x08,0x3d,0x11,0xbe,0x05,0xbe,0x99,0x1f,0x9d,0x3c,0xe3,0xac,0x80,0xbd,0x5c,0x7d,0xbe,0x3d,0xd9,0x20,0x0c,0xbe,0xe7,0xe6,0x2c,0x3d,0x4d,0x85,0x4f,0xbd,0x70,0x87,0x8c,0xbd,0x64,0xc3,0x4f,0xbd,0x52,0x88,0xc3,0xbd,0x95,0xc9,0x70,0xbe,0xb3,0x94,0x04,0x3e,0xd4,0xe7,0xc1,0xbd,0xaa,0x8f,0xb6,0x3d,0x83,0x69,0x8a,0xbe,0x4e,0x3b,0xbd,0xbd,0x1f,0x3c,0xfd,0xbd,0x50,0x9a,0x48,0x3d,0x05,0xf8,0x98,0xbc,0x9d,0x4e,0x33,0xbd,0xbf,0xa3,0x74,0xbe,0x04,0xd0,0xf4,0xbd,0xa8,0x2d,0x12,0xbe,0xf4,0xde,0xc6,0x3d,0xee,0xad,0xe9,0xbd,0xc0,0xc3,0x8c,0x3d,0x03,0x41,0xdd,0xbd,0xb4,0x71,0xb3,0x3d,0x91,0x93,0x66,0xbe,0x75,0xe9,0x7f,0x3d,0x73,0xc2,0xdf,0x3d,0x1a,0xca,0x9a,0x3d,0x9b,0x89,0xe9,0xbd,0x1c,0x5c,0x97,0xbb,0x44,0x3b,0xad,0xbc,0x9e,0xf5,0x02,0x3e,0xef,0x47,0x3c,0xbd,0x10,0xd5,0x8d,0xbd,0x51,0xc4,0x93,0xbd,0x52,0xd8,0xff,0xbd,0xe2,0xa7,0x45,0xbe,0x16,0xa9,0xcf,0x3d,0x13,0x83,0x14,0x3e,0x80,0xcf,0x91,0xbb,0x87,0xf2,0x27,0x3a,0x27,0x5b,0x05,0x3d,0x6d,0x8e,0x19,0xbe,0xee,0x48,0xcb,0x3b,0xd2,0x88,0x9b,0x3d,0x33,0x62,0x44,0xbe,0x82,0xd9,0x26,0xbe,0x02,0xab,0xa8,0x3d,0x94,0x99,0x65,0xbd,0x7b,0x86,0xa8,0x3d,0xfb,0xca,0x20,0x3e,0x77,0x9d,0x2c,0xbe,0xdd,0x80,0x21,0xbd,0x44,0xb5,0xdb,0xbd,0x3d,0x70,0xf4,0xbc,0xd4,0x5f,0x0d,0x3e,0xc7,0xf7,0x41,0x3c,0xa3,0xc5,0x74,0xbd,0xe9,0x05,0x77,0x3d,0xaa,0xbd,0x7a,0xbd,0xd0,0xe8,0xd9,0xbd,0xb8,0xb2,0x37,0x3e,0xfc,0x9e,0x48,0x3e,0xca,0x1f,0x57,0xbe,0x37,0xb6,0x4f,0x3c,0xb1,0x86,0xa0,0x3b,0xbb,0xa7,0x48,0x3c,0xbf,0xa8,0xd5,0x3d,0x02,0xf6,0x65,0x3e,0xa0,0xf9,0xe6,0xbd,0xd9,0xef,0x05,0x3e,0x00,0x60,0xe0,0xbd,0x7f,0x8d,0x08,0xbd,0x84,0xf5,0xd7,0x3d,0xfd,0x65,0x49,0x3e,0xc4,0xbb,0x97,0x3c,0xbe,0x1c,0xdd,0x3d,0x2f,0xa6,0xc2,0xbd,0x31,0xda,0xc1,0x3d,0x45,0x5d,0x9a,0x3d,0x71,0x73,0x92,0x3c,0x11,0xa8,0x0c,0xbe,0x61,0xc2,0x16,0x3e,0x33,0xbd,0xfa,0x3c,0xf4,0x61,0x82,0xbd,0xee,0x1f,0x11,0x3e,0xa9,0x67,0x0d,0x3d,0x8d,0xc7,0xdc,0x3c,0xaf,0x91,0x6a,0x3d,0x4c,0xbc,0x9c,0x3d,0x65,0xf4,0x01,0xbc,0x29,0x38,0x0a,0x3e,0x33,0x9e,0x03,0x3e,0x41,0x87,0xdb,0xbd,0x26,0x50,0x8c,0x3d,0xb7,0x51,0xeb,0xbc,0x1c,0xb1,0x25,0xbe,0xbe,0xd6,0x99,0x3e,0xc1,0x61,0xa3,0xbd,0x91,0x72,0xcc,0x3c,0x33,0x0f,0x2d,0xbe,0xd8,0x5d,0x4e,0x3d,0x2f,0xc3,0x53,0xbe,0x07,0x42,0xe9,0x3d,0xd7,0xbf,0x56,0xbe,0x72,0x34,0x0b,0xbc,0x74,0x12,0x3c,0xbe,0xc3,0xbd,0x13,0x3b,0x29,0xec,0xba,0xbb,0x33,0xde,0x3c,0x3e,0xf3,0x74,0x36,0xbe,0x69,0x72,0xa7,0x3d,0xa2,0xf4,0xda,0xbc,0xb8,0x4a,0x7a,0xbc,0x00,0xd1,0xad,0xbd,0x08,0x96,0x7e,0x3d,0x70,0x7e,0x09,0xbe,0x24,0x0f,0xca,0x3d,0x50,0x29,0x3b,0xbe,0x13,0x8f,0x4e,0x3c,0x71,0xe2,0xfb,0xbd,0x62,0x58,0xdd,0x3c,0x6b,0x25,0x1e,0xbe,0xe5,0x12,0x69,0x3d,0x24,0xe5,0x27,0xbe,0xcb,0x3d,0xdd,0x3d,0x91,0x31,0xe5,0xbd,0x68,0xf8,0xe7,0x3d,0xd6,0x70,0xef,0x3c,0xa9,0xe5,0xed,0xbd,0xec,0x1e,0x8f,0x3c,0xb7,0x80,0x0c,0x3e,0x9a,0xa8,0x51,0xbe,0xdc,0x9a,0x11,0xbd,0xd0,0x44,0x91,0x3d,0x7a,0x1d,0x84,0x3d,0x7d,0x6d,0x83,0xbc,0x72,0x39,0x97,0x3d,0x82,0xf1,0x0a,0xbe,0x7e,0x6b,0x71,0x3d,0x78,0x84,0x14,0x3e,0x48,0x6e,0x8a,0xbc,0xe5,0xb3,0x15,0xbe,0x77,0x80,0x4d,0xbd,0x54,0x2f,0x8a,0xbe,0x60,0xca,0xd5,0x3d,0xdb,0xfd,0x3b,0x3e,0x79,0x6d,0x72,0xbe,0x61,0xca,0xf9,0x3d,0x5c,0x1a,0x00,0xbe,0xdd,0x58,0x35,0x3c,0x5f,0x7b,0x73,0x3e,0x9a,0x92,0x30,0x3e,0xa7,0xd4,0xa3,0xbd,0xae,0x81,0xb9,0x3d,0x34,0xde,0xb7,0x3c,0x94,0x08,0x8d,0xbd,0xe5,0xd2,0x68,0x3e,0xfe,0x36,0xd2,0x3d,0xbf,0x13,0xb9,0xbd,0x13,0x0f,0xb5,0x3d,0x37,0x47,0xc2,0x3d,0x17,0x2e,0x94,0x3d,0x76,0x32,0x4a,0x3e,0x8a,0x41,0x31,0x3e,0x4b,0xeb,0x84,0xbd,0xb5,0x5f,0x41,0x3b,0x93,0x86,0xe8,0xbd,0x6b,0x50,0x03,0xbe,0xe3,0x96,0x4f,0x3e,0x9f,0xf9,0x0f,0x3e,0x3c,0x76,0x07,0x3e,0x2f,0xf8,0x90,0x3d,0x24,0x60,0x22,0x3d,0x3b,0x4c,0x82,0x3c,0x06,0xfd,0x21,0x3e,0xec,0xc4,0x34,0x3e,0xcd,0x2c,0x4d,0xbc,0x13,0xa8,0x70,0x3e,0xb8,0xa2,0x39,0x3d,0x3b,0xad,0x21,0x3d,0x57,0xa8,0xb3,0x3d,0x4c,0x7c,0x82,0x3d,0x11,0xa1,0xbe,0xbd,0xee,0x36,0x0a,0x3e,0xe7,0x5c,0x99,0xbd,0x5c,0xba,0xbc,0xbd,0x00,0x1e,0x7a,0x3e,0x76,0x40,0x94,0x3d,0x64,0x0f,0x14,0xbd,0x47,0x2b,0xf0,0x3c,0xd3,0x26,0xae,0xbc,0xea,0x4a,0xba,0xbc,0x22,0x3b,0x6d,0x3e,0x4e,0x67,0x8c,0xbd,0x44,0xa0,0x55,0xbd,0xf0,0xe6,0x91,0x3d,0x1f,0xf4,0x7a,0xbd,0x51,0x89,0xee,0x3c,0xbd,0x67,0xc4,0x3d,0x5e,0x47,0xfb,0xbd,0x1e,0xd9,0x5f,0x3d,0x6b,0xed,0x7f,0xbc,0xeb,0x39,0x69,0xbd,0xa5,0xf7,0x41,0xbe,0xf1,0xa8,0x04,0x3d,0x26,0x35,0x0d,0xbe,0x33,0x93,0x95,0x3d,0x88,0x98,0x33,0xbd,0x8b,0xc6,0x99,0xbc,0xe6,0xd8,0x9a,0xbc,0x37,0x0b,0xf1,0x3d,0xf1,0x63,0x4c,0xbe,0xb5,0x1f,0x76,0x3e,0x5a,0xea,0x04,0xbe,0xc3,0xa8,0x9c,0x3c,0x07,0xcc,0x1c,0xbe,0x97,0xf5,0x14,0xbd,0x10,0x84,0x2e,0xbe,0x27,0x9a,0x1b,0x3e,0x12,0x3c,0x0c,0xba,0xfc,0x0e,0x04,0x3d,0x19,0x4c,0x2a,0xbe,0x0b,0x86,0x4e,0x3d,0xe3,0xf5,0x93,0x3b,0x14,0x9d,0xe0,0x3d,0x41,0x7b,0x2c,0xbe,0x79,0x99,0x15,0xbe,0xf4,0x15,0x3b,0xbd,0xae,0x56,0xf8,0x3d,0x3f,0xfc,0xad,0xbd,0x94,0xbd,0x14,0x3e,0xa1,0x96,0xc2,0xbd,0x98,0x1b,0x52,0x3d,0x52,0xaf,0x89,0xbe,0x6b,0xb5,0x9c,0xbd,0xed,0x2a,0x1a,0x3e,0xda,0x40,0x9a,0xbd,0x90,0x98,0x12,0xbe,0x39,0x19,0xd5,0x3d,0x4f,0x9f,0xc0,0xbd,0x9f,0xc2,0xed,0x3c,0x73,0xe0,0x35,0x3e,0xda,0x9d,0x00,0x3d,0xa4,0x90,0x50,0xbd,0x34,0x38,0x8a,0xbd,0x3c,0x32,0xc7,0xbd,0x16,0xea,0xf9,0x3d,0x51,0x3a,0xb6,0xba,0x05,0xfd,0x12,0xbe,0x64,0xac,0x09,0xbd,0x75,0x6f,0xf5,0xbd,0xbc,0xbd,0x55,0xbd,0x1d,0x4d,0x44,0x3d,0xa8,0xfc,0xbe,0x3d,0x77,0x1e,0x15,0xbe,0xd3,0x46,0x9e,0x3d,0xce,0x2b,0x52,0xbd,0x26,0x0f,0x3e,0xbe,0x1a,0xc3,0x0a,0x3e,0x72,0x96,0xaf,0x3d,0x83,0x1c,0x01,0x3d,0x78,0x7d,0x52,0xbd,0x79,0x26,0x84,0x3c,0xbd,0x26,0xa6,0xbd,0x43,0x76,0x5f,0x3e,0xd4,0xc9,0xe0,0x3d,0x17,0x20,0x33,0x3c,0x05,0xb7,0x00,0x3e,0x16,0xe6,0xcc,0xbd,0x37,0x27,0x18,0x3d,0xfb,0x77,0x68,0x3e,0x06,0x75,0xb9,0x3d,0xc3,0x8a,0x75,0x3d,0xda,0x24,0x5e,0x3d,0xaf,0x2d,0x2e,0xbd,0xfb,0x44,0x0d,0x3d,0xf6,0xab,0xe3,0x3c,0xd0,0x49,0x05,0x3d,0x43,0x91,0xca,0xbd,0xba,0x21,0x14,0xba,0x62,0xf0,0xb3,0xbd,0x19,0x2c,0xfb,0x3d,0x5a,0x29,0x65,0x3d,0x28,0xb7,0x61,0x3d,0xcb,0xb4,0x00,0x3e,0x38,0xf3,0xdb,0x3b,0xdb,0x31,0x94,0xbd,0xe8,0x2e,0x7c,0x3d,0xb8,0xd4,0x3c,0x3e,0x77,0x29,0x83,0xbd,0xf6,0xc6,0x8e,0x3d,0x79,0x45,0x42,0x3d,0xb5,0xcc,0x89,0x3a,0x84,0x6b,0x25,0xbd,0xd2,0xa4,0x98,0x3d,0x32,0x45,0x80,0x3c,0x43,0x97,0x81,0xbc,0xfe,0x30,0x79,0xbd,0x47,0xea,0x10,0xbb,0xa4,0x01,0x92,0xbd,0x21,0xcb,0x13,0x3e,0x3a,0xd2,0xf8,0xbc,0x6b,0x4b,0x4a,0x3c,0x37,0x01,0x29,0x3d,0x74,0x9a,0xa9,0x3d,0x86,0x5a,0x4e,0xbd,0x2a,0xef,0x06,0x3e,0x20,0xb0,0x66,0xbd,0xda,0xbb,0x68,0x3d,0xfb,0x05,0x60,0xbe,0x44,0xfa,0xef,0x3c,0x5d,0xd1,0x17,0xbc,0x91,0x38,0xcc,0x3b,0x24,0x83,0xee,0x3c,0x75,0xfb,0x4e,0x3d,0xf8,0x1e,0x9d,0xbe,0x60,0xda,0xce,0xbd,0x45,0xc7,0x5e,0xbe,0xdb,0x8b,0xd9,0x3d,0x7a,0x17,0x32,0xbe,0x1f,0x0c,0xb6,0x3c,0x92,0x1b,0x04,0xbd,0xb5,0x5a,0xc5,0x3d,0xea,0xd6,0x02,0xbe,0x50,0xf6,0xcb,0x3c,0xda,0x62,0x69,0xbd,0xc1,0x58,0x41,0xbd,0x36,0x69,0x42,0xbd,0x28,0x3a,0x30,0x3d,0x45,0x46,0xc6,0xbd,0x87,0x1f,0x79,0x3d,0x6d,0x3a,0xc0,0xbc,0x52,0x86,0x0d,0x3e,0x61,0xc9,0x0d,0xbe,0x5c,0x98,0xff,0x3d,0x76,0xac,0x3c,0xbe,0x3a,0xc7,0x88,0x3e,0xe5,0x4c,0x28,0x3d,0xee,0x2c,0x2d,0x3d,0x16,0x1e,0x9e,0xbd,0xaf,0xce,0x88,0xbd,0x20,0xa2,0x61,0xbe,0x73,0x17,0xdd,0x3d,0x12,0xd2,0x8f,0x3d,0x91,0x01,0x64,0x3d,0xd2,0x50,0xe9,0xbd,0x12,0x6c,0x0a,0xbd,0x5e,0x57,0x5b,0xbd,0x67,0xe1,0x05,0x3e,0x3b,0x41,0xa9,0x3c,0xce,0x2f,0x8f,0x3d,0x06,0x49,0xe4,0xbb,0x7b,0xa3,0xfa,0x3d,0x50,0xe1,0x33,0xbe,0xfe,0x5c,0xfa,0x3c,0xab,0xc1,0x02,0x3d,0x73,0x95,0xe5,0xbd,0xa5,0xdb,0xbf,0xbd,0x17,0xb1,0xaa,0x3d,0x1f,0x7b,0xaa,0xbd,0xfb,0x13,0x49,0x3e,0x67,0xa3,0x12,0x3e,0x49,0x9b,0x37,0x3d,0xbd,0x6c,0xde,0xbd,0x46,0x52,0xc8,0xbc,0xba,0x80,0xcb,0xbc,0xce,0xfb,0x34,0x3e,0x48,0xf8,0x69,0x3e,0x1c,0xe9,0xec,0xbc,0x21,0xa6,0x64,0xbd,0xfa,0x0f,0x05,0xbd,0x29,0x7a,0x96,0xbd,0x6e,0x58,0xb0,0x3d,0x3f,0xaa,0xab,0x3d,0x46,0x3f,0x55,0x3d,0xbc,0x20,0x7d,0xba,0x5b,0xfa,0x0c,0xbd,0xfd,0x0e,0x53,0xbd,0xb9,0xa8,0x56,0x3e,0x45,0xb8,0x6d,0x3e,0x97,0x75,0x3f,0xbd,0x16,0x37,0x09,0x3d,0x42,0x1f,0xaa,0x3d,0x20,0xa3,0x06,0xba,0xac,0xcf,0xaf,0xbc,0xee,0x36,0x24,0xbc,0x6b,0xff,0x10,0xbd,0x25,0x20,0xee,0x3b,0xdf,0x87,0xfc,0x3b,0x19,0x7b,0x3e,0xba,0x35,0xbf,0x32,0x3e,0xb3,0xbd,0x27,0x3c,0xe9,0x4c,0xea,0x3c,0xfd,0x9a,0xc5,0xbc,0x5b,0x1d,0x1c,0x3d,0x31,0xa1,0x12,0x3e,0x81,0x24,0x6f,0x3e,0xef,0x99,0x8a,0x3c,0xe5,0x03,0xba,0x3c,0x15,0x1d,0xae,0x3d,0x61,0xd6,0xca,0xbc,0x07,0x73,0xf3,0xbd,0xcc,0xe2,0x21,0x3e,0xdf,0x4a,0x74,0x3d,0x49,0xa5,0xff,0x3c,0xca,0xe4,0xd2,0xbd,0x0f,0x4f,0x77,0xbc,0xd6,0x16,0x4c,0x3d,0xaf,0xfb,0x4e,0xbd,0x15,0x9f,0x10,0x3d,0x7e,0x0d,0x87,0xbd,0xb3,0xee,0x25,0xbe,0x7c,0xce,0x60,0x3d,0x92,0x8b,0x57,0xbc,0x50,0xf2,0xce,0x3d,0xfb,0x65,0xae,0xbc,0x7e,0x04,0xae,0x3d,0x77,0xd9,0xb0,0x3c,0x9e,0xf7,0xf4,0xbd,0xdd,0x5c,0x09,0xbd,0x1c,0x54,0x9f,0xbd,0xbd,0x30,0xa3,0x3c,0xd7,0xbb,0x1c,0x3e,0xff,0x9c,0x63,0xbd,0x66,0x75,0xe1,0x3d,0x03,0xde,0x87,0xbd,0x65,0x7c,0x12,0x3e,0x9f,0xa2,0xf7,0xbd,0x09,0x71,0x8c,0xbd,0x3a,0xdb,0x55,0xbd,0x2c,0xf7,0x20,0xbe,0x5d,0x59,0xb9,0xbd,0xcc,0xb4,0x15,0x3c,0x85,0x9d,0x08,0xbe,0x4a,0xa7,0x9d,0x3d,0x77,0x4b,0x9c,0xbd,0xc6,0xeb,0x97,0x3d,0x26,0x0e,0x80,0xbe,0x6c,0x36,0x13,0x3e,0xb6,0x89,0x90,0xbd,0x0e,0x50,0x72,0xbc,0xa5,0x1c,0xbf,0xbd,0xcb,0x07,0x5b,0xbd,0xc9,0x51,0xee,0xbc,0x36,0x26,0xc8,0xbd,0x1d,0xa5,0xf3,0xbc,0xc1,0x3d,0xd9,0x3d,0xc4,0xfe,0x08,0x3d,0xa3,0xef,0xd1,0x3c,0x1b,0xfb,0x8b,0xbe,0xa6,0x0f,0x11,0x3c,0x00,0x88,0x0c,0x3e,0xd5,0xa1,0x6a,0xbd,0x41,0x86,0xee,0x3b,0x3b,0x85,0xb7,0xbd,0x5a,0x84,0xbc,0xbd,0x54,0x29,0xd0,0x3d,0x98,0xd8,0xcb,0x3c,0x7d,0xe9,0xba,0xbc,0x23,0x3b,0x52,0xbd,0xfe,0xb1,0xef,0x3c,0xe8,0xa8,0x4e,0xbe,0x7a,0x7d,0xde,0x3d,0x25,0x6e,0xe5,0x3c,0x39,0xa2,0xc4,0xbd,0xf6,0xde,0xfb,0xbc,0x3d,0x74,0x08,0xbd,0xeb,0x8c,0x0a,0xbd,0xdd,0x81,0x51,0x3e,0x17,0xb7,0xda,0x3d,0xe5,0x6d,0x21,0xbb,0x99,0xc1,0xe1,0x3d,0x8a,0x17,0x0e,0xbe,0x18,0x88,0x73,0xbc,0xf6,0xd8,0x00,0x3e,0x56,0x94,0x30,0x3e,0x7e,0xa0,0x3e,0x3d,0x1d,0xd3,0xb1,0xbc,0xac,0x91,0x11,0x3d,0x1f,0xba,0x6e,0x3c,0x57,0x33,0xc6,0x3d,0x6d,0x95,0x73,0xbc,0x17,0xf7,0x6b,0x3d,0xd1,0x18,0x80,0x3d,0x97,0xe9,0xc7,0xbc,0x91,0x13,0x61,0x3d,0x7c,0xaa,0xc7,0x3d,0x08,0xb5,0x4a,0x3e,0xdc,0x86,0x93,0xbb,0xb7,0x27,0x5c,0x3e,0x5f,0xad,0x14,0xbd,0x50,0x58,0x9e,0x3d,0xf5,0x0b,0x5c,0x3d,0xca,0x5c,0x80,0x3d,0x95,0xea,0x14,0x3d,0x5d,0x9e,0xa1,0x3d,0x54,0xa0,0x11,0x3d,0xdd,0x5b,0x84,0x3d,0xf6,0x31,0x05,0x3e,0x0b,0x96,0xdd,0x3d,0x12,0x2a,0x89,0x3d,0xc6,0xcc,0x30,0x3d,0xee,0xc2,0xfb,0xbd,0xce,0x27,0x0b,0xbd,0x4d,0xe3,0x1a,0x3e,0xcd,0x10,0x92,0xbd,0x45,0x09,0x6c,0x3c,0x12,0x59,0x2a,0xbd,0x93,0x49,0x09,0xbd,0xc1,0x73,0x27,0x3d,0xfa,0x44,0x97,0x3c,0x15,0x14,0xda,0x3d,0xff,0x15,0xde,0xbc,0x7b,0x1c,0x4f,0xbc,0x58,0xc7,0x55,0x3d,0x4f,0xca,0xe6,0xbc,0x51,0x0c,0xc8,0x3d,0x21,0xed,0x6d,0x3b,0x50,0x51,0x12,0x3e,0xc3,0x96,0x9f,0xbd,0x07,0xa0,0x28,0xbe,0xdf,0xf1,0xce,0x3b,0x18,0xf9,0xf1,0x3d,0x50,0x38,0x27,0xbe,0x13,0x81,0xa0,0x3d,0x29,0x3b,0xf7,0xbd,0x68,0xac,0x8d,0x3c,0x32,0x02,0xc6,0xbd,0x83,0x5f,0x6b,0x3e,0x9b,0xbd,0x90,0x3c,0x96,0x60,0xd4,0x3c,0xa7,0x5b,0x28,0xbe,0x19,0x37,0x56,0x3d,0x6e,0xfe,0x93,0xbd,0x35,0x82,0x1e,0x3e,0x59,0x8f,0x85,0xbd,0xf2,0x74,0xcc,0x3d,0xbc,0x64,0xd6,0xbd,0x58,0xc7,0x4f,0x3d,0xab,0xd7,0x18,0xbc,0x2b,0xe8,0x38,0x3e,0x2f,0xd1,0x01,0xbe,0x68,0x7c,0xd8,0xbd,0x58,0x33,0x19,0xbe,0xfa,0x65,0xab,0x3d,0x4a,0x58,0xd6,0xbd,0xf5,0x4a,0xab,0x3d,0xa8,0x96,0x3d,0xbc,0x34,0x50,0x1f,0x3d,0xd7,0xd2,0x0f,0xbc,0xf3,0xde,0xa6,0x3d,0x78,0x00,0x56,0xbe,0x63,0x0a,0x39,0x3e,0x12,0x09,0xbf,0x3d,0xce,0xe9,0x2e,0xbc,0x4c,0xb1,0xd1,0xbd,0x9e,0x52,0x02,0x3e,0xf3,0x14,0x65,0xbe,0x05,0x81,0xd1,0x3d,0x12,0xe0,0xd5,0x3c,0x53,0x02,0x6a,0xbd,0xc1,0x84,0xb1,0xbd,0xa2,0x8e,0x5b,0xbc,0xd5,0xb3,0x04,0xbe,0x65,0x5b,0x97,0x3e,0x63,0x9f,0x5a,0x3d,0xb5,0x6b,0xc8,0xbd,0x13,0xa5,0x36,0xbd,0x68,0xc5,0xa0,0xbd,0x58,0xa6,0x91,0xbd,0x6d,0x59,0x2b,0x3e,0x9f,0x76,0x47,0x3b,0x6b,0xbb,0x20,0xb9,0x60,0xb1,0x5a,0xbd,0x03,0x3e,0x3a,0xbd,0x6a,0x04,0x45,0xbe,0xe7,0x78,0x89,0xbd,0x48,0x13,0x7b,0x3d,0x45,0x9a,0x05,0x3e,0xc9,0xc8,0xd8,0x3c,0xed,0xe6,0xe6,0x3b,0xc5,0xeb,0xd8,0xbd,0x81,0x3d,0x25,0xbd,0xe6,0x2e,0x97,0xbd,0xd6,0x31,0xca,0x3c,0x4e,0xd0,0x99,0x3d,0x80,0xe6,0xb0,0x3b,0x35,0x47,0x2c,0xbe,0x0e,0x9e,0x37,0xbd,0x93,0x72,0x1b,0xbd,0x28,0x2d,0xcc,0xb9,0xaa,0x49,0x0b,0xbd,0x32,0x84,0xbe,0x3d,0x47,0x64,0x26,0x3c,0x84,0xfa,0xa8,0xbd,0xe7,0xe4,0xe4,0xbd,0x9e,0xc7,0xa1,0x3c,0x5f,0x0d,0x00,0x3d,0x02,0x34,0x59,0x3d,0xec,0x8f,0x97,0xbd,0xa5,0x70,0x8c,0xbd,0x58,0x11,0x19,0xbd,0x90,0xed,0xc8,0x3d,0xb5,0x2a,0x68,0xbd,0x25,0x28,0x86,0xbc,0x22,0x4f,0x4b,0xbe,0xd5,0x8d,0x9d,0xbd,0xa0,0x7a,0x7e,0xbc,0xab,0xf3,0xd3,0x3d,0xf8,0xe3,0x76,0x3d,0xd6,0x8c,0xbd,0x3d,0x95,0x23,0x58,0xbe,0x40,0x51,0x2a,0xbe,0x28,0xee,0x5f,0xbc,0x0f,0x88,0x94,0xbd,0x54,0x81,0xc5,0x3d,0xb4,0xdf,0x5b,0x3d,0x2f,0x00,0x5e,0xbe,0x32,0x4d,0x6d,0xbe,0x66,0x1e,0x79,0xbd,0x4c,0xd8,0x23,0xbe,0x70,0xbf,0x2f,0x3e,0xcb,0x77,0x99,0x3c,0xd5,0xc9,0x82,0xbe,0xd2,0x40,0x2a,0xbe,0xe7,0xdd,0x3f,0xbd,0x07,0x88,0x9d,0xbe,0x45,0xcb,0x49,0x3e,0x48,0x64,0x35,0x3d,0xc3,0x91,0xa6,0xbd,0x2d,0xfe,0xf3,0xbd,0xa1,0x8e,0x89,0x3d,0xb6,0xe9,0x61,0xbe,0x30,0xd8,0x0f,0x3e,0xfa,0xd7,0x43,0x3c,0xcf,0x09,0x31,0xbe,0x07,0x2e,0x0f,0xbe,0x59,0x61,0x9a,0x3d,0xd6,0xf5,0x06,0xbf,0x47,0x5f,0xf4,0x3d,0x78,0x62,0x31,0x3e,0x83,0xd2,0x23,0xbd,0x10,0xb2,0x02,0xbe,0xbb,0x9a,0x04,0x3e,0x71,0x35,0xc4,0xbe,0x87,0x6d,0x38,0x3e,0x09,0x57,0x52,0x3e,0xb5,0xac,0x97,0x3d,0x36,0x1e,0x22,0xbe,0x95,0x1e,0xd8,0x3d,0x7a,0x7e,0xfa,0xbe,0x37,0xac,0xda,0x3d,0xe8,0x82,0x20,0x3e,0x28,0x1b,0xcc,0x3d,0x9d,0x31,0xe1,0xbc,0x73,0x95,0x20,0x3d,0xd2,0xe4,0xfb,0xbe,0xa2,0xa1,0x24,0xbd,0xec,0x17,0x6d,0x3d,0x87,0x99,0xd8,0x3d,0x12,0xc2,0xdf,0x3d,0xc9,0x68,0xae,0x3c,0x2a,0xeb,0xf2,0xbe,0x0c,0xb2,0x9a,0xbd,0xb6,0x04,0xa3,0x3d,0x3e,0xa3,0x41,0xbc,0xf1,0x80,0xf4,0x3c,0x5c,0x0c,0x00,0xbe,0x0e,0x8c,0xb7,0xbe,0x60,0x56,0xdf,0xbd,0x17,0xa2,0x14,0x3e,0xe2,0xee,0x6c,0xbb,0x39,0xa3,0xb4,0x3c,0xa6,0x0a,0x14,0xbe,0x3e,0xd8,0x9d,0xbe,0x2e,0xb1,0x22,0xbe,0x5f,0xa7,0x38,0x3e,0xe9,0x54,0x4a,0xbd,0x06,0x73,0x31,0xbb,0x38,0x61,0x14,0xbd,0x7e,0x36,0x83,0xbe,0xfe,0xe4,0x11,0xbe,0x66,0x30,0x0e,0x3e,0xae,0x72,0x1d,0x3d,0x54,0x5a,0x14,0x3d,0x7b,0xe3,0xf1,0xbd,0x1d,0x66,0x25,0xbd,0x4e,0x3d,0x1a,0x3c,0xa4,0xa5,0xf9,0x3d,0x33,0x3b,0x58,0xbd,0x3a,0xf9,0x5d,0x3e,0x31,0x5f,0xe1,0xbd,0xcf,0x0a,0xf7,0xbd,0x5d,0x50,0x45,0x3d,0x8d,0xb9,0x12,0x3e,0xd9,0xe2,0x17,0xbe,0x70,0x7e,0x9f,0x3e,0x53,0xb1,0x8d,0x3d,0xa7,0x95,0xe8,0x3b,0x52,0xb5,0x00,0x3e,0x7a,0xdf,0x3c,0x3e,0xa9,0xe5,0x10,0xbe,0x6c,0xbb,0xef,0x3d,0xf8,0xbc,0x2a,0xbd,0x88,0xda,0xa8,0xbc,0x49,0xc2,0x9b,0x3d,0x3b,0x76,0x13,0x3d,0xb3,0x92,0xf5,0xbd,0x61,0x72,0x93,0x3c,0x77,0x44,0x50,0x3e,0xf7,0x3c,0x0e,0x3e,0xc3,0x47,0x1e,0x3c,0x12,0x79,0x1b,0x39,0xea,0x30,0x74,0xbe,0xa9,0xa1,0xab,0x3d,0x9e,0xa8,0x32,0x3e,0xcb,0xa9,0xb9,0x3d,0x5a,0x82,0xf5,0xb9,0xa4,0x46,0xf0,0x3d,0xa7,0xaf,0x44,0xbe,0xbc,0x56,0x05,0x3c,0xaa,0xbe,0x39,0x3e,0x46,0xc0,0x90,0x3e,0xe7,0xac,0xa3,0xbd,0xa4,0xda,0x14,0x3d,0x64,0xfc,0xe3,0xbe,0xe4,0x27,0xdb,0x3d,0xaa,0x03,0x3a,0x3d,0xd1,0xdb,0xb2,0x3e,0xd8,0xb3,0x26,0xbc,0x63,0xbf,0xc7,0xbd,0x91,0x43,0xca,0xbe,0x0f,0xf5,0x0d,0xbc,0x39,0x46,0x4f,0x3e,0x45,0x61,0x03,0x3e,0xad,0x66,0xd7,0x3b,0x97,0x72,0xaf,0xbd,0x1c,0x34,0x0f,0xbf,0xd6,0xa3,0x95,0x3d,0x09,0x11,0x44,0x3e,0x9a,0x50,0xc2,0x3d,0x9e,0x5e,0xe2,0x3d,0xe8,0x10,0xf1,0xbd,0x07,0x8d,0xa7,0xbe,0x06,0xac,0x07,0x3d,0x33,0x51,0xbf,0x3d,0xc2,0x9f,0x8d,0x3e,0xdc,0x1f,0x79,0xbd,0x20,0x69,0x0e,0xbe,0xa5,0xff,0xd3,0xbe,0x0c,0xbb,0x3f,0xbb,0x41,0xea,0xec,0xba,0xd8,0xb8,0xfd,0x3d,0x2c,0xe9,0xf1,0xbc,0x62,0x04,0x8a,0xbd,0x00,0x73,0x84,0xbe,0x59,0x05,0x21,0x3e,0x93,0x39,0x10,0x3e,0x7c,0x2b,0xce,0xbb,0xcc,0x81,0xdd,0xbc,0x7c,0x89,0x97,0xbd,0xbd,0x6c,0xa8,0xbe,0x46,0x6f,0x58,0x3d,0xd2,0xa4,0xa4,0xbd,0xb1,0x48,0xe0,0xbd,0x98,0x0c,0xd4,0xbc,0x3f,0xec,0xab,0xbd,0x47,0x2c,0x47,0xbe,0x4f,0x85,0x11,0x3e,0xa9,0xda,0x6f,0x3d,0x80,0x8e,0x14,0xbd,0x19,0xd6,0x3f,0xbd,0x73,0xf7,0x2f,0xbe,0x22,0xb8,0x56,0xbe,0x78,0x3f,0xa0,0x3d,0x7f,0xbe,0x0f,0xbe,0x11,0x46,0xef,0x3a,0x94,0x6c,0x02,0x3e,0x2c,0xc2,0xd6,0xbd,0xb0,0x3e,0x4b,0xbe,0x48,0x58,0xef,0x3d,0x5a,0x21,0x47,0xbd,0xb4,0x07,0x9b,0xbd,0x11,0x68,0x89,0xbd,0x83,0xad,0x1a,0xbc,0xbd,0xb9,0x5e,0xbe,0x75,0xce,0x01,0x3e,0xd6,0x1b,0x18,0xbd,0xea,0x2f,0x89,0x3c,0xc9,0x3c,0xe0,0x3d,0x05,0x50,0x39,0xbd,0xed,0x02,0x4b,0xbe,0x57,0x74,0x3a,0x3e,0x8c,0xf5,0xa3,0xbd,0xec,0x80,0x01,0x3e,0xb2,0x6e,0xcf,0x3c,0x39,0x85,0x06,0xbe,0x18,0x4d,0x69,0xbd,0xc2,0x69,0x33,0x3e,0xad,0xf1,0x69,0xbd,0x90,0xa7,0x36,0x3e,0x06,0x1a,0xf2,0x3d,0x74,0xc1,0x01,0xbe,0xea,0x75,0x39,0xbd,0xef,0x3d,0x5d,0x3e,0x78,0x49,0xb9,0xbd,0xae,0xa0,0xa7,0x3d,0x01,0xd3,0x57,0x3d,0xbd,0xe9,0x90,0xbd,0x8a,0xc8,0x6b,0xbd,0x89,0x86,0x39,0x3e,0x42,0x51,0xb9,0xbc,0x84,0xf6,0x75,0x3e,0xe3,0x54,0x0e,0xbd,0x11,0x1a,0xe2,0xbd,0x6b,0x93,0x39,0xbd,0x03,0xdf,0x81,0x3e,0xaf,0xa1,0x63,0x3d,0xc8,0xa4,0x95,0x3e,0x96,0xc0,0x90,0x3d,0x63,0x91,0x11,0xbe,0x14,0xf6,0x5d,0xbd,0x97,0x1f,0x8a,0x3e,0x75,0x0a,0x2d,0x3c,0x43,0xa7,0xf8,0x3e,0xc6,0x7a,0x5a,0x3d,0xfa,0xf2,0x83,0xbe,0xa7,0x7d,0xf7,0x3d,0x06,0x3c,0xfb,0x3d,0x7b,0x10,0x39,0x3c,0x26,0xe8,0xda,0x3e,0x20,0xd9,0x41,0xbe,0x78,0xc4,0x89,0xbd,0xb0,0xa0,0x74,0x3d,0xe4,0xf4,0x28,0x3e,0xb6,0xb9,0xde,0x3d,0x92,0xb8,0x52,0x3e,0xf4,0x83,0x87,0xbe,0x0e,0x4b,0xb3,0xbd,0xee,0x18,0x36,0xbd,0x6a,0x81,0xb6,0x3d,0x0b,0xc7,0x76,0xbd,0xf6,0x7f,0xac,0x3e,0x27,0x98,0x0b,0xbe,0xee,0x36,0xfc,0xbd,0x0b,0x9f,0x4b,0xbd,0x6b,0x5c,0x4b,0x3d,0x29,0x5a,0xce,0xbd,0x7f,0xfa,0x65,0x3e,0x7d,0x74,0x52,0xbe,0xdb,0x38,0x49,0xbe,0x4a,0x01,0xbb,0xbd,0x0b,0x0f,0x63,0x3e,0xab,0xfa,0xb8,0xbd,0x4f,0xec,0xc6,0x3e,0x92,0xde,0xeb,0xbd,0x4e,0x94,0x81,0xbd,0xc6,0xf2,0x59,0xbe,0xdd,0xe1,0x98,0x3d,0x0a,0xf8,0xbf,0x3d,0x06,0x68,0xe8,0x3d,0xfd,0x97,0xe1,0xbd,0x18,0xd4,0xa2,0xbd,0x91,0x1a,0x3c,0xbe,0x88,0x19,0x87,0x3c,0xd6,0xf4,0x43,0xbd,0xa5,0xe2,0x64,0x3b,0x0b,0xf0,0xf2,0xbd,0xd9,0xb7,0x59,0xbd,0x4a,0x38,0xc1,0xbd,0x9f,0xa5,0x42,0x3d,0x9a,0xe2,0x3b,0x3d,0x86,0x61,0x07,0xbc,0x10,0x27,0xfd,0xbd,0xd0,0xc8,0x17,0x38,0x74,0x4a,0x4d,0xbe,0x5f,0x0d,0xb2,0x3d,0x67,0x19,0x40,0x3e,0x3b,0xe3,0x06,0xbe,0xdc,0x63,0x67,0xbd,0x36,0x4f,0x6f,0xbd,0x81,0x9a,0xc8,0xbd,0x41,0x52,0x37,0x3c,0x76,0x83,0xcc,0x3d,0xca,0x91,0xfd,0xbd,0xd0,0x5b,0xad,0xbc,0xbb,0xe6,0x93,0xbd,0xbd,0x2a,0x25,0xbe,0x55,0xa7,0xac,0xbc,0x9b,0xf6,0xda,0x3d,0x08,0x08,0xbf,0xbd,0x8c,0xe0,0xd5,0x3c,0x9b,0x88,0x91,0xbc,0xbb,0x01,0xaf,0xbd,0x31,0xfb,0xe2,0x3d,0xf8,0x39,0x0c,0x3e,0x44,0x9c,0x8c,0xbe,0x85,0xce,0xed,0xbd,0x96,0x40,0xe0,0x3d,0x93,0xec,0x55,0xbe,0x6a,0x25,0x85,0x3d,0x0a,0x7c,0x41,0xbd,0x41,0x22,0x89,0xbe,0xe6,0x6a,0x70,0xbd,0x19,0x5c,0xe7,0x3c,0xda,0x78,0x42,0xbe,0x86,0xca,0x24,0x3e,0x5b,0x0b,0x60,0xbd,0xfb,0x24,0x9a,0xbe,0xe0,0x3c,0x31,0xbc,0x6c,0x9c,0xa3,0x3d,0xe0,0xf2,0xc6,0xbe,0x2f,0x46,0x2b,0x3e,0x7d,0x42,0xd9,0x3d,0xf1,0x78,0x30,0xbe,0x7b,0x75,0xf7,0xbb,0x45,0xbf,0x8c,0x3d,0x5d,0xd9,0x90,0xbe,0x9a,0x00,0xc9,0x3c,0xf4,0xda,0xd6,0xbb,0xe5,0x26,0xe6,0xbd,0xbe,0xa9,0x9e,0x3c,0xc0,0xe5,0xb5,0x3d,0xda,0xf7,0xf1,0xbe,0x81,0xa9,0x4b,0x3e,0x27,0xea,0xd7,0x3d,0x73,0x17,0x44,0xbe,0x5f,0xb9,0x86,0xbd,0x0f,0x2e,0x5f,0x3d,0x33,0x47,0x82,0xbe,0x3a,0x23,0x60,0x3d,0x83,0xba,0x35,0xbd,0x7d,0x5e,0x3b,0xbd,0x7a,0x59,0x8f,0x3d,0xe6,0x04,0x80,0x3c,0x44,0x29,0x36,0xbe,0x1f,0xb0,0x09,0x3e,0xb5,0xb0,0x43,0x3e,0xaf,0x2f,0x43,0xbd,0xec,0xec,0x57,0x3e,0x09,0x63,0x41,0xbd,0x1d,0xa4,0xe6,0xbd,0x69,0x9c,0x07,0x3e,0xc3,0x41,0x6e,0x3d,0x4b,0x1f,0xc0,0x3d,0x32,0x1c,0x13,0x3d,0xc8,0x50,0x1c,0xbe,0xa2,0xc2,0x7e,0xbd,0x78,0x71,0xf9,0x3d,0x84,0x96,0xfc,0x3d,0xb1,0x0a,0x80,0x3c,0x78,0x17,0x9d,0x3d,0xa4,0xf5,0xf8,0xbd,0xc4,0x22,0x75,0xbd,0x07,0x01,0x85,0xbd,0x2c,0x0b,0x9a,0xbc,0x41,0x41,0x74,0x3e,0xd6,0x34,0x75,0xbd,0x61,0x2c,0xfa,0xbd,0x94,0x36,0x9c,0xbd,0x8f,0x75,0x10,0xbd,0x26,0x6c,0xa6,0x3d,0x07,0xe5,0x8e,0x3e,0xd7,0xea,0xfe,0xbc,0x4c,0xdb,0x4d,0x3a,0x93,0x46,0xec,0xbd,0xa9,0x3e,0xf6,0x3c,0x3d,0x2c,0xeb,0xbd,0xb4,0x49,0xb6,0x3d,0xd1,0x27,0xce,0xbd,0xba,0x68,0x57,0x38,0x6e,0x55,0x59,0xbd,0x47,0x0d,0x1c,0xbe,0xb7,0x51,0x34,0xbc,0xda,0x7d,0xd1,0x3d,0xde,0x8e,0x8a,0xbd,0x30,0x54,0x1e,0x3d,0xb1,0x14,0x41,0xbe,0xc1,0x1e,0x06,0xbe,0xfa,0x42,0xc9,0xbd,0x36,0xc5,0x9c,0x3c,0x44,0x5a,0xed,0xbd,0x77,0x7e,0xcd,0x3d,0x2e,0x33,0x01,0xbd,0xaa,0x83,0x13,0xbe,0x13,0xdf,0x27,0x3b,0xae,0x39,0x0d,0xbd,0x7c,0xf6,0x3e,0xbd,0x79,0x82,0xf8,0x3c,0xb6,0x39,0x28,0xbe,0xc0,0x50,0x43,0xbe,0xc8,0x35,0x4e,0xbd,0x0a,0xb3,0x0f,0x3d,0x4c,0x3c,0x14,0x3d,0x7a,0xc8,0x1a,0x3e,0x47,0xe5,0x56,0xbe,0x7a,0x25,0xa6,0xbe,0x41,0x53,0x1c,0xbe,0xc5,0x6b,0x38,0xbe,0x9c,0xb5,0x9f,0x3c,0x2f,0x47,0x92,0x3d,0xab,0x2d,0x80,0xbd,0x40,0x22,0x1b,0xbe,0x3a,0xda,0xc8,0x3c,0xca,0xef,0x77,0xbe,0xa1,0x79,0x81,0xbd,0x18,0xa9,0xcc,0x3d,0x81,0x9c,0x99,0xbd,0xd4,0x45,0x82,0xbe,0xfd,0xf9,0x8f,0x3b,0x1f,0xd3,0x67,0xbe,0x29,0xed,0xb5,0xbc,0x81,0x35,0xc7,0x3d,0x03,0xfc,0x89,0xbd,0x21,0xba,0x76,0xbd,0x80,0x79,0xaf,0xbc,0x41,0x05,0xe8,0xbe,0x6c,0xf9,0x62,0xbb,0xf6,0xd1,0x9a,0x3e,0xd7,0xb1,0xae,0x3a,0x3e,0xb2,0xce,0x3c,0x8b,0xdd,0x7d,0xbd,0x93,0x9e,0xda,0xbe,0xfc,0x2d,0x83,0x3b,0x46,0xd3,0x53,0x3e,0x31,0xf8,0x83,0xbd,0xee,0xcb,0x28,0x3d,0x0f,0x46,0xc3,0xbd,0x54,0x5d,0xdf,0xbe,0xdf,0x5e,0x4a,0xbd,0x04,0x47,0xb2,0x3e,0x49,0x51,0xb5,0x3d,0x9c,0x49,0xdc,0x3d,0xe7,0x9b,0x78,0xbd,0xab,0x82,0xc7,0xbe,0x56,0xd3,0xe7,0xbd,0x3c,0x74,0x81,0x3e,0x2c,0x8d,0xce,0xbd,0x14,0x98,0x94,0x3b,0xc0,0xc4,0x9a,0x3c,0x9c,0x6d,0x9b,0xbe,0x74,0x21,0x13,0x3d,0x29,0xfa,0x9b,0x3c,0x59,0x3b,0x3a,0x3c,0x1f,0xe4,0x1c,0x3d,0xe5,0xa3,0x4a,0x3d,0xa4,0x2c,0xd1,0xbd,0x77,0x4b,0x71,0x3d,0x25,0x63,0x4b,0x3d,0xa0,0x9c,0x1f,0x3e,0x79,0xb2,0x0b,0x3e,0xdf,0x05,0x36,0x3d,0x76,0xda,0x91,0xbb,0xca,0xef,0x17,0xbd,0xf4,0x18,0xb2,0x3d,0xb4,0x75,0xe6,0xbb,0x94,0xf5,0x3f,0x3e,0xe9,0xd8,0x6f,0x3e,0xe2,0xed,0x7f,0x3d,0x02,0xcb,0x59,0xbd,0xa7,0xa9,0xc2,0xbc,0x8d,0x2c,0x38,0xbd,0xc4,0x0f,0x41,0x3e,0x8f,0xfe,0x2a,0x3e,0x04,0x23,0x09,0xbd,0xfc,0xf5,0x0a,0x3d,0x5b,0x5a,0x6d,0x3c,0xf0,0xf9,0x43,0xbc,0xd7,0x06,0x26,0x3e,0xb8,0x3a,0x87,0x3d,0x12,0x84,0x86,0xbd,0xfa,0xdf,0xed,0xbd,0x3e,0x15,0x1d,0xbe,0x0e,0xf5,0xd6,0xbd,0xe1,0x92,0x22,0x3d,0x08,0x85,0x15,0x3e,0xbe,0x6e,0x74,0x3d,0xa6,0xd1,0x6d,0xbd,0x74,0xe7,0x23,0xbd,0x6c,0x52,0x94,0xbe,0x15,0x76,0xf2,0x3d,0x42,0x55,0xe0,0x3d,0xf3,0x0d,0xd0,0x3d,0xf5,0x6e,0x2a,0x3d,0xb2,0xbc,0x55,0xbd,0xdc,0xfc,0x9a,0xbe,0xc0,0x65,0x85,0x3d,0x6f,0x63,0x11,0x3d,0x48,0xb5,0xbb,0xbc,0x2f,0x5a,0x06,0x3e,0x91,0x85,0x16,0xbe,0xdc,0x93,0x2c,0xbe,0x51,0x30,0xf9,0x3b,0xbc,0x3c,0xf9,0xbc,0xbf,0xa0,0xea,0x3d,0x70,0xbe,0x8d,0x3d,0xaa,0x98,0xe2,0xbd,0x98,0xc1,0x09,0xbe,0x79,0x46,0xb7,0x3d,0x1d,0x18,0x4c,0x3c,0x75,0x15,0xbb,0x3d,0xa9,0x1b,0x55,0x3e,0x58,0xbf,0x33,0x3c,0xe8,0x96,0x1f,0xbe,0xcc,0x23,0xac,0x3d,0x71,0x7a,0x81,0x3d,0xdf,0xff,0x67,0x3d,0x7a,0x31,0xc9,0x3d,0x9a,0xc4,0x86,0xbc,0xa0,0x0e,0xd6,0xbd,0x2f,0x74,0x4e,0x3a,0x1d,0xc4,0x18,0x3e,0x01,0x30,0x2b,0x3e,0x18,0x17,0xe4,0x3d,0xf3,0x67,0x62,0xbd,0xb2,0xd0,0x02,0xbe,0xf8,0xf5,0xdf,0x3d,0x4d,0x0d,0xcd,0xba,0xcd,0x98,0x06,0x3e,0x7a,0x79,0x63,0x3d,0x77,0x44,0xa9,0x3d,0x54,0xd0,0x15,0xbd,0x30,0x36,0xea,0x3d,0x4b,0x10,0x32,0x3c,0x92,0xef,0xae,0x3d,0x6b,0xdf,0x17,0x3d,0xf8,0xb5,0x41,0xbd,0xa0,0xf4,0x05,0xbe,0x46,0xba,0xb3,0x3d,0xf7,0x92,0x7e,0xbc,0xc5,0x9f,0x5e,0xbd,0x82,0x1a,0x68,0xbd,0xfc,0xce,0x74,0x3d,0x54,0x14,0x2f,0xbe,0xac,0xb3,0x15,0x3e,0x0e,0xf5,0x28,0x3e,0xc9,0x98,0xd0,0xbd,0xf8,0xbe,0xfe,0xbd,0x24,0xf7,0xf6,0x3d,0xd0,0x59,0xee,0xbd,0xe4,0x7e,0x2d,0x3e,0x4d,0xb5,0x52,0x3d,0x18,0x3e,0x3c,0xbd,0xde,0x4a,0x80,0x3c,0x80,0xb9,0x08,0x3d,0xd5,0xed,0x28,0xbe,0xe5,0x75,0xc2,0x3d,0xad,0x11,0xe7,0x3c,0xf8,0x82,0x31,0x3c,0x0b,0xf1,0x90,0x3d,0x41,0x69,0x8a,0xbc,0xda,0x52,0x3a,0xbe,0xf2,0x59,0x21,0x3e,0x7a,0x05,0x32,0xbd,0xeb,0xdf,0xfd,0xbb,0x00,0xc8,0x80,0x3c,0xfa,0x9e,0x1a,0x3d,0x65,0x4c,0xb5,0xbd,0x33,0xd5,0x61,0x3e,0xfa,0x3e,0xcc,0x3c,0xbe,0xf2,0x26,0xbe,0x05,0xc3,0x06,0x3e,0xc2,0x25,0x7d,0xbc,0x1e,0xea,0x01,0xbe,0xba,0x84,0xaa,0x3e,0x18,0x2f,0x89,0xbd,0x99,0xae,0x43,0xbe,0xed,0x39,0xb3,0xbb,0x9f,0x69,0x87,0x3d,0x99,0x69,0x36,0xbd,0x74,0x81,0x89,0x3e,0x4b,0xc3,0x81,0x3d,0x07,0xac,0x03,0xbe,0x03,0x5f,0xbb,0xbd,0x8f,0xdb,0x09,0x3c,0xa0,0xcf,0xfb,0x3d,0xb0,0x29,0xbf,0x3d,0x88,0x18,0x0f,0xbd,0xeb,0x0f,0xbe,0x3d,0x4a,0x94,0x37,0x3d,0xb6,0x1b,0xf0,0x3c,0x11,0xa6,0xb3,0x3d,0x65,0xbb,0x17,0x3e,0x86,0xcc,0x09,0xbd,0x00,0x82,0x07,0x3d,0xd7,0x02,0xa9,0x3c,0x89,0xb8,0x84,0xbd,0x66,0xbc,0x55,0xbd,0xb3,0x40,0xe2,0x3d,0x11,0x74,0x0e,0x3e,0x6d,0x8f,0xa9,0x3d,0x9e,0xf8,0x38,0x3d,0x80,0xee,0x20,0xbd,0xbd,0x2a,0xca,0xbc,0xb4,0xcc,0xfd,0xbc,0x58,0x38,0x13,0xbc,0xa4,0x44,0xa3,0x3c,0x4e,0x7e,0xbf,0xbc,0xed,0x9d,0x57,0x3d,0x2b,0x33,0x8f,0xbd,0xb0,0x14,0x5e,0x3d,0x96,0xc8,0x2f,0x3d,0xac,0x25,0x0a,0x3b,0x5e,0x4d,0xae,0x3d,0xd9,0x93,0x01,0xbe,0x57,0xdb,0xee,0x3d,0x61,0xc3,0xf6,0x3d,0x4f,0x7d,0xc9,0x3d,0x9a,0xa8,0x18,0x3d,0x6c,0x12,0xb1,0x3c,0xf6,0xf1,0x44,0x3d,0xa9,0x98,0x27,0x3d,0x47,0x12,0x10,0xbd,0xb3,0x9b,0xc4,0xbd,0x0b,0xe6,0x78,0xbd,0x39,0x76,0x07,0xbe,0xe8,0x25,0x10,0xbe,0x88,0x85,0xae,0x3d,0xc8,0xf9,0xa2,0xbc,0x56,0x3a,0xfd,0xbd,0x97,0x69,0x88,0x3d,0x94,0x10,0x1f,0x3d,0x97,0x2d,0x83,0x3d,0x57,0x30,0x93,0x3d,0x16,0xdf,0x55,0x3d,0xdd,0x84,0x56,0xbd,0x39,0xd2,0xd1,0xbd,0x8d,0x7b,0x59,0xbc,0x10,0x94,0x44,0x3d,0x53,0xb9,0x4b,0x3d,0xff,0x22,0xb6,0x3b,0xb4,0x93,0x82,0x3d,0x01,0x05,0xb2,0xbc,0xcf,0x77,0xb9,0xbd,0x31,0x43,0x11,0xbd,0x8f,0x7f,0xfc,0xbd,0x91,0xe6,0xe1,0x3c,0xc1,0x54,0x69,0x3d,0xb0,0x48,0x87,0xbc,0x96,0x48,0x97,0xbc,0x43,0xe0,0x1c,0x3e,0xb8,0xcb,0x3e,0x3d,0xf7,0xf3,0x00,0x3e,0x21,0x60,0x4c,0xbc,0xe4,0x95,0xc6,0xbd,0x76,0xee,0x97,0xbd,0xf6,0x04,0x1c,0x3c,0xf9,0xd0,0x03,0x3d,0xf0,0x38,0x58,0x3e,0x58,0xac,0xad,0xbb,0x57,0x7b,0x90,0x3a,0xfd,0x6a,0x19,0xbe,0x4a,0x00,0x24,0xbc,0xfe,0x61,0xd5,0xbd,0x55,0xd6,0x85,0x3b,0x1d,0x61,0xaf,0xbd,0x0c,0x00,0xaa,0x3c,0xe5,0x91,0x22,0x3c,0xa3,0x09,0x5f,0x3d,0xa1,0x02,0x18,0xbd,0x74,0xa3,0x21,0x3e,0x11,0xcf,0xeb,0x3d,0xbb,0x9f,0xdb,0xbd,0xed,0xe4,0x84,0x3d,0xe3,0xf3,0x37,0x3d,0x24,0x3a,0xf4,0xbd,0xcf,0x76,0x81,0x3d,0x8a,0x43,0xa0,0x3d,0x3e,0x2f,0x31,0xbd,0x12,0x26,0x9d,0xbd,0xf9,0x50,0x74,0x3b,0xfc,0x78,0x2e,0x3d,0x69,0x2b,0x0c,0x3e,0xea,0xb3,0x0a,0x3e,0xb7,0x48,0xae,0xbd,0x22,0xcb,0xc5,0x3d,0xbe,0xa2,0xae,0x3c,0x29,0xa8,0xba,0xbc,0xa8,0xa5,0x7a,0x3d,0xbf,0x85,0xd1,0xbc,0x36,0x7c,0x8d,0xbc,0xc1,0x80,0x89,0x3d,0xa7,0x9e,0x94,0xbd,0x44,0xbe,0xc9,0xbc,0x63,0xe7,0xdc,0x3d,0x17,0x6f,0x1d,0x3d,0xb0,0x65,0x81,0xbd,0xfc,0x17,0xdc,0xbd,0x94,0xf9,0xb1,0x3d,0xcd,0xdc,0x15,0xbe,0x43,0xd2,0xe7,0xbd,0x71,0x2d,0xd5,0x3d,0x2a,0x66,0x16,0xbe,0xd4,0xdd,0x66,0x3c,0xf1,0x3e,0x11,0xbd,0x14,0xce,0x0a,0xbe,0x5e,0xb7,0x23,0xbd,0x60,0xdc,0x33,0x3d,0x5a,0x8a,0xb4,0xbd,0x0e,0x94,0x0d,0xbc,0x88,0xcd,0x33,0x3c,0x69,0xf0,0x00,0xbe,0x63,0x8e,0xec,0x3d,0xd4,0x2d,0x6e,0xbd,0x90,0xfb,0x19,0xbe,0xfb,0xf5,0x9d,0x3d,0xe6,0xfe,0x43,0xbd,0xfd,0xef,0xab,0x3d,0xff,0x32,0x16,0x3c,0x4e,0xf2,0x50,0xbc,0xfd,0xe2,0xf0,0xbd,0x9f,0x90,0x73,0xbc,0x27,0x89,0xd3,0xbb,0xe9,0x68,0x95,0xbd,0xd8,0x87,0xff,0x3c,0x21,0xb9,0xa8,0xbb,0x38,0xf6,0xfa,0xbd,0x07,0x61,0x90,0xbd,0x18,0x03,0x2b,0xbe,0x5b,0x41,0xcd,0xbd,0x95,0xf2,0x31,0x3d,0xe2,0xd1,0xe0,0x3d,0xb6,0x6e,0xfd,0x3d,0x1d,0xfa,0x5c,0xbd,0xff,0xa0,0xf1,0x3c,0xca,0x36,0xb8,0xbd,0x9e,0xdc,0x6b,0xbd,0x48,0xcd,0x37,0x3d,0x0e,0x9d,0xe9,0x3d,0xcd,0x3a,0xaf,0x3d,0x0c,0x0b,0x4f,0xbe,0x4b,0x2d,0x8d,0xbd,0x38,0x8c,0x67,0x3d,0x7f,0xb0,0x8b,0xbd,0xb1,0x11,0x1e,0x3e,0x3a,0xdd,0x96,0x3d,0x2c,0xe7,0x9d,0xbc,0x2d,0xb3,0x50,0x3d,0x30,0xbc,0x83,0x3d,0xb0,0x42,0x63,0xbd,0x53,0x9b,0x1d,0x3c,0xa1,0xce,0x03,0xbe,0x52,0x8f,0xfc,0xbc,0x80,0x67,0x04,0xbe,0x01,0xf8,0x99,0x3c,0x28,0x83,0xa5,0xbd,0xc2,0x64,0x3c,0xbc,0xcd,0xf0,0x64,0xba,0x71,0x21,0xda,0xba,0x4a,0x03,0x1d,0xbd,0x0d,0x94,0xe1,0x3d,0x3c,0x5e,0xb6,0x3c,0x21,0xa3,0x77,0x3d,0x65,0xc5,0xe8,0xbd,0x5b,0x59,0xf7,0xbd,0xba,0xf8,0x32,0x3b,0xd4,0x5f,0xfa,0x3d,0x56,0xc4,0x9d,0xbb,0x2d,0x4f,0x8f,0x3c,0x45,0xf0,0xd2,0xbd,0xcd,0xd9,0xd0,0xbd,0x12,0x91,0x14,0x3d,0xa9,0x0b,0x96,0xbd,0x48,0x3f,0xaf,0x3d,0x4e,0x3c,0x9c,0x3c,0x16,0xb3,0x39,0xbd,0x8b,0xba,0xe3,0x3c,0xf5,0x5b,0xa6,0xbc,0xc7,0xbb,0xcf,0x3d,0x9f,0x27,0x74,0x3d,0x40,0x84,0x18,0x3c,0x73,0xa8,0xff,0xbc,0xda,0x06,0xf6,0xbd,0x9c,0x9c,0x72,0x3d,0xe2,0xcc,0x92,0x3d,0xa3,0xda,0x10,0x3d,0x96,0x78,0x1e,0xbc,0x59,0xb2,0x18,0x3d,0xfa,0xc4,0x0d,0x3d,0xce,0x30,0x40,0xbd,0x09,0xfb,0x1b,0x3e,0x25,0x65,0x22,0xbd,0xc5,0xa3,0x24,0x3d,0x41,0xd5,0x45,0xbc,0x0d,0x94,0x2e,0x3d,0x45,0xae,0x12,0xbe,0xcf,0xa3,0x32,0x3e,0x45,0x4a,0x77,0x3d,0x9b,0x80,0xdb,0x3d,0x4f,0x5a,0x60,0xbd,0x93,0xbe,0x55,0x3d,0x63,0x33,0xbd,0xbc,0xd0,0x60,0x32,0x3e,0xfe,0x02,0xc6,0xbb,0x85,0xa5,0xfb,0x3d,0x68,0xd6,0x8c,0x3d,0x60,0x87,0x06,0x3d,0xc4,0x89,0xcb,0x3c,0x71,0x5d,0x5e,0x3c,0x47,0xbf,0xca,0x3d,0xbe,0xc5,0x9e,0x3d,0x27,0x05,0x72,0xba,0x21,0x9e,0xd3,0xbd,0x71,0xdf,0xb5,0xbd,0x00,0x4c,0x8f,0x3d,0x4e,0x57,0xb5,0x3d,0xc7,0x56,0xc4,0x3d,0x04,0xe2,0xe3,0x3c,0x8c,0xfc,0xb9,0xbd,0x6c,0x58,0x4a,0x3c,0xbe,0x3b,0xb2,0x3d,0xd2,0x62,0x45,0x3d,0x23,0x4a,0x29,0x3e,0x98,0xef,0x8b,0x3c,0x74,0x3e,0x2d,0xbb,0xff,0x8d,0x22,0xbd,0xdf,0x8f,0xc9,0x3d,0xb2,0xba,0x25,0x3c,0xdb,0x51,0x2f,0x3e,0x35,0x46,0x47,0xbd,0x76,0xb1,0xb8,0xbd,0x35,0x6d,0x69,0x3c,0xba,0x6d,0xe2,0x3d,0xaf,0xd3,0xfd,0xbb,0xaa,0xb3,0x12,0xbd,0xc7,0x33,0xda,0xbc,0x15,0x63,0xdd,0xbd,0xa2,0x7a,0x2e,0xbd,0xff,0x08,0x0a,0xbd,0x31,0x39,0xe5,0xbc,0x21,0x0c,0xf5,0xbc,0xf2,0xee,0xed,0xbc,0xca,0xf6,0xed,0x3d,0xfc,0xc5,0xc0,0xb9,0x90,0x85,0xd0,0xbc,0xe4,0x37,0xc7,0x3d,0xf4,0xb9,0x3c,0x3b,0xe0,0xee,0x20,0x3d,0xf0,0xe8,0x06,0x3e,0xbc,0x2f,0x98,0x39,0x61,0x70,0xfa,0xbc,0x34,0x62,0xc5,0x3c,0xaf,0x49,0x5b,0xbd,0x39,0x99,0x58,0x3b,0xf4,0xe4,0x99,0x3d,0xf1,0xaf,0xae,0x3a,0x3d,0x10,0x74,0xbc,0xb9,0xf6,0xbe,0x3d,0x17,0xba,0x81,0x3c,0xf0,0x07,0xb4,0xbd,0x6f,0x8c,0xd6,0x3d,0xd2,0x2b,0xd4,0xbc,0x94,0x77,0x8e,0x3d,0xd2,0xa5,0x6c,0x3d,0xd0,0xa8,0xe5,0xbc,0xc1,0xcc,0xcf,0x3d,0x41,0x7b,0xd5,0x3c,0x53,0x5b,0xe2,0xbd,0x97,0x9e,0x1c,0x3c,0xd3,0x63,0xec,0xbc,0xa1,0x72,0x4a,0x3d,0x2b,0xb0,0xe5,0xbd,0xbf,0x4c,0xb9,0x3c,0xc9,0x80,0xe7,0x3c,0xa9,0x80,0x1f,0x3d,0x3d,0x98,0x2f,0x3c,0xcc,0x92,0x61,0xbd,0xc7,0x38,0x94,0xbc,0x57,0xc2,0xcd,0x39,0xa5,0x83,0x30,0xbc,0x1b,0x49,0xa1,0x3d,0x77,0x83,0xa9,0xbd,0x3d,0xed,0x51,0x3d,0xcd,0x67,0x8f,0xbd,0xe2,0x5b,0x6c,0x3d,0x62,0x41,0x9b,0x3c,0x36,0x70,0x83,0x3d,0xfa,0xe0,0xd8,0xbb,0xd8,0x99,0x9b,0xbd,0xde,0x71,0xf4,0xba,0x2a,0x99,0x72,0xbd,0x7e,0x6c,0x5b,0xba,0x22,0xb5,0x37,0xbd,0xc2,0xe6,0x6d,0xbd,0x1b,0xec,0x87,0xbd,0x5c,0x36,0xe9,0x3c,0x8c,0x90,0x93,0xbd,0x2b,0xe9,0x10,0xbd,0x2c,0xf9,0xb0,0x3d,0x16,0x4c,0x88,0xbd,0xa5,0x3b,0x83,0xbd,0x5b,0x1e,0xe5,0xbd,0xbb,0xef,0x85,0xbd,0x54,0xd6,0xbb,0x3c,0x1d,0xd4,0x30,0xbd,0x77,0x51,0xbf,0x3d,0xe2,0x82,0x83,0x3d,0x06,0x77,0x90,0xbc,0x9f,0x2d,0x8d,0xbc,0x60,0x3f,0x8f,0xbb,0xcb,0xdc,0x3c,0x3c,0x02,0x44,0xde,0x3d,0xfe,0x4a,0xc3,0xbd,0x82,0x77,0x88,0x3d,0x0a,0x21,0x8c,0x3d,0xf9,0x83,0x79,0x3d,0xaf,0x86,0x30,0x3d,0x89,0xee,0x7a,0xbd,0x74,0x7b,0xf5,0xbd,0xa5,0x7a,0x5c,0xbd,0x72,0x64,0x5e,0xbc,0x96,0xa7,0x18,0xbe,0xc0,0x0e,0x9a,0xbd,0xe6,0x4e,0xf7,0x3d,0x7f,0xae,0x1d,0xbe,0xb2,0x82,0xc3,0xbc,0xdb,0xe2,0xa3,0xbc,0xca,0x74,0x80,0xbd,0x66,0x9f,0xe3,0xbc,0xf4,0x38,0x9f,0xbc,0x58,0x31,0x70,0xbc,0xdb,0x9c,0xd9,0x3d,0x8e,0xa5,0x3a,0xbc,0x21,0xe6,0x21,0x3d,0x06,0xaa,0x0e,0x3d,0x25,0xfb,0x0f,0x3e,0x4f,0xae,0x5b,0x3b,0x43,0x68,0x39,0x3d,0x5b,0x71,0x24,0xbc,0x47,0xe5,0xc0,0x3d,0x63,0x72,0x0e,0x3e,0x19,0x79,0xc8,0x3d,0x91,0x7f,0xb2,0x3d,0x90,0x98,0x98,0xbd,0xfb,0xf8,0x9a,0xbd,0x20,0x66,0xc9,0xbd,0x68,0xc2,0xe5,0x3c,0x8c,0x87,0x51,0xbd,0x9b,0x23,0x1a,0xbd,0x1b,0xd6,0xbf,0xbd,0xc6,0x2d,0x88,0xbd,0x4e,0x81,0x13,0xbd,0x32,0x00,0x6c,0xbd,0x72,0x80,0xa5,0x3d,0xb3,0x6b,0x41,0x3e,0xc8,0x29,0x62,0xbd,0x52,0x7b,0x88,0xbd,0xbe,0xeb,0x7a,0x3d,0xf1,0x45,0x7f,0xbd,0x5a,0xa4,0x7d,0xbd,0x8e,0x9d,0x26,0x3c,0x4e,0x25,0x27,0xbd,0xd7,0x41,0x53,0x3d,0x29,0x5d,0x0f,0xbe,0x4b,0xee,0x3f,0x3c,0x93,0xfe,0x9d,0x3d,0xc3,0xe7,0xae,0xbc,0x85,0xec,0x8d,0x3b,0x68,0x30,0x86,0xbd,0x0d,0xbc,0x88,0xbd,0x27,0x7e,0x91,0x3d,0xdb,0x35,0x55,0xbd,0x35,0x39,0x83,0xbd,0xb4,0x53,0xa3,0xbd,0x2f,0xa1,0x2d,0xbe,0x87,0x21,0xd2,0x3c,0x8f,0xd9,0x13,0xbd,0x80,0xdb,0xd8,0xbb,0xcc,0x08,0xa4,0x3d,0x13,0x3f,0xf8,0xbd,0xaa,0x7a,0x13,0xbd,0xcd,0x9a,0xfa,0xbd,0x92,0xfe,0xcc,0xbb,0x8b,0x35,0xb8,0xbc,0x01,0xef,0x54,0x3d,0xd3,0x51,0xba,0xbc,0x77,0xc6,0x8a,0x3b,0x1c,0xeb,0xbe,0xbd,0x44,0xf4,0x69,0x3d,0x58,0x8f,0xaf,0x3b,0x14,0x8b,0x82,0x3d,0x39,0x66,0x7b,0x3d,0x0d,0x55,0xbe,0xbd,0xac,0x53,0xf1,0xbd,0x29,0x87,0x77,0xbc,0x6b,0xaf,0x4b,0x3d,0x0f,0xa6,0x53,0xbd,0xc9,0x6f,0x7b,0xbd,0x49,0x4c,0x49,0x3d,0x68,0x7b,0xba,0x3d,0x20,0xcb,0x94,0xbc,0x96,0x9b,0xcd,0x3c,0x2e,0xd0,0xa3,0xbc,0xbc,0xcc,0xd3,0xbd,0x3a,0xd3,0x26,0xbe,0xe9,0xc5,0xb8,0x3c,0x97,0x03,0x5c,0x3e,0xbc,0x65,0x02,0x3e,0x66,0x87,0xc4,0xbc,0xf7,0x3a,0x27,0xba,0xf5,0x2d,0x86,0x3d,0xd6,0xb6,0xa7,0x39,0x85,0x08,0x2f,0x3e,0xe2,0x59,0x38,0xbc,0x39,0x23,0x18,0x3e,0x18,0x11,0xb7,0xbd,0x22,0xa5,0x3c,0xbd,0xf6,0x2e,0x37,0xbe,0x4e,0x8d,0x4c,0x3e,0x30,0xac,0x88,0xbd,0x03,0xe6,0x9d,0x3c,0x3b,0x57,0x49,0x3d,0x1e,0x0f,0x50,0x3b,0x28,0xe9,0x48,0xbc,0x55,0x75,0x0f,0x3e,0x12,0x80,0x86,0x3d,0x78,0x6c,0xe1,0x3d,0x6e,0x38,0x94,0x3d,0xd4,0x2e,0x6d,0xbd,0x4f,0x2a,0x4c,0xbd,0xf2,0x3c,0xc3,0x3d,0x8a,0x57,0x93,0x3d,0x23,0x05,0xfb,0x3d,0x5d,0xe7,0xc8,0x3d,0xa7,0x77,0xad,0xbd,0xf8,0xe5,0xbc,0xbd,0x9a,0x82,0x15,0x3e,0x36,0x67,0x98,0x3d,0xb0,0x2f,0x13,0x3d,0x4d,0xf8,0x79,0x3d,0xd2,0x47,0xc6,0xbd,0x41,0x8a,0x9c,0xbb,0xb2,0x03,0xf2,0x3b,0xf7,0x26,0x35,0xbc,0xf4,0xa3,0x1c,0x3d,0xde,0xf7,0x9d,0x3d,0x9c,0xd3,0xcd,0x3d,0xdd,0x94,0x19,0x3d,0x86,0x19,0x2d,0x3e,0x79,0x4f,0xde,0x3c,0x22,0x00,0xe2,0xbd,0x9f,0x01,0xb8,0x3d,0x23,0x8a,0xb2,0x3c,0x43,0x55,0xd4,0x3d,0x73,0x69,0x09,0x3e,0x1f,0x86,0xd1,0x3d,0x49,0x46,0x9c,0xbc,0x4d,0xa2,0xc1,0x3d,0x3f,0xdf,0x8b,0x3d,0xab,0x58,0xed,0xbd,0x49,0xa1,0xad,0x3d,0x28,0x2d,0xda,0x3b,0x59,0xe6,0xb4,0xbd,0x1a,0x49,0xf2,0xbd,0xd6,0xf2,0x49,0xbc,0xbe,0xf0,0xe9,0xbc,0xb0,0x3a,0x12,0x3e,0x94,0xae,0xae,0xbc,0xfd,0x6a,0xc4,0xbd,0x34,0x5a,0x6e,0xbd,0xb7,0xef,0xef,0x3c,0x9b,0x36,0x1a,0xbc,0x84,0x5d,0x06,0x3c,0x74,0xf9,0x50,0x3d,0x40,0x5e,0x1c,0xbd,0x6f,0x30,0x7d,0x3d,0xa0,0xb5,0xcb,0x3c,0x69,0x34,0xc5,0xbc,0x1c,0x89,0x0e,0x3e,0x4f,0xea,0x5c,0xbc,0x42,0x11,0x2c,0xbd,0x17,0x56,0x8d,0x3d,0xbe,0xba,0x3c,0x3d,0x81,0x96,0x85,0x3c,0x87,0x6f,0x43,0xbc,0x24,0xc7,0x80,0xbd,0x24,0xa5,0x8a,0xbc,0x7d,0xa7,0x38,0x3d,0x2d,0x10,0x65,0x3d,0xf0,0xd3,0x28,0xbe,0x77,0xc3,0x53,0x3d,0xe7,0x12,0x4c,0xbd,0x3a,0x8f,0x1f,0x3d,0x47,0x3c,0x95,0xbc,0x04,0xcf,0x95,0x3d,0x61,0xde,0x15,0xbe,0xaf,0x31,0xbb,0xbb,0x1f,0x20,0x94,0x3c,0xd1,0x78,0xc5,0x3d,0xb5,0x04,0xd2,0xbc,0x29,0x9e,0x2e,0x3d,0x10,0x89,0x1c,0xbb,0xf3,0xc8,0x69,0x3d,0x10,0x02,0x4d,0xbc,0x33,0x73,0x09,0xbd,0xd0,0xf8,0xb7,0xbc,0x61,0x37,0x8b,0xba,0xdd,0x46,0x28,0xbe,0x1e,0xbf,0x65,0xbc,0x71,0xa1,0xbe,0xbd,0x8f,0xc7,0x6f,0xbc,0x5a,0xb6,0x3c,0x3d,0xf6,0x65,0x92,0xbd,0x5b,0x63,0x04,0xbe,0x66,0xc3,0x92,0x3d,0x54,0x8a,0x4d,0x3d,0xde,0x62,0xdf,0xbc,0x48,0xdd,0x52,0xbc,0x01,0x48,0x18,0x3d,0x70,0x81,0xa8,0xbd,0x30,0x20,0xfc,0xbc,0x4b,0xb8,0xd4,0x3d,0xb8,0xac,0x80,0x3c,0x93,0xf8,0x77,0x3d,0x13,0xf4,0xeb,0x3d,0xcd,0xce,0xb8,0x3a,0x8f,0xd8,0xc7,0x3d,0x15,0x10,0xc3,0x3d,0x42,0x0c,0x9a,0x3c,0x2e,0xb8,0x36,0xbd,0x36,0x24,0x11,0x3d,0xff,0x93,0x18,0x3d,0xdd,0xd2,0x7e,0xbc,0x40,0x2a,0x17,0xbd,0x4c,0x6e,0x86,0xbd,0xcb,0x78,0xdc,0x3d,0x59,0x91,0x98,0xbd,0xd3,0x4b,0x9a,0x3d,0x93,0xf8,0xa9,0x3d,0xaa,0x94,0xe5,0x3c,0x2f,0xa4,0x01,0xbc,0x51,0x06,0xfd,0x3c,0x33,0x36,0x43,0x3d,0x07,0xaa,0xe0,0x3c,0x6a,0x13,0x92,0x3d,0xb2,0x40,0x11,0x3e,0x42,0x9b,0x67,0x3d,0x62,0x7d,0xb2,0xbc,0x7e,0x19,0x8d,0x3d,0xc7,0x38,0x73,0xbd,0xed,0x59,0x03,0xbd,0xd9,0xd6,0x2b,0xbd,0x4d,0x5e,0x98,0xbd,0x42,0xcc,0x4f,0xbd,0x7d,0x86,0x35,0xbc,0x98,0xae,0x3a,0xbd,0x52,0x11,0x9b,0x3d,0x15,0xbf,0x07,0x3e,0xc7,0xd9,0xae,0x3c,0x07,0x80,0x72,0x3d,0xc6,0x49,0x6e,0xbd,0xd5,0xf0,0xae,0xbd,0x47,0x63,0x68,0x3d,0x26,0xcc,0xe0,0x3d,0xe5,0x59,0xa6,0x3d,0x52,0xee,0xf4,0xbc,0x7a,0x9b,0xd2,0xbd,0x22,0x98,0xdd,0xbd,0xa5,0x10,0x3d,0x3e,0xf7,0xa3,0xac,0x3a,0x00,0x8a,0x72,0xbd,0x05,0x46,0x46,0xbd,0xb6,0x55,0x57,0xbd,0xa9,0x81,0xa0,0x3d,0xbc,0x1e,0x2b,0xbd,0xb4,0x91,0x95,0xbd,0x69,0x7b,0x22,0x3d,0x6c,0xe8,0xc1,0xbd,0xb3,0x5f,0xce,0xbd,0x46,0x6b,0x79,0x3d,0x28,0xf6,0xd5,0x3c,0x52,0xdf,0x03,0xbc,0x37,0x0f,0x65,0xbb,0x5a,0xed,0xf0,0xbd,0x07,0x79,0x57,0x3d,0x94,0x20,0x79,0xbd,0xf5,0x40,0x73,0x3c,0x23,0xa2,0x5e,0xbc,0x50,0x56,0x28,0x3d,0xab,0xae,0x11,0xbd,0xb8,0xfd,0xb6,0xbc,0xe3,0x50,0xb3,0xbd,0xa9,0xa9,0xad,0xbd,0x7a,0x1b,0x5d,0xbd,0x5d,0xcb,0x7e,0xbc,0x08,0x02,0xa7,0x3d,0x07,0xd2,0x83,0x3d,0xf4,0x80,0x05,0x3d,0xcf,0xfb,0xb9,0x3c,0x64,0x91,0xc2,0xbd,0xde,0x1c,0x93,0xbc,0xa3,0x3c,0xca,0x3d,0x73,0xff,0x25,0xbd,0x8e,0x64,0x8f,0x3d,0x28,0x25,0x87,0xbd,0xbd,0xf9,0xe5,0xbd,0xd9,0xc1,0xe0,0xbd,0xef,0x36,0x99,0x3c,0xc3,0x23,0x24,0x3d,0xf8,0xe6,0xa2,0x3c,0xd3,0xef,0x92,0xbd,0x17,0xb2,0x0a,0xbd,0x94,0x6a,0xfb,0xbc,0xca,0xf1,0x19,0xbc,0x47,0xf6,0xba,0xbc,0x79,0x74,0x00,0x3d,0xeb,0x55,0x1d,0xbd,0xa8,0xed,0x0a,0x3d,0x1a,0xbe,0x2f,0xbe,0x41,0x6e,0x23,0x3d,0x94,0x22,0xe8,0x3d,0xf9,0xbf,0xe1,0x3d,0xa8,0x97,0xe4,0xbc,0x00,0x9b,0xba,0x3c,0x5d,0x81,0x65,0xbe,0x1d,0x16,0x97,0xbd,0x03,0xd7,0xa3,0x3d,0x73,0xa4,0x89,0xbd,0x2d,0xda,0x58,0xbc,0xe4,0xbe,0x3f,0xbd,0xe7,0x94,0x16,0xbe,0x3c,0xee,0xdb,0xbd,0x5e,0xcd,0x2e,0xbd,0xcf,0x88,0x5f,0x3d,0x1d,0x2f,0x96,0x3d,0xea,0xc3,0xa5,0x3c,0xc8,0xd1,0x25,0xbe,0x69,0x73,0x97,0xbd,0x3e,0x6e,0x56,0x3c,0x72,0x73,0x0d,0xbe,0xff,0xde,0x83,0x3d,0x1a,0x58,0x18,0x3d,0x9b,0x4e,0x84,0xbd,0x98,0x7e,0xd7,0xbd,0x60,0xbc,0xee,0xbc,0x1c,0x42,0xca,0xbd,0x8c,0x9f,0xa8,0xbc,0xe2,0xcf,0x81,0x3d,0x6b,0x20,0x8c,0xbe,0x8a,0x1b,0x92,0x3d,0xaa,0x2c,0xe8,0xbc,0x1a,0x0e,0x88,0x3d,0xaf,0xea,0xe3,0x3d,0x88,0x1d,0xfe,0xba,0x02,0x24,0x80,0xbc,0x5d,0x21,0x3b,0xbc,0xaa,0xa6,0xe7,0x3d,0x6e,0x84,0x60,0xbd,0xe7,0x80,0x55,0x3e,0xcb,0x3e,0xb3,0x3c,0x75,0x93,0x0d,0xbd,0x69,0xfc,0x1c,0xbe,0xa3,0x30,0x96,0xbd,0x37,0xff,0xdb,0x3a,0x51,0xe1,0x15,0x3e,0x03,0xac,0xe1,0xbd,0xfd,0xb5,0xe7,0x3d,0x22,0x17,0x10,0xbe,0x01,0x0d,0x27,0xbd,0x83,0x7a,0xfa,0x3c,0xb5,0xa3,0x98,0xbd,0xb1,0x49,0xe6,0xbd,0xf0,0xeb,0x78,0x3e,0x2d,0x5a,0x28,0xbe,0x11,0x9d,0xf6,0xbc,0xa2,0x83,0x45,0xbd,0xa2,0x32,0xb3,0xbd,0x9b,0x1d,0xfc,0x3c,0x75,0x7a,0x06,0x3e,0x1c,0x34,0xf3,0xbd,0xbd,0x38,0x05,0xbe,0x76,0x9f,0xde,0x3c,0xc7,0xba,0x9a,0x3d,0xbc,0xa8,0x47,0x3d,0xeb,0xf5,0x53,0x3e,0x6c,0x67,0x5b,0xbd,0x97,0xd8,0xf4,0xba,0xf5,0x08,0xb7,0xbd,0xb2,0x6c,0x4c,0xbd,0x58,0x30,0xb7,0xbc,0x50,0x90,0x96,0x3b,0x2b,0x25,0x8f,0x3c,0x9f,0x8b,0x03,0x3b,0xd5,0x68,0x26,0xbd,0x57,0x0d,0xde,0x3c,0x9d,0x5e,0xc4,0x3c,0x08,0xb6,0x6f,0x3d,0xc3,0x74,0xdd,0xbd,0xe6,0x75,0x8a,0xbc,0x6b,0x7a,0xa1,0xbd,0x67,0xee,0xfc,0xbd,0xf6,0x14,0xc4,0x3d,0xe5,0x30,0xdf,0xbd,0x45,0xee,0xaa,0xbb,0xfd,0xa4,0xb0,0x3c,0x9a,0x13,0x5d,0xbe,0xda,0x92,0x2a,0xbe,0x2d,0x40,0x62,0x3e,0x3a,0xe3,0x25,0xbe,0x66,0xc4,0x11,0x3e,0x39,0xa9,0xaf,0x3d,0x1e,0xf5,0xac,0xbe,0x74,0xc6,0xe9,0xbc,0x57,0x7d,0x46,0x3e,0xbe,0x0b,0x2a,0xbe,0x20,0xdb,0x13,0x3e,0x5a,0xc5,0x5d,0x3d,0x1d,0x6e,0x82,0xbe,0x5d,0x4f,0xad,0xbd,0x21,0x6c,0xc0,0x3d,0xc1,0x4e,0x2e,0xbe,0x1f,0xf6,0xda,0x3c,0xb3,0x22,0xa1,0xbc,0x8a,0x49,0xc9,0xbd,0x4d,0x28,0xbf,0x3b,0x84,0x51,0x66,0x3d,0x65,0xb6,0x3e,0xbe,0xd0,0xbf,0xd5,0x3d,0x76,0x8e,0x9e,0x3d,0x4e,0xad,0x02,0xbe,0x09,0x74,0x0a,0x3d,0x95,0x76,0xba,0x3d,0xfc,0x34,0x1e,0xbe,0xe0,0x0f,0x3f,0x3d,0x77,0xdc,0x92,0x3d,0x2c,0x4b,0x40,0xbe,0x71,0x6a,0x4c,0x3d,0x1b,0x54,0x89,0xbd,0xf0,0xcf,0x34,0xbe,0xb9,0x1e,0x1b,0x3e,0xf5,0x16,0xd8,0x3d,0x69,0x3a,0xdd,0xbd,0x17,0x64,0xc0,0xbc,0x7a,0x1c,0xd4,0x3c,0x4f,0xa9,0x6c,0xbd,0x57,0xb6,0x97,0x3e,0x66,0xcf,0xa6,0x3d,0xc7,0x3d,0xa8,0xbe,0xbe,0x67,0x1d,0x3d,0x6e,0x96,0x89,0xbd,0xa1,0x18,0x16,0xbd,0x75,0x47,0x62,0x3e,0xd1,0x83,0xc4,0x3c,0xc8,0xd0,0xb3,0xbe,0x40,0x04,0xe3,0x3d,0x83,0xaa,0x76,0x3d,0xb2,0x95,0x34,0xbe,0xdd,0x11,0x87,0x3e,0x9b,0x48,0x45,0x3d,0x5e,0x58,0xb0,0xbe,0xec,0xf0,0x4f,0x3e,0x5e,0x7d,0x5a,0xbd,0x73,0xa8,0x96,0xbd,0xce,0x6c,0xe7,0x3d,0x94,0xf0,0x82,0x3c,0x4f,0x7f,0xa0,0xbe,0x72,0xd2,0xa0,0x3d,0xf1,0xcb,0x07,0xbd,0xb9,0x26,0xa6,0xbd,0x03,0x46,0x26,0x3e,0x6f,0x04,0xad,0xbb,0x33,0x75,0xe8,0xbd,0xff,0x5f,0x21,0x3e,0x89,0x5f,0xb9,0xbd,0x45,0xf4,0x36,0xbc,0xc6,0xe2,0xd7,0x3d,0xa9,0x5e,0xe0,0x3c,0x8d,0xbe,0x48,0xbe,0x9c,0xbc,0x91,0x3d,0x8b,0x67,0xcd,0xbd,0x15,0x2a,0x19,0x3e,0x1e,0xe6,0x5e,0x3e,0xb4,0x1f,0x0d,0xbe,0xfc,0xf3,0x39,0xbe,0x5f,0x67,0x0a,0x3e,0x1e,0xd3,0x42,0x3a,0x5a,0x5e,0x1f,0x3e,0x75,0x49,0x4c,0x3e,0x69,0xa4,0x90,0xbb,0x1f,0x23,0xfe,0xbd,0xbf,0x0f,0xa6,0x3d,0xcf,0xa5,0xd7,0xbb,0xe0,0x33,0xef,0x3d,0x31,0x94,0x88,0x3d,0x90,0x2a,0x80,0xbd,0xf6,0xb5,0xa7,0xbc,0xc9,0x0a,0x59,0x3d,0x87,0x9d,0xe9,0x3c,0xcf,0xa0,0x06,0x3e,0x7e,0x5e,0xdd,0x3d,0xfa,0xbd,0x62,0xbe,0x53,0x27,0xa3,0x3d,0x27,0xbf,0x11,0xbd,0xdb,0xed,0x83,0xbd,0x12,0x52,0x89,0x3d,0x2f,0x57,0x87,0x3a,0xc3,0xc8,0x61,0xbe,0x65,0x20,0x89,0x3d,0x7b,0x53,0xbc,0x3c,0x12,0x35,0xc9,0xbc,0xed,0x4f,0x37,0x3d,0x78,0x65,0x2b,0xbc,0xac,0x32,0x09,0xbe,0xf8,0x63,0x9a,0x3d,0x25,0x75,0xa0,0x3d,0x1f,0xa2,0xf5,0x3b,0x96,0x34,0x24,0x3e,0x8c,0x78,0x02,0x3d,0xe6,0x1f,0x3b,0xbe,0xf5,0x5a,0x97,0x3d,0x8d,0x23,0x9c,0x3c,0xce,0xc6,0xa1,0x3d,0xee,0xef,0xae,0x3d,0x56,0xc9,0xdf,0xbc,0xad,0x9b,0x3d,0x3b,0x79,0xcb,0x61,0xbd,0xb3,0xd1,0x08,0x3e,0x6f,0x65,0xe8,0x3d,0xd6,0x93,0x0e,0x3d,0x8f,0x11,0x01,0xbe,0x9f,0xa7,0xb4,0xbc,0x71,0x16,0xd4,0xbc,0xda,0x35,0x1c,0x3d,0xfb,0x77,0xfd,0x3d,0x0a,0x81,0x8c,0x3d,0x13,0x90,0xe4,0xbd,0x52,0xa4,0xac,0xbc,0x78,0x8c,0xf5,0x3c,0x00,0x68,0xd2,0x3d,0xd8,0x92,0x34,0x3d,0xf7,0x60,0x92,0xbd,0x8b,0x52,0x12,0xbe,0xbd,0x2f,0x27,0x3d,0x5a,0xa3,0xee,0xbd,0xc7,0xcb,0x8b,0xbc,0x46,0x32,0x54,0xbd,0x48,0xd1,0xa2,0xbd,0x8f,0xcc,0x10,0xbe,0xd8,0xa5,0x81,0x3d,0xfa,0x97,0x92,0xbc,0x90,0xb3,0xbe,0x3d,0xbd,0x6b,0x01,0x3c,0x95,0x76,0x06,0xbd,0x0d,0xa2,0x77,0x3c,0xf0,0xa0,0xdf,0xba,0xbe,0x82,0x96,0xbd,0x10,0x2c,0x23,0xbc,0xd4,0x07,0xb2,0x3d,0x17,0xbc,0x2e,0xbe,0x71,0x62,0x48,0xbd,0x5e,0xfc,0x3b,0x3d,0xad,0x14,0x29,0xbe,0x1d,0x30,0x88,0x3d,0x39,0x14,0x8e,0x3c,0x94,0xf3,0xf3,0xbd,0xd9,0x71,0xc3,0x3b,0xfc,0xbc,0x13,0x3c,0x2b,0xea,0x54,0xbd,0x6a,0x98,0x00,0x3d,0xd2,0xf3,0x2f,0xbc,0xe2,0x15,0x03,0xbe,0x9e,0x06,0x8a,0xba,0xf9,0x76,0x64,0x3d,0x21,0xc2,0xd9,0xbd,0x72,0x0b,0x5e,0x3d,0x33,0x99,0xc9,0x3d,0x9e,0x3d,0x3e,0xbd,0x29,0x69,0xc1,0xbb,0x47,0xf8,0xc7,0x3d,0x2a,0x01,0xab,0xbd,0x29,0xfd,0x36,0x3d,0x97,0x98,0xbd,0x3d,0x09,0x7f,0x44,0xbe,0x42,0xb8,0x90,0xbd,0x23,0x9b,0x58,0x3c,0xb5,0x9a,0x61,0xbe,0x03,0x29,0xda,0x3d,0xbb,0x7d,0x69,0x3d,0x4c,0x6b,0x62,0xbe,0x2e,0xc4,0x15,0xbd,0xb3,0xab,0xb9,0x3d,0x58,0xd8,0x00,0xbd,0x17,0x73,0x0a,0x3d,0xe2,0x4a,0xaf,0x3d,0xa8,0xaa,0xa7,0xbd,0x52,0x79,0x97,0x3d,0xd4,0xd3,0x6b,0x3d,0x89,0x94,0xb9,0xbd,0x6d,0x24,0x10,0x3e,0x5e,0x44,0x94,0xbc,0x7c,0xbb,0xa3,0xbd,0xdf,0xb8,0xb9,0x3c,0xbf,0xd7,0x22,0x3d,0x51,0xbc,0xad,0xbd,0x96,0xe9,0x01,0x3e,0xa9,0x5c,0x39,0x3c,0x1f,0x3d,0x0d,0x3d,0x9e,0x04,0x34,0xbc,0xa4,0xca,0x1d,0xbd,0x49,0x3c,0x8d,0xbe,0x36,0x51,0xfe,0x3c,0xc0,0xc4,0x07,0xbd,0x34,0xad,0xe0,0x3d,0xcd,0x75,0x1e,0x3d,0x79,0x9a,0xb0,0xbd,0xa8,0x84,0xa5,0xbe,0xb3,0xf0,0x4c,0x3d,0x31,0x88,0xf6,0x3c,0x39,0x16,0x20,0x3e,0xdc,0xd7,0xc7,0x3d,0x2e,0x88,0x74,0xbd,0x5d,0x71,0xb6,0xbe,0xa9,0x55,0xd0,0x3d,0x8d,0xc1,0x17,0xba,0xa6,0x5b,0x30,0x3e,0x1c,0xe2,0x82,0x3d,0x26,0x65,0x11,0xbe,0xe1,0xa2,0xa9,0xbe,0xc8,0xdb,0x1d,0xbb,0x16,0xba,0x6c,0x3d,0x75,0xa1,0x1b,0x3e,0xb2,0xc1,0x0d,0x3e,0x41,0xe2,0x36,0xbe,0x40,0x35,0x8f,0xbe,0x3b,0x27,0x65,0x3b,0x0f,0x1e,0x6a,0x3c,0xf3,0x39,0x4b,0x3e,0xdc,0xe1,0x5e,0x3d,0xb4,0x75,0x54,0xbe,0x75,0x82,0xac,0xbd,0xdf,0x04,0x08,0xbd,0xb4,0x4c,0xad,0x3c,0xfa,0x50,0x24,0x3e,0xc1,0xa4,0xe7,0x3d,0x3f,0x2e,0x23,0xbe,0x83,0xed,0x62,0xbd,0xd2,0xb0,0x11,0xbd,0x64,0x58,0x81,0x3d,0x43,0x45,0x23,0xbc,0x29,0xcf,0x92,0x3d,0xfb,0x12,0x11,0xbe,0xae,0x60,0x7c,0xbe,0x1f,0x9d,0xf0,0xbd,0x12,0x16,0x9c,0xbd,0x06,0xa2,0x89,0x3d,0x05,0xb5,0x15,0x3d,0x28,0x97,0x63,0xbc,0x16,0x8b,0x70,0xbe,0x3f,0xee,0x04,0x3c,0xc0,0xe5,0x23,0x3d,0x21,0xa0,0xa8,0xbd,0x5e,0x87,0xe5,0xbd,0x3c,0x61,0xa5,0xbd,0xd0,0x6a,0xff,0xbd,0xa1,0x24,0xd4,0xbc,0x99,0xc9,0x6d,0x3d,0x45,0x05,0x47,0xbe,0x92,0x0a,0xd4,0xbd,0x01,0x40,0xbd,0xbd,0x20,0xb4,0x0c,0xbd,0x5b,0x8f,0xdc,0x3c,0xfc,0x57,0x7a,0xbc,0x0c,0x71,0x53,0xbe,0x5a,0x5d,0xfa,0x3c,0x1b,0x59,0xe8,0xbc,0x3b,0xe1,0x0e,0xbd,0xaa,0x5f,0xb9,0xbd,0x35,0x7d,0x9f,0xbd,0x79,0xe6,0x86,0xbd,0x02,0x58,0xa1,0x3d,0xea,0xe9,0xc0,0x3d,0x64,0x4c,0x89,0xbd,0xa2,0x7a,0xd7,0xbd,0x3e,0xff,0x79,0xbd,0xe0,0x51,0xa1,0xbd,0xb1,0x77,0x37,0x3d,0x20,0xd5,0xf3,0x3c,0x6f,0xea,0x7a,0x3d,0xd4,0x9e,0x2c,0xbd,0xb0,0xfe,0xd8,0xbd,0xfd,0xef,0xad,0xbd,0x48,0x25,0x27,0xbb,0x2b,0x9e,0x15,0x3e,0xa9,0x78,0xf8,0x3d,0x65,0x6a,0x70,0x3d,0xf3,0x58,0xe6,0x3c,0x14,0x21,0x65,0xbe,0xad,0xee,0x82,0x3d,0x48,0xf1,0x03,0x3e,0x31,0xcd,0x71,0xbd,0xad,0xe8,0xe8,0xbd,0xa7,0x19,0x45,0x3d,0x64,0xc1,0x11,0xbe,0xc7,0x5a,0xac,0xbd,0xe8,0x6b,0x96,0x3e,0x92,0x42,0xa2,0xbd,0xfb,0x82,0x93,0xbc,0x4f,0x59,0x3b,0x3c,0xe7,0x8e,0xe0,0xbd,0xa0,0x32,0x80,0x3d,0x7c,0xa4,0x62,0x3e,0xb9,0x37,0xb7,0xbd,0x7c,0x8c,0xd9,0xbd,0x79,0x37,0xcd,0xbc,0x36,0x4b,0x0f,0xbe,0x34,0x5e,0x0d,0xbe,0x4b,0x22,0x2f,0x3e,0x04,0x3e,0xee,0xbc,0x1a,0xdd,0xd7,0xbd,0x55,0x8b,0xc9,0xbd,0xf1,0x0d,0x96,0xbc,0x5c,0x88,0xad,0xbd,0x31,0x68,0x66,0xbc,0xf9,0x95,0xa9,0xbd,0xb2,0x2c,0x40,0xbc,0x75,0xb9,0x36,0xbd,0x5e,0x14,0x4f,0x3d,0x1e,0x2e,0x40,0xbc,0xff,0x8a,0x00,0x3d,0x86,0x5d,0x4b,0xbd,0xfb,0x3f,0x46,0xbd,0x42,0xf2,0xc8,0xbd,0x08,0x7e,0x82,0x3d,0xfc,0x22,0xb4,0x3c,0xd1,0xca,0x83,0x3d,0x15,0x7f,0xd5,0xbc,0xc1,0x52,0xc2,0x3d,0x0a,0x81,0x59,0x3d,0x61,0x82,0x74,0x3e,0xeb,0x5e,0xf9,0x3b,0xd2,0x32,0x31,0x3d,0xf4,0x14,0x48,0xbe,0xc4,0xd4,0x55,0xbb,0x32,0x36,0x87,0x3d,0xde,0x24,0xb5,0x3e,0x66,0xf4,0x0c,0xbe,0x45,0x28,0xdf,0xbd,0xe5,0x12,0x91,0xbd,0x1b,0xa7,0x0a,0x3e,0x38,0x50,0x8b,0xbc,0xdb,0xc9,0x78,0x3e,0x97,0xf8,0x1b,0xbe,0x26,0xad,0x96,0xbd,0xa8,0x96,0x80,0xbc,0x08,0xbc,0x73,0x3d,0x4f,0xc0,0x83,0x3c,0x9f,0x32,0x56,0x3e,0x55,0xc5,0x83,0xbc,0xe8,0xd6,0x10,0xbe,0x9f,0x36,0xed,0xbd,0xc3,0x6a,0x5d,0x3d,0x8c,0x70,0x82,0x3e,0x8d,0x95,0x1a,0x3e,0x2b,0x29,0xe3,0xbc,0x16,0x75,0x80,0x3c,0xd9,0x3f,0x8b,0xbd,0xcc,0x56,0x8f,0x3d,0xdd,0xf3,0x2e,0x3e,0x7c,0xa4,0xfc,0x3d,0x26,0x07,0xdf,0xbd,0xaa,0xbb,0x96,0x3d,0xcd,0x58,0x25,0xbd,0xa0,0xac,0x1f,0x3d,0x05,0x7e,0x62,0x3e,0x2f,0xc2,0xa8,0x3d,0x8e,0xd0,0xfa,0xbc,0x46,0x2b,0xbc,0x3c,0xb8,0xef,0x78,0xbd,0x83,0xd5,0x03,0x3d,0x69,0xa3,0x49,0x3e,0x0b,0x72,0x5b,0x3e,0x64,0x01,0x1d,0xbe,0x89,0x49,0xed,0xbc,0xe4,0x35,0x30,0xbe,0x6a,0x77,0x64,0xbd,0x9e,0x91,0x8e,0x3d,0x04,0xc0,0x0a,0x3e,0xff,0x62,0x25,0xbe,0x47,0x61,0x9f,0xbc,0x51,0x0e,0x98,0xbe,0x97,0xc5,0x60,0x3c,0xac,0x5e,0x40,0xbd,0x1f,0x53,0x79,0xbd,0xe6,0xf7,0x01,0xbe,0x24,0xbd,0x5b,0xbd,0xd8,0x04,0x83,0xbe,0x8d,0x5b,0x65,0x3d,0x40,0x59,0xb2,0xbd,0xf7,0xde,0xeb,0x3c,0x4e,0x47,0x10,0x3d,0xe7,0x18,0x9c,0x3b,0xd4,0xa9,0x0d,0xbe,0x8f,0xca,0x6c,0xbb,0xd4,0x32,0xff,0xbc,0xfe,0x8f,0x06,0xbe,0xd6,0x05,0xb5,0xbc,0x23,0x53,0x1e,0x3d,0x8d,0x11,0x49,0xbe,0xf1,0xe5,0x34,0x3d,0x50,0x4f,0xa4,0xbc,0x39,0xf1,0x8d,0xbd,0x36,0x05,0x25,0x3e,0xf3,0xb2,0x97,0x3d,0xdf,0xf8,0x00,0xbc,0x40,0x38,0xda,0x3d,0x1a,0x1e,0xd3,0xbc,0xd0,0x20,0xb0,0xbc,0x76,0xba,0x77,0x3d,0x12,0xc1,0x49,0x3d,0xf8,0x54,0xb2,0x3c,0xae,0x0c,0x0b,0xbc,0xe7,0x2a,0x06,0xbd,0x33,0xbd,0x99,0x3c,0x9c,0x83,0xa8,0x3d,0x45,0x1b,0x1d,0x3c,0x09,0xe9,0x49,0xbd,0x9c,0x45,0x08,0x3c,0xf4,0x15,0xef,0x3d,0x46,0x63,0x04,0x3e,0xab,0xd6,0x83,0x3d,0x8a,0x83,0xd2,0x3b,0x64,0x71,0x5b,0x3d,0x5d,0xbd,0x1e,0x3c,0x37,0xbd,0xce,0x3d,0x97,0x12,0x38,0x3e,0x30,0x6f,0xbf,0x3d,0x9c,0x9d,0x1c,0x3c,0x22,0x32,0xca,0xbc,0x82,0x8a,0xc8,0x3c,0xc2,0x0d,0x10,0xbc,0x40,0x2e,0x80,0x3d,0x05,0x6c,0xdc,0xbb,0x07,0xa9,0xc7,0x3d,0x26,0x99,0x6a,0xbd,0xa0,0xf4,0x7c,0x3d,0x0d,0x5d,0xa0,0xbd,0x6b,0xe9,0xb1,0x3d,0x66,0x61,0x24,0xbe,0xaa,0x74,0x64,0xbd,0x94,0x99,0x8d,0xbd,0xf7,0x3b,0x19,0x3e,0x15,0x4e,0xaf,0xbc,0x30,0xb6,0x19,0x3e,0x6e,0xe0,0x0a,0xbe,0xfd,0x64,0xa1,0xbd,0x5e,0xf3,0xae,0xbd,0x15,0x43,0x6d,0x3e,0x19,0xa1,0xf7,0xbc,0xa3,0xe4,0x08,0x3e,0x4d,0xcd,0x76,0x39,0xd1,0x61,0xa8,0xbd,0x8b,0x6a,0x18,0xbe,0x24,0x22,0xa6,0x3d,0xa6,0x35,0x17,0xbe,0x30,0xca,0x16,0x3d,0x80,0x23,0x31,0xbe,0xe5,0x0f,0x4d,0x3d,0x5e,0x14,0x93,0x3d,0x9e,0xae,0x16,0x3e,0x48,0xc7,0x01,0xbe,0xa0,0x12,0x2c,0x3e,0x29,0x9c,0x19,0xbc,0x6b,0xbd,0xa4,0xbd,0xe8,0x93,0x90,0xbc,0x54,0x6f,0x45,0x3e,0x2d,0x13,0x29,0x3d,0x07,0x73,0x2c,0x3e,0x00,0x3c,0x0d,0x3d,0x59,0x3c,0x45,0xbd,0x4a,0x9b,0x32,0xb9,0x07,0x38,0xb0,0xbc,0x75,0x7e,0x75,0xbd,0x48,0x78,0x69,0x3d,0xfa,0x35,0xe7,0xbc,0xcf,0x51,0x90,0x3d,0x93,0xad,0x0b,0xbe,0x0a,0xfa,0x31,0x3e,0x67,0x76,0x93,0xbc,0x40,0x7d,0x26,0xbd,0x97,0x9d,0xf4,0xbc,0xa8,0x12,0x5b,0xbd,0xb2,0xd6,0x44,0xbd,0x9c,0x36,0x4b,0x3b,0x12,0x02,0x94,0xbd,0xcf,0x7d,0x64,0xbd,0x7b,0x78,0xb3,0x3b,0xd7,0x6d,0xea,0x3c,0x80,0x65,0x8a,0xbd,0x53,0xbd,0xbe,0xbb,0xf1,0x1c,0x8d,0x3d,0x25,0x95,0x3a,0x3d,0xf4,0xf7,0x0a,0xbd,0x98,0xd4,0x5a,0x3d,0x19,0x00,0x53,0xbd,0x5e,0x71,0x12,0x3e,0xcc,0x12,0xdf,0xbd,0xee,0xa0,0xf1,0x3d,0x6e,0x3e,0x97,0xbc,0x73,0x2a,0x70,0x3c,0x77,0x9a,0x45,0xbd,0x49,0xb1,0xcd,0x3d,0x5d,0x57,0xdb,0x3d,0x43,0x36,0x27,0x3a,0x62,0x3a,0x18,0x3d,0x6a,0xda,0x96,0xbd,0x54,0x4c,0x23,0xbd,0xbe,0x51,0xcb,0x3c,0xb2,0xd6,0x28,0x3e,0xd0,0x53,0x3e,0x3d,0x9f,0xc2,0x22,0xbe,0x44,0x97,0xf6,0xbd,0x2f,0xab,0x7a,0xbd,0x95,0x39,0x71,0x3d,0x45,0x82,0x8b,0x3d,0x81,0xdd,0xde,0x3c,0xdb,0x8a,0x4a,0x3c,0x91,0x46,0xb8,0xbc,0x63,0x19,0xc3,0x3c,0xf6,0xce,0x99,0xbc,0x0e,0xe6,0xed,0x3d,0xf8,0xdf,0xd6,0xbd,0xc5,0x1f,0x01,0x3e,0x68,0x3e,0x6d,0x3d,0x93,0x9d,0xac,0x3d,0x39,0x56,0x1e,0x3e,0x2a,0xb0,0x54,0x3d,0x6a,0x8a,0x85,0xbc,0xc8,0xb6,0x69,0xbd,0x4e,0x3b,0xa1,0xbc,0x37,0x75,0x61,0xbd,0xc3,0xe6,0x2e,0xbc,0xbd,0xee,0xb4,0x3d,0x9d,0xd5,0xb0,0xbc,0xce,0x43,0xac,0x3d,0x08,0x38,0x4a,0xbd,0xc0,0xc3,0xf6,0x3c,0x2d,0x28,0x42,0x3e,0xbd,0x73,0xbd,0x3b,0x03,0x09,0x1c,0x3d,0xf6,0xf7,0x15,0xbd,0x64,0x03,0x3c,0x3d,0x8a,0xec,0xe8,0x3d,0x69,0xe1,0x85,0x3b,0x2d,0xe2,0xb4,0x3d,0xe8,0x83,0x76,0xbd,0x2c,0x0e,0x95,0xbd,0x55,0xaf,0x62,0xbd,0x2f,0x5b,0xaf,0xbc,0x2e,0x56,0x09,0x3e,0xbf,0xea,0x0e,0x3e,0xe8,0x6b,0xbe,0xbd,0xc9,0xd2,0xa9,0x3c,0x9e,0xf5,0xca,0xbd,0x8e,0xf7,0xe8,0x3d,0x8e,0x3f,0x2b,0x3e,0x39,0xf5,0xd2,0x3c,0x74,0x3b,0xa7,0xbd,0x5d,0xc6,0x09,0xbe,0x03,0x9e,0xc5,0xbd,0x84,0xf8,0x2b,0x3d,0x55,0x43,0x2d,0x3e,0xf6,0x9b,0xfa,0x3a,0xa2,0x02,0x8d,0x3d,0x0f,0xa3,0x72,0x3d,0xf4,0x97,0xe9,0xbd,0x75,0x0d,0xdf,0xbd,0xd5,0x6e,0xb4,0x3d,0xe5,0xef,0x83,0x3c,0x74,0xe0,0x86,0xbd,0x61,0x56,0x15,0xbd,0xef,0x09,0x30,0xbc,0x65,0x5a,0x56,0xbc,0xf5,0xaf,0xbb,0x3d,0x08,0xe7,0xab,0xbd,0xea,0x79,0x8a,0x3c,0x2e,0x9f,0x30,0x3d,0xb2,0x85,0xf8,0x3b,0xea,0x4d,0x8f,0xbd,0x7a,0x3e,0x59,0xbd,0x7a,0xe6,0x2d,0xbe,0x53,0xeb,0x37,0xbc,0xb4,0x8c,0xa7,0xbd,0xe2,0xac,0x9f,0x3d,0x39,0xa0,0x15,0x3d,0xff,0xa1,0x80,0x3d,0x93,0x84,0x01,0xbe,0xb2,0x40,0x3a,0x3c,0x52,0xf1,0xf0,0xbc,0xae,0xb4,0xfb,0xbc,0xf5,0x37,0x25,0xbe,0x0e,0x58,0x67,0x3c,0x95,0xac,0xa4,0xbd,0xba,0x6d,0x06,0xbd,0xa6,0x52,0xc7,0x3b,0x7a,0x2a,0xa9,0xbd,0x12,0xcf,0x15,0xbe,0x43,0xa7,0x08,0x3e,0x5d,0xc4,0xe5,0xbd,0xef,0xd0,0xd9,0xbd,0x08,0x41,0x4e,0xbe,0xf5,0x08,0xde,0xbc,0x27,0x15,0x2d,0xbe,0x12,0x52,0x6a,0x3d,0x60,0xa3,0xa3,0xbd,0x97,0xb1,0x07,0xbe,0xc0,0x43,0xf5,0xbd,0xd7,0xfa,0x8e,0x3d,0x4b,0x50,0x2f,0x3c,0x6f,0xe8,0x8c,0x3c,0x3d,0xed,0xd7,0x3c,0x7f,0x96,0xb0,0xbc,0xcc,0x8c,0xcd,0x3c,0x02,0xef,0x44,0xbd,0xb5,0xea,0xbf,0xbc,0x9b,0xe8,0xac,0xbc,0x13,0x91,0xd3,0xbc,0x03,0x55,0x7b,0xbc,0x86,0x7f,0x60,0xbd,0x47,0x67,0x4d,0xbc,0x68,0x62,0x3c,0x3d,0x5f,0xa0,0xb0,0xbb,0xe9,0xc2,0x23,0x3d,0x24,0x15,0xac,0x3c,0x29,0xfd,0xcb,0x3d,0xb9,0x2e,0x92,0x3c,0x47,0x9b,0xa4,0xbd,0x6d,0xd4,0x16,0x3e,0xd1,0xa9,0x50,0x3e,0x58,0x83,0x26,0xbe,0x3f,0x64,0x93,0xba,0xdb,0xc2,0xa5,0xbd,0xc0,0x2a,0x2c,0xbd,0x46,0xd7,0x96,0xbc,0x2f,0x20,0x74,0x3e,0x77,0x26,0x03,0x3d,0xf6,0xdf,0x1f,0x3e,0xd3,0x4e,0x54,0xbd,0xf9,0x3b,0xfa,0x3b,0x4d,0x8c,0x45,0x3d,0x45,0xcc,0xc2,0x3d,0xc3,0x46,0x96,0x3d,0x22,0xb3,0xae,0xbd,0xae,0x77,0xce,0xbb,0x2b,0x65,0x7a,0x3d,0xd9,0x95,0xbd,0x3c,0x6f,0x89,0x57,0x3e,0x56,0xbb,0x10,0xbd,0x84,0xff,0x8c,0x3d,0xf0,0x90,0xee,0xbd,0x9b,0x82,0x44,0x3e,0xa2,0x10,0x0a,0x3e,0x48,0x0d,0x26,0x3e,0xae,0x71,0x36,0xbd,0x99,0x9a,0xd1,0x3d,0x79,0x62,0x67,0xbc,0x47,0x81,0xae,0x3d,0x2a,0xf8,0xa3,0xb9,0x5a,0xde,0x64,0xbd,0x86,0x1d,0x52,0x3d,0xe5,0x11,0x75,0xbd,0xa5,0x99,0x9f,0xbc,0xeb,0xaf,0xba,0xbc,0xd7,0x8c,0x96,0x3c,0xc2,0x2d,0xb0,0x3b,0xf8,0x32,0x10,0xbd,0x9d,0x23,0x80,0x3c,0x6e,0x2d,0xb7,0x3d,0x96,0xb1,0x0d,0xbc,0x90,0xab,0x15,0x3e,0x9f,0x7c,0x33,0x3d,0xef,0x7a,0x07,0xbd,0xfa,0x29,0x18,0xbe,0x4e,0xbc,0x8e,0xbd,0x18,0x28,0x5d,0x3d,0x31,0x07,0x15,0x3e,0x84,0x6e,0x92,0xbd,0x31,0x01,0xb5,0xbc,0xcd,0x89,0xf6,0x39,0xa2,0xeb,0xbe,0x3d,0x18,0xa6,0xce,0x3c,0x8f,0x21,0xef,0x3d,0x0b,0x8f,0x49,0xbe,0xbc,0xf3,0x4e,0xbd,0xcd,0xfd,0xcb,0x39,0x55,0x73,0x89,0xbd,0xc0,0x5e,0x08,0xbe,0x45,0xd1,0xd2,0x3a,0x1a,0x1e,0xca,0xbb,0xac,0x72,0x93,0x3d,0x37,0x23,0x09,0xbe,0x07,0xbd,0x02,0x3e,0x0a,0x6d,0x55,0xbd,0x37,0xa5,0xac,0x3d,0x33,0xcb,0x95,0xbd,0xa8,0x62,0x9a,0xbd,0xb9,0xa1,0x52,0x3d,0xf3,0x02,0x9c,0x3d,0xff,0xb1,0x6b,0xbd,0xdb,0xb9,0x90,0x3c,0xfe,0xe1,0xd5,0x3c,0xcc,0xf6,0xe9,0x3d,0xb4,0x83,0xc9,0xbd,0x6d,0x45,0x5c,0xbc,0x3d,0x78,0x38,0xbe,0xe4,0x4e,0x8c,0x3c,0xde,0xce,0x3f,0x3d,0x96,0xe3,0xad,0x3d,0x9f,0xab,0x12,0xbd,0x00,0x6b,0x2c,0xbd,0xb8,0xa7,0x02,0xbc,0x6a,0xd5,0x0d,0xbd,0x23,0x5b,0x34,0xbd,0x93,0x8a,0xd4,0x3b,0xd6,0x80,0xe1,0xbd,0x33,0xb6,0x5a,0x3d,0xf9,0xe7,0x75,0xbc,0xfb,0x51,0x3a,0xbd,0xbc,0x2f,0x44,0xbd,0xaf,0xd1,0xce,0x3d,0x8c,0xe1,0x48,0x3c,0x64,0x2c,0xb8,0x3d,0x29,0x5b,0x54,0xbe,0x62,0x49,0x05,0x3e,0x3c,0xc5,0x09,0x3e,0xc7,0x2f,0x55,0x3d,0xc6,0x93,0x49,0xbd,0x36,0x07,0xe9,0xbd,0xd5,0xe9,0xad,0x3c,0xf7,0xac,0x80,0x3d,0x46,0xf8,0x94,0x3d,0xe7,0x13,0x24,0x3e,0x05,0xe5,0xd0,0x3c,0xe3,0x51,0x58,0x3d,0x87,0xf6,0x8f,0xbd,0xaf,0x79,0x95,0xbc,0x59,0x77,0x95,0x3e,0x63,0x30,0x15,0xbd,0x02,0xaa,0x0b,0x3e,0x82,0x23,0xa1,0xbd,0x20,0x41,0x22,0x3d,0x04,0xf6,0xa2,0xbc,0x8c,0xd9,0x00,0x3e,0xba,0xff,0xa0,0x3d,0xbd,0xe2,0x1f,0x3e,0xb5,0xac,0xee,0xbd,0xc7,0xb3,0xb8,0x3d,0xd7,0xad,0x14,0x3e,0x5f,0xd3,0xd5,0x3d,0x55,0x11,0x2e,0xbd,0xdf,0xb9,0x2c,0x3e,0x92,0x32,0x33,0xbd,0xc6,0x77,0x86,0xbd,0x87,0xd3,0xbc,0x3d,0xef,0xd1,0x4d,0x3e,0x9b,0x9d,0xbe,0x3d,0x94,0xa1,0x17,0xbc,0x1e,0x87,0x07,0xbe,0x05,0x1c,0x7a,0xbc,0x7f,0x60,0x61,0x3d,0x48,0xc3,0x2c,0x3e,0x5d,0x2c,0x78,0x3d,0xc3,0x1e,0x2a,0x3d,0xf8,0x81,0xb1,0xbd,0x7e,0x87,0x24,0x3e,0x1b,0xc7,0x1c,0x3e,0x7f,0x73,0xfb,0x3c,0x84,0x67,0x9b,0xbd,0xe8,0xfb,0xaa,0x3c,0x3f,0xe0,0x7b,0xbd,0x6b,0x21,0xad,0x38,0xcb,0x23,0x9c,0x3c,0x81,0x3a,0x82,0xbd,0x88,0x68,0x3b,0x3d,0xf5,0x15,0xa1,0x3d,0x5d,0xc2,0x92,0x3d,0x9f,0xd5,0x0f,0x3e,0x18,0xc1,0x1b,0xbd,0xad,0xa9,0xe2,0x3c,0x8b,0x8d,0xd0,0x3d,0xc7,0x91,0x8d,0xbc,0xf8,0xb7,0xde,0xbb,0x1d,0x9c,0x91,0x3c,0x41,0x09,0xb4,0x3d,0x03,0x7d,0x5f,0xbd,0x6c,0x1e,0xa9,0x3d,0xb6,0xcc,0x31,0xbb,0xac,0x52,0xf3,0xbc,0xe2,0x2a,0x71,0xbd,0x2b,0xd4,0x20,0x3c,0x4d,0xcb,0x6e,0xbb,0xb5,0x2f,0x22,0xbd,0x5e,0xc9,0xac,0xbb,0xb5,0x1e,0x18,0x3d,0x01,0x6d,0x0a,0xbd,0x7a,0x11,0xb2,0x3d,0xea,0x3b,0x65,0xbd,0x80,0x2b,0xaf,0x3c,0x24,0x1f,0x36,0xbd,0x77,0x5c,0x5b,0x3d,0xf1,0xf9,0x49,0xbd,0xd4,0xd6,0x74,0xbd,0xef,0xb2,0x20,0xbe,0xcc,0xfa,0x06,0xbd,0xdb,0x65,0x3c,0x3c,0x75,0x1c,0x5b,0x3c,0xac,0xd5,0xbc,0x3c,0x68,0x3d,0x7f,0xbd,0x8b,0x9c,0x15,0xbe,0x6c,0x27,0x1d,0x3e,0x8f,0x78,0x03,0xbe,0xa9,0xcd,0x7e,0x3d,0x83,0xb7,0xe5,0xbd,0xfa,0x70,0x1c,0x3d,0xc3,0xeb,0xb9,0xbd,0x82,0x65,0x35,0x3c,0x0c,0x16,0x39,0xbe,0x3f,0xca,0x03,0xbe,0x5f,0x77,0x2e,0xbe,0x46,0xcf,0xba,0x3c,0x43,0x8c,0xbd,0x3c,0x4d,0x73,0xc1,0x3d,0x15,0xea,0x92,0xbd,0x10,0x52,0x49,0xbc,0xb2,0x5c,0x4e,0xbd,0x57,0xcc,0x47,0x3d,0x5f,0xd5,0x5f,0x3d,0x40,0xfc,0x0f,0x3c,0xf5,0x68,0x02,0xbe,0x83,0xb3,0x66,0x3d,0xb8,0xb7,0x03,0xbe,0x6d,0x9a,0x10,0x3d,0x46,0xa7,0xe3,0x3d,0xb8,0xf6,0x3b,0xbc,0x7e,0x0e,0x1e,0xbd,0xb8,0x6d,0xb9,0xbd,0xc6,0xe8,0xcd,0x3c,0xe4,0x01,0x06,0x3e,0x19,0xba,0x1e,0x3e,0xac,0x1d,0x71,0xbd,0x4f,0x05,0x88,0x3d,0x11,0x31,0x45,0xbc,0x11,0x87,0x17,0xbe,0x6d,0xfe,0xdf,0x3d,0xe0,0x27,0x0b,0x3e,0x88,0xa2,0xe5,0xbd,0x60,0x49,0xd8,0xbc,0x6b,0x2a,0x54,0xbd,0x7a,0x11,0x90,0xbc,0xd3,0x8f,0xf2,0x3d,0xfd,0x57,0x63,0x3e,0x0c,0xaa,0x08,0x3d,0x7b,0x28,0x86,0xbd,0x91,0xa5,0x34,0x3d,0x11,0x6d,0x1a,0xbc,0x44,0x33,0x6b,0xbd,0x99,0xcd,0x77,0x3b,0x69,0x53,0xe1,0xbd,0x50,0xd5,0x41,0xba,0x36,0xc2,0xdc,0x3c,0x88,0xcd,0x31,0xbd,0xeb,0x1c,0x45,0x3e,0x0a,0x65,0xba,0x3d,0x35,0x8a,0x76,0x3c,0xb5,0xec,0x41,0xbd,0xd5,0x4d,0x55,0xbc,0x63,0x0a,0xff,0xbc,0x65,0x7c,0xca,0x3c,0xc8,0xe2,0x21,0x3e,0x65,0x04,0xa3,0xbc,0x4b,0xcd,0xc7,0xbc,0x43,0x19,0x9e,0x3d,0xee,0x5a,0xb4,0xbc,0xac,0x2a,0x8a,0x3d,0x59,0x8b,0x67,0x3c,0x57,0x36,0x18,0x3d,0xff,0x67,0xa2,0x3c,0x33,0x64,0x88,0xbd,0x02,0x5e,0x24,0x3d,0x5e,0x73,0xad,0x3d,0x56,0xa1,0xc2,0x3d,0x52,0x00,0x86,0xbd,0x22,0x53,0x73,0xbd,0x67,0xf8,0x20,0x3d,0xd0,0xaf,0xf7,0x3d,0x00,0x5e,0x5c,0x3d,0x0d,0x95,0xb2,0xbd,0xbf,0x38,0x5f,0x3d,0x8f,0x9f,0xe8,0xbd,0x75,0xcb,0xa9,0x3d,0x0c,0x6b,0x96,0x3c,0x3a,0x57,0x3c,0x3e,0x20,0xb0,0x05,0xbe,0x5b,0x53,0x2f,0x3d,0x31,0x53,0x46,0xbe,0x3c,0xe5,0x75,0xbd,0x00,0x1f,0x10,0x3d,0x2b,0x40,0x8a,0x3d,0x72,0x5b,0x14,0x3a,0xc7,0xd2,0xb8,0xbd,0xca,0x96,0xba,0xbd,0x1d,0xee,0xbb,0x3d,0x69,0xf7,0x15,0xbe,0xcf,0x6a,0x42,0x3a,0x69,0x90,0xca,0xbd,0xf1,0xb1,0xae,0x3c,0x23,0x0c,0x5b,0xbe,0xda,0x42,0xcf,0x3d,0x75,0x42,0x5c,0xbe,0x87,0x01,0xc2,0x3d,0x84,0xa8,0xfe,0xbd,0x8b,0x12,0xdb,0x3b,0x70,0x76,0x85,0xbd,0xd5,0x21,0xad,0x3d,0x68,0x4a,0x60,0x3c,0x5e,0x04,0xdc,0xba,0xab,0xa0,0xe6,0xbd,0xbb,0x63,0xe7,0x3d,0x17,0x59,0xd9,0xbd,0xe9,0x51,0x09,0xbd,0x08,0x56,0x62,0xbd,0xd4,0x0b,0x7d,0xbc,0x56,0xad,0x30,0x3d,0x44,0x96,0x0f,0x3e,0xe7,0x62,0xbf,0xbd,0xec,0x8d,0x18,0x3d,0xc5,0x76,0x08,0xbd,0xd2,0xad,0xa7,0xbd,0x4a,0x9a,0x20,0x3d,0xfc,0x37,0x89,0xbd,0xa9,0x42,0xbd,0x3d,0x1f,0x11,0x1f,0xbd,0x4a,0x79,0x8b,0xbd,0x32,0x8b,0xfd,0x3d,0x07,0x1d,0x77,0xbd,0xb5,0x59,0xc8,0xbc,0x33,0xb4,0x1a,0xbd,0xa6,0xf5,0xe2,0x3c,0xf8,0xc2,0x33,0x3d,0xf3,0xc6,0xa2,0x3d,0x68,0x34,0x26,0xbc,0x5f,0x6e,0x9d,0x3d,0xcb,0x9e,0x14,0x3d,0xdb,0xef,0x8e,0x3d,0xe4,0x83,0x37,0xbd,0xe5,0x12,0x1e,0xbd,0x03,0xab,0x3c,0x3d,0x74,0xde,0xeb,0xbd,0x90,0x4f,0x19,0x3d,0x04,0x56,0x10,0xbd,0x67,0xf3,0x52,0x3c,0x99,0x57,0xf9,0xbc,0xbd,0xbf,0xa5,0x3c,0x24,0xba,0x09,0x3c,0xcf,0x60,0x1c,0x3e,0xea,0x1c,0x1a,0x3d,0xce,0x05,0x14,0xbd,0xda,0xe9,0x22,0x3e,0x9c,0x13,0x47,0x3e,0x20,0xdc,0xef,0xbd,0x54,0x9f,0x02,0x3d,0xcb,0x65,0x8e,0x3d,0x78,0x58,0xed,0x3c,0xf0,0xfa,0x58,0x3d,0x86,0x4e,0xc8,0x3d,0x79,0x38,0x39,0x3a,0x21,0x1e,0x81,0x3d,0x29,0xf6,0xa1,0xbd,0xce,0x1e,0x8d,0x3d,0x74,0x05,0x06,0x3e,0x37,0x71,0xc7,0xba,0x95,0xa6,0xc5,0x3d,0x27,0x5f,0x71,0x3d,0xa7,0xf9,0x3f,0xbd,0x32,0x0d,0x26,0xbd,0x45,0x0f,0xf8,0x3d,0x67,0xfc,0x62,0xbd,0x2b,0x63,0xc2,0xbc,0x53,0xe3,0x22,0x3d,0xee,0x8c,0xb4,0x3d,0x0e,0x7b,0x26,0xbd,0x6a,0xdb,0xa8,0x3d,0x6e,0x52,0x8a,0x3d,0xf7,0xba,0xba,0x3d,0x26,0xf1,0x05,0x3e,0x98,0xae,0x60,0xbd,0x60,0xad,0x1d,0xbd,0x08,0x52,0x1b,0x3e,0xf7,0x7e,0xee,0xbd,0xec,0x74,0xa9,0x3d,0x1b,0x5e,0x3d,0x3d,0x89,0xc0,0x81,0x3d,0x0f,0x0a,0x85,0x3d,0xfb,0x48,0x07,0x3e,0x82,0xd9,0x00,0xbe,0x54,0xfe,0xb9,0xbd,0xf3,0x03,0xd0,0xbd,0xb9,0x4a,0xbe,0x3d,0xc2,0x0e,0x0a,0xbd,0x5b,0x1a,0x15,0x3e,0xdf,0xba,0xc5,0xbd,0xda,0x71,0x2e,0x3d,0x41,0x67,0x88,0x3d,0x47,0xc6,0xfa,0xbb,0xb3,0xee,0xac,0xbd,0xc2,0x0c,0x04,0xbd,0x46,0x89,0x02,0xbe,0x67,0x98,0x14,0xbd,0x86,0x3c,0x06,0xbe,0x45,0x8f,0x59,0xbd,0xeb,0x90,0x97,0xbd,0x64,0x04,0xa4,0x3d,0xc3,0xa1,0x8f,0xbc,0x89,0xbc,0x87,0xbd,0xd7,0xfe,0x0b,0xbe,0xa5,0xb6,0xb9,0x3d,0x2b,0xc6,0xf7,0xbd,0xc6,0x08,0xfd,0x3d,0xad,0x6a,0xe2,0xbd,0xe0,0x60,0xaf,0x3d,0x65,0xe8,0xb8,0xbd,0x1d,0xeb,0xb0,0xbd,0x50,0xfd,0x4c,0x3d,0xe8,0x7f,0x17,0xbd,0xd5,0x83,0xfa,0xbc,0xc5,0xfb,0xd7,0x3d,0x8f,0x97,0xed,0xbd,0xa3,0x21,0x23,0xbd,0x52,0x5f,0xe0,0xbd,0xcf,0xd7,0xfe,0x3d,0xca,0x39,0x8e,0x3d,0x7e,0xc6,0x14,0xbc,0x95,0x9a,0xda,0x3c,0x53,0xc1,0xce,0x3d,0x68,0x5b,0xdb,0xbd,0x96,0x5b,0xce,0x3d,0x28,0xdc,0x8e,0xbd,0xcf,0xf3,0x2f,0x3d,0xe7,0xce,0x96,0x3d,0xd9,0xcb,0xec,0xbc,0x36,0x51,0x37,0x3d,0x36,0x3d,0x2e,0x3d,0xdb,0x0d,0xae,0x3d,0x7f,0x4e,0xb5,0xbd,0x60,0x9b,0xfc,0x3c,0x2b,0xa8,0x72,0x3d,0xc3,0x81,0x23,0xbe,0xfa,0x2e,0x9e,0x3d,0xbd,0x05,0x1c,0x3e,0x47,0x46,0x7b,0xbd,0x58,0x4e,0x09,0x3e,0xf8,0xab,0x94,0xbd,0x7f,0xe1,0xed,0xbd,0x5c,0x58,0x1a,0x3e,0x5c,0x3e,0x44,0x3d,0xcf,0xf9,0x98,0x3b,0x23,0x8e,0xb6,0xb9,0x50,0x9e,0x6b,0x3d,0x05,0xb0,0x8a,0xbc,0xdd,0xd1,0x3e,0x3e,0x47,0x00,0xd6,0x3d,0xf0,0xbc,0xad,0xba,0x14,0x6d,0x4f,0x3a,0x16,0xe9,0x32,0x3c,0x9c,0xfc,0x1b,0xbd,0x99,0x36,0x6e,0x3e,0xc7,0xd2,0xc2,0xbc,0x19,0xf5,0xc1,0xbd,0x73,0x52,0xb2,0x3b,0xd8,0x45,0x98,0xbd,0x69,0xee,0x95,0x3d,0x85,0x5b,0x14,0x3d,0x02,0x9c,0x45,0x3d,0xf6,0xf5,0xb6,0x3d,0xdb,0x0c,0x95,0xbc,0x98,0xd1,0xb4,0xbd,0xbe,0xfe,0xff,0xff,0x04,0x00,0x00,0x00,0x20,0x00,0x00,0x00,0xb1,0x56,0x4a,0xbe,0x78,0xf5,0xd9,0xbf,0x25,0x1d,0x10,0xbf,0x37,0x8e,0x81,0xc0,0x4f,0x59,0x48,0xbf,0xff,0x7b,0xcb,0xbf,0x7f,0x19,0x6a,0xbd,0x80,0x94,0x35,0xc0,0xea,0xfe,0xff,0xff,0x04,0x00,0x00,0x00,0x0c,0x00,0x00,0x00,0xc3,0x89,0xfc,0x3f,0xab,0xff,0xdc,0xbf,0xe5,0xd5,0xe9,0xbf,0x02,0xff,0xff,0xff,0x04,0x00,0x00,0x00,0x60,0x00,0x00,0x00,0x3b,0xc4,0xac,0xbd,0x38,0xf9,0x5f,0xbe,0xcc,0xb9,0x78,0xbf,0x6f,0x4d,0xf3,0xbe,0xd4,0x1d,0x84,0x3d,0xee,0xd0,0xae,0xbe,0xf5,0x50,0x8f,0xbe,0x7d,0x5d,0x32,0xbd,0xfc,0x7c,0xb8,0xbe,0x83,0xa8,0x38,0x3f,0xe9,0xdf,0x7e,0xbe,0xf0,0x7d,0xa6,0xbc,0x07,0x74,0x4b,0x3e,0xbd,0xea,0x39,0x3f,0x9e,0x10,0x9e,0x3e,0xfe,0x71,0xec,0x3e,0x2b,0xde,0x61,0x3f,0xf8,0x52,0x3d,0xbf,0xea,0x28,0x15,0x3f,0xbb,0xa1,0x37,0xbf,0xd2,0x5c,0x8b,0x3f,0xf9,0x7c,0x4f,0xbf,0xcf,0x2f,0x93,0x3f,0x7d,0x21,0x31,0xbf,0x64,0xfa,0xff,0xff,0x68,0xfa,0xff,0xff,0x0f,0x00,0x00,0x00,0x4d,0x4c,0x49,0x52,0x20,0x43,0x6f,0x6e,0x76,0x65,0x72,0x74,0x65,0x64,0x2e,0x00,0x01,0x00,0x00,0x00,0x14,0x00,0x00,0x00,0x00,0x00,0x0e,0x00,0x18,0x00,0x14,0x00,0x10,0x00,0x0c,0x00,0x08,0x00,0x04,0x00,0x0e,0x00,0x00,0x00,0x14,0x00,0x00,0x00,0x1c,0x00,0x00,0x00,0xec,0x00,0x00,0x00,0xf0,0x00,0x00,0x00,0xf4,0x00,0x00,0x00,0x04,0x00,0x00,0x00,0x6d,0x61,0x69,0x6e,0x00,0x00,