// File ini dibuat secara otomatis
#ifndef G_KASUS_C_MODEL_2_INT8_H
#define G_KASUS_C_MODEL_2_INT8_H

// Model: Kasus C Model 2 INT8
// 2L, 16N, int8 quantized
// Size: 3216 bytes (3.14 KB)
const unsigned char g_kasus_c_model_2_int8_model_data[] = {0x20,0x00,0x00,0x00,0x54,0x46,0x4c,0x33,0x00,0x00,0x00,0x00,0x14,0x00,0x20,0x00,0x1c,0x00,0x18,0x00,0x14,0x00,0x10,0x00,0x0c,0x00,0x00,0x00,0x08,0x00,0x04,0x00,0x14,0x00,0x00,0x00,0x1c,0x00,0x00,0x00,0x8c,0x00,0x00,0x00,0x0c,0x01,0x00,0x00,0x18,0x05,0x00,0x00,0x28,0x05,0x00,0x00,0x20,0x0c,0x00,0x00,0x03,0x00,0x00,0x00,0x01,0x00,0x00,0x00,0x04,0x00,0x00,0x00,0x9a,0xfa,0xff,0xff,0x0c,0x00,0x00,0x00,0x1c,0x00,0x00,0x00,0x3c,0x00,0x00,0x00,0x0f,0x00,0x00,0x00,0x73,0x65,0x72,0x76,0x69,0x6e,0x67,0x5f,0x64,0x65,0x66,0x61,0x75,0x6c,0x74,0x00,0x01,0x00,0x00,0x00,0x04,0x00,0x00,0x00,0x68,0xff,0xff,0xff,0x0a,0x00,0x00,0x00,0x04,0x00,0x00,0x00,0x08,0x00,0x00,0x00,0x6f,0x75,0x74,0x70,0x75,0x74,0x5f,0x30,0x00,0x00,0x00,0x00,0x01,0x00,0x00,0x00,0x04,0x00,0x00,0x00,0x6e,0xfb,0xff,0xff,0x04,0x00,0x00,0x00,0x0d,0x00,0x00,0x00,0x69,0x6e,0x70,0x75,0x74,0x5f,0x6c,0x61,0x79,0x65,0x72,0x5f,0x32,0x00,0x00,0x00,0x03,0x00,0x00,0x00,0x5c,0x00,0x00,0x00,0x2c,0x00,0x00,0x00,0x04,0x00,0x00,0x00,0xb8,0xff,0xff,0xff,0x0e,0x00,0x00,0x00,0x04,0x00,0x00,0x00,0x13,0x00,0x00,0x00,0x43,0x4f,0x4e,0x56,0x45,0x52,0x53,0x49,0x4f,0x4e,0x5f,0x4d,0x45,0x54,0x41,0x44,0x41,0x54,0x41,0x00,0xdc,0xff,0xff,0xff,0x0d,0x00,0x00,0x00,0x04,0x00,0x00,0x00,0x13,0x00,0x00,0x00,0x6d,0x69,0x6e,0x5f,0x72,0x75,0x6e,0x74,0x69,0x6d,0x65,0x5f,0x76,0x65,0x72,0x73,0x69,0x6f,0x6e,0x00,0x08,0x00,0x0c,0x00,0x08,0x00,0x04,0x00,0x08,0x00,0x00,0x00,0x0c,0x00,0x00,0x00,0x04,0x00,0x00,0x00,0x13,0x00,0x00,0x00,0x6d,0x69,0x6e,0x5f,0x72,0x75,0x6e,0x74,0x69,0x6d,0x65,0x5f,0x76,0x65,0x72,0x73,0x69,0x6f,0x6e,0x00,0x0f,0x00,0x00,0x00,0x08,0x04,0x00,0x00,0x00,0x04,0x00,0x00,0xec,0x03,0x00,0x00,0xc4,0x03,0x00,0x00,0x74,0x03,0x00,0x00,0x64,0x02,0x00,0x00,0x14,0x02,0x00,0x00,0xd4,0x00,0x00,0x00,0xcc,0x00,0x00,0x00,0xc4,0x00,0x00,0x00,0xbc,0x00,0x00,0x00,0xb4,0x00,0x00,0x00,0x94,0x00,0x00,0x00,0x74,0x00,0x00,0x00,0x04,0x00,0x00,0x00,0x4e,0xfc,0xff,0xff,0x04,0x00,0x00,0x00,0x60,0x00,0x00,0x00,0x0c,0x00,0x00,0x00,0x08,0x00,0x0e,0x00,0x08,0x00,0x04,0x00,0x08,0x00,0x00,0x00,0x10,0x00,0x00,0x00,0x28,0x00,0x00,0x00,0x00,0x00,0x06,0x00,0x08,0x00,0x04,0x00,0x06,0x00,0x00,0x00,0x04,0x00,0x00,0x00,0x01,0x00,0x00,0x00,0xeb,0x03,0x00,0x00,0x0c,0x00,0x18,0x00,0x14,0x00,0x10,0x00,0x0c,0x00,0x04,0x00,0x0c,0x00,0x00,0x00,0x44,0x37,0xc9,0x72,0x5d,0x01,0x64,0x38,0x02,0x00,0x00,0x00,0x02,0x00,0x00,0x00,0x04,0x00,0x00,0x00,0x06,0x00,0x00,0x00,0x32,0x2e,0x31,0x38,0x2e,0x30,0x00,0x00,0xba,0xfc,0xff,0xff,0x04,0x00,0x00,0x00,0x10,0x00,0x00,0x00,0x00,0x00,0x00,0x00,0x00,0x00,0x00,0x00,0x00,0x00,0x00,0x00,0x00,0x00,0x00,0x00,0xd6,0xfc,0xff,0xff,0x04,0x00,0x00,0x00,0x10,0x00,0x00,0x00,0x31,0x2e,0x31,0x34,0x2e,0x30,0x00,0x00,0x00,0x00,0x00,0x00,0x00,0x00,0x00,0x00,0x30,0xfc,0xff,0xff,0x34,0xfc,0xff,0xff,0x38,0xfc,0xff,0xff,0x3c,0xfc,0xff,0xff,0x02,0xfd,0xff,0xff,0x04,0x00,0x00,0x00,0x30,0x01,0x00,0x00,0x04,0xe4,0x2a,0x1e,0x21,0x04,0xf7,0x5d,0xf1,0xd2,0xbf,0xbc,0xdd,0x55,0x84,0x0c,0x3c,0x15,0xaf,0x2b,0x3b,0x52,0xf1,0x22,0x3c,0x3d,0xca,0xfd,0xf1,0x49,0xde,0x3c,0x1f,0xc4,0x0e,0x50,0xf2,0x29,0xc5,0x9e,0x34,0xce,0xd4,0xf1,0x22,0xd5,0x0a,0x3d,0x0b,0x28,0xce,0x81,0x09,0x23,0xdb,0xa8,0x33,0xe0,0xe6,0xf5,0x55,0xd2,0x54,0x07,0x23,0x15,0xa7,0x2e,0xe3,0xdd,0x2a,0xa9,0x0c,0xe5,0x25,0xbe,0x64,0xd8,0xac,0x23,0x14,0x02,0x21,0x1e,0xad,0x06,0x9f,0x33,0xd0,0x09,0x3e,0xe2,0x0a,0xc4,0xa3,0x0d,0x6b,0x40,0x33,0x21,0x1c,0x5b,0x21,0xee,0x01,0xcc,0xe0,0xc8,0x17,0x0e,0x55,0xf4,0x2a,0x2f,0xf4,0xe7,0x49,0x1f,0x5c,0x31,0x47,0xb8,0xf0,0xae,0x45,0x2d,0x40,0xd5,0x29,0xf6,0x3b,0x32,0xeb,0xdb,0x9c,0x36,0xc8,0xb1,0x19,0xce,0x35,0x1f,0x28,0x23,0xcf,0xdc,0xf0,0x14,0xf1,0xf3,0xa6,0xd3,0xc3,0x27,0xc7,0x3d,0xb7,0xb8,0xfa,0xd1,0xd6,0xde,0xf7,0x50,0xda,0x01,0x36,0xa2,0xc0,0x0a,0xc6,0xea,0x04,0xfd,0x33,0x21,0xe1,0xe1,0x3d,0xef,0x0f,0x4b,0x3a,0xc4,0xe9,0x33,0xf2,0x15,0x23,0xe5,0xe3,0x40,0x4d,0xf0,0x09,0x5f,0xfd,0x1a,0x2a,0x09,0xba,0xc5,0x4d,0x7e,0xd8,0x1f,0xff,0x07,0xce,0xbc,0xed,0xf5,0xd4,0x1a,0x54,0xd5,0x1a,0xb3,0xc6,0x27,0xd9,0x0d,0x0b,0x38,0x10,0x3e,0x56,0xd1,0x33,0x16,0xb4,0x39,0x14,0x4a,0x38,0x62,0x24,0xe3,0xba,0xf9,0x18,0x01,0xa5,0xc5,0xb0,0xa6,0x36,0x2e,0x11,0xe5,0xf0,0x44,0xdb,0x26,0xad,0xe7,0x2a,0xe8,0xd7,0xbd,0x17,0x86,0x37,0x63,0x22,0x21,0x07,0xb5,0xe6,0xd3,0x2c,0x1b,0xfb,0x30,0x13,0xf8,0x2d,0x17,0xf8,0xc7,0x07,0xd7,0xdd,0xf8,0x4a,0xaf,0x0f,0xfc,0xa1,0x2e,0x32,0xae,0x20,0xa2,0xc1,0x01,0xd3,0x41,0x03,0x1f,0x93,0xc5,0xc8,0x36,0x3e,0xfe,0xff,0xff,0x04,0x00,0x00,0x00,0x40,0x00,0x00,0x00,0xa8,0x04,0x00,0x00,0x6a,0x02,0x00,0x00,0xd4,0x04,0x00,0x00,0x62,0x04,0x00,0x00,0x0e,0x02,0x00,0x00,0x24,0x01,0x00,0x00,0xea,0x03,0x00,0x00,0xa8,0x02,0x00,0x00,0x70,0x03,0x00,0x00,0x26,0xfd,0xff,0xff,0x11,0x04,0x00,0x00,0x2e,0xff,0xff,0xff,0xa3,0x04,0x00,0x00,0x0a,0x05,0x00,0x00,0xa4,0x01,0x00,0x00,0x4b,0x03,0x00,0x00,0x8a,0xfe,0xff,0xff,0x04,0x00,0x00,0x00,0x00,0x01,0x00,0x00,0xf5,0x0d,0x35,0x7b,0x00,0x14,0x30,0xb8,0xef,0xa1,0x3b,0x17,0x7d,0x22,0xe4,0x11,0xb3,0xf3,0x16,0x24,0xe6,0xda,0x27,0x5b,0x16,0x1a,0xe6,0x68,0x31,0xc6,0x41,0x17,0x9e,0xb6,0x5d,0xe5,0x6e,0xf4,0x32,0x25,0x2d,0xbf,0x25,0xd4,0xd6,0xd9,0x2f,0x40,0xa2,0x23,0x4b,0x12,0x4f,0xb5,0xc0,0x42,0x76,0xc2,0x39,0xd4,0xa8,0x9e,0x4e,0x2a,0xee,0xf0,0x25,0xd4,0x44,0xdb,0x1b,0x28,0x22,0x19,0xe3,0xcf,0x51,0xdb,0xe2,0x8b,0x4e,0x15,0xbb,0xd1,0xc6,0xf5,0xcd,0xd2,0xba,0xe7,0x08,0xe0,0x00,0xd0,0xd6,0x4a,0xbf,0x21,0x12,0x40,0x40,0x75,0x1d,0xd4,0x07,0xb1,0x72,0x37,0x72,0x65,0xa8,0xd8,0x2f,0xdc,0x7c,0xc0,0xf0,0xbf,0x58,0xea,0x52,0x06,0xe2,0x19,0xb8,0xf8,0x36,0x09,0x22,0xb2,0x38,0xb6,0xa7,0x14,0xd4,0x69,0x54,0x09,0xd1,0xbe,0x03,0x41,0xec,0x15,0x25,0xf2,0x48,0xfe,0x34,0xdc,0x44,0xf4,0x04,0xd9,0xaf,0x4a,0xa9,0x98,0x08,0xdf,0x54,0xe4,0x2d,0x08,0x45,0xec,0xf7,0xf1,0xbd,0x2e,0xd5,0x27,0xf6,0x77,0xb3,0x2a,0x5b,0xd0,0xbe,0x42,0x21,0x56,0x25,0xdd,0xe1,0x43,0x03,0xfc,0xf1,0x54,0x15,0x1c,0xd7,0xa8,0x2b,0x29,0x1f,0xcd,0x05,0x2d,0x17,0xf8,0x21,0xd9,0x06,0x8e,0xf8,0x40,0x68,0x53,0xa2,0x74,0x2b,0x16,0xb9,0x60,0x07,0xa7,0x7f,0x4e,0x08,0xd9,0xd0,0xbb,0xcf,0xbe,0x03,0x2c,0x37,0x27,0x11,0x14,0x09,0xc0,0x11,0x6f,0x12,0x25,0x48,0x76,0x92,0x38,0x6d,0xb3,0x38,0xb7,0x30,0x74,0x3c,0xc5,0xde,0x10,0xfe,0x8c,0x13,0xf6,0x96,0xff,0xff,0xff,0x04,0x00,0x00,0x00,0x40,0x00,0x00,0x00,0xe0,0x05,0x00,0x00,0xc1,0x04,0x00,0x00,0x3e,0x05,0x00,0x00,0xeb,0x03,0x00,0x00,0x1f,0xfd,0xff,0xff,0xd0,0xfc,0xff,0xff,0xcc,0x04,0x00,0x00,0x00,0x05,0x00,0x00,0x31,0xfe,0xff,0xff,0xb7,0x07,0x00,0x00,0x53,0xfe,0xff,0xff,0xe8,0x01,0x00,0x00,0x28,0x03,0x00,0x00,0x48,0x06,0x00,0x00,0x7b,0xfe,0xff,0xff,0x36,0x05,0x00,0x00,0xe2,0xff,0xff,0xff,0x04,0x00,0x00,0x00,0x10,0x00,0x00,0x00,0x45,0xa2,0x81,0xd8,0x41,0xcc,0x5c,0xb9,0xa9,0xa6,0x54,0x74,0xa8,0x35,0xa8,0x9d,0x00,0x00,0x06,0x00,0x08,0x00,0x04,0x00,0x06,0x00,0x00,0x00,0x04,0x00,0x00,0x00,0x04,0x00,0x00,0x00,0x99,0x00,0x00,0x00,0x54,0xff,0xff,0xff,0x58,0xff,0xff,0xff,0x0f,0x00,0x00,0x00,0x4d,0x4c,0x49,0x52,0x20,0x43,0x6f,0x6e,0x76,0x65,0x72,0x74,0x65,0x64,0x2e,0x00,0x01,0x00,0x00,0x00,0x14,0x00,0x00,0x00,0x00,0x00,0x0e,0x00,0x18,0x00,0x14,0x00,0x10,0x00,0x0c,0x00,0x08,0x00,0x04,0x00,0x0e,0x00,0x00,0x00,0x14,0x00,0x00,0x00,0x1c,0x00,0x00,0x00,0x0c,0x01,0x00,0x00,0x10,0x01,0x00,0x00,0x14,0x01,0x00,0x00,0x04,0x00,0x00,0x00,0x6d,0x61,0x69,0x6e,0x00,0x00,0x00,0x00,0x04,0x00,0x00,0x00,0xb4,0x00,0x00,0x00,0x6c,0x00,0x00,0x00,0x34,0x00,0x00,0x00,0x10,0x00,0x00,0x00,0x00,0x00,0x0a,0x00,0x10,0x00,0x0c,0x00,0x08,0x00,0x04,0x00,0x0a,0x00,0x00,0x00,0x0c,0x00,0x00,0x00,0x10,0x00,0x00,0x00,0x01,0x00,0x00,0x00,0x01,0x00,0x00,0x00,0x0a,0x00,0x00,0x00,0x01,0x00,0x00,0x00,0x09,0x00,0x00,0x00,0x96,0xff,0xff,0xff,0x14,0x00,0x00,0x00,0x00,0x00,0x00,0x08,0x10,0x00,0x00,0x00,0x14,0x00,0x00,0x00,0x04,0x00,0x04,0x00,0x04,0x00,0x00,0x00,0x01,0x00,0x00,0x00,0x09,0x00,0x00,0x00,0x03,0x00,0x00,0x00,0x08,0x00,0x00,0x00,0x02,0x00,0x00,0x00,0x01,0x00,0x00,0x00,0xca,0xff,0xff,0xff,0x10,0x00,0x00,0x00,0x00,0x00,0x00,0x08,0x10,0x00,0x00,0x00,0x14,0x00,0x00,0x00,0xba,0xff,0xff,0xff,0x00,0x00,0x00,0x01,0x01,0x00,0x00,0x00,0x08,0x00,0x00,0x00,0x03,0x00,0x00,0x00,0x07,0x00,0x00,0x00,0x04,0x00,0x00,0x00,0x03,0x00,0x00,0x00,0x00,0x00,0x0e,0x00,0x16,0x00,0x00,0x00,0x10,0x00,0x0c,0x00,0x0b,0x00,0x04,0x00,0x0e,0x00,0x00,0x00,0x18,0x00,0x00,0x00,0x00,0x00,0x00,0x08,0x18,0x00,0x00,0x00,0x1c,0x00,0x00,0x00,0x00,0x00,0x06,0x00,0x08,0x00,0x07,0x00,0x06,0x00,0x00,0x00,0x00,0x00,0x00,0x01,0x01,0x00,0x00,0x00,0x07,0x00,0x00,0x00,0x03,0x00,0x00,0x00,0x00,0x00,0x00,0x00,0x06,0x00,0x00,0x00,0x05,0x00,0x00,0x00,0x01,0x00,0x00,0x00,0x0a,0x00,0x00,0x00,0x01,0x00,0x00,0x00,0x00,0x00,0x00,0x00,0x0b,0x00,0x00,0x00,0x30,0x05,0x00,0x00,0xb8,0x04,0x00,0x00,0x3c,0x04,0x00,0x00,0xd8,0x03,0x00,0x00,0x74,0x03,0x00,0x00,0x10,0x03,0x00,0x00,0xac,0x02,0x00,0x00,0xe8,0x01,0x00,0x00,0x24,0x01,0x00,0x00,0x80,0x00,0x00,0x00,0x04,0x00,0x00,0x00,0x12,0xfb,0xff,0xff,0x00,0x00,0x00,0x01,0x18,0x00,0x00,0x00,0x20,0x00,0x00,0x00,0x3c,0x00,0x00,0x00,0x0b,0x00,0x00,0x00,0x00,0x00,0x00,0x09,0x50,0x00,0x00,0x00,0x02,0x00,0x00,0x00,0xff,0xff,0xff,0xff,0x01,0x00,0x00,0x00,0xfc,0xfa,0xff,0xff,0x08,0x00,0x00,0x00,0x10,0x00,0x00,0x00,0x01,0x00,0x00,0x00,0x80,0xff,0xff,0xff,0xff,0xff,0xff,0xff,0x01,0x00,0x00,0x00,0x00,0x00,0x80,0x3b,0x1b,0x00,0x00,0x00,0x53,0x74,0x61,0x74,0x65,0x66,0x75,0x6c,0x50,0x61,0x72,0x74,0x69,0x74,0x69,0x6f,0x6e,0x65,0x64,0x43,0x61,0x6c,0x6c,0x5f,0x31,0x3a,0x30,0x00,0x02,0x00,0x00,0x00,0x01,0x00,0x00,0x00,0x01,0x00,0x00,0x00,0x8a,0xfb,0xff,0xff,0x00,0x00,0x00,0x01,0x18,0x00,0x00,0x00,0x20,0x00,0x00,0x00,0x40,0x00,0x00,0x00,0x0a,0x00,0x00,0x00,0x00,0x00,0x00,0x09,0x78,0x00,0x00,0x00,0x02,0x00,0x00,0x00,0xff,0xff,0xff,0xff,0x01,0x00,0x00,0x00,0x74,0xfb,0xff,0xff,0x08,0x00,0x00,0x00,0x14,0x00,0x00,0x00,0x01,0x00,0x00,0x00,0x11,0x00,0x00,0x00,0x00,0x00,0x00,0x00,0x00,0x00,0x00,0x00,0x01,0x00,0x00,0x00,0x3f,0x03,0xc4,0x3d,0x3c,0x00,0x00,0x00,0x73,0x65,0x71,0x75,0x65,0x6e,0x74,0x69,0x61,0x6c,0x5f,0x32,0x5f,0x31,0x2f,0x64,0x65,0x6e,0x73,0x65,0x5f,0x36,0x5f,0x31,0x2f,0x4d,0x61,0x74,0x4d,0x75,0x6c,0x3b,0x73,0x65,0x71,0x75,0x65,0x6e,0x74,0x69,0x61,0x6c,0x5f,0x32,0x5f,0x31,0x2f,0x64,0x65,0x6e,0x73,0x65,0x5f,0x36,0x5f,0x31,0x2f,0x41,0x64,0x64,0x00,0x00,0x00,0x00,0x02,0x00,0x00,0x00,0x01,0x00,0x00,0x00,0x01,0x00,0x00,0x00,0x2a,0xfc,0xff,0xff,0x00,0x00,0x00,0x01,0x18,0x00,0x00,0x00,0x20,0x00,0x00,0x00,0x40,0x00,0x00,0x00,0x09,0x00,0x00,0x00,0x00,0x00,0x00,0x09,0x98,0x00,0x00,0x00,0x02,0x00,0x00,0x00,0xff,0xff,0xff,0xff,0x10,0x00,0x00,0x00,0x14,0xfc,0xff,0xff,0x08,0x00,0x00,0x00,0x14,0x00,0x00,0x00,0x01,0x00,0x00,0x00,0x80,0xff,0xff,0xff,0xff,0xff,0xff,0xff,0x00,0x00,0x00,0x00,0x01,0x00,0x00,0x00,0xbb,0x19,0xbf,0x3c,0x5e,0x00,0x00,0x00,0x73,0x65,0x71,0x75,0x65,0x6e,0x74,0x69,0x61,0x6c,0x5f,0x32,0x5f,0x31,0x2f,0x64,0x65,0x6e,0x73,0x65,0x5f,0x35,0x5f,0x31,0x2f,0x4d,0x61,0x74,0x4d,0x75,0x6c,0x3b,0x73,0x65,0x71,0x75,0x65,0x6e,0x74,0x69,0x61,0x6c,0x5f,0x32,0x5f,0x31,0x2f,0x64,0x65,0x6e,0x73,0x65,0x5f,0x35,0x5f,0x31,0x2f,0x52,0x65,0x6c,0x75,0x3b,0x73,0x65,0x71,0x75,0x65,0x6e,0x74,0x69,0x61,0x6c,0x5f,0x32,0x5f,0x31,0x2f,0x64,0x65,0x6e,0x73,0x65,0x5f,0x35,0x5f,0x31,0x2f,0x42,0x69,0x61,0x73,0x41,0x64,0x64,0x00,0x00,0x02,0x00,0x00,0x00,0x01,0x00,0x00,0x00,0x10,0x00,0x00,0x00,0xea,0xfc,0xff,0xff,0x00,0x00,0x00,0x01,0x18,0x00,0x00,0x00,0x20,0x00,0x00,0x00,0x40,0x00,0x00,0x00,0x08,0x00,0x00,0x00,0x00,0x00,0x00,0x09,0x98,0x00,0x00,0x00,0x02,0x00,0x00,0x00,0xff,0xff,0xff,0xff,0x10,0x00,0x00,0x00,0xd4,0xfc,0xff,0xff,0x08,0x00,0x00,0x00,0x14,0x00,0x00,0x00,0x01,0x00,0x00,0x00,0x80,0xff,0xff,0xff,0xff,0xff,0xff,0xff,0x00,0x00,0x00,0x00,0x01,0x00,0x00,0x00,0x95,0xb3,0x9a,0x3c,0x5e,0x00,0x00,0x00,0x73,0x65,0x71,0x75,0x65,0x6e,0x74,0x69,0x61,0x6c,0x5f,0x32,0x5f,0x31,0x2f,0x64,0x65,0x6e,0x73,0x65,0x5f,0x34,0x5f,0x31,0x2f,0x4d,0x61,0x74,0x4d,0x75,0x6c,0x3b,0x73,0x65,0x71,0x75,0x65,0x6e,0x74,0x69,0x61,0x6c,0x5f,0x32,0x5f,0x31,0x2f,0x64,0x65,0x6e,0x73,0x65,0x5f,0x34,0x5f,0x31,0x2f,0x52,0x65,0x6c,0x75,0x3b,0x73,0x65,0x71,0x75,0x65,0x6e,0x74,0x69,0x61,0x6c,0x5f,0x32,0x5f,0x31,0x2f,0x64,0x65,0x6e,0x73,0x65,0x5f,0x34,0x5f,0x31,0x2f,0x42,0x69,0x61,0x73,0x41,0x64,0x64,0x00,0x00,0x02,0x00,0x00,0x00,0x01,0x00,0x00,0x00,0x10,0x00,0x00,0x00,0x1e,0xfe,0xff,0xff,0x00,0x00,0x00,0x01,0x14,0x00,0x00,0x00,0x30,0x00,0x00,0x00,0x07,0x00,0x00,0x00,0x00,0x00,0x00,0x09,0x3c,0x00,0x00,0x00,0x84,0xfd,0xff,0xff,0x08,0x00,0x00,0x00,0x10,0x00,0x00,0x00,0x01,0x00,0x00,0x00,0x00,0x00,0x00,0x00,0x00,0x00,0x00,0x00,0x01,0x00,0x00,0x00,0x07,0xdb,0xa4,0x3b,0x12,0x00,0x00,0x00,0x74,0x66,0x6c,0x2e,0x70,0x73,0x65,0x75,0x64,0x6f,0x5f,0x71,0x63,0x6f,0x6e,0x73,0x74,0x35,0x00,0x00,0x02,0x00,0x00,0x00,0x10,0x00,0x00,0x00,0x13,0x00,0x00,0x00,0x7e,0xfe,0xff,0xff,0x00,0x00,0x00,0x01,0x14,0x00,0x00,0x00,0x34,0x00,0x00,0x00,0x06,0x00,0x00,0x00,0x00,0x00,0x00,0x02,0x40,0x00,0x00,0x00,0xe4,0xfd,0xff,0xff,0x08,0x00,0x00,0x00,0x14,0x00,0x00,0x00,0x01,0x00,0x00,0x00,0x00,0x00,0x00,0x00,0x00,0x00,0x00,0x00,0x00,0x00,0x00,0x00,0x01,0x00,0x00,0x00,0x41,0x34,0x1f,0x39,0x12,0x00,0x00,0x00,0x74,0x66,0x6c,0x2e,0x70,0x73,0x65,0x75,0x64,0x6f,0x5f,0x71,0x63,0x6f,0x6e,0x73,0x74,0x34,0x00,0x00,0x01,0x00,0x00,0x00,0x10,0x00,0x00,0x00,0xde,0xfe,0xff,0xff,0x00,0x00,0x00,0x01,0x14,0x00,0x00,0x00,0x30,0x00,0x00,0x00,0x05,0x00,0x00,0x00,0x00,0x00,0x00,0x09,0x3c,0x00,0x00,0x00,0x44,0xfe,0xff,0xff,0x08,0x00,0x00,0x00,0x10,0x00,0x00,0x00,0x01,0x00,0x00,0x00,0x00,0x00,0x00,0x00,0x00,0x00,0x00,0x00,0x01,0x00,0x00,0x00,0xd8,0x94,0x94,0x3b,0x12,0x00,0x00,0x00,0x74,0x66,0x6c,0x2e,0x70,0x73,0x65,0x75,0x64,0x6f,0x5f,0x71,0x63,0x6f,0x6e,0x73,0x74,0x33,0x00,0x00,0x02,0x00,0x00,0x00,0x10,0x00,0x00,0x00,0x10,0x00,0x00,0x00,0x3e,0xff,0xff,0xff,0x00,0x00,0x00,0x01,0x14,0x00,0x00,0x00,0x34,0x00,0x00,0x00,0x04,0x00,0x00,0x00,0x00,0x00,0x00,0x02,0x40,0x00,0x00,0x00,0xa4,0xfe,0xff,0xff,0x08,0x00,0x00,0x00,0x14,0x00,0x00,0x00,0x01,0x00,0x00,0x00,0x00,0x00,0x00,0x00,0x00,0x00,0x00,0x00,0x00,0x00,0x00,0x00,0x01,0x00,0x00,0x00,0x89,0x93,0xb3,0x38,0x12,0x00,0x00,0x00,0x74,0x66,0x6c,0x2e,0x70,0x73,0x65,0x75,0x64,0x6f,0x5f,0x71,0x63,0x6f,0x6e,0x73,0x74,0x32,0x00,0x00,0x01,0x00,0x00,0x00,0x10,0x00,0x00,0x00,0x9e,0xff,0xff,0xff,0x00,0x00,0x00,0x01,0x14,0x00,0x00,0x00,0x30,0x00,0x00,0x00,0x03,0x00,0x00,0x00,0x00,0x00,0x00,0x09,0x3c,0x00,0x00,0x00,0x04,0xff,0xff,0xff,0x08,0x00,0x00,0x00,0x10,0x00,0x00,0x00,0x01,0x00,0x00,0x00,0x00,0x00,0x00,0x00,0x00,0x00,0x00,0x00,0x01,0x00,0x00,0x00,0x48,0xb5,0xcc,0x3b,0x12,0x00,0x00,0x00,0x74,0x66,0x6c,0x2e,0x70,0x73,0x65,0x75,0x64,0x6f,0x5f,0x71,0x63,0x6f,0x6e,0x73,0x74,0x31,0x00,0x00,0x02,0x00,0x00,0x00,0x01,0x00,0x00,0x00,0x10,0x00,0x00,0x00,0x00,0x00,0x16,0x00,0x1c,0x00,0x18,0x00,0x17,0x00,0x10,0x00,0x0c,0x00,0x08,0x00,0x00,0x00,0x00,0x00,0x00,0x00,0x07,0x00,0x16,0x00,0x00,0x00,0x00,0x00,0x00,0x01,0x14,0x00,0x00,0x00,0x30,0x00,0x00,0x00,0x02,0x00,0x00,0x00,0x00,0x00,0x00,0x02,0x3c,0x00,0x00,0x00,0x7c,0xff,0xff,0xff,0x08,0x00,0x00,0x00,0x10,0x00,0x00,0x00,0x01,0x00,0x00,0x00,0x00,0x00,0x00,0x00,0x00,0x00,0x00,0x00,0x01,0x00,0x00,0x00,0xd4,0xcf,0x18,0x39,0x11,0x00,0x00,0x00,0x74,0x66,0x6c,0x2e,0x70,0x73,0x65,0x75,0x64,0x6f,0x5f,0x71,0x63,0x6f,0x6e,0x73,0x74,0x00,0x00,0x00,0x01,0x00,0x00,0x00,0x01,0x00,0x00,0x00,0x00,0x00,0x16,0x00,0x20,0x00,0x1c,0x00,0x1b,0x00,0x14,0x00,0x10,0x00,0x0c,0x00,0x00,0x00,0x00,0x00,0x08,0x00,0x07,0x00,0x16,0x00,0x00,0x00,0x00,0x00,0x00,0x01,0x18,0x00,0x00,0x00,0x2c,0x00,0x00,0x00,0x48,0x00,0x00,0x00,0x01,0x00,0x00,0x00,0x00,0x00,0x00,0x09,0x60,0x00,0x00,0x00,0x02,0x00,0x00,0x00,0xff,0xff,0xff,0xff,0x13,0x00,0x00,0x00,0x0c,0x00,0x0c,0x00,0x00,0x00,0x00,0x00,0x08,0x00,0x04,0x00,0x0c,0x00,0x00,0x00,0x08,0x00,0x00,0x00,0x10,0x00,0x00,0x00,0x01,0x00,0x00,0x00,0xec,0xff,0xff,0xff,0xff,0xff,0xff,0xff,0x01,0x00,0x00,0x00,0x58,0x39,0xf7,0x3c,0x1f,0x00,0x00,0x00,0x73,0x65,0x72,0x76,0x69,0x6e,0x67,0x5f,0x64,0x65,0x66,0x61,0x75,0x6c,0x74,0x5f,0x69,0x6e,0x70,0x75,0x74,0x5f,0x6c,0x61,0x79,0x65,0x72,0x5f,0x32,0x3a,0x30,0x00,0x02,0x00,0x00,0x00,0x01,0x00,0x00,0x00,0x13,0x00,0x00,0x00,0x02,0x00,0x00,0x00,0x24,0x00,0x00,0x00,0x04,0x00,0x00,0x00,0xf0,0xff,0xff,0xff,0x0e,0x00,0x00,0x00,0x02,0x00,0x00,0x00,0x00,0x00,0x00,0x0e,0x0c,0x00,0x10,0x00,0x0f,0x00,0x00,0x00,0x08,0x00,0x04,0x00,0x0c,0x00,0x00,0x00,0x09,0x00,0x00,0x00,0x04,0x00,0x00,0x00,0x00,0x00,0x00,0x09};
const unsigned int g_kasus_c_model_2_int8_model_data_len = 3216;

#endif // G_KASUS_C_MODEL_2_INT8_H
