// File ini dibuat secara otomatis
#ifndef G_KASUS_D_MODEL_2_FLOAT_H
#define G_KASUS_D_MODEL_2_FLOAT_H

// Model: Kasus D Model 2 Float
// 2L, 16N, float32
// Size: 4672 bytes (4.56 KB)
const unsigned char g_kasus_d_model_2_float_model_data[] = {0x1c,0x00,0x00,0x00,0x54,0x46,0x4c,0x33,0x14,0x00,0x20,0x00,0x1c,0x00,0x18,0x00,0x14,0x00,0x10,0x00,0x0c,0x00,0x00,0x00,0x08,0x00,0x04,0x00,0x14,0x00,0x00,0x00,0x1c,0x00,0x00,0x00,0x98,0x00,0x00,0x00,0xf0,0x00,0x00,0x00,0x1c,0x0c,0x00,0x00,0x2c,0x0c,0x00,0x00,0xdc,0x11,0x00,0x00,0x03,0x00,0x00,0x00,0x01,0x00,0x00,0x00,0x10,0x00,0x00,0x00,0x00,0x00,0x0a,0x00,0x10,0x00,0x0c,0x00,0x08,0x00,0x04,0x00,0x0a,0x00,0x00,0x00,0x0c,0x00,0x00,0x00,0x1c,0x00,0x00,0x00,0x3c,0x00,0x00,0x00,0x0f,0x00,0x00,0x00,0x73,0x65,0x72,0x76,0x69,0x6e,0x67,0x5f,0x64,0x65,0x66,0x61,0x75,0x6c,0x74,0x00,0x01,0x00,0x00,0x00,0x04,0x00,0x00,0x00,0x90,0xff,0xff,0xff,0x0a,0x00,0x00,0x00,0x04,0x00,0x00,0x00,0x08,0x00,0x00,0x00,0x6f,0x75,0x74,0x70,0x75,0x74,0x5f,0x30,0x00,0x00,0x00,0x00,0x01,0x00,0x00,0x00,0x04,0x00,0x00,0x00,0xca,0xf3,0xff,0xff,0x04,0x00,0x00,0x00,0x0d,0x00,0x00,0x00,0x69,0x6e,0x70,0x75,0x74,0x5f,0x6c,0x61,0x79,0x65,0x72,0x5f,0x31,0x00,0x00,0x00,0x02,0x00,0x00,0x00,0x34,0x00,0x00,0x00,0x04,0x00,0x00,0x00,0xdc,0xff,0xff,0xff,0x0d,0x00,0x00,0x00,0x04,0x00,0x00,0x00,0x13,0x00,0x00,0x00,0x43,0x4f,0x4e,0x56,0x45,0x52,0x53,0x49,0x4f,0x4e,0x5f,0x4d,0x45,0x54,0x41,0x44,0x41,0x54,0x41,0x00,0x08,0x00,0x0c,0x00,0x08,0x00,0x04,0x00,0x08,0x00,0x00,0x00,0x0c,0x00,0x00,0x00,0x04,0x00,0x00,0x00,0x13,0x00,0x00,0x00,0x6d,0x69,0x6e,0x5f,0x72,0x75,0x6e,0x74,0x69,0x6d,0x65,0x5f,0x76,0x65,0x72,0x73,0x69,0x6f,0x6e,0x00,0x0e,0x00,0x00,0x00,0x28,0x0b,0x00,0x00,0x20,0x0b,0x00,0x00,0x50,0x0a,0x00,0x00,0x40,0x06,0x00,0x00,0x24,0x06,0x00,0x00,0xd4,0x05,0x00,0x00,0x84,0x05,0x00,0x00,0xb4,0x00,0x00,0x00,0xac,0x00,0x00,0x00,0xa4,0x00,0x00,0x00,0x9c,0x00,0x00,0x00,0x94,0x00,0x00,0x00,0x74,0x00,0x00,0x00,0x04,0x00,0x00,0x00,0x7e,0xf4,0xff,0xff,0x04,0x00,0x00,0x00,0x60,0x00,0x00,0x00,0x10,0x00,0x00,0x00,0x00,0x00,0x00,0x00,0x08,0x00,0x0e,0x00,0x08,0x00,0x04,0x00,0x08,0x00,0x00,0x00,0x10,0x00,0x00,0x00,0x24,0x00,0x00,0x00,0x00,0x00,0x06,0x00,0x08,0x00,0x04,0x00,0x06,0x00,0x00,0x00,0x04,0x00,0x00,0x00,0x00,0x00,0x00,0x00,0x0c,0x00,0x18,0x00,0x14,0x00,0x10,0x00,0x0c,0x00,0x04,0x00,0x0c,0x00,0x00,0x00,0x75,0xa8,0x51,0x83,0x63,0x41,0x72,0x6c,0x02,0x00,0x00,0x00,0x02,0x00,0x00,0x00,0x04,0x00,0x00,0x00,0x06,0x00,0x00,0x00,0x32,0x2e,0x31,0x38,0x2e,0x30,0x00,0x00,0xea,0xf4,0xff,0xff,0x04,0x00,0x00,0x00,0x10,0x00,0x00,0x00,0x31,0x2e,0x35,0x2e,0x30,0x00,0x00,0x00,0x00,0x00,0x00,0x00,0x00,0x00,0x00,0x00,0x04,0xf0,0xff,0xff,0x08,0xf0,0xff,0xff,0x0c,0xf0,0xff,0xff,0x10,0xf0,0xff,0xff,0x16,0xf5,0xff,0xff,0x04,0x00,0x00,0x00,0xc0,0x04,0x00,0x00,0x42,0x81,0x00,0xbc,0x4d,0xb7,0xb7,0xbd,0x53,0x46,0x91,0xbe,0xa8,0x3a,0x41,0x3e,0x88,0xac,0xb0,0xbd,0x6a,0x6f,0xd9,0xbd,0x2c,0x8f,0xde,0x3c,0x7d,0xba,0xb9,0xbe,0xfd,0xb8,0x99,0x3e,0xd1,0x3e,0xb9,0x3e,0x90,0x5d,0x3e,0xbe,0x18,0xab,0xa6,0x3e,0xd0,0xbb,0x2b,0x3e,0x39,0x8b,0x66,0xbe,0xf9,0x98,0x46,0x3e,0xc5,0xbe,0xab,0x3e,0x91,0x55,0x23,0xbe,0xb1,0xa6,0xac,0xbc,0x7c,0x2a,0xe1,0x3d,0x4b,0x51,0x07,0x3e,0x02,0x90,0xfd,0x3e,0xbf,0xc3,0x17,0x3e,0x08,0x62,0xf0,0x3e,0x8e,0xbc,0x20,0x3f,0x4c,0x92,0x69,0xbe,0x9d,0x4f,0x11,0x3f,0x48,0xe1,0x87,0x3e,0x07,0x5a,0xb4,0xbd,0x81,0xd5,0xb9,0x3e,0x16,0xae,0xa0,0x3e,0x96,0xbf,0x88,0xbe,0x9b,0xd4,0x7b,0x3e,0xcc,0x34,0xa3,0x3e,0xd9,0x3e,0xbf,0xbe,0xa7,0xcf,0xbb,0x3e,0x22,0xae,0x90,0xbe,0x64,0xaa,0xbe,0x3d,0x97,0x2a,0x94,0xbd,0x85,0xd2,0xfe,0x3e,0xbb,0x50,0x68,0x3e,0xe8,0x03,0x7a,0x3c,0x19,0xcc,0x39,0xbe,0x3e,0xa7,0x84,0xbe,0x89,0x8e,0x37,0xbe,0xf0,0xf4,0x1f,0xbc,0x3d,0xa6,0x72,0xbe,0x54,0xf8,0xdb,0xbe,0x4b,0x56,0xab,0xbd,0x5d,0x15,0x54,0x3e,0xa6,0x95,0x40,0xbe,0x04,0x92,0x23,0xbd,0x25,0x35,0x69,0xbe,0x76,0x9a,0x8b,0x3e,0xca,0xba,0xfe,0x3e,0x93,0xd8,0x70,0xbd,0xab,0xeb,0x88,0xbc,0x6e,0xee,0x82,0x3e,0x5d,0x43,0xa4,0x3e,0x3f,0x84,0x07,0x3f,0xde,0xbc,0xad,0x3b,0x8b,0x47,0xeb,0x3e,0x09,0xa9,0x79,0xbd,0x0b,0xe9,0x9a,0x3e,0x64,0xe6,0x80,0x3d,0xd0,0x35,0x7c,0xbe,0x60,0x07,0x0e,0xbe,0x31,0x42,0xa5,0x3d,0x85,0xef,0xd8,0xbe,0x6d,0xb7,0xb5,0xbe,0x71,0xcd,0x1c,0xbe,0x45,0x59,0xb5,0xbd,0xba,0xf8,0x62,0x3e,0x9a,0xf6,0x5f,0xbe,0x57,0x95,0xa4,0xbe,0xd1,0x23,0x26,0x3e,0x6d,0x30,0xe0,0xbe,0x1a,0x3b,0x01,0xbd,0x66,0x16,0x7a,0xbb,0x08,0x39,0xbd,0x3e,0xef,0xfc,0x2a,0xbd,0xa8,0xdc,0xe5,0xbd,0x62,0xf7,0x81,0xbe,0x1b,0x74,0x79,0xbe,0xc9,0xc4,0x89,0x3e,0x34,0x1d,0x32,0xbe,0x93,0x5b,0xdd,0x3e,0x57,0x60,0x35,0x3d,0xa9,0x6c,0x98,0x3d,0x14,0xdd,0xcb,0x3e,0x4c,0x56,0x67,0xbe,0x66,0x4d,0x8b,0x3d,0x8b,0x1c,0xb6,0xbe,0xba,0xd6,0x26,0xbd,0x74,0xee,0xcc,0xbe,0x33,0xc8,0x95,0x3e,0xf5,0xa5,0x9e,0xbe,0x7e,0xa6,0x03,0x3e,0xc9,0x4c,0x7f,0xbe,0x72,0xd5,0x91,0xbe,0x37,0x1f,0xbf,0xbd,0x9b,0xe9,0xbf,0xbe,0xe3,0xb5,0xbe,0xbe,0x71,0xd8,0x08,0x3e,0x0d,0x5c,0x8d,0x3e,0x99,0xbd,0x00,0x3f,0x47,0x01,0x5b,0xbe,0xf0,0x8c,0xf5,0x3e,0x75,0xc8,0x88,0x3e,0x12,0xc5,0x18,0x3d,0x8c,0x79,0xba,0x3e,0x67,0x7e,0x02,0x3d,0x08,0x4d,0x8b,0x3d,0x45,0xde,0x9f,0xbd,0xf4,0x93,0x8e,0x3d,0xfe,0x8d,0xac,0x3e,0x66,0xbe,0xae,0x3e,0xb2,0x80,0xf9,0xbe,0x47,0xa2,0x01,0x3f,0x27,0x8e,0xfd,0xbd,0x3b,0x70,0xbb,0x3e,0x8b,0xc8,0x68,0xbd,0x8d,0xc8,0x84,0xbe,0x2f,0xf7,0x18,0xbe,0xf4,0xd9,0xcc,0x3c,0x2a,0x50,0xa7,0xbe,0x02,0xe6,0x2f,0x3e,0x5c,0xeb,0x6d,0xbe,0xc0,0xe0,0xe1,0x3d,0xb2,0x4b,0xb0,0xbe,0x4c,0x9e,0xbe,0x3e,0x1c,0x5c,0xd6,0xbe,0x08,0x9b,0x04,0x3f,0xb6,0xcd,0xd2,0xbe,0xb6,0xcd,0x2c,0xbd,0x3c,0x50,0xc1,0x3e,0xa4,0x51,0x55,0x3e,0x01,0xef,0xca,0xbe,0xad,0xca,0x8d,0xbe,0xcd,0xa6,0xae,0xbe,0x69,0x27,0xea,0xbd,0x93,0xa3,0x69,0xbe,0x16,0xa0,0x9a,0xbe,0xf2,0xa0,0x81,0xbe,0xa1,0xea,0xd6,0x3e,0xc8,0x2a,0x1d,0x3d,0x99,0x99,0x48,0x3c,0x25,0xeb,0x7c,0xbe,0x4d,0x4c,0x49,0x3d,0x4c,0x77,0xa3,0xbe,0x63,0x7b,0xdb,0x3e,0xe0,0x21,0x93,0xbe,0x43,0x72,0x7d,0x3e,0x65,0x6b,0x82,0x3e,0x23,0xc9,0x91,0xbe,0x0d,0x32,0xd7,0xbc,0x72,0x56,0xf7,0x3e,0x89,0x98,0x0f,0xbe,0x38,0xe9,0x4a,0xbe,0x62,0xfa,0x1e,0xbd,0xb7,0xb1,0x9e,0x3e,0x8c,0xa5,0xb1,0x3d,0x1e,0xe2,0xaf,0x3e,0xd8,0xa0,0x6f,0x3e,0x3f,0xf9,0x95,0xbe,0x60,0xd6,0xe1,0xbe,0x67,0xaf,0x81,0x3d,0x1d,0x96,0xf8,0xbd,0x94,0x24,0x2a,0x3e,0x9d,0x1e,0x8d,0x3e,0xcd,0xbf,0x04,0x3f,0xe8,0x9c,0xe0,0x3c,0x6d,0xa7,0xde,0xbc,0x95,0xa9,0x2a,0x3e,0x75,0x95,0xc7,0x3e,0xde,0x74,0xbe,0x3e,0x06,0xb1,0xe5,0xbc,0xd0,0xc2,0x7e,0x3e,0x39,0x85,0xbb,0xbe,0x31,0x61,0x59,0x3e,0xd0,0xcd,0xf2,0xbd,0xba,0x7c,0x07,0xbe,0x21,0xfb,0x7e,0xbe,0x22,0x51,0x2a,0xbd,0xcb,0x95,0xaf,0xbe,0xbb,0x35,0x2e,0xbd,0xfd,0xc4,0x1a,0x3e,0x2d,0xfb,0x77,0x3e,0xe0,0x44,0x01,0x3e,0xa5,0xb0,0x9a,0xbd,0x20,0x6a,0x12,0xbf,0x82,0x85,0x15,0x3f,0x45,0x06,0xd6,0xbd,0xdc,0x80,0xf9,0xbd,0x7a,0x34,0x96,0xbe,0xb7,0xfa,0xc9,0xbe,0x24,0x5c,0xa8,0xbe,0x44,0xd6,0x42,0x3a,0x3d,0x64,0x73,0x3e,0x1c,0x5a,0x3b,0xbd,0xdd,0xf1,0xa3,0xbe,0xd2,0x31,0x85,0x3e,0xa4,0xf8,0x1b,0x3e,0xe1,0xb8,0x02,0x3f,0x1e,0x79,0xdf,0xbe,0xbb,0x3d,0xff,0x3e,0x84,0x59,0x91,0x3e,0x53,0x06,0x27,0xbe,0x17,0x55,0x66,0xbe,0x28,0x14,0x00,0xbe,0x54,0x7a,0xad,0xbd,0xf1,0xe6,0xaf,0x3e,0xbe,0xb5,0x9f,0x3e,0xdb,0x09,0x4a,0x3e,0xcd,0x8b,0xe7,0x3e,0xbd,0x7e,0xdf,0xbd,0x44,0xf0,0xaf,0x3b,0x01,0x85,0x73,0x3e,0xc4,0x10,0xb4,0xbe,0x06,0x71,0x37,0x3e,0xa3,0xd6,0x36,0xbe,0xbf,0xef,0x81,0xbd,0x8e,0x13,0x13,0xbe,0xa6,0x98,0xd3,0x3d,0x2d,0x0e,0x84,0xbe,0x36,0x1e,0xa3,0xbb,0xad,0x73,0x09,0x3e,0x74,0xcd,0x4b,0x3e,0x33,0x67,0xc8,0xbe,0xa0,0xe2,0x7a,0xbe,0x36,0xde,0x0c,0x3e,0xf0,0x74,0xb5,0x3e,0xfb,0x5c,0x7f,0xbe,0xd9,0xcd,0x7a,0x3e,0xfc,0xf0,0xb9,0xbe,0x25,0x31,0xb0,0x3e,0xaa,0x75,0x68,0xbe,0x2c,0x77,0xd0,0x3e,0x6d,0x9e,0xb1,0xbe,0xae,0x39,0x00,0x3d,0x80,0x86,0x85,0x3d,0x76,0x17,0xbc,0x3e,0xbe,0xb6,0x27,0xbd,0xd3,0x1a,0x41,0x3d,0x88,0xa8,0xb0,0x3e,0xad,0x69,0x2f,0xbe,0x1e,0xbe,0xc3,0xbd,0x55,0xe1,0xb3,0x3d,0x55,0x56,0x3f,0xbe,0x5a,0xea,0x70,0xbe,0x6e,0x20,0x3c,0xbe,0xf7,0xf5,0x22,0xbe,0xcb,0xd6,0x7c,0x3e,0xc8,0xb1,0xb5,0xbd,0x2a,0xc8,0xb5,0xbe,0x4d,0x06,0x87,0x3e,0x76,0x47,0xde,0xbe,0x7e,0x40,0x25,0xbf,0x2d,0x72,0x86,0xbe,0x29,0x19,0x16,0xbe,0xd4,0xa2,0x3a,0xbe,0x8d,0xf3,0x52,0xbe,0x6e,0x91,0x2e,0x3f,0x2a,0xa0,0x08,0xbe,0x71,0xf1,0x83,0x3e,0x63,0x0c,0x0d,0x3e,0xc8,0x71,0x09,0xbf,0xd5,0x68,0x00,0xbf,0x31,0xba,0x1f,0x3e,0x84,0xf1,0x29,0x3e,0x54,0x37,0x26,0xbe,0xbf,0x1d,0xe7,0xbd,0x86,0x8b,0xf9,0xbe,0x98,0xbc,0x7c,0xbd,0xc8,0xd9,0xeb,0x3e,0x16,0xf5,0x90,0xbe,0x70,0x86,0xaf,0xbe,0x74,0x09,0x0d,0xbf,0x6e,0x4c,0x1a,0xbe,0xea,0xaa,0x70,0xbe,0xc9,0xf6,0xe8,0xbd,0x19,0x19,0x80,0xbd,0x6e,0x1d,0xa1,0x3e,0x57,0xdd,0x53,0xbe,0xbc,0x84,0x87,0x3d,0x9b,0xc8,0x5f,0xbe,0x58,0x4e,0x8b,0x3e,0xa3,0x63,0x9e,0x3e,0xe3,0x29,0x4d,0x3e,0xb1,0xb1,0x96,0xbd,0xdb,0xa3,0xd9,0x3e,0x3a,0x95,0x57,0x3e,0x1b,0x88,0x16,0x3f,0x33,0xd1,0xc0,0x3e,0xa7,0xb6,0xb6,0x3d,0xdb,0x31,0x84,0xbd,0x9c,0x5b,0xc3,0x3e,0xd9,0x81,0x8c,0xbe,0x62,0xd6,0x0d,0xbf,0x47,0x6f,0xcb,0x3e,0x41,0x8f,0x4f,0xbf,0x0f,0x27,0xee,0x3e,0xd9,0xf2,0x1c,0x3e,0x30,0x05,0xac,0x3e,0x03,0x9d,0xa7,0x3e,0xe2,0xf9,0xff,0xff,0x04,0x00,0x00,0x00,0x40,0x00,0x00,0x00,0x5b,0xee,0x4e,0xbd,0xde,0xa6,0xcf,0xbd,0xcb,0x13,0x35,0x3e,0xd7,0x07,0xb2,0x3e,0xb5,0xae,0x42,0x3d,0x10,0x87,0xb9,0x3d,0x58,0xe1,0x5d,0x3e,0xb9,0xcf,0x72,0x3e,0x8f,0xb9,0xb6,0xbd,0x00,0xac,0x2c,0x3e,0x86,0xe9,0xe6,0x3d,0x96,0x9a,0x42,0x3d,0x2b,0xb8,0x66,0x3c,0x7f,0xbc,0xac,0x3e,0xda,0xe1,0x5f,0x3e,0x3e,0xef,0x11,0xbe,0x2e,0xfa,0xff,0xff,0x04,0x00,0x00,0x00,0x40,0x00,0x00,0x00,0x15,0x3a,0x3b,0xbe,0xcb,0x2b,0xc8,0x3e,0xad,0x66,0x6c,0x3e,0xca,0x99,0x4c,0x3e,0xeb,0x58,0x3b,0xbe,0xc0,0xce,0xaf,0xbc,0x10,0x4e,0x76,0x3e,0x33,0x9a,0xa8,0xbd,0x71,0xe6,0x1d,0xbe,0x02,0xe3,0xe5,0x3d,0xef,0x95,0x64,0x3b,0xdd,0x82,0x20,0xbd,0xf8,0x32,0xc8,0x3e,0xb5,0xcc,0xbd,0xbc,0xa4,0x2b,0xba,0x3d,0x61,0xf7,0x2e,0x3d,0x7a,0xfa,0xff,0xff,0x04,0x00,0x00,0x00,0x0c,0x00,0x00,0x00,0x55,0x75,0x25,0xbe,0x42,0x4a,0x43,0x3e,0x5e,0x25,0x3d,0xbe,0x92,0xfa,0xff,0xff,0x04,0x00,0x00,0x00,0x00,0x04,0x00,0x00,0x0e,0xfa,0xa3,0x3e,0x99,0x0c,0x31,0x3f,0x54,0xc3,0x58,0x3d,0x81,0x24,0x92,0x3e,0x4a,0x7f,0x9d,0xbe,0x14,0xda,0x57,0x3c,0x02,0xfd,0x96,0x3e,0x60,0xbb,0x10,0xbf,0x17,0x07,0x07,0x3f,0x82,0x2e,0xcc,0xbb,0x7b,0x01,0x03,0xbf,0x6a,0xe4,0xd8,0x3e,0x3e,0xa1,0x59,0xbe,0x7a,0x61,0x98,0xbe,0x32,0x62,0x17,0xbe,0x2c,0x8c,0x06,0x3c,0xf2,0x22,0xd8,0xbe,0xad,0x13,0x41,0x3e,0x36,0x16,0x05,0x3e,0xdd,0x89,0x53,0x3f,0x2c,0x6f,0xda,0xbe,0x5a,0x0f,0x28,0xbe,0xd4,0x78,0xe8,0x3d,0xb8,0x84,0xcc,0x3e,0x7d,0x6d,0x5a,0xbe,0xf0,0x27,0x22,0x3f,0x16,0xcc,0x3f,0x3e,0x13,0x68,0xd9,0x3e,0x5d,0x6d,0x96,0xbe,0xca,0xe3,0xf6,0x3e,0xce,0xe1,0x44,0xbc,0xe6,0xb8,0xeb,0xbd,0x72,0x44,0xca,0x3e,0x50,0xbc,0x1b,0xbf,0x7e,0x05,0xd9,0x3e,0x62,0x31,0xbd,0x3e,0x61,0x8e,0x1d,0xbe,0xc4,0x56,0x4c,0x3e,0x39,0x3a,0xcd,0x3d,0x32,0x2a,0x8d,0x3e,0x89,0xeb,0x0a,0xbe,0xfe,0x02,0x18,0xbd,0x60,0xae,0x38,0xbe,0x01,0x14,0x80,0x3e,0x48,0x75,0x56,0xbe,0x9e,0xe5,0x09,0x3f,0x41,0xc4,0xd3,0x3e,0x1a,0xbd,0xbe,0xbe,0x84,0xce,0x96,0x3b,0xab,0x13,0xf6,0x3e,0x93,0x7d,0x5b,0x3e,0x25,0x2b,0x2b,0x3f,0xfc,0xf4,0x1c,0x3e,0x8c,0xae,0xc2,0xbd,0xee,0x1c,0xd2,0xbc,0x11,0x83,0x27,0xbe,0xed,0x9c,0x3c,0xbd,0xa4,0x14,0xf7,0xbc,0x90,0x1f,0x18,0xbe,0x1a,0x30,0xe2,0x3e,0x02,0xfd,0xf4,0xbb,0x9b,0x24,0x2c,0x3e,0x62,0xc2,0x05,0x3f,0xd4,0xbf,0x85,0xbb,0x7c,0x8b,0x9c,0x3e,0x2f,0x57,0xed,0x3e,0x72,0x26,0x09,0xbd,0xd6,0x0c,0xf6,0xbd,0x8b,0xa2,0xc1,0x3d,0x57,0x52,0x7e,0xbd,0xef,0xe3,0xf7,0x3d,0x75,0xe2,0xc2,0xbe,0xec,0xd2,0x88,0x3e,0xb4,0x14,0x3e,0x3e,0x4a,0x9d,0xe8,0xbd,0x02,0x70,0xdd,0x3e,0x2c,0x4b,0x21,0xbe,0x30,0xb0,0x58,0xbe,0xff,0x5c,0x1f,0x3e,0xcd,0x6e,0xf2,0x3e,0xbd,0x65,0x3e,0x3e,0xa0,0x1d,0x04,0x3e,0x36,0x12,0x7d,0x3d,0x98,0x9b,0x17,0x3c,0x60,0xe8,0x2e,0x3e,0x8c,0x24,0xc4,0xbe,0x98,0x4f,0x29,0x3e,0xa9,0xbc,0xa5,0x3d,0x34,0x88,0xab,0x3e,0xe9,0x22,0x29,0x3d,0x08,0x3f,0x45,0xba,0x56,0x95,0x9d,0xbe,0x01,0x46,0x92,0xbe,0xd6,0xb4,0x9a,0xbe,0x44,0x7b,0xc2,0xbe,0x08,0xa3,0xb9,0x3d,0xf1,0xb1,0xa8,0xbe,0xfd,0x9f,0xcb,0xbd,0x88,0x95,0xdf,0x3c,0x92,0x89,0x2b,0xbe,0x53,0x2e,0x90,0xbe,0x59,0x9b,0xcb,0xbd,0x95,0xf0,0x81,0x3e,0xd5,0xe2,0x50,0x3e,0x6d,0xfc,0x21,0xbd,0x06,0x06,0x17,0x3f,0x90,0x0c,0x5f,0x3e,0x1d,0xc1,0xc2,0xbc,0xd7,0x4c,0xb8,0x3c,0x0f,0x89,0x39,0x3f,0xb4,0xce,0x0c,0x3e,0x72,0x02,0x11,0xbf,0xcb,0xf8,0xda,0xbe,0x29,0xc0,0xa2,0x3d,0xcd,0x91,0xe0,0x3c,0x50,0xc1,0x24,0x3e,0x43,0xef,0xa9,0xbe,0xe2,0xfc,0xd3,0x3d,0x7c,0x9f,0xd6,0x3e,0x53,0xca,0x6e,0xbe,0xbb,0x2d,0x8e,0xbe,0x48,0x89,0x71,0x3e,0xc3,0xa0,0x97,0xbe,0xa6,0x35,0x94,0xbe,0xbf,0x63,0x9a,0xbe,0x9a,0xf4,0xc3,0xbe,0x80,0x73,0x16,0xbe,0x10,0x5e,0xa7,0x3e,0x43,0xce,0xe2,0xbe,0xab,0x5e,0x2e,0x3f,0xca,0xce,0xe7,0xbe,0xd8,0x61,0x86,0xbe,0x49,0x5a,0x8f,0xbe,0x4d,0xa6,0xa6,0xbe,0x31,0xf0,0xa8,0x3e,0x35,0xbc,0x2e,0x3e,0xce,0x78,0x86,0xbc,0xde,0x2f,0x33,0x3d,0xd1,0x67,0xa4,0x3c,0x45,0xc0,0xa5,0xbb,0xe8,0x9a,0x84,0x3e,0xd5,0x01,0x6e,0x3c,0x98,0x27,0x5b,0xbd,0xc2,0x28,0xdf,0x3e,0xf5,0x86,0xde,0xbd,0xdb,0x5f,0x93,0x3e,0x7e,0xd1,0xf6,0x3e,0x9a,0x60,0xf4,0xbe,0xa3,0xaf,0xab,0x3d,0xb1,0x62,0xa0,0x3e,0x1c,0xea,0x29,0xbd,0x87,0xbc,0xb5,0x3e,0x54,0xcb,0xb4,0xbe,0xaf,0x22,0xe7,0xbe,0x27,0x9d,0x8e,0xbb,0xc3,0x2b,0x37,0x3e,0xf6,0xe8,0x41,0xbd,0xc3,0x0f,0xb0,0xbd,0x6d,0x3b,0x3e,0xbe,0xc3,0xfd,0x8f,0xbe,0xb6,0xec,0x9b,0x3e,0xe8,0x51,0x91,0xbe,0x36,0x32,0xa8,0xbe,0x9d,0xf9,0x93,0xbe,0xad,0x60,0x9d,0x3e,0x1c,0x04,0xb3,0x3e,0x2a,0x12,0x97,0x3e,0x93,0x54,0x0a,0x3f,0x88,0xc8,0xc4,0xbe,0xca,0x03,0xb3,0x3d,0x5e,0x1f,0xf3,0x3d,0xd1,0x32,0x03,0xbd,0x7a,0xac,0xf8,0x3d,0x4f,0x97,0xac,0xbe,0xec,0x1d,0x9c,0xbd,0xa0,0x09,0xc6,0xbd,0xc8,0x07,0xfd,0x3e,0x11,0x42,0xb0,0xbe,0x24,0xa1,0x3c,0x3e,0xee,0xc6,0x9e,0x3d,0xf7,0xfb,0xf6,0x3e,0x10,0xcc,0xf3,0x3e,0x98,0x7e,0xc0,0xbe,0x07,0x19,0x46,0xbe,0xe2,0x3e,0xcc,0xbe,0x0e,0x74,0x79,0xbd,0xd0,0xca,0xa5,0x3e,0x15,0xdf,0x87,0xbe,0x38,0xdd,0x04,0x3e,0xc5,0xd1,0x2e,0xbb,0x0a,0x34,0x78,0xbe,0xb0,0x2f,0x49,0x3e,0xee,0x64,0xc1,0x3e,0x23,0x52,0x9c,0xbe,0x00,0xc7,0x10,0x3d,0x19,0xe1,0x9b,0x3e,0xdb,0x53,0x69,0xbe,0xbc,0x9c,0x55,0xbe,0xe8,0x99,0x67,0x3e,0x7d,0x09,0x0e,0x3f,0x5a,0x65,0x13,0xbe,0x02,0x83,0x37,0xbd,0x10,0xad,0xbe,0x3e,0xcb,0x5d,0x95,0xbe,0x06,0x07,0x6e,0x3e,0xcf,0xd6,0x33,0x3f,0x62,0xc3,0xa2,0x3c,0x29,0xfd,0x6a,0xbe,0x21,0x32,0xfc,0xbc,0xce,0x55,0x25,0x3d,0x5f,0x74,0x83,0xbe,0xa7,0x7f,0x7d,0x3e,0x3c,0x30,0xe7,0x3e,0x9b,0x1f,0x87,0x3e,0xcb,0x5e,0xc6,0xbe,0x3f,0x0f,0xaa,0x3b,0x96,0x1d,0xd9,0x3e,0xa5,0x98,0x74,0x3e,0x00,0x9c,0x70,0x3e,0xcf,0x33,0x98,0x3e,0x79,0x1d,0xeb,0xbd,0x60,0xef,0x17,0x3e,0x89,0x2f,0x98,0xbe,0x89,0x91,0xe8,0xbe,0x12,0x85,0xa6,0x3e,0xbf,0xdc,0x9a,0xbd,0x90,0xd9,0x81,0x3e,0xaf,0xa8,0x35,0x3e,0xa9,0x77,0x92,0xbe,0x96,0xe6,0xa5,0xbd,0xbc,0x2c,0xe7,0x3e,0xf8,0xa9,0xac,0xbe,0xc9,0xd0,0xc7,0x3e,0xef,0x0e,0x16,0x3e,0x35,0xe0,0xf9,0xbd,0x70,0x45,0x1a,0x3e,0x7e,0xc2,0x25,0x3e,0xff,0x2b,0x1c,0xbe,0x21,0x72,0x63,0x3e,0x5b,0xb3,0x7d,0x3e,0x26,0xb6,0x58,0x3d,0x74,0x14,0x3c,0x3e,0xd7,0x0e,0x61,0xbe,0xfd,0xbc,0x84,0xbe,0x39,0x38,0xed,0x3e,0xb6,0x33,0xae,0xbc,0xc9,0xe9,0x13,0x3e,0xe0,0xf5,0x9c,0x3e,0x99,0x82,0x24,0x3c,0x40,0xe6,0x94,0x3e,0x3f,0xa5,0x88,0x3e,0xb2,0x7a,0x8a,0xbe,0xcf,0xaa,0x89,0x3e,0x5d,0x43,0xf6,0xbe,0x9c,0xf2,0xa0,0xbd,0x5d,0x71,0x77,0xbe,0x9e,0xfe,0xff,0xff,0x04,0x00,0x00,0x00,0xc0,0x00,0x00,0x00,0x38,0xb9,0xc2,0xbd,0x20,0xae,0xa8,0xbd,0x44,0x64,0x48,0x3e,0x71,0xd6,0x38,0xbf,0x0f,0x36,0xad,0xbe,0xb1,0x3a,0x05,0xbf,0x0c,0xb4,0xa0,0xbe,0x09,0xff,0x80,0xbe,0xe9,0x4f,0x93,0x3e,0x32,0x8a,0x50,0x3f,0xd7,0x53,0xf7,0x3e,0x24,0x1c,0x1d,0x3f,0xbc,0xdc,0xbf,0xbe,0xd1,0xa2,0x04,0x3f,0x82,0x5e,0x2e,0xbf,0xbe,0xe3,0x0d,0x3f,0x75,0x97,0xa5,0xbe,0xb8,0x48,0x1c,0x3f,0x4a,0x32,0x46,0x3f,0xe5,0x9c,0x70,0x3e,0xc4,0x06,0x00,0xbf,0x7f,0xff,0x7c,0x3d,0x6a,0xee,0x25,0x3f,0xd8,0x9e,0xe3,0xbe,0xc3,0x60,0x89,0xbe,0x7f,0x72,0x5e,0xbf,0x20,0x83,0x56,0xbd,0x39,0x51,0xef,0xbc,0xd0,0xaa,0x27,0x3e,0x3d,0x4b,0x60,0xbe,0x83,0xc3,0x92,0xbd,0x62,0x0b,0x99,0xbe,0x74,0xd9,0x58,0x3f,0xf0,0xbe,0xbf,0x3e,0x35,0xd6,0xf8,0xbe,0x4d,0x62,0xe2,0x3d,0x18,0x6e,0x3f,0x3e,0xc9,0x0e,0x63,0xbe,0xc2,0xcf,0x52,0xbf,0xec,0x2a,0x43,0xbe,0xd3,0x0d,0x14,0x3f,0xf7,0x35,0xf5,0xbd,0x17,0x5a,0x8e,0xbd,0x99,0xcc,0x4c,0x3e,0xf9,0xc4,0x8f,0xbf,0xf4,0x91,0x14,0xbf,0x33,0xfe,0xc1,0x3e,0x50,0xa1,0x5b,0xbe,0x68,0xfa,0xff,0xff,0x6c,0xfa,0xff,0xff,0x0f,0x00,0x00,0x00,0x4d,0x4c,0x49,0x52,0x20,0x43,0x6f,0x6e,0x76,0x65,0x72,0x74,0x65,0x64,0x2e,0x00,0x01,0x00,0x00,0x00,0x14,0x00,0x00,0x00,0x00,0x00,0x0e,0x00,0x18,0x00,0x14,0x00,0x10,0x00,0x0c,0x00,0x08,0x00,0x04,0x00,0x0e,0x00,0x00,0x00,0x14,0x00,0x00,0x00,0x1c,0x00,0x00,0x00,0x24,0x01,0x00,0x00,0x28,0x01,0x00,0x00,0x2c,0x01,0x00,0x00,0x04,0x00,0x00,0x00,0x6d,0x61,0x69,0x6e,0x00,0x00,0x00,0x00,0x04,0x00,0x00,0x00,0xcc,0x00,0x00,0x00,0x84,0x00,0x00,0x00,0x50,0x00,0x00,0x00,0x14,0x00,0x00,0x00,0x00,0x00,0x0e,0x00,0x1a,0x00,0x14,0x00,0x10,0x00,0x0c,0x00,0x0b,0x00,0x04,0x00,0x0e,0x00,0x00,0x00,0x1c,0x00,0x00,0x00,0x00,0x00,0x00,0x09,0x1c,0x00,0x00,0x00,0x20,0x00,0x00,0x00,0x01,0x00,0x00,0x00,0x00,0x00,0x06,0x00,0x08,0x00,0x04,0x00,0x06,0x00,0x00,0x00,0x00,0x00,0x80,0x3f,0x01,0x00,0x00,0x00,0x0a,0x00,0x00,0x00,0x01,0x00,0x00,0x00,0x09,0x00,0x00,0x00,0x9a,0xff,0xff,0xff,0x10,0x00,0x00,0x00,0x00,0x00,0x00,0x08,0x0c,0x00,0x00,0x00,0x10,0x00,0x00,0x00,0x30,0xfb,0xff,0xff,0x01,0x00,0x00,0x00,0x09,0x00,0x00,0x00,0x03,0x00,0x00,0x00,0x08,0x00,0x00,0x00,0x01,0x00,0x00,0x00,0x03,0x00,0x00,0x00,0xca,0xff,0xff,0xff,0x10,0x00,0x00,0x00,0x00,0x00,0x00,0x08,0x10,0x00,0x00,0x00,0x14,0x00,0x00,0x00,0xba,0xff,0xff,0xff,0x00,0x00,0x00,0x01,0x01,0x00,0x00,0x00,0x08,0x00,0x00,0x00,0x03,0x00,0x00,0x00,0x07,0x00,0x00,0x00,0x02,0x00,0x00,0x00,0x04,0x00,0x00,0x00,0x00,0x00,0x0e,0x00,0x16,0x00,0x00,0x00,0x10,0x00,0x0c,0x00,0x0b,0x00,0x04,0x00,0x0e,0x00,0x00,0x00,0x18,0x00,0x00,0x00,0x00,0x00,0x00,0x08,0x18,0x00,0x00,0x00,0x1c,0x00,0x00,0x00,0x00,0x00,0x06,0x00,0x08,0x00,0x07,0x00,0x06,0x00,0x00,0x00,0x00,0x00,0x00,0x01,0x01,0x00,0x00,0x00,0x07,0x00,0x00,0x00,0x03,0x00,0x00,0x00,0x00,0x00,0x00,0x00,0x06,0x00,0x00,0x00,0x05,0x00,0x00,0x00,0x01,0x00,0x00,0x00,0x0a,0x00,0x00,0x00,0x01,0x00,0x00,0x00,0x00,0x00,0x00,0x00,0x0b,0x00,0x00,0x00,0xf8,0x03,0x00,0x00,0xa0,0x03,0x00,0x00,0x48,0x03,0x00,0x00,0x0c,0x03,0x00,0x00,0xd0,0x02,0x00,0x00,0x74,0x02,0x00,0x00,0x24,0x02,0x00,0x00,0x84,0x01,0x00,0x00,0xe4,0x00,0x00,0x00,0x60,0x00,0x00,0x00,0x04,0x00,0x00,0x00,0x4a,0xfc,0xff,0xff,0x00,0x00,0x00,0x01,0x14,0x00,0x00,0x00,0x1c,0x00,0x00,0x00,0x1c,0x00,0x00,0x00,0x0b,0x00,0x00,0x00,0x34,0x00,0x00,0x00,0x02,0x00,0x00,0x00,0xff,0xff,0xff,0xff,0x03,0x00,0x00,0x00,0x34,0xfc,0xff,0xff,0x1b,0x00,0x00,0x00,0x53,0x74,0x61,0x74,0x65,0x66,0x75,0x6c,0x50,0x61,0x72,0x74,0x69,0x74,0x69,0x6f,0x6e,0x65,0x64,0x43,0x61,0x6c,0x6c,0x5f,0x31,0x3a,0x30,0x00,0x02,0x00,0x00,0x00,0x01,0x00,0x00,0x00,0x03,0x00,0x00,0x00,0xa2,0xfc,0xff,0xff,0x00,0x00,0x00,0x01,0x14,0x00,0x00,0x00,0x1c,0x00,0x00,0x00,0x1c,0x00,0x00,0x00,0x0a,0x00,0x00,0x00,0x5c,0x00,0x00,0x00,0x02,0x00,0x00,0x00,0xff,0xff,0xff,0xff,0x03,0x00,0x00,0x00,0x8c,0xfc,0xff,0xff,0x40,0x00,0x00,0x00,0x73,0x65,0x71,0x75,0x65,0x6e,0x74,0x69,0x61,0x6c,0x5f,0x31,0x5f,0x31,0x2f,0x64,0x65,0x6e,0x73,0x65,0x5f,0x34,0x5f,0x31,0x2f,0x4d,0x61,0x74,0x4d,0x75,0x6c,0x3b,0x73,0x65,0x71,0x75,0x65,0x6e,0x74,0x69,0x61,0x6c,0x5f,0x31,0x5f,0x31,0x2f,0x64,0x65,0x6e,0x73,0x65,0x5f,0x34,0x5f,0x31,0x2f,0x42,0x69,0x61,0x73,0x41,0x64,0x64,0x00,0x00,0x00,0x00,0x02,0x00,0x00,0x00,0x01,0x00,0x00,0x00,0x03,0x00,0x00,0x00,0x22,0xfd,0xff,0xff,0x00,0x00,0x00,0x01,0x14,0x00,0x00,0x00,0x1c,0x00,0x00,0x00,0x1c,0x00,0x00,0x00,0x09,0x00,0x00,0x00,0x78,0x00,0x00,0x00,0x02,0x00,0x00,0x00,0xff,0xff,0xff,0xff,0x10,0x00,0x00,0x00,0x0c,0xfd,0xff,0xff,0x5e,0x00,0x00,0x00,0x73,0x65,0x71,0x75,0x65,0x6e,0x74,0x69,0x61,0x6c,0x5f,0x31,0x5f,0x31,0x2f,0x64,0x65,0x6e,0x73,0x65,0x5f,0x33,0x5f,0x31,0x2f,0x4d,0x61,0x74,0x4d,0x75,0x6c,0x3b,0x73,0x65,0x71,0x75,0x65,0x6e,0x74,0x69,0x61,0x6c,0x5f,0x31,0x5f,0x31,0x2f,0x64,0x65,0x6e,0x73,0x65,0x5f,0x33,0x5f,0x31,0x2f,0x52,0x65,0x6c,0x75,0x3b,0x73,0x65,0x71,0x75,0x65,0x6e,0x74,0x69,0x61,0x6c,0x5f,0x31,0x5f,0x31,0x2f,0x64,0x65,0x6e,0x73,0x65,0x5f,0x33,0x5f,0x31,0x2f,0x42,0x69,0x61,0x73,0x41,0x64,0x64,0x00,0x00,0x02,0x00,0x00,0x00,0x01,0x00,0x00,0x00,0x10,0x00,0x00,0x00,0xbe,0xfd,0xff,0xff,0x00,0x00,0x00,0x01,0x14,0x00,0x00,0x00,0x1c,0x00,0x00,0x00,0x1c,0x00,0x00,0x00,0x08,0x00,0x00,0x00,0x78,0x00,0x00,0x00,0x02,0x00,0x00,0x00,0xff,0xff,0xff,0xff,0x10,0x00,0x00,0x00,0xa8,0xfd,0xff,0xff,0x5e,0x00,0x00,0x00,0x73,0x65,0x71,0x75,0x65,0x6e,0x74,0x69,0x61,0x6c,0x5f,0x31,0x5f,0x31,0x2f,0x64,0x65,0x6e,0x73,0x65,0x5f,0x32,0x5f,0x31,0x2f,0x4d,0x61,0x74,0x4d,0x75,0x6c,0x3b,0x73,0x65,0x71,0x75,0x65,0x6e,0x74,0x69,0x61,0x6c,0x5f,0x31,0x5f,0x31,0x2f,0x64,0x65,0x6e,0x73,0x65,0x5f,0x32,0x5f,0x31,0x2f,0x52,0x65,0x6c,0x75,0x3b,0x73,0x65,0x71,0x75,0x65,0x6e,0x74,0x69,0x61,0x6c,0x5f,0x31,0x5f,0x31,0x2f,0x64,0x65,0x6e,0x73,0x65,0x5f,0x32,0x5f,0x31,0x2f,0x42,0x69,0x61,0x73,0x41,0x64,0x64,0x00,0x00,0x02,0x00,0x00,0x00,0x01,0x00,0x00,0x00,0x10,0x00,0x00,0x00,0xae,0xfe,0xff,0xff,0x00,0x00,0x00,0x01,0x10,0x00,0x00,0x00,0x10,0x00,0x00,0x00,0x07,0x00,0x00,0x00,0x2c,0x00,0x00,0x00,0x34,0xfe,0xff,0xff,0x1f,0x00,0x00,0x00,0x73,0x65,0x71,0x75,0x65,0x6e,0x74,0x69,0x61,0x6c,0x5f,0x31,0x5f,0x31,0x2f,0x64,0x65,0x6e,0x73,0x65,0x5f,0x32,0x5f,0x31,0x2f,0x4d,0x61,0x74,0x4d,0x75,0x6c,0x00,0x02,0x00,0x00,0x00,0x10,0x00,0x00,0x00,0x13,0x00,0x00,0x00,0xfa,0xfe,0xff,0xff,0x00,0x00,0x00,0x01,0x10,0x00,0x00,0x00,0x10,0x00,0x00,0x00,0x06,0x00,0x00,0x00,0x3c,0x00,0x00,0x00,0x80,0xfe,0xff,0xff,0x2f,0x00,0x00,0x00,0x73,0x65,0x71,0x75,0x65,0x6e,0x74,0x69,0x61,0x6c,0x5f,0x31,0x5f,0x31,0x2f,0x64,0x65,0x6e,0x73,0x65,0x5f,0x32,0x5f,0x31,0x2f,0x42,0x69,0x61,0x73,0x41,0x64,0x64,0x2f,0x52,0x65,0x61,0x64,0x56,0x61,0x72,0x69,0x61,0x62,0x6c,0x65,0x4f,0x70,0x00,0x01,0x00,0x00,0x00,0x10,0x00,0x00,0x00,0x52,0xff,0xff,0xff,0x00,0x00,0x00,0x01,0x10,0x00,0x00,0x00,0x10,0x00,0x00,0x00,0x05,0x00,0x00,0x00,0x1c,0x00,0x00,0x00,0xd8,0xfe,0xff,0xff,0x0f,0x00,0x00,0x00,0x61,0x72,0x69,0x74,0x68,0x2e,0x63,0x6f,0x6e,0x73,0x74,0x61,0x6e,0x74,0x33,0x00,0x01,0x00,0x00,0x00,0x10,0x00,0x00,0x00,0x8a,0xff,0xff,0xff,0x00,0x00,0x00,0x01,0x10,0x00,0x00,0x00,0x10,0x00,0x00,0x00,0x04,0x00,0x00,0x00,0x1c,0x00,0x00,0x00,0x10,0xff,0xff,0xff,0x0f,0x00,0x00,0x00,0x61,0x72,0x69,0x74,0x68,0x2e,0x63,0x6f,0x6e,0x73,0x74,0x61,0x6e,0x74,0x32,0x00,0x01,0x00,0x00,0x00,0x03,0x00,0x00,0x00,0xc2,0xff,0xff,0xff,0x00,0x00,0x00,0x01,0x10,0x00,0x00,0x00,0x10,0x00,0x00,0x00,0x03,0x00,0x00,0x00,0x1c,0x00,0x00,0x00,0x48,0xff,0xff,0xff,0x0f,0x00,0x00,0x00,0x61,0x72,0x69,0x74,0x68,0x2e,0x63,0x6f,0x6e,0x73,0x74,0x61,0x6e,0x74,0x31,0x00,0x02,0x00,0x00,0x00,0x10,0x00,0x00,0x00,0x10,0x00,0x00,0x00,0x00,0x00,0x16,0x00,0x18,0x00,0x14,0x00,0x00,0x00,0x10,0x00,0x0c,0x00,0x08,0x00,0x00,0x00,0x00,0x00,0x00,0x00,0x07,0x00,0x16,0x00,0x00,0x00,0x00,0x00,0x00,0x01,0x10,0x00,0x00,0x00,0x10,0x00,0x00,0x00,0x02,0x00,0x00,0x00,0x1c,0x00,0x00,0x00,0x9c,0xff,0xff,0xff,0x0e,0x00,0x00,0x00,0x61,0x72,0x69,0x74,0x68,0x2e,0x63,0x6f,0x6e,0x73,0x74,0x61,0x6e,0x74,0x00,0x00,0x02,0x00,0x00,0x00,0x03,0x00,0x00,0x00,0x10,0x00,0x00,0x00,0x00,0x00,0x16,0x00,0x1c,0x00,0x18,0x00,0x00,0x00,0x14,0x00,0x10,0x00,0x0c,0x00,0x00,0x00,0x00,0x00,0x08,0x00,0x07,0x00,0x16,0x00,0x00,0x00,0x00,0x00,0x00,0x01,0x14,0x00,0x00,0x00,0x20,0x00,0x00,0x00,0x20,0x00,0x00,0x00,0x01,0x00,0x00,0x00,0x3c,0x00,0x00,0x00,0x02,0x00,0x00,0x00,0xff,0xff,0xff,0xff,0x13,0x00,0x00,0x00,0x04,0x00,0x04,0x00,0x04,0x00,0x00,0x00,0x1f,0x00,0x00,0x00,0x73,0x65,0x72,0x76,0x69,0x6e,0x67,0x5f,0x64,0x65,0x66,0x61,0x75,0x6c,0x74,0x5f,0x69,0x6e,0x70,0x75,0x74,0x5f,0x6c,0x61,0x79,0x65,0x72,0x5f,0x31,0x3a,0x30,0x00,0x02,0x00,0x00,0x00,0x01,0x00,0x00,0x00,0x13,0x00,0x00,0x00,0x02,0x00,0x00,0x00,0x20,0x00,0x00,0x00,0x04,0x00,0x00,0x00,0xf4,0xff,0xff,0xff,0x19,0x00,0x00,0x00,0x00,0x00,0x00,0x19,0x0c,0x00,0x0c,0x00,0x0b,0x00,0x00,0x00,0x00,0x00,0x04,0x00,0x0c,0x00,0x00,0x00,0x09,0x00,0x00,0x00,0x00,0x00,0x00,0x09};
const unsigned int g_kasus_d_model_2_float_model_data_len = 4672;

#endif // G_KASUS_D_MODEL_2_FLOAT_H
