// File ini dibuat secara otomatis
#ifndef G_KASUS_B_NL_MODEL_2_FLOAT_H
#define G_KASUS_B_NL_MODEL_2_FLOAT_H

// Model: Kasus B NL Model 2 Float
// 2L, 16N, float32
// Size: 3160 bytes (3.09 KB)
const unsigned char g_kasus_b_nl_model_2_float_model_data[] = {0x1c,0x00,0x00,0x00,0x54,0x46,0x4c,0x33,0x14,0x00,0x20,0x00,0x1c,0x00,0x18,0x00,0x14,0x00,0x10,0x00,0x0c,0x00,0x00,0x00,0x08,0x00,0x04,0x00,0x14,0x00,0x00,0x00,0x1c,0x00,0x00,0x00,0x98,0x00,0x00,0x00,0xf0,0x00,0x00,0x00,0x14,0x07,0x00,0x00,0x24,0x07,0x00,0x00,0x04,0x0c,0x00,0x00,0x03,0x00,0x00,0x00,0x01,0x00,0x00,0x00,0x10,0x00,0x00,0x00,0x00,0x00,0x0a,0x00,0x10,0x00,0x0c,0x00,0x08,0x00,0x04,0x00,0x0a,0x00,0x00,0x00,0x0c,0x00,0x00,0x00,0x1c,0x00,0x00,0x00,0x3c,0x00,0x00,0x00,0x0f,0x00,0x00,0x00,0x73,0x65,0x72,0x76,0x69,0x6e,0x67,0x5f,0x64,0x65,0x66,0x61,0x75,0x6c,0x74,0x00,0x01,0x00,0x00,0x00,0x04,0x00,0x00,0x00,0x90,0xff,0xff,0xff,0x09,0x00,0x00,0x00,0x04,0x00,0x00,0x00,0x08,0x00,0x00,0x00,0x6f,0x75,0x74,0x70,0x75,0x74,0x5f,0x30,0x00,0x00,0x00,0x00,0x01,0x00,0x00,0x00,0x04,0x00,0x00,0x00,0xba,0xf9,0xff,0xff,0x04,0x00,0x00,0x00,0x0d,0x00,0x00,0x00,0x69,0x6e,0x70,0x75,0x74,0x5f,0x6c,0x61,0x79,0x65,0x72,0x5f,0x32,0x00,0x00,0x00,0x02,0x00,0x00,0x00,0x34,0x00,0x00,0x00,0x04,0x00,0x00,0x00,0xdc,0xff,0xff,0xff,0x0c,0x00,0x00,0x00,0x04,0x00,0x00,0x00,0x13,0x00,0x00,0x00,0x43,0x4f,0x4e,0x56,0x45,0x52,0x53,0x49,0x4f,0x4e,0x5f,0x4d,0x45,0x54,0x41,0x44,0x41,0x54,0x41,0x00,0x08,0x00,0x0c,0x00,0x08,0x00,0x04,0x00,0x08,0x00,0x00,0x00,0x0b,0x00,0x00,0x00,0x04,0x00,0x00,0x00,0x13,0x00,0x00,0x00,0x6d,0x69,0x6e,0x5f,0x72,0x75,0x6e,0x74,0x69,0x6d,0x65,0x5f,0x76,0x65,0x72,0x73,0x69,0x6f,0x6e,0x00,0x0d,0x00,0x00,0x00,0x20,0x06,0x00,0x00,0x18,0x06,0x00,0x00,0xc8,0x05,0x00,0x00,0xb0,0x01,0x00,0x00,0x9c,0x01,0x00,0x00,0x4c,0x01,0x00,0x00,0xfc,0x00,0x00,0x00,0xac,0x00,0x00,0x00,0xa4,0x00,0x00,0x00,0x9c,0x00,0x00,0x00,0x94,0x00,0x00,0x00,0x74,0x00,0x00,0x00,0x04,0x00,0x00,0x00,0x6a,0xfa,0xff,0xff,0x04,0x00,0x00,0x00,0x60,0x00,0x00,0x00,0x10,0x00,0x00,0x00,0x00,0x00,0x00,0x00,0x08,0x00,0x0e,0x00,0x08,0x00,0x04,0x00,0x08,0x00,0x00,0x00,0x10,0x00,0x00,0x00,0x24,0x00,0x00,0x00,0x00,0x00,0x06,0x00,0x08,0x00,0x04,0x00,0x06,0x00,0x00,0x00,0x04,0x00,0x00,0x00,0x00,0x00,0x00,0x00,0x0c,0x00,0x18,0x00,0x14,0x00,0x10,0x00,0x0c,0x00,0x04,0x00,0x0c,0x00,0x00,0x00,0xec,0xb7,0xa8,0x9a,0xd0,0xf4,0x0a,0xe3,0x02,0x00,0x00,0x00,0x02,0x00,0x00,0x00,0x04,0x00,0x00,0x00,0x06,0x00,0x00,0x00,0x32,0x2e,0x31,0x38,0x2e,0x30,0x00,0x00,0xd6,0xfa,0xff,0xff,0x04,0x00,0x00,0x00,0x10,0x00,0x00,0x00,0x31,0x2e,0x35,0x2e,0x30,0x00,0x00,0x00,0x00,0x00,0x00,0x00,0x00,0x00,0x00,0x00,0xd8,0xf5,0xff,0xff,0xdc,0xf5,0xff,0xff,0xe0,0xf5,0xff,0xff,0xfe,0xfa,0xff,0xff,0x04,0x00,0x00,0x00,0x40,0x00,0x00,0x00,0x09,0xad,0x01,0xbf,0xfc,0x30,0x75,0x3e,0x26,0x71,0x20,0xbf,0xe6,0x3e,0x5e,0x3f,0x91,0x5b,0xdd,0x3e,0xfa,0x91,0xfe,0x3e,0x9d,0x98,0x5b,0x3f,0xda,0xaf,0x21,0x3b,0xc0,0x2c,0x2f,0xbf,0x6b,0x80,0x24,0x3f,0xe1,0x61,0x3e,0xbe,0xab,0x4b,0x13,0xbf,0x0b,0xdc,0x5c,0x3f,0xd8,0xfe,0x82,0x3f,0xf4,0x0a,0xd7,0xbe,0xcf,0x42,0x5e,0x3f,0x4a,0xfb,0xff,0xff,0x04,0x00,0x00,0x00,0x40,0x00,0x00,0x00,0x58,0x45,0xc3,0xbf,0x15,0x13,0xd9,0xbf,0x57,0x48,0xe2,0x3e,0x55,0xa1,0x1a,0xbf,0x11,0x35,0x9e,0xbf,0x58,0x9b,0xac,0xbe,0x52,0xb5,0x6a,0xbf,0xa5,0xf3,0x96,0xbd,0x83,0x91,0x7e,0xbf,0x6a,0x17,0x9b,0xbe,0x46,0xff,0xb5,0xbf,0xb7,0x6a,0xf3,0xbe,0xc1,0xf1,0xf2,0x3e,0x50,0x8e,0xa2,0xbe,0xde,0x9f,0x5d,0xbf,0xea,0x85,0x12,0x3f,0x96,0xfb,0xff,0xff,0x04,0x00,0x00,0x00,0x40,0x00,0x00,0x00,0xad,0x2b,0x7c,0xbc,0x00,0x00,0x00,0x00,0xff,0x6b,0x07,0x40,0x00,0x00,0x00,0x00,0x00,0x06,0x62,0xbf,0xa7,0x9f,0xb3,0x3c,0xf5,0x29,0xd8,0xbd,0x7b,0x48,0x24,0xbf,0x47,0x60,0x21,0xbe,0x00,0x00,0x00,0x00,0x5f,0x50,0x02,0xbe,0xdb,0x1d,0x23,0xbf,0x00,0x00,0x00,0x00,0x27,0xb8,0xd6,0x3f,0x3d,0xaf,0xad,0xbd,0x2f,0x1a,0xf0,0x3f,0xe2,0xfb,0xff,0xff,0x04,0x00,0x00,0x00,0x04,0x00,0x00,0x00,0x9d,0xb3,0x2b,0xbd,0xf2,0xfb,0xff,0xff,0x04,0x00,0x00,0x00,0x00,0x04,0x00,0x00,0x90,0x29,0x0f,0xbf,0xfd,0xf1,0x00,0xbf,0x54,0x2b,0xdd,0x3e,0x2a,0x6c,0x95,0x3e,0xdb,0x22,0x33,0xbe,0xba,0x77,0x99,0x3d,0xc2,0xbb,0x53,0x3e,0xc0,0x2b,0x5d,0xbd,0x05,0x31,0xa3,0xbd,0x03,0xde,0x10,0xbe,0x29,0x48,0xb0,0xbf,0x1f,0x1e,0x24,0xbd,0xf5,0x63,0x8d,0x3c,0xc1,0x0a,0x29,0xbe,0x07,0x6c,0xfc,0x3d,0xf5,0xcf,0xdb,0xbd,0x64,0xd7,0x9d,0xbd,0xd5,0x42,0xdc,0xbe,0xd1,0xec,0xd7,0xbe,0xf7,0xf1,0x95,0x3e,0xc0,0x40,0x85,0xbb,0xf1,0xfc,0xad,0x3e,0x85,0xd3,0xbe,0xbe,0xab,0x90,0xd7,0xbe,0x9e,0x38,0x29,0xbe,0x3c,0x6c,0x90,0x3d,0xd6,0xf4,0xc1,0xbe,0xd2,0xa6,0x57,0x3e,0xe3,0x7a,0xac,0xbe,0x53,0xc3,0x83,0x3e,0xdd,0x46,0x8c,0x3e,0x06,0xa0,0x13,0xbe,0x23,0xa4,0xce,0xbe,0x62,0x72,0x72,0x3e,0x1f,0x37,0x9d,0x3f,0xd0,0x6c,0x6d,0xbf,0xb8,0xaa,0x04,0x3f,0x03,0x56,0x9a,0xbf,0x62,0x76,0x17,0xbf,0xc8,0x70,0x20,0x3d,0xc6,0xbf,0x84,0xbf,0x61,0x6b,0xec,0xbe,0x1c,0x4b,0x87,0x3d,0x80,0x67,0x8e,0xbf,0x7e,0x3b,0x4c,0x3f,0x83,0x44,0xe5,0xbe,0x74,0x13,0xe2,0xbe,0xe5,0x56,0x89,0x3f,0xd5,0xb4,0x98,0xbe,0xe0,0xbc,0x9e,0xbe,0x90,0xb7,0x4e,0xbe,0xac,0x40,0x65,0xbe,0x49,0x64,0x94,0x3e,0x3d,0x80,0xca,0x3e,0x5e,0x74,0xba,0xbe,0x4c,0x1a,0x9c,0xbe,0xf8,0xac,0x72,0x3d,0x80,0x6e,0xec,0xbb,0xa3,0xdc,0xa4,0x3e,0x48,0x09,0x2b,0x3d,0x3e,0x25,0xb6,0xbe,0xfe,0x79,0x03,0xbe,0x8e,0x55,0x02,0x3e,0xac,0x67,0xdd,0xbe,0x10,0xc5,0xda,0x3e,0xbb,0x36,0x9b,0x3e,0x32,0x12,0x3a,0xbb,0xc4,0x00,0xf0,0xbe,0x64,0x76,0x68,0xbe,0x04,0x31,0x23,0x3e,0x9c,0x4f,0x95,0xbe,0x26,0x2b,0x8e,0xbe,0x75,0x80,0x2f,0x3f,0xba,0x2b,0x7f,0xbe,0x95,0x1b,0x80,0x3f,0x9a,0x57,0xd9,0x3e,0x08,0x8c,0xbd,0xbd,0xd5,0x93,0x33,0xbf,0x3e,0x34,0x52,0x3f,0xaf,0xcb,0x81,0x3d,0x1e,0xf2,0xca,0xbe,0xa4,0xfc,0x46,0x3f,0x46,0x23,0x7c,0x3e,0x64,0x48,0x0a,0x3f,0x51,0xc3,0xeb,0x3d,0x70,0x66,0xfb,0x3e,0xd5,0x65,0x0f,0x3e,0x74,0xc0,0xaa,0xbe,0x1c,0x92,0x48,0xbf,0x7f,0x81,0x44,0x3f,0xa8,0x81,0xe5,0xbd,0xd3,0x37,0x92,0xbf,0x18,0x4e,0x12,0x3f,0xb3,0x71,0xc1,0x3e,0x4f,0x27,0x08,0xbf,0x18,0x05,0x31,0x3f,0xff,0x0c,0x83,0x3e,0x01,0x89,0x4b,0x3e,0xcb,0xc0,0xc5,0xbd,0xdb,0x68,0x77,0x3d,0xab,0x55,0x1d,0xbe,0x79,0x06,0xa9,0xbe,0xb5,0xe5,0x1d,0x3d,0xe6,0x68,0x2b,0xbd,0x11,0x1e,0x40,0x3c,0x01,0x29,0xe6,0xbc,0x09,0x1e,0xe2,0xbe,0xfa,0x97,0x3c,0x3e,0x63,0xb8,0x0b,0x3e,0xf4,0x7f,0x7f,0x3d,0x26,0x98,0xd1,0xbe,0xde,0x3f,0x7b,0x3d,0xd8,0x60,0x98,0x3e,0xa7,0x09,0x87,0x3e,0x4d,0xe3,0xfa,0x3e,0x6d,0x4f,0x06,0x3c,0xb8,0x2a,0xa3,0xbe,0xba,0x05,0x1d,0x3e,0x12,0xff,0xa9,0xbe,0xc0,0x98,0x60,0xbe,0x6d,0x65,0x03,0x3f,0x98,0x98,0x19,0xbf,0x3c,0x84,0x80,0x3e,0x9e,0xcd,0xd9,0x3e,0x52,0x00,0xc6,0xbe,0xd6,0xa0,0x0c,0xbe,0x45,0xf8,0xfa,0x3e,0x56,0x65,0xcf,0xbe,0xfc,0xca,0xd5,0x3e,0x97,0x7c,0xa6,0x3e,0x89,0x84,0x8c,0x3e,0x8d,0x70,0x41,0x3e,0x05,0x73,0x62,0x3e,0x22,0xa4,0x02,0x3f,0x78,0x26,0x36,0x3f,0xa1,0x28,0x84,0x3e,0x7d,0xa0,0x81,0x3e,0x01,0x4b,0x14,0x3f,0x4a,0xa5,0xfb,0x3e,0xff,0x39,0x05,0x3f,0xc8,0x20,0xfc,0x3e,0xa0,0x92,0x01,0x3f,0x1c,0x36,0x26,0x3f,0xc3,0x7f,0xb3,0x3e,0x7c,0xd6,0x9b,0x3d,0x44,0x9f,0x9a,0xbd,0x48,0x9a,0x5c,0xbd,0x63,0xa5,0xcd,0xbe,0x25,0xbb,0xb6,0x3e,0x67,0xbd,0x52,0xbe,0x50,0xcf,0x91,0xbd,0xae,0x77,0x16,0x3e,0x38,0x6b,0x4e,0xbe,0xd5,0x8e,0x9f,0xbe,0x42,0xf3,0x18,0xbe,0x57,0xa8,0x95,0xbe,0x87,0x82,0xae,0xbe,0xf4,0x36,0x11,0xbe,0x52,0xc0,0x49,0x3e,0x26,0x9e,0x21,0x3e,0xf2,0xb0,0xb6,0xbe,0xc3,0x83,0xa5,0x3f,0x38,0x80,0x9f,0x3e,0x23,0x0a,0xc9,0x3e,0x4e,0xe7,0x37,0x3f,0x3f,0x5a,0xa6,0x3e,0xa1,0x89,0x55,0x3f,0x6a,0x88,0xd6,0x3e,0xfe,0x91,0x09,0xbf,0x68,0xf1,0x16,0x3f,0x44,0xcc,0x84,0xbd,0x14,0xe0,0x87,0xbf,0xec,0x17,0xf1,0x3d,0x94,0xc3,0x2f,0x3f,0x9f,0xe1,0x5d,0xbe,0xfa,0x0a,0x14,0x3f,0xed,0xf0,0x9d,0x3e,0x19,0x93,0x93,0x3e,0xa5,0x66,0x09,0x3f,0xb7,0x1e,0xfd,0xbe,0xf4,0xa6,0x3a,0xbe,0x74,0x5d,0x55,0x3c,0xca,0x09,0x5b,0xbe,0x66,0x1d,0x38,0x3e,0xd0,0x98,0xbc,0x3e,0xdf,0xee,0x20,0xbf,0xf0,0x13,0x64,0x3e,0x2f,0xa0,0x2c,0xbd,0xc5,0xf5,0xc3,0xbd,0x81,0x1c,0xe0,0x3d,0xdc,0x99,0x16,0x3f,0x6a,0x43,0xf8,0xbe,0x46,0xab,0x1e,0x3e,0xe4,0x02,0x34,0xbe,0x4a,0x6a,0x0b,0xbe,0x4a,0xb2,0xcc,0xbe,0x16,0x96,0x30,0x3e,0x48,0x8c,0x7e,0xbd,0xd6,0x66,0xc9,0xbe,0xe9,0x3d,0xda,0x3e,0xb0,0xf4,0xcb,0xbc,0xf0,0x08,0xc1,0xbe,0x32,0x4e,0x5f,0x3e,0x24,0xff,0x9c,0xbe,0xa2,0x09,0x89,0xbe,0x8c,0x00,0x99,0x3d,0x52,0x3b,0x2d,0xbe,0x6c,0x22,0xb3,0x3d,0x82,0xb9,0x0e,0xbf,0x1c,0xf0,0x7a,0xbf,0x21,0x41,0x0a,0x3f,0xbe,0xc6,0x6d,0xbe,0xac,0x3c,0xc4,0xbe,0x2e,0xe0,0x93,0xbd,0x80,0x26,0xdc,0xbe,0x74,0x27,0xde,0x3d,0xf6,0xe3,0xa7,0xbe,0x1c,0x63,0x4a,0xbe,0x51,0x3f,0xae,0xbf,0xc7,0xdb,0x60,0xbd,0x41,0x74,0x45,0x3e,0x9a,0xb6,0x56,0x3e,0xf2,0xf5,0x22,0xbe,0x0a,0xf3,0xab,0x3e,0x89,0x90,0x5c,0x3e,0xaa,0x1e,0x1f,0x3e,0xc1,0xa2,0x8f,0x3d,0xfc,0x0e,0xcf,0x3d,0x5c,0x0e,0x04,0xbe,0xd5,0xba,0xcf,0x3e,0x21,0xa8,0xba,0xbe,0x80,0x5f,0xa2,0xbe,0xae,0x50,0xf7,0x3d,0x68,0xef,0xe1,0xbd,0x81,0x4b,0xd9,0xbe,0x45,0x6d,0xfe,0xbe,0x98,0xd0,0x5b,0xbd,0xb4,0x86,0xd5,0xbd,0x73,0x61,0xea,0xbc,0x1f,0x17,0x8b,0xbe,0x53,0xa7,0xfb,0xbe,0x61,0xe5,0xbe,0xbf,0xb5,0x3f,0xdd,0x3e,0x42,0xf2,0x43,0xbd,0x42,0xc6,0x17,0xbf,0x1e,0xa0,0x35,0x3e,0x7e,0xa3,0x12,0xbf,0xea,0x82,0x0f,0x3e,0xb4,0xed,0x45,0xbe,0xb9,0x32,0x44,0xbe,0x3f,0xc0,0x04,0xc0,0x5a,0x5f,0x91,0xba,0x61,0x02,0xd8,0x3e,0xf1,0x7a,0x92,0xbe,0x61,0x9e,0x78,0xbe,0xcc,0x1b,0x0f,0x3f,0x00,0x00,0x06,0x00,0x08,0x00,0x04,0x00,0x06,0x00,0x00,0x00,0x04,0x00,0x00,0x00,0x40,0x00,0x00,0x00,0x9b,0x41,0x36,0xbe,0x34,0x23,0x35,0x3e,0x84,0x0d,0x32,0x40,0xea,0x79,0x73,0xbe,0x4e,0x71,0x06,0x3f,0xb0,0x20,0x7f,0x3f,0x9c,0x83,0x76,0xbd,0x02,0xc8,0x41,0x3f,0xd4,0x22,0x59,0x3f,0x22,0x13,0x08,0x3f,0x11,0xd6,0x0c,0x3f,0x33,0xf0,0x66,0x3f,0x76,0x8f,0x09,0xbf,0x02,0xe8,0x24,0xc0,0x71,0x2f,0xaa,0xbe,0xfb,0x73,0x27,0xc0,0x38,0xfb,0xff,0xff,0x3c,0xfb,0xff,0xff,0x0f,0x00,0x00,0x00,0x4d,0x4c,0x49,0x52,0x20,0x43,0x6f,0x6e,0x76,0x65,0x72,0x74,0x65,0x64,0x2e,0x00,0x01,0x00,0x00,0x00,0x14,0x00,0x00,0x00,0x00,0x00,0x0e,0x00,0x18,0x00,0x14,0x00,0x10,0x00,0x0c,0x00,0x08,0x00,0x04,0x00,0x0e,0x00,0x00,0x00,0x14,0x00,0x00,0x00,0x1c,0x00,0x00,0x00,0xd8,0x00,0x00,0x00,0xdc,0x00,0x00,0x00,0xe0,0x00,0x00,0x00,0x04,0x00,0x00,0x00,0x6d,0x61,0x69,0x6e,0x00,0x00,0x00,0x00,0x03,0x00,0x00,0x00,0x80,0x00,0x00,0x00,0x38,0x00,0x00,0x00,0x04,0x00,0x00,0x00,0x9a,0xff,0xff,0xff,0x10,0x00,0x00,0x00,0x00,0x00,0x00,0x08,0x0c,0x00,0x00,0x00,0x10,0x00,0x00,0x00,0xb4,0xfb,0xff,0xff,0x01,0x00,0x00,0x00,0x09,0x00,0x00,0x00,0x03,0x00,0x00,0x00,0x08,0x00,0x00,0x00,0x01,0x00,0x00,0x00,0x03,0x00,0x00,0x00,0xca,0xff,0xff,0xff,0x10,0x00,0x00,0x00,0x00,0x00,0x00,0x08,0x10,0x00,0x00,0x00,0x14,0x00,0x00,0x00,0xba,0xff,0xff,0xff,0x00,0x00,0x00,0x01,0x01,0x00,0x00,0x00,0x08,0x00,0x00,0x00,0x03,0x00,0x00,0x00,0x07,0x00,0x00,0x00,0x02,0x00,0x00,0x00,0x04,0x00,0x00,0x00,0x00,0x00,0x0e,0x00,0x16,0x00,0x00,0x00,0x10,0x00,0x0c,0x00,0x0b,0x00,0x04,0x00,0x0e,0x00,0x00,0x00,0x18,0x00,0x00,0x00,0x00,0x00,0x00,0x08,0x18,0x00,0x00,0x00,0x1c,0x00,0x00,0x00,0x00,0x00,0x06,0x00,0x08,0x00,0x07,0x00,0x06,0x00,0x00,0x00,0x00,0x00,0x00,0x01,0x01,0x00,0x00,0x00,0x07,0x00,0x00,0x00,0x03,0x00,0x00,0x00,0x00,0x00,0x00,0x00,0x06,0x00,0x00,0x00,0x05,0x00,0x00,0x00,0x01,0x00,0x00,0x00,0x09,0x00,0x00,0x00,0x01,0x00,0x00,0x00,0x00,0x00,0x00,0x00,0x0a,0x00,0x00,0x00,0x74,0x03,0x00,0x00,0x1c,0x03,0x00,0x00,0xc4,0x02,0x00,0x00,0x88,0x02,0x00,0x00,0x4c,0x02,0x00,0x00,0xf0,0x01,0x00,0x00,0xa0,0x01,0x00,0x00,0x00,0x01,0x00,0x00,0x60,0x00,0x00,0x00,0x04,0x00,0x00,0x00,0xca,0xfc,0xff,0xff,0x00,0x00,0x00,0x01,0x14,0x00,0x00,0x00,0x1c,0x00,0x00,0x00,0x1c,0x00,0x00,0x00,0x0a,0x00,0x00,0x00,0x34,0x00,0x00,0x00,0x02,0x00,0x00,0x00,0xff,0xff,0xff,0xff,0x01,0x00,0x00,0x00,0xb4,0xfc,0xff,0xff,0x1b,0x00,0x00,0x00,0x53,0x74,0x61,0x74,0x65,0x66,0x75,0x6c,0x50,0x61,0x72,0x74,0x69,0x74,0x69,0x6f,0x6e,0x65,0x64,0x43,0x61,0x6c,0x6c,0x5f,0x31,0x3a,0x30,0x00,0x02,0x00,0x00,0x00,0x01,0x00,0x00,0x00,0x01,0x00,0x00,0x00,0x22,0xfd,0xff,0xff,0x00,0x00,0x00,0x01,0x14,0x00,0x00,0x00,0x1c,0x00,0x00,0x00,0x1c,0x00,0x00,0x00,0x09,0x00,0x00,0x00,0x78,0x00,0x00,0x00,0x02,0x00,0x00,0x00,0xff,0xff,0xff,0xff,0x10,0x00,0x00,0x00,0x0c,0xfd,0xff,0xff,0x5e,0x00,0x00,0x00,0x73,0x65,0x71,0x75,0x65,0x6e,0x74,0x69,0x61,0x6c,0x5f,0x32,0x5f,0x31,0x2f,0x64,0x65,0x6e,0x73,0x65,0x5f,0x35,0x5f,0x31,0x2f,0x4d,0x61,0x74,0x4d,0x75,0x6c,0x3b,0x73,0x65,0x71,0x75,0x65,0x6e,0x74,0x69,0x61,0x6c,0x5f,0x32,0x5f,0x31,0x2f,0x64,0x65,0x6e,0x73,0x65,0x5f,0x35,0x5f,0x31,0x2f,0x52,0x65,0x6c,0x75,0x3b,0x73,0x65,0x71,0x75,0x65,0x6e,0x74,0x69,0x61,0x6c,0x5f,0x32,0x5f,0x31,0x2f,0x64,0x65,0x6e,0x73,0x65,0x5f,0x35,0x5f,0x31,0x2f,0x42,0x69,0x61,0x73,0x41,0x64,0x64,0x00,0x00,0x02,0x00,0x00,0x00,0x01,0x00,0x00,0x00,0x10,0x00,0x00,0x00,0xbe,0xfd,0xff,0xff,0x00,0x00,0x00,0x01,0x14,0x00,0x00,0x00,0x1c,0x00,0x00,0x00,0x1c,0x00,0x00,0x00,0x08,0x00,0x00,0x00,0x78,0x00,0x00,0x00,0x02,0x00,0x00,0x00,0xff,0xff,0xff,0xff,0x10,0x00,0x00,0x00,0xa8,0xfd,0xff,0xff,0x5e,0x00,0x00,0x00,0x73,0x65,0x71,0x75,0x65,0x6e,0x74,0x69,0x61,0x6c,0x5f,0x32,0x5f,0x31,0x2f,0x64,0x65,0x6e,0x73,0x65,0x5f,0x34,0x5f,0x31,0x2f,0x4d,0x61,0x74,0x4d,0x75,0x6c,0x3b,0x73,0x65,0x71,0x75,0x65,0x6e,0x74,0x69,0x61,0x6c,0x5f,0x32,0x5f,0x31,0x2f,0x64,0x65,0x6e,0x73,0x65,0x5f,0x34,0x5f,0x31,0x2f,0x52,0x65,0x6c,0x75,0x3b,0x73,0x65,0x71,0x75,0x65,0x6e,0x74,0x69,0x61,0x6c,0x5f,0x32,0x5f,0x31,0x2f,0x64,0x65,0x6e,0x73,0x65,0x5f,0x34,0x5f,0x31,0x2f,0x42,0x69,0x61,0x73,0x41,0x64,0x64,0x00,0x00,0x02,0x00,0x00,0x00,0x01,0x00,0x00,0x00,0x10,0x00,0x00,0x00,0xae,0xfe,0xff,0xff,0x00,0x00,0x00,0x01,0x10,0x00,0x00,0x00,0x10,0x00,0x00,0x00,0x07,0x00,0x00,0x00,0x2c,0x00,0x00,0x00,0x34,0xfe,0xff,0xff,0x1f,0x00,0x00,0x00,0x73,0x65,0x71,0x75,0x65,0x6e,0x74,0x69,0x61,0x6c,0x5f,0x32,0x5f,0x31,0x2f,0x64,0x65,0x6e,0x73,0x65,0x5f,0x34,0x5f,0x31,0x2f,0x4d,0x61,0x74,0x4d,0x75,0x6c,0x00,0x02,0x00,0x00,0x00,0x10,0x00,0x00,0x00,0x01,0x00,0x00,0x00,0xfa,0xfe,0xff,0xff,0x00,0x00,0x00,0x01,0x10,0x00,0x00,0x00,0x10,0x00,0x00,0x00,0x06,0x00,0x00,0x00,0x3c,0x00,0x00,0x00,0x80,0xfe,0xff,0xff,0x2f,0x00,0x00,0x00,0x73,0x65,0x71,0x75,0x65,0x6e,0x74,0x69,0x61,0x6c,0x5f,0x32,0x5f,0x31,0x2f,0x64,0x65,0x6e,0x73,0x65,0x5f,0x34,0x5f,0x31,0x2f,0x42,0x69,0x61,0x73,0x41,0x64,0x64,0x2f,0x52,0x65,0x61,0x64,0x56,0x61,0x72,0x69,0x61,0x62,0x6c,0x65,0x4f,0x70,0x00,0x01,0x00,0x00,0x00,0x10,0x00,0x00,0x00,0x52,0xff,0xff,0xff,0x00,0x00,0x00,0x01,0x10,0x00,0x00,0x00,0x10,0x00,0x00,0x00,0x05,0x00,0x00,0x00,0x1c,0x00,0x00,0x00,0xd8,0xfe,0xff,0xff,0x0f,0x00,0x00,0x00,0x61,0x72,0x69,0x74,0x68,0x2e,0x63,0x6f,0x6e,0x73,0x74,0x61,0x6e,0x74,0x33,0x00,0x01,0x00,0x00,0x00,0x10,0x00,0x00,0x00,0x8a,0xff,0xff,0xff,0x00,0x00,0x00,0x01,0x10,0x00,0x00,0x00,0x10,0x00,0x00,0x00,0x04,0x00,0x00,0x00,0x1c,0x00,0x00,0x00,0x10,0xff,0xff,0xff,0x0f,0x00,0x00,0x00,0x61,0x72,0x69,0x74,0x68,0x2e,0x63,0x6f,0x6e,0x73,0x74,0x61,0x6e,0x74,0x32,0x00,0x01,0x00,0x00,0x00,0x01,0x00,0x00,0x00,0xc2,0xff,0xff,0xff,0x00,0x00,0x00,0x01,0x10,0x00,0x00,0x00,0x10,0x00,0x00,0x00,0x03,0x00,0x00,0x00,0x1c,0x00,0x00,0x00,0x48,0xff,0xff,0xff,0x0f,0x00,0x00,0x00,0x61,0x72,0x69,0x74,0x68,0x2e,0x63,0x6f,0x6e,0x73,0x74,0x61,0x6e,0x74,0x31,0x00,0x02,0x00,0x00,0x00,0x10,0x00,0x00,0x00,0x10,0x00,0x00,0x00,0x00,0x00,0x16,0x00,0x18,0x00,0x14,0x00,0x00,0x00,0x10,0x00,0x0c,0x00,0x08,0x00,0x00,0x00,0x00,0x00,0x00,0x00,0x07,0x00,0x16,0x00,0x00,0x00,0x00,0x00,0x00,0x01,0x10,0x00,0x00,0x00,0x10,0x00,0x00,0x00,0x02,0x00,0x00,0x00,0x1c,0x00,0x00,0x00,0x9c,0xff,0xff,0xff,0x0e,0x00,0x00,0x00,0x61,0x72,0x69,0x74,0x68,0x2e,0x63,0x6f,0x6e,0x73,0x74,0x61,0x6e,0x74,0x00,0x00,0x02,0x00,0x00,0x00,0x01,0x00,0x00,0x00,0x10,0x00,0x00,0x00,0x00,0x00,0x16,0x00,0x1c,0x00,0x18,0x00,0x00,0x00,0x14,0x00,0x10,0x00,0x0c,0x00,0x00,0x00,0x00,0x00,0x08,0x00,0x07,0x00,0x16,0x00,0x00,0x00,0x00,0x00,0x00,0x01,0x14,0x00,0x00,0x00,0x20,0x00,0x00,0x00,0x20,0x00,0x00,0x00,0x01,0x00,0x00,0x00,0x3c,0x00,0x00,0x00,0x02,0x00,0x00,0x00,0xff,0xff,0xff,0xff,0x01,0x00,0x00,0x00,0x04,0x00,0x04,0x00,0x04,0x00,0x00,0x00,0x1f,0x00,0x00,0x00,0x73,0x65,0x72,0x76,0x69,0x6e,0x67,0x5f,0x64,0x65,0x66,0x61,0x75,0x6c,0x74,0x5f,0x69,0x6e,0x70,0x75,0x74,0x5f,0x6c,0x61,0x79,0x65,0x72,0x5f,0x32,0x3a,0x30,0x00,0x02,0x00,0x00,0x00,0x01,0x00,0x00,0x00,0x01,0x00,0x00,0x00,0x01,0x00,0x00,0x00,0x10,0x00,0x00,0x00,0x0c,0x00,0x0c,0x00,0x0b,0x00,0x00,0x00,0x00,0x00,0x04,0x00,0x0c,0x00,0x00,0x00,0x09,0x00,0x00,0x00,0x00,0x00,0x00,0x09};
const unsigned int g_kasus_b_nl_model_2_float_model_data_len = 3160;

#endif // G_KASUS_B_NL_MODEL_2_FLOAT_H
