// File ini dibuat secara otomatis
#ifndef G_KASUS_A_MODEL_2_FLOAT_H
#define G_KASUS_A_MODEL_2_FLOAT_H

// Model: Kasus A Model 2 Float
// 2L, 16N, float32
// Size: 3188 bytes (3.11 KB)
const unsigned char g_kasus_a_model_2_float_model_data[] = {0x1c,0x00,0x00,0x00,0x54,0x46,0x4c,0x33,0x14,0x00,0x20,0x00,0x1c,0x00,0x18,0x00,0x14,0x00,0x10,0x00,0x0c,0x00,0x00,0x00,0x08,0x00,0x04,0x00,0x14,0x00,0x00,0x00,0x1c,0x00,0x00,0x00,0x98,0x00,0x00,0x00,0xf0,0x00,0x00,0x00,0x14,0x07,0x00,0x00,0x24,0x07,0x00,0x00,0x20,0x0c,0x00,0x00,0x03,0x00,0x00,0x00,0x01,0x00,0x00,0x00,0x10,0x00,0x00,0x00,0x00,0x00,0x0a,0x00,0x10,0x00,0x0c,0x00,0x08,0x00,0x04,0x00,0x0a,0x00,0x00,0x00,0x0c,0x00,0x00,0x00,0x1c,0x00,0x00,0x00,0x3c,0x00,0x00,0x00,0x0f,0x00,0x00,0x00,0x73,0x65,0x72,0x76,0x69,0x6e,0x67,0x5f,0x64,0x65,0x66,0x61,0x75,0x6c,0x74,0x00,0x01,0x00,0x00,0x00,0x04,0x00,0x00,0x00,0x90,0xff,0xff,0xff,0x09,0x00,0x00,0x00,0x04,0x00,0x00,0x00,0x08,0x00,0x00,0x00,0x6f,0x75,0x74,0x70,0x75,0x74,0x5f,0x30,0x00,0x00,0x00,0x00,0x01,0x00,0x00,0x00,0x04,0x00,0x00,0x00,0xba,0xf9,0xff,0xff,0x04,0x00,0x00,0x00,0x0e,0x00,0x00,0x00,0x69,0x6e,0x70,0x75,0x74,0x5f,0x6c,0x61,0x79,0x65,0x72,0x5f,0x32,0x38,0x00,0x00,0x02,0x00,0x00,0x00,0x34,0x00,0x00,0x00,0x04,0x00,0x00,0x00,0xdc,0xff,0xff,0xff,0x0c,0x00,0x00,0x00,0x04,0x00,0x00,0x00,0x13,0x00,0x00,0x00,0x43,0x4f,0x4e,0x56,0x45,0x52,0x53,0x49,0x4f,0x4e,0x5f,0x4d,0x45,0x54,0x41,0x44,0x41,0x54,0x41,0x00,0x08,0x00,0x0c,0x00,0x08,0x00,0x04,0x00,0x08,0x00,0x00,0x00,0x0b,0x00,0x00,0x00,0x04,0x00,0x00,0x00,0x13,0x00,0x00,0x00,0x6d,0x69,0x6e,0x5f,0x72,0x75,0x6e,0x74,0x69,0x6d,0x65,0x5f,0x76,0x65,0x72,0x73,0x69,0x6f,0x6e,0x00,0x0d,0x00,0x00,0x00,0x20,0x06,0x00,0x00,0x18,0x06,0x00,0x00,0xc8,0x05,0x00,0x00,0xb0,0x01,0x00,0x00,0x9c,0x01,0x00,0x00,0x4c,0x01,0x00,0x00,0xfc,0x00,0x00,0x00,0xac,0x00,0x00,0x00,0xa4,0x00,0x00,0x00,0x9c,0x00,0x00,0x00,0x94,0x00,0x00,0x00,0x74,0x00,0x00,0x00,0x04,0x00,0x00,0x00,0x6a,0xfa,0xff,0xff,0x04,0x00,0x00,0x00,0x60,0x00,0x00,0x00,0x10,0x00,0x00,0x00,0x00,0x00,0x00,0x00,0x08,0x00,0x0e,0x00,0x08,0x00,0x04,0x00,0x08,0x00,0x00,0x00,0x10,0x00,0x00,0x00,0x24,0x00,0x00,0x00,0x00,0x00,0x06,0x00,0x08,0x00,0x04,0x00,0x06,0x00,0x00,0x00,0x04,0x00,0x00,0x00,0x00,0x00,0x00,0x00,0x0c,0x00,0x18,0x00,0x14,0x00,0x10,0x00,0x0c,0x00,0x04,0x00,0x0c,0x00,0x00,0x00,0xec,0xb7,0xa8,0x9a,0xd0,0xf4,0x0a,0xe3,0x02,0x00,0x00,0x00,0x02,0x00,0x00,0x00,0x04,0x00,0x00,0x00,0x06,0x00,0x00,0x00,0x32,0x2e,0x31,0x38,0x2e,0x30,0x00,0x00,0xd6,0xfa,0xff,0xff,0x04,0x00,0x00,0x00,0x10,0x00,0x00,0x00,0x31,0x2e,0x35,0x2e,0x30,0x00,0x00,0x00,0x00,0x00,0x00,0x00,0x00,0x00,0x00,0x00,0xc0,0xf5,0xff,0xff,0xc4,0xf5,0xff,0xff,0xc8,0xf5,0xff,0xff,0xfe,0xfa,0xff,0xff,0x04,0x00,0x00,0x00,0x40,0x00,0x00,0x00,0xb5,0x7e,0x20,0x3f,0xe8,0xb6,0xd5,0xbe,0xda,0x43,0x14,0x3f,0xb5,0xee,0x95,0xbd,0xb1,0x9a,0x25,0x3f,0x90,0xec,0x0c,0x3f,0x93,0xdc,0x02,0xbf,0x2f,0x63,0xb3,0x3e,0x3f,0xff,0xb4,0xbe,0x9d,0xa6,0xc5,0xbe,0x8a,0x72,0x88,0xbe,0x35,0x7c,0x19,0xbf,0xa7,0x2c,0xd3,0x3e,0xd6,0xc1,0xd9,0x3e,0xa9,0x97,0xca,0xbe,0xbb,0x30,0x77,0xbe,0x4a,0xfb,0xff,0xff,0x04,0x00,0x00,0x00,0x40,0x00,0x00,0x00,0x63,0x08,0x1d,0x3e,0x83,0xcc,0x82,0x3d,0xf8,0x89,0x6c,0x3e,0x92,0x9f,0x81,0xbd,0xa9,0xf5,0x1d,0x3e,0x94,0xea,0x64,0x3e,0x8d,0x73,0x20,0x3e,0x18,0xbc,0x82,0x3d,0xb9,0x6e,0x66,0x3e,0x7e,0x78,0x88,0x3e,0xf6,0xb2,0x82,0x3e,0xb9,0x96,0x87,0x3e,0xee,0x16,0xef,0xbd,0x1d,0xa7,0x62,0x3e,0xda,0xc7,0x6e,0x3e,0x28,0x01,0x34,0x3e,0x96,0xfb,0xff,0xff,0x04,0x00,0x00,0x00,0x40,0x00,0x00,0x00,0x14,0x24,0xa5,0x3f,0xa9,0x21,0x4a,0x3e,0x08,0x85,0x5c,0x3e,0x07,0xb3,0x0b,0x3e,0x12,0x7d,0x07,0x3e,0xcf,0x95,0x5f,0x3e,0xb2,0x3e,0x07,0x3e,0x00,0x00,0x00,0x00,0x00,0x00,0x00,0x00,0x0e,0xd0,0xae,0x3d,0x29,0xf0,0x3c,0x3e,0x41,0x64,0xa8,0xbd,0x0f,0x57,0x10,0x3e,0x00,0x00,0x00,0x00,0x75,0x41,0x46,0xbc,0x1a,0xb1,0xf3,0xbd,0xe2,0xfb,0xff,0xff,0x04,0x00,0x00,0x00,0x04,0x00,0x00,0x00,0x56,0xb3,0x44,0xbe,0xf2,0xfb,0xff,0xff,0x04,0x00,0x00,0x00,0x00,0x04,0x00,0x00,0xf8,0xab,0x04,0x3e,0x32,0x81,0xa8,0xbe,0x0d,0xf5,0x7e,0xbe,0x88,0x84,0x2e,0x3e,0xde,0xbd,0x55,0xbe,0xc4,0x0c,0x9c,0xbe,0x33,0x81,0x98,0x3c,0x11,0x1d,0x8f,0xbd,0xe6,0x9c,0xa6,0x3e,0x5a,0x08,0xc1,0x3e,0x75,0xdd,0x8c,0x3e,0x58,0xac,0xbf,0xbe,0x0a,0x91,0x37,0x3d,0x33,0xe8,0xcb,0xbe,0xbe,0x2c,0x54,0x3c,0x80,0xa8,0x87,0xbc,0x8c,0x22,0xb2,0x3e,0xec,0xe8,0xa0,0xbc,0xe1,0x6a,0x00,0x3e,0x25,0xaf,0x66,0x3e,0xeb,0x57,0xf0,0xbd,0xf2,0xbe,0x91,0xbe,0xdb,0x07,0x3a,0x3e,0x6b,0x21,0xb0,0x3e,0x18,0xed,0x0c,0x3f,0x13,0x77,0x02,0x3f,0x09,0x6e,0x1e,0x3f,0x10,0x63,0x24,0x3e,0xf4,0x9c,0x16,0xbf,0xaf,0x3e,0x31,0xbd,0xe6,0x3d,0x45,0x3e,0xe0,0x6c,0xdc,0x3e,0xbf,0xe9,0x64,0xbd,0xaa,0x10,0x5d,0x3e,0xbb,0x3c,0x6e,0xbe,0xa0,0x32,0xc1,0xbc,0x34,0x7c,0xfa,0xbd,0x23,0xc7,0x7b,0xbe,0x4b,0x66,0x1e,0x3f,0xe8,0x02,0x01,0x3f,0x9c,0x05,0xef,0x3e,0xec,0xd2,0xe6,0x3e,0xe1,0xe9,0x26,0x3e,0xe5,0x3c,0x2c,0x3f,0x75,0xd3,0x94,0x3d,0xb4,0x20,0x9b,0x3e,0x81,0x9c,0xee,0x3e,0x42,0x4d,0x12,0x3f,0x96,0x2e,0xa6,0x3e,0x69,0xa4,0xe1,0xbe,0x0d,0xe3,0xad,0x3c,0xc7,0x0f,0x12,0x3e,0x03,0x02,0xab,0x3e,0xa9,0x22,0x15,0xbd,0x12,0xae,0x5a,0xbd,0xfd,0x3f,0xaf,0xba,0xb2,0xbb,0xf5,0xbd,0xf4,0x76,0xb6,0x3e,0x2b,0x68,0xac,0xbe,0x06,0x87,0xf9,0x3d,0x44,0xe5,0x9b,0xbc,0xa4,0x75,0x7e,0x3e,0x4c,0x86,0x85,0x3e,0xc2,0x32,0x9f,0xbe,0x11,0xae,0xfe,0x3e,0x28,0x36,0xb5,0xbc,0x18,0x86,0xc1,0xbd,0x03,0x4f,0x95,0xbc,0x55,0xab,0x04,0x3f,0x60,0xe7,0xbe,0x3e,0xec,0x50,0x81,0x3e,0x78,0xcd,0x9e,0xbd,0x47,0x08,0xe6,0xbd,0x9c,0x7a,0x77,0xbe,0x65,0xa7,0x49,0x3e,0xbf,0x89,0x2e,0xbe,0x67,0x46,0x9b,0xbe,0x05,0xb1,0x8f,0xbe,0xad,0x98,0x05,0xbe,0x08,0x3e,0x83,0x3e,0x04,0x20,0xa3,0xbe,0x68,0xff,0x1d,0x3f,0xfd,0xd3,0xab,0x3e,0xb1,0x66,0x9d,0x3e,0xa4,0xab,0xc5,0xbe,0xd2,0xd3,0xc1,0x3e,0x91,0x7b,0x11,0x3f,0x65,0x1d,0xc7,0xbd,0xa2,0xe0,0xb0,0x3d,0x29,0x24,0x81,0x3d,0x37,0x99,0xd3,0x3e,0xb8,0x34,0x36,0x3e,0xf9,0x55,0xef,0xbe,0x28,0x11,0xc2,0x3e,0x01,0xd1,0x30,0x3f,0xb8,0x46,0xb9,0x3e,0x8c,0xd7,0xf8,0x3e,0xd0,0x6f,0xba,0xbe,0xbd,0x3a,0x00,0x3f,0x31,0xa2,0xb5,0xbe,0x37,0x75,0x95,0x3e,0x84,0xc2,0x3e,0xbb,0xdb,0x63,0xe2,0xbd,0x61,0xf7,0x7a,0x3e,0x51,0x10,0x81,0x3e,0x51,0xf5,0x22,0x3e,0xed,0x78,0xb8,0x3e,0xfd,0x91,0xe2,0x3c,0xb1,0x59,0x63,0x3e,0x10,0x2c,0x68,0x3e,0x5b,0x1c,0xb1,0xbd,0xa5,0x9a,0x63,0xbe,0x8f,0xa5,0xc5,0x3e,0xb4,0x84,0x96,0xbe,0x5e,0x06,0x9d,0xbe,0x30,0xc9,0xe7,0xbd,0x57,0xf2,0x48,0xbe,0x37,0x13,0x91,0xbe,0x1c,0x49,0xeb,0x3d,0x60,0x52,0xd6,0xbe,0xb9,0xc7,0x89,0x3e,0x0c,0x43,0xdc,0xbe,0x32,0x59,0x7e,0x3e,0xfb,0x00,0xce,0xbe,0x04,0x79,0x9e,0xbe,0x19,0x6d,0x92,0xbe,0x98,0x3a,0x7e,0xbe,0xab,0xb9,0x4f,0xbe,0x2c,0x81,0xcf,0x3d,0xb1,0x7b,0xdc,0x3e,0x34,0xc2,0xb2,0x3d,0x60,0xcd,0xf3,0x3c,0x72,0x09,0x7e,0x3e,0xfb,0x16,0x4d,0xbe,0x9c,0x38,0x98,0xbe,0x9f,0xe5,0x94,0x3e,0xec,0x82,0x79,0xbe,0xd0,0x93,0x96,0xbd,0xc0,0xc7,0x71,0xbc,0xb2,0xbf,0xc6,0xbe,0x09,0x05,0xa6,0xbe,0x65,0x72,0xd9,0xbe,0xec,0xca,0x94,0xbe,0x50,0x63,0x86,0xbc,0x43,0xc7,0xbd,0x3c,0x01,0xca,0x85,0x3e,0x34,0xff,0x05,0xbe,0x16,0x9d,0x5c,0xbe,0x51,0x26,0x1e,0x3d,0x00,0x81,0x6b,0x3e,0x62,0xcf,0xb8,0x3e,0x5a,0x92,0x9b,0x3e,0xdf,0x81,0x3a,0xbe,0xbd,0xff,0x22,0x3e,0xf5,0xde,0xf9,0x3c,0x9f,0x9b,0xbc,0xbe,0x3d,0xd9,0x86,0x3e,0xe5,0x14,0xfa,0x3e,0xe7,0xe8,0xa5,0xbe,0xad,0x63,0xda,0xbe,0x06,0x5a,0xf0,0x3e,0x9e,0x58,0x08,0xbe,0xb5,0x64,0xe2,0xbd,0xf9,0xbb,0x7f,0xbe,0xf7,0xe2,0x93,0x3c,0xb4,0x50,0x40,0xbd,0x74,0x5c,0x4e,0xbe,0x41,0x56,0xfc,0x3e,0x84,0xc2,0x28,0xbe,0xcc,0x27,0x53,0x3e,0xe7,0x86,0xd4,0x3e,0xf9,0x28,0x05,0xbc,0x77,0xfc,0x82,0xbe,0x26,0x33,0x02,0x3f,0x6e,0x9f,0x44,0x3e,0xf8,0xfa,0x63,0xbe,0xd5,0xba,0xa6,0x3e,0x02,0x08,0xc7,0xbe,0x75,0xf0,0x8c,0xbe,0x14,0x03,0xb4,0x3e,0xee,0xa0,0x14,0x3e,0xac,0xb3,0xd4,0xbe,0x88,0x0c,0x98,0x3e,0x24,0x8f,0xac,0x3d,0x77,0xca,0x9f,0x3e,0x16,0x4d,0xe0,0xbe,0x11,0xc4,0xba,0xbe,0xba,0x30,0x45,0x3e,0x90,0xa0,0x83,0xbd,0xd0,0x36,0x29,0xbd,0x9e,0xf7,0xef,0xbd,0x1c,0x20,0x99,0x3e,0x39,0x4e,0xfa,0x3e,0x64,0xea,0x9c,0x3e,0x83,0x48,0x6a,0x3e,0xbb,0x01,0xa1,0xbe,0x87,0x62,0xc7,0x3e,0x0a,0x45,0xe1,0xbd,0xf9,0xb9,0x82,0x3b,0x8e,0xcc,0x3b,0xbe,0x85,0xfa,0x6c,0x3d,0x87,0xe0,0xc7,0x3c,0x07,0x11,0x17,0x3f,0xa0,0x87,0x7f,0xbe,0x7f,0x73,0x96,0xbe,0xe7,0x1c,0x99,0x3e,0x3d,0x7c,0x83,0xbe,0x27,0xa1,0x70,0xbe,0x1e,0xdd,0x28,0x3e,0x0a,0x4f,0x82,0xbe,0x42,0x28,0x01,0xbe,0xab,0x9f,0x9d,0x3e,0x24,0x73,0x76,0xbe,0xea,0x6e,0x1e,0x3e,0x8c,0x11,0xce,0x3d,0xa6,0x8d,0xab,0xbe,0x36,0xc2,0xb1,0xbe,0x00,0xf5,0xe6,0xba,0xa2,0xa0,0x39,0x3e,0x14,0x3e,0x8b,0x3d,0x34,0xb1,0xec,0x3d,0x50,0xc3,0x8b,0xbe,0xb4,0xac,0xab,0xbe,0x01,0x4f,0x60,0xbe,0x29,0x52,0x5e,0xbe,0xcf,0x56,0xaf,0xbe,0x91,0x3e,0xbe,0x3e,0x4c,0xcc,0x8f,0x3d,0x6c,0x7c,0x55,0x3e,0xe1,0xff,0x2d,0x3e,0x30,0xf1,0x07,0x3c,0x6d,0xe7,0x7e,0x3e,0x2a,0x1b,0xbd,0xbe,0xb0,0x8a,0x12,0xbe,0xc0,0xf7,0x13,0xbf,0x5c,0x6c,0xbd,0xbe,0x80,0xcf,0xb2,0x3d,0x81,0x90,0x3d,0x3d,0x66,0x33,0x4b,0xbe,0x76,0xd2,0x0b,0xbe,0xa1,0xe8,0x80,0x3e,0x6d,0x34,0x96,0x3d,0x00,0x56,0xd2,0xbb,0xe1,0xe3,0xb5,0x3c,0xd5,0xfa,0x7d,0xbe,0x13,0xab,0xb4,0xbe,0x3f,0x84,0xeb,0x3c,0xc2,0x79,0xbd,0xbe,0x2d,0x27,0xab,0xbc,0xad,0x37,0x62,0xbe,0xfe,0x7d,0xfc,0xbe,0x24,0x3a,0x8e,0x3e,0xd2,0xf3,0x74,0x3e,0x37,0x6c,0xc2,0x3e,0x27,0x7a,0x41,0xbe,0x2d,0xd4,0xb2,0x3e,0x00,0x00,0x06,0x00,0x08,0x00,0x04,0x00,0x06,0x00,0x00,0x00,0x04,0x00,0x00,0x00,0x40,0x00,0x00,0x00,0x00,0xe7,0xe9,0x3f,0x86,0x00,0x39,0xbf,0xb9,0x63,0x2c,0xbf,0xb6,0xd8,0x95,0x3e,0xe9,0x6e,0x3c,0x3f,0x9b,0x29,0x7d,0xbe,0x24,0x7d,0x14,0x3f,0x8d,0xb0,0x85,0xbe,0x96,0x1b,0x68,0xbe,0xe4,0x09,0xfe,0x3e,0x77,0xd4,0xb2,0x3e,0xe8,0xb1,0xa1,0x3e,0x8c,0x8e,0x35,0x3f,0x38,0x23,0x03,0x3f,0x08,0x5d,0x1c,0x3d,0xa9,0x95,0xb4,0x3e,0x20,0xfb,0xff,0xff,0x24,0xfb,0xff,0xff,0x0f,0x00,0x00,0x00,0x4d,0x4c,0x49,0x52,0x20,0x43,0x6f,0x6e,0x76,0x65,0x72,0x74,0x65,0x64,0x2e,0x00,0x01,0x00,0x00,0x00,0x14,0x00,0x00,0x00,0x00,0x00,0x0e,0x00,0x18,0x00,0x14,0x00,0x10,0x00,0x0c,0x00,0x08,0x00,0x04,0x00,0x0e,0x00,0x00,0x00,0x14,0x00,0x00,0x00,0x1c,0x00,0x00,0x00,0xd8,0x00,0x00,0x00,0xdc,0x00,0x00,0x00,0xe0,0x00,0x00,0x00,0x04,0x00,0x00,0x00,0x6d,0x61,0x69,0x6e,0x00,0x00,0x00,0x00,0x03,0x00,0x00,0x00,0x80,0x00,0x00,0x00,0x38,0x00,0x00,0x00,0x04,0x00,0x00,0x00,0x9a,0xff,0xff,0xff,0x10,0x00,0x00,0x00,0x00,0x00,0x00,0x08,0x0c,0x00,0x00,0x00,0x10,0x00,0x00,0x00,0x9c,0xfb,0xff,0xff,0x01,0x00,0x00,0x00,0x09,0x00,0x00,0x00,0x03,0x00,0x00,0x00,0x08,0x00,0x00,0x00,0x01,0x00,0x00,0x00,0x03,0x00,0x00,0x00,0xca,0xff,0xff,0xff,0x10,0x00,0x00,0x00,0x00,0x00,0x00,0x08,0x10,0x00,0x00,0x00,0x14,0x00,0x00,0x00,0xba,0xff,0xff,0xff,0x00,0x00,0x00,0x01,0x01,0x00,0x00,0x00,0x08,0x00,0x00,0x00,0x03,0x00,0x00,0x00,0x07,0x00,0x00,0x00,0x02,0x00,0x00,0x00,0x04,0x00,0x00,0x00,0x00,0x00,0x0e,0x00,0x16,0x00,0x00,0x00,0x10,0x00,0x0c,0x00,0x0b,0x00,0x04,0x00,0x0e,0x00,0x00,0x00,0x18,0x00,0x00,0x00,0x00,0x00,0x00,0x08,0x18,0x00,0x00,0x00,0x1c,0x00,0x00,0x00,0x00,0x00,0x06,0x00,0x08,0x00,0x07,0x00,0x06,0x00,0x00,0x00,0x00,0x00,0x00,0x01,0x01,0x00,0x00,0x00,0x07,0x00,0x00,0x00,0x03,0x00,0x00,0x00,0x00,0x00,0x00,0x00,0x06,0x00,0x00,0x00,0x05,0x00,0x00,0x00,0x01,0x00,0x00,0x00,0x09,0x00,0x00,0x00,0x01,0x00,0x00,0x00,0x00,0x00,0x00,0x00,0x0a,0x00,0x00,0x00,0x8c,0x03,0x00,0x00,0x34,0x03,0x00,0x00,0xdc,0x02,0x00,0x00,0xa0,0x02,0x00,0x00,0x64,0x02,0x00,0x00,0x04,0x02,0x00,0x00,0xb0,0x01,0x00,0x00,0x08,0x01,0x00,0x00,0x60,0x00,0x00,0x00,0x04,0x00,0x00,0x00,0xb2,0xfc,0xff,0xff,0x00,0x00,0x00,0x01,0x14,0x00,0x00,0x00,0x1c,0x00,0x00,0x00,0x1c,0x00,0x00,0x00,0x0a,0x00,0x00,0x00,0x34,0x00,0x00,0x00,0x02,0x00,0x00,0x00,0xff,0xff,0xff,0xff,0x01,0x00,0x00,0x00,0x9c,0xfc,0xff,0xff,0x1b,0x00,0x00,0x00,0x53,0x74,0x61,0x74,0x65,0x66,0x75,0x6c,0x50,0x61,0x72,0x74,0x69,0x74,0x69,0x6f,0x6e,0x65,0x64,0x43,0x61,0x6c,0x6c,0x5f,0x31,0x3a,0x30,0x00,0x02,0x00,0x00,0x00,0x01,0x00,0x00,0x00,0x01,0x00,0x00,0x00,0x0a,0xfd,0xff,0xff,0x00,0x00,0x00,0x01,0x14,0x00,0x00,0x00,0x1c,0x00,0x00,0x00,0x1c,0x00,0x00,0x00,0x09,0x00,0x00,0x00,0x80,0x00,0x00,0x00,0x02,0x00,0x00,0x00,0xff,0xff,0xff,0xff,0x10,0x00,0x00,0x00,0xf4,0xfc,0xff,0xff,0x64,0x00,0x00,0x00,0x73,0x65,0x71,0x75,0x65,0x6e,0x74,0x69,0x61,0x6c,0x5f,0x32,0x38,0x5f,0x31,0x2f,0x64,0x65,0x6e,0x73,0x65,0x5f,0x39,0x36,0x5f,0x31,0x2f,0x4d,0x61,0x74,0x4d,0x75,0x6c,0x3b,0x73,0x65,0x71,0x75,0x65,0x6e,0x74,0x69,0x61,0x6c,0x5f,0x32,0x38,0x5f,0x31,0x2f,0x64,0x65,0x6e,0x73,0x65,0x5f,0x39,0x36,0x5f,0x31,0x2f,0x52,0x65,0x6c,0x75,0x3b,0x73,0x65,0x71,0x75,0x65,0x6e,0x74,0x69,0x61,0x6c,0x5f,0x32,0x38,0x5f,0x31,0x2f,0x64,0x65,0x6e,0x73,0x65,0x5f,0x39,0x36,0x5f,0x31,0x2f,0x42,0x69,0x61,0x73,0x41,0x64,0x64,0x00,0x00,0x00,0x00,0x02,0x00,0x00,0x00,0x01,0x00,0x00,0x00,0x10,0x00,0x00,0x00,0xae,0xfd,0xff,0xff,0x00,0x00,0x00,0x01,0x14,0x00,0x00,0x00,0x1c,0x00,0x00,0x00,0x1c,0x00,0x00,0x00,0x08,0x00,0x00,0x00,0x80,0x00,0x00,0x00,0x02,0x00,0x00,0x00,0xff,0xff,0xff,0xff,0x10,0x00,0x00,0x00,0x98,0xfd,0xff,0xff,0x64,0x00,0x00,0x00,0x73,0x65,0x71,0x75,0x65,0x6e,0x74,0x69,0x61,0x6c,0x5f,0x32,0x38,0x5f,0x31,0x2f,0x64,0x65,0x6e,0x73,0x65,0x5f,0x39,0x35,0x5f,0x31,0x2f,0x4d,0x61,0x74,0x4d,0x75,0x6c,0x3b,0x73,0x65,0x71,0x75,0x65,0x6e,0x74,0x69,0x61,0x6c,0x5f,0x32,0x38,0x5f,0x31,0x2f,0x64,0x65,0x6e,0x73,0x65,0x5f,0x39,0x35,0x5f,0x31,0x2f,0x52,0x65,0x6c,0x75,0x3b,0x73,0x65,0x71,0x75,0x65,0x6e,0x74,0x69,0x61,0x6c,0x5f,0x32,0x38,0x5f,0x31,0x2f,0x64,0x65,0x6e,0x73,0x65,0x5f,0x39,0x35,0x5f,0x31,0x2f,0x42,0x69,0x61,0x73,0x41,0x64,0x64,0x00,0x00,0x00,0x00,0x02,0x00,0x00,0x00,0x01,0x00,0x00,0x00,0x10,0x00,0x00,0x00,0xa6,0xfe,0xff,0xff,0x00,0x00,0x00,0x01,0x10,0x00,0x00,0x00,0x10,0x00,0x00,0x00,0x07,0x00,0x00,0x00,0x30,0x00,0x00,0x00,0x2c,0xfe,0xff,0xff,0x21,0x00,0x00,0x00,0x73,0x65,0x71,0x75,0x65,0x6e,0x74,0x69,0x61,0x6c,0x5f,0x32,0x38,0x5f,0x31,0x2f,0x64,0x65,0x6e,0x73,0x65,0x5f,0x39,0x35,0x5f,0x31,0x2f,0x4d,0x61,0x74,0x4d,0x75,0x6c,0x00,0x00,0x00,0x02,0x00,0x00,0x00,0x10,0x00,0x00,0x00,0x01,0x00,0x00,0x00,0xf6,0xfe,0xff,0xff,0x00,0x00,0x00,0x01,0x10,0x00,0x00,0x00,0x10,0x00,0x00,0x00,0x06,0x00,0x00,0x00,0x40,0x00,0x00,0x00,0x7c,0xfe,0xff,0xff,0x31,0x00,0x00,0x00,0x73,0x65,0x71,0x75,0x65,0x6e,0x74,0x69,0x61,0x6c,0x5f,0x32,0x38,0x5f,0x31,0x2f,0x64,0x65,0x6e,0x73,0x65,0x5f,0x39,0x35,0x5f,0x31,0x2f,0x42,0x69,0x61,0x73,0x41,0x64,0x64,0x2f,0x52,0x65,0x61,0x64,0x56,0x61,0x72,0x69,0x61,0x62,0x6c,0x65,0x4f,0x70,0x00,0x00,0x00,0x01,0x00,0x00,0x00,0x10,0x00,0x00,0x00,0x52,0xff,0xff,0xff,0x00,0x00,0x00,0x01,0x10,0x00,0x00,0x00,0x10,0x00,0x00,0x00,0x05,0x00,0x00,0x00,0x1c,0x00,0x00,0x00,0xd8,0xfe,0xff,0xff,0x0f,0x00,0x00,0x00,0x61,0x72,0x69,0x74,0x68,0x2e,0x63,0x6f,0x6e,0x73,0x74,0x61,0x6e,0x74,0x33,0x00,0x01,0x00,0x00,0x00,0x10,0x00,0x00,0x00,0x8a,0xff,0xff,0xff,0x00,0x00,0x00,0x01,0x10,0x00,0x00,0x00,0x10,0x00,0x00,0x00,0x04,0x00,0x00,0x00,0x1c,0x00,0x00,0x00,0x10,0xff,0xff,0xff,0x0f,0x00,0x00,0x00,0x61,0x72,0x69,0x74,0x68,0x2e,0x63,0x6f,0x6e,0x73,0x74,0x61,0x6e,0x74,0x32,0x00,0x01,0x00,0x00,0x00,0x01,0x00,0x00,0x00,0xc2,0xff,0xff,0xff,0x00,0x00,0x00,0x01,0x10,0x00,0x00,0x00,0x10,0x00,0x00,0x00,0x03,0x00,0x00,0x00,0x1c,0x00,0x00,0x00,0x48,0xff,0xff,0xff,0x0f,0x00,0x00,0x00,0x61,0x72,0x69,0x74,0x68,0x2e,0x63,0x6f,0x6e,0x73,0x74,0x61,0x6e,0x74,0x31,0x00,0x02,0x00,0x00,0x00,0x10,0x00,0x00,0x00,0x10,0x00,0x00,0x00,0x00,0x00,0x16,0x00,0x18,0x00,0x14,0x00,0x00,0x00,0x10,0x00,0x0c,0x00,0x08,0x00,0x00,0x00,0x00,0x00,0x00,0x00,0x07,0x00,0x16,0x00,0x00,0x00,0x00,0x00,0x00,0x01,0x10,0x00,0x00,0x00,0x10,0x00,0x00,0x00,0x02,0x00,0x00,0x00,0x1c,0x00,0x00,0x00,0x9c,0xff,0xff,0xff,0x0e,0x00,0x00,0x00,0x61,0x72,0x69,0x74,0x68,0x2e,0x63,0x6f,0x6e,0x73,0x74,0x61,0x6e,0x74,0x00,0x00,0x02,0x00,0x00,0x00,0x01,0x00,0x00,0x00,0x10,0x00,0x00,0x00,0x00,0x00,0x16,0x00,0x1c,0x00,0x18,0x00,0x00,0x00,0x14,0x00,0x10,0x00,0x0c,0x00,0x00,0x00,0x00,0x00,0x08,0x00,0x07,0x00,0x16,0x00,0x00,0x00,0x00,0x00,0x00,0x01,0x14,0x00,0x00,0x00,0x20,0x00,0x00,0x00,0x20,0x00,0x00,0x00,0x01,0x00,0x00,0x00,0x40,0x00,0x00,0x00,0x02,0x00,0x00,0x00,0xff,0xff,0xff,0xff,0x01,0x00,0x00,0x00,0x04,0x00,0x04,0x00,0x04,0x00,0x00,0x00,0x20,0x00,0x00,0x00,0x73,0x65,0x72,0x76,0x69,0x6e,0x67,0x5f,0x64,0x65,0x66,0x61,0x75,0x6c,0x74,0x5f,0x69,0x6e,0x70,0x75,0x74,0x5f,0x6c,0x61,0x79,0x65,0x72,0x5f,0x32,0x38,0x3a,0x30,0x00,0x00,0x00,0x00,0x02,0x00,0x00,0x00,0x01,0x00,0x00,0x00,0x01,0x00,0x00,0x00,0x01,0x00,0x00,0x00,0x10,0x00,0x00,0x00,0x0c,0x00,0x0c,0x00,0x0b,0x00,0x00,0x00,0x00,0x00,0x04,0x00,0x0c,0x00,0x00,0x00,0x09,0x00,0x00,0x00,0x00,0x00,0x00,0x09};
const unsigned int g_kasus_a_model_2_float_model_data_len = 3188;

#endif // G_KASUS_A_MODEL_2_FLOAT_H
