// File ini dibuat secara otomatis
#ifndef G_KASUS_A_MODEL_3_FLOAT_H
#define G_KASUS_A_MODEL_3_FLOAT_H

// Model: Kasus A Model 3 Float
// 3L, 32N, float32
// Size: 11196 bytes (10.93 KB)
const unsigned char g_kasus_a_model_3_float_model_data[] = {0x1c,0x00,0x00,0x00,0x54,0x46,0x4c,0x33,0x14,0x00,0x20,0x00,0x1c,0x00,0x18,0x00,0x14,0x00,0x10,0x00,0x0c,0x00,0x00,0x00,0x08,0x00,0x04,0x00,0x14,0x00,0x00,0x00,0x1c,0x00,0x00,0x00,0x98,0x00,0x00,0x00,0xf0,0x00,0x00,0x00,0xbc,0x24,0x00,0x00,0xcc,0x24,0x00,0x00,0x68,0x2b,0x00,0x00,0x03,0x00,0x00,0x00,0x01,0x00,0x00,0x00,0x10,0x00,0x00,0x00,0x00,0x00,0x0a,0x00,0x10,0x00,0x0c,0x00,0x08,0x00,0x04,0x00,0x0a,0x00,0x00,0x00,0x0c,0x00,0x00,0x00,0x1c,0x00,0x00,0x00,0x3c,0x00,0x00,0x00,0x0f,0x00,0x00,0x00,0x73,0x65,0x72,0x76,0x69,0x6e,0x67,0x5f,0x64,0x65,0x66,0x61,0x75,0x6c,0x74,0x00,0x01,0x00,0x00,0x00,0x04,0x00,0x00,0x00,0x90,0xff,0xff,0xff,0x0c,0x00,0x00,0x00,0x04,0x00,0x00,0x00,0x08,0x00,0x00,0x00,0x6f,0x75,0x74,0x70,0x75,0x74,0x5f,0x30,0x00,0x00,0x00,0x00,0x01,0x00,0x00,0x00,0x04,0x00,0x00,0x00,0x52,0xdc,0xff,0xff,0x04,0x00,0x00,0x00,0x0e,0x00,0x00,0x00,0x69,0x6e,0x70,0x75,0x74,0x5f,0x6c,0x61,0x79,0x65,0x72,0x5f,0x32,0x39,0x00,0x00,0x02,0x00,0x00,0x00,0x34,0x00,0x00,0x00,0x04,0x00,0x00,0x00,0xdc,0xff,0xff,0xff,0x0f,0x00,0x00,0x00,0x04,0x00,0x00,0x00,0x13,0x00,0x00,0x00,0x43,0x4f,0x4e,0x56,0x45,0x52,0x53,0x49,0x4f,0x4e,0x5f,0x4d,0x45,0x54,0x41,0x44,0x41,0x54,0x41,0x00,0x08,0x00,0x0c,0x00,0x08,0x00,0x04,0x00,0x08,0x00,0x00,0x00,0x0e,0x00,0x00,0x00,0x04,0x00,0x00,0x00,0x13,0x00,0x00,0x00,0x6d,0x69,0x6e,0x5f,0x72,0x75,0x6e,0x74,0x69,0x6d,0x65,0x5f,0x76,0x65,0x72,0x73,0x69,0x6f,0x6e,0x00,0x10,0x00,0x00,0x00,0xc8,0x23,0x00,0x00,0xc0,0x23,0x00,0x00,0x30,0x23,0x00,0x00,0x18,0x13,0x00,0x00,0x08,0x03,0x00,0x00,0x78,0x02,0x00,0x00,0xe8,0x01,0x00,0x00,0xd4,0x01,0x00,0x00,0x44,0x01,0x00,0x00,0xb4,0x00,0x00,0x00,0xac,0x00,0x00,0x00,0xa4,0x00,0x00,0x00,0x9c,0x00,0x00,0x00,0x94,0x00,0x00,0x00,0x74,0x00,0x00,0x00,0x04,0x00,0x00,0x00,0x0e,0xdd,0xff,0xff,0x04,0x00,0x00,0x00,0x60,0x00,0x00,0x00,0x10,0x00,0x00,0x00,0x00,0x00,0x00,0x00,0x08,0x00,0x0e,0x00,0x08,0x00,0x04,0x00,0x08,0x00,0x00,0x00,0x10,0x00,0x00,0x00,0x24,0x00,0x00,0x00,0x00,0x00,0x06,0x00,0x08,0x00,0x04,0x00,0x06,0x00,0x00,0x00,0x04,0x00,0x00,0x00,0x00,0x00,0x00,0x00,0x0c,0x00,0x18,0x00,0x14,0x00,0x10,0x00,0x0c,0x00,0x04,0x00,0x0c,0x00,0x00,0x00,0x38,0xe0,0x61,0x28,0xd7,0xb5,0xcd,0xb3,0x02,0x00,0x00,0x00,0x02,0x00,0x00,0x00,0x04,0x00,0x00,0x00,0x06,0x00,0x00,0x00,0x32,0x2e,0x31,0x38,0x2e,0x30,0x00,0x00,0x7a,0xdd,0xff,0xff,0x04,0x00,0x00,0x00,0x10,0x00,0x00,0x00,0x31,0x2e,0x35,0x2e,0x30,0x00,0x00,0x00,0x00,0x00,0x00,0x00,0x00,0x00,0x00,0x00,0x84,0xd6,0xff,0xff,0x88,0xd6,0xff,0xff,0x8c,0xd6,0xff,0xff,0x90,0xd6,0xff,0xff,0xa6,0xdd,0xff,0xff,0x04,0x00,0x00,0x00,0x80,0x00,0x00,0x00,0x4f,0x53,0x09,0x3e,0x2b,0x54,0xbf,0x3e,0x60,0xee,0xcb,0xbe,0x33,0xe9,0x79,0xbe,0x19,0x43,0x00,0xbe,0xec,0x43,0x11,0xbe,0x8c,0x1a,0x27,0xbe,0x80,0x6f,0xd5,0x3e,0x50,0x7f,0x81,0x3e,0xc0,0x17,0xa2,0xbd,0xa4,0x3e,0x91,0x3e,0x06,0x75,0x62,0xbe,0x97,0x7b,0x29,0xbc,0x7b,0xc7,0x6a,0xbe,0x5f,0xa9,0x38,0xbe,0x17,0x5a,0x06,0xbf,0x33,0x3e,0xac,0xbe,0xaa,0x71,0xa5,0xbc,0x6b,0x59,0xf7,0x3d,0x08,0x95,0x7d,0xbe,0xeb,0xb0,0xe8,0x3e,0xc1,0x30,0x89,0xbe,0x34,0x7e,0x9d,0x3e,0x91,0x69,0x48,0xbe,0x9c,0xa9,0x65,0x3e,0x10,0x10,0x73,0x3e,0x02,0x2c,0xd2,0xbe,0x06,0x88,0x1a,0x3e,0x34,0xd1,0x8f,0x3e,0x5c,0xa5,0xa7,0x3e,0x63,0x6f,0x03,0xbe,0x79,0x44,0x45,0xbe,0x32,0xde,0xff,0xff,0x04,0x00,0x00,0x00,0x80,0x00,0x00,0x00,0xb2,0xb7,0x8a,0x3d,0x57,0xd5,0x90,0x3d,0x93,0x92,0xee,0xbd,0xdf,0xcf,0x2c,0x3d,0x97,0x2b,0x18,0x3d,0x56,0xfe,0x30,0x3d,0x7c,0x63,0x6a,0xb9,0xf0,0xc4,0x95,0x3d,0xdd,0xcf,0x75,0x3d,0xee,0xd6,0xf7,0x3d,0xe7,0xb8,0x3a,0x3d,0x79,0x05,0x3b,0xbe,0x16,0x70,0x80,0xbd,0x3b,0x77,0x14,0x3b,0x3e,0xd7,0xc5,0x3b,0x83,0xca,0x22,0x3d,0x3d,0x40,0xbb,0xbb,0xd1,0xdb,0x2a,0xbe,0xa6,0x95,0x54,0xbd,0xae,0x46,0x13,0x3d,0x70,0x81,0x96,0x3d,0x2f,0x5e,0xa1,0xbd,0x4e,0x9c,0x3d,0x3d,0x4e,0x7f,0x7d,0x3d,0xb6,0x96,0x99,0x3d,0x37,0x73,0x90,0x3d,0x1f,0xdc,0x78,0x3c,0xa4,0x6d,0x8f,0x3d,0xa7,0x44,0x93,0x3d,0xe2,0x83,0x8a,0x3d,0xaa,0x4c,0x1e,0xbd,0x8b,0x20,0x9a,0x3d,0xbe,0xde,0xff,0xff,0x04,0x00,0x00,0x00,0x04,0x00,0x00,0x00,0x1b,0x6e,0xb5,0xbc,0xce,0xde,0xff,0xff,0x04,0x00,0x00,0x00,0x80,0x00,0x00,0x00,0x69,0x82,0x1b,0x3c,0x7b,0xd8,0xf5,0x3c,0x97,0xf3,0xbb,0xbb,0x15,0x9a,0xc8,0x3d,0xce,0x1f,0xab,0x3d,0xc7,0x98,0xb9,0x3c,0x53,0xb4,0x0b,0x3d,0xa6,0xf4,0xae,0x3d,0x0e,0x83,0x83,0xbd,0xf5,0x96,0x52,0x3d,0x5e,0x98,0x50,0x3d,0xde,0xd0,0x8b,0x3c,0x00,0xbd,0x65,0x3d,0x00,0x00,0x00,0x00,0x9b,0x6d,0x88,0xbc,0x11,0xef,0xf2,0xbc,0xd7,0x1e,0x52,0x3d,0xf7,0xdc,0xa1,0x3b,0x00,0x00,0x00,0x00,0xa9,0x1a,0x51,0xbd,0x3d,0x83,0xfa,0xbc,0x87,0xd1,0xa3,0x3d,0xc2,0xb4,0xfa,0xbc,0x86,0x86,0x2c,0x3d,0x97,0x06,0xf0,0xbc,0x6e,0xa1,0x92,0x3d,0xa6,0xf2,0xa7,0x3d,0x83,0xa5,0xb8,0x3d,0x7a,0xf3,0xb6,0x3c,0x92,0x9f,0xbc,0x3c,0x85,0x89,0x70,0x3d,0xde,0x35,0xb0,0x3d,0x5a,0xdf,0xff,0xff,0x04,0x00,0x00,0x00,0x80,0x00,0x00,0x00,0x60,0xe5,0x7e,0x3d,0x9a,0x95,0xe5,0xbc,0xcf,0x8e,0x9b,0x3d,0x30,0xd5,0x16,0x3e,0x12,0x80,0xf4,0xbb,0xf3,0x84,0xec,0x3c,0x20,0x42,0x00,0x3a,0x26,0x0e,0x78,0x3d,0xf4,0xad,0x14,0xb9,0x2d,0xfd,0x9b,0xbb,0xde,0xba,0x24,0x3c,0xc8,0x24,0x18,0xbd,0xd1,0x9c,0x0d,0xbc,0x4e,0x21,0xcc,0x3d,0x4f,0x59,0x11,0x3b,0x00,0x00,0x00,0x00,0x44,0x38,0x6c,0x3d,0x5f,0x82,0x44,0xbd,0x77,0x9f,0x0a,0x3d,0x35,0xb6,0x52,0xbc,0x00,0x00,0x00,0x00,0x3e,0x57,0x37,0x3d,0x91,0x03,0x93,0x3e,0x13,0x6d,0x86,0x3d,0x5b,0x71,0x4a,0xbd,0x89,0x48,0x37,0x3d,0x2e,0xb6,0xe9,0xbc,0x37,0xbb,0xed,0x3d,0xd5,0x59,0x24,0x3d,0x7e,0x4a,0x0b,0xbd,0xfb,0x4d,0x2d,0xbb,0xe3,0x01,0xe1,0x3d,0xe6,0xdf,0xff,0xff,0x04,0x00,0x00,0x00,0x00,0x10,0x00,0x00,0x62,0x06,0x05,0x3e,0x88,0x1d,0x07,0xbe,0x59,0x86,0x59,0x3e,0xe6,0x5d,0xa2,0x3e,0xe5,0xa2,0x50,0x3e,0xce,0x04,0x5f,0x3e,0xc2,0x00,0x56,0xbe,0x51,0x12,0xb7,0xbd,0x81,0x59,0x3b,0x3e,0xa2,0x97,0x8e,0x3e,0xcc,0xb3,0x3b,0xbe,0x73,0x2b,0x11,0xbe,0xd0,0xd9,0x4c,0xbd,0x08,0xb6,0x5d,0x3e,0x6f,0x8f,0x9b,0xbb,0xa0,0x4f,0x4b,0x3e,0x72,0x82,0xa6,0xbd,0x5d,0xd7,0xdb,0x3b,0xd9,0xb6,0xb5,0xbd,0xef,0x30,0x29,0x3d,0x6f,0xaf,0x79,0x3e,0xf9,0x49,0xc1,0xbc,0xda,0x4c,0xee,0xbd,0xd4,0xd8,0x6a,0x3e,0x6a,0xe6,0x85,0x3e,0x58,0x6e,0x5d,0x3e,0x15,0x6f,0xd3,0x3d,0xc6,0xf2,0x7c,0x3e,0x47,0x75,0x0a,0x3e,0x20,0xbe,0x26,0x3e,0x1b,0x9d,0x23,0x3e,0xdc,0x24,0x27,0xbd,0x82,0xe8,0x4e,0x3e,0x6e,0x08,0x94,0xbe,0xe6,0x66,0x19,0xbe,0x8b,0xe8,0x27,0x3c,0xbd,0xa2,0xe3,0xbd,0x98,0xce,0x8e,0xbd,0xaa,0x8e,0x08,0x3e,0xa5,0x14,0x06,0xbe,0x26,0xb9,0x41,0xbe,0xa7,0x9b,0x6d,0x3e,0x98,0x66,0xd5,0x3d,0xf0,0xe2,0xf2,0x3c,0x06,0x8f,0x34,0x3e,0x39,0x89,0xa0,0x3d,0x56,0x98,0x20,0xbe,0x5e,0xb3,0x7b,0x3d,0x05,0xdf,0x43,0x3e,0x84,0xe0,0x0d,0x3e,0xcb,0xdc,0x02,0xbe,0xf0,0x97,0x53,0xbe,0xda,0x95,0x7d,0xbe,0xe9,0x5c,0x1b,0xbc,0x7b,0x00,0x9a,0xbe,0xff,0xca,0x03,0x3e,0x90,0x8a,0x31,0x3e,0xd5,0x93,0x1a,0x3e,0x40,0x18,0x8e,0xbe,0x4f,0xcb,0x80,0x3c,0x00,0x80,0x9f,0xbd,0x9e,0x4c,0x6a,0xbe,0x85,0x7e,0x35,0xbe,0x4e,0xb0,0x53,0xbe,0x0e,0x27,0x16,0xbe,0x56,0xb8,0xa0,0x3e,0x78,0x17,0x33,0xbe,0x97,0x2f,0xa4,0x3e,0x61,0xcf,0x9f,0x3d,0xf1,0x9b,0x59,0x3e,0x2d,0xee,0x23,0x3e,0xa7,0xab,0x5a,0x3e,0x89,0xc9,0x0f,0xbd,0x06,0xfc,0x01,0xbd,0x89,0xb6,0x5d,0x3e,0xa2,0xe7,0xed,0xbd,0x3c,0xad,0x37,0xbe,0x4b,0x1a,0xeb,0x3d,0x53,0xfd,0xf5,0xbc,0x1b,0x8a,0xf0,0xbd,0x4b,0x65,0x80,0xbe,0x3c,0xa7,0xbb,0x3d,0x7c,0xd5,0x79,0xbd,0xe9,0x3a,0x00,0xbe,0x18,0x7b,0x8f,0x3e,0x02,0x02,0x28,0x3e,0x9e,0x35,0x1f,0x3d,0x0f,0xa4,0x9c,0x3e,0x36,0x15,0x5e,0xbe,0x9c,0xae,0xb3,0x3d,0xe4,0x66,0xee,0xbd,0x54,0xb7,0x48,0x3e,0xd1,0x8f,0x66,0x3d,0x24,0x74,0x4b,0x3e,0xb6,0x8b,0x66,0x3e,0x76,0x03,0xa8,0x3e,0x12,0xa2,0x0d,0x3e,0x97,0xde,0xa3,0x3e,0x51,0xeb,0x61,0xbe,0xdc,0x38,0xe4,0xbd,0x76,0x01,0x42,0x3d,0xd7,0xed,0xde,0xbd,0xa1,0x0b,0xcf,0x3d,0x8f,0x05,0xd3,0xbc,0x0d,0xc3,0x95,0x3e,0x5a,0x28,0x78,0x3e,0x82,0x48,0xb1,0x3d,0x72,0x11,0x7c,0xbe,0x57,0x5d,0x5f,0x3e,0xe7,0xec,0xaf,0x3d,0x44,0xa2,0x58,0xbe,0xa8,0x63,0xd7,0x3d,0x03,0xeb,0x17,0x3e,0xc9,0x4d,0x89,0xbe,0x70,0x40,0x00,0xbd,0xd1,0x02,0x81,0x3e,0x07,0xe9,0xc2,0x3e,0xa0,0xa2,0x65,0xbe,0x2d,0xd8,0xd8,0x3d,0xd3,0xcc,0xd5,0x3d,0x54,0x3a,0x9b,0x3e,0x0c,0x6f,0x38,0x3d,0x13,0x49,0x76,0x3c,0x13,0x18,0x6e,0x3c,0xc0,0x2c,0x48,0xbe,0x88,0xf1,0x8a,0x3e,0x37,0xe1,0x35,0xbe,0x72,0x46,0xad,0x3e,0xd2,0xfb,0x7e,0x3e,0xe0,0x10,0x86,0x3d,0x01,0xc4,0xeb,0x3d,0x89,0xed,0xaf,0xbc,0xfb,0x42,0x54,0x3d,0xac,0xd9,0x21,0x3e,0x5c,0x08,0x30,0xbe,0x00,0x8c,0x7f,0x3c,0x58,0x90,0xf0,0xbd,0x26,0xb4,0x90,0x3e,0xa9,0x88,0x84,0xbe,0xd4,0xa4,0xc5,0xbd,0xe8,0x22,0xfe,0xbd,0x68,0xb1,0x95,0xbe,0xe3,0x3f,0x7b,0xbe,0xa8,0x5a,0x4b,0xbe,0x76,0x51,0xd7,0x3c,0x17,0x9e,0xcd,0xbd,0x60,0xb2,0xe7,0xbc,0xcb,0x56,0x6f,0xbe,0x0e,0xff,0x78,0xbe,0xde,0xec,0x4c,0x3e,0x80,0xd3,0x84,0xbe,0xe8,0x2c,0x18,0x3e,0x68,0xe2,0xca,0xbd,0x50,0xc7,0x3b,0xbe,0x92,0xe4,0x5b,0x3e,0x00,0xc8,0xe6,0x3c,0xc3,0xb8,0x8a,0x3e,0xb2,0x11,0x1b,0xbe,0x9a,0x0d,0xb0,0xbd,0xe0,0x4c,0x07,0xbd,0x47,0x08,0x0d,0xbf,0xaf,0x9a,0x63,0xbe,0xc0,0x30,0x9d,0x3e,0xca,0x70,0x5e,0x3e,0x34,0x46,0xdd,0x3c,0x45,0x4a,0xab,0x3e,0xbc,0xa2,0xb8,0x3d,0x96,0x69,0x6e,0x3e,0xd5,0xfa,0x49,0xbf,0x32,0x82,0xb4,0x3d,0x08,0x74,0x56,0xbd,0x9d,0x57,0x57,0xbd,0x74,0x62,0xba,0x3e,0xb2,0x93,0x82,0x3e,0x6c,0x8b,0x54,0xbe,0x4e,0x2f,0x21,0x3e,0x7a,0x26,0x2b,0x3d,0xb4,0x9b,0x55,0x3c,0x18,0x2d,0x27,0x3d,0x89,0x9f,0x8f,0x3d,0x57,0x7b,0x4e,0xbe,0xb3,0x4d,0x9c,0x3e,0x66,0x0b,0x97,0xbe,0x95,0x5e,0x4d,0xbe,0xcd,0xc4,0x1a,0xbf,0x3b,0x62,0x18,0xbe,0xc1,0x1c,0x2a,0x3e,0xeb,0x4b,0x6b,0xbe,0xcf,0x70,0xc8,0xbe,0x30,0xc7,0x0c,0xbd,0xdf,0x00,0x32,0xbe,0x02,0x71,0x67,0x3e,0x65,0x72,0x72,0xbe,0x5e,0xca,0x0c,0x3e,0x9c,0x6b,0xde,0xba,0xa8,0xb0,0xfd,0x3d,0x2d,0x0d,0xaa,0x3c,0x48,0xb2,0x95,0x3e,0x10,0xe4,0xd0,0x3e,0xe2,0x7c,0xb2,0xbb,0x5e,0xdc,0x81,0xbe,0xde,0x11,0xd1,0xbd,0x5c,0xe5,0x81,0x3e,0x1b,0xfa,0x29,0x3e,0xab,0xab,0x95,0x3d,0x5a,0xba,0x6f,0x3e,0x64,0xd7,0xc6,0x3e,0xd5,0xcf,0x11,0x3d,0x6d,0xea,0xb2,0x3e,0xda,0xca,0x60,0xbd,0xb3,0xe0,0x46,0x3e,0x38,0xb0,0x7a,0x3e,0x6f,0xdc,0xf1,0x3a,0x6c,0xd8,0xaa,0xbd,0x42,0xb0,0x2e,0x3e,0xfa,0x0e,0x17,0x3e,0xdf,0xc6,0xac,0x3d,0xc3,0x7d,0x3c,0xbe,0xc7,0x73,0xda,0xbc,0x26,0xfa,0x92,0xbe,0x3a,0x9e,0x88,0xbe,0xaa,0xe7,0xa2,0xbd,0x1b,0x48,0x83,0xbd,0x51,0xf9,0x3c,0xbd,0x1a,0x59,0xeb,0x3d,0xaa,0x91,0xb8,0x3e,0x53,0xa4,0xf7,0xbd,0x21,0xf9,0x81,0x3e,0xf1,0x2f,0x90,0xbe,0xf4,0x71,0x54,0xbe,0x21,0xbf,0x9c,0xbe,0x8e,0x47,0x6b,0x3d,0x0c,0x60,0xbf,0xbc,0x13,0x10,0x8b,0xbe,0x80,0xc6,0x50,0xbd,0xcf,0x0f,0x2a,0xbd,0x6f,0x20,0x17,0xbe,0x06,0x97,0x92,0xbe,0x35,0x87,0x11,0xbe,0xad,0xa1,0x7c,0x3e,0x8f,0x5c,0x0a,0xbb,0x01,0xe0,0x70,0x3d,0xb6,0x57,0xba,0xb9,0x24,0x65,0x88,0x3e,0xd5,0xe0,0x8f,0x3e,0x29,0x48,0xfc,0x3d,0xb9,0xa5,0xd9,0xbd,0x2b,0x9d,0x33,0xbc,0xab,0x40,0x89,0x3e,0x00,0x59,0x61,0x3e,0x51,0x88,0x0d,0xbe,0x75,0x79,0xa1,0x3d,0x54,0xaa,0x9f,0xbd,0xd9,0x8a,0x1d,0x3e,0x0e,0xf9,0x65,0xbe,0x1c,0x39,0xde,0x3c,0x09,0xcc,0xa8,0xbd,0x18,0xd9,0x34,0x3e,0x43,0xda,0xf0,0xbd,0x0c,0xe3,0x23,0x3e,0x66,0x47,0x7f,0xbe,0x62,0xb5,0x67,0xbe,0x0c,0xea,0x9b,0x3e,0x3e,0x29,0xd0,0xbd,0x56,0x70,0xa1,0xbe,0x90,0x31,0x64,0xbe,0x58,0x1d,0x07,0xbd,0x36,0x76,0xbb,0xbc,0x8c,0x71,0x54,0x3e,0x32,0x89,0xd5,0x3d,0x28,0xf4,0x8c,0x3e,0x96,0xe8,0x8a,0x3e,0x7a,0x5b,0xa2,0x3d,0xa2,0x73,0x4c,0xbe,0x0d,0x1c,0x8b,0xbe,0xed,0xbc,0x92,0x3e,0x8e,0x37,0xb3,0x3d,0xb2,0xd2,0x12,0xbd,0xa6,0x35,0xa2,0xbe,0x79,0x9f,0x5b,0xbe,0x9c,0x56,0xc8,0xbc,0xe5,0xe8,0x36,0x3d,0xda,0xd1,0x4e,0xbe,0xc0,0xf5,0x64,0xbd,0x79,0xbf,0xbc,0xbe,0x61,0x55,0x85,0xbe,0x40,0x0b,0x6b,0xbe,0xd7,0x38,0x78,0x3e,0x68,0xea,0x83,0x3e,0xa6,0x79,0xe8,0xbd,0xdb,0x53,0x91,0x3d,0xcc,0x7a,0x52,0x3e,0xe4,0xec,0x6c,0xbe,0x5c,0x08,0x74,0xbe,0xc4,0x4e,0x31,0xbe,0x8d,0x42,0xa3,0xbe,0x0b,0xcd,0x3a,0xbd,0xa9,0x43,0x82,0xbe,0xf0,0xa4,0x64,0xbc,0xe3,0xf3,0x20,0x3e,0xfc,0x8e,0x21,0xbe,0x12,0x38,0x10,0xbc,0xe3,0xab,0x1b,0x3e,0xa3,0x46,0xec,0xbc,0x87,0xd6,0x39,0x3e,0xb2,0x7e,0x92,0x3d,0x69,0x1c,0x59,0xbe,0x8f,0xd2,0x64,0xbe,0xe4,0x42,0x17,0x3e,0xba,0x1c,0x67,0x3e,0x5e,0x3a,0x51,0xba,0x64,0x28,0xb6,0xbc,0x0e,0x6a,0x2b,0xbe,0xbb,0x94,0x26,0xbd,0x93,0xa4,0x83,0x3e,0x8b,0x03,0x8a,0x3e,0xda,0xe3,0x0c,0x3a,0x98,0xb7,0xe1,0x3d,0x1b,0xc7,0x48,0xbd,0x64,0x66,0x25,0x3d,0x52,0xfd,0x62,0xbe,0x8c,0x3d,0x2a,0xbe,0xdd,0xfb,0x16,0x3e,0x37,0x38,0x80,0x3e,0x04,0x39,0x68,0x3e,0x68,0xb3,0x5c,0x3e,0xc8,0xa6,0x00,0xbe,0xf0,0xb8,0x2d,0xbe,0xbf,0x53,0x0a,0xbe,0xc3,0x23,0x24,0xbe,0xa5,0x6a,0x71,0xbe,0x5d,0x8e,0xc2,0x3e,0x41,0xda,0x5b,0xbe,0x46,0xf4,0xb3,0x3e,0x0e,0x43,0x09,0x3e,0x2e,0xbb,0xa8,0x3e,0xbb,0x3e,0xea,0x3d,0x6b,0x3e,0xf3,0xbd,0x54,0x66,0xc3,0x3d,0x71,0xe6,0x83,0x3e,0x61,0xc1,0x36,0x3e,0x9e,0x12,0x7d,0x3d,0x0f,0x44,0xb5,0x3d,0x92,0x39,0xf7,0x3d,0x39,0x30,0x17,0xbf,0x03,0xb3,0xab,0xbe,0x63,0x17,0xb5,0x3e,0x13,0x56,0x06,0xbe,0x46,0xe2,0xd9,0xbe,0x4d,0x94,0x99,0xbe,0xee,0x54,0xf2,0xbd,0xef,0x79,0x67,0x3d,0x0c,0x88,0x67,0xbe,0x66,0x8d,0x8e,0xbe,0x2c,0x1a,0x7a,0x3e,0xf8,0x8a,0xc9,0x3d,0x2f,0x25,0x8b,0xbe,0xa4,0x9a,0x68,0xbd,0x39,0xa2,0x90,0xbb,0x6c,0xe1,0xb8,0xbd,0x91,0x43,0x4f,0xbe,0x10,0x6a,0x45,0x3e,0x18,0xce,0x95,0xbe,0xfb,0xf9,0xe6,0x3d,0x5a,0x5d,0xef,0x3d,0xef,0x3a,0xc7,0x3d,0x9f,0x61,0x42,0xbe,0x07,0x92,0x47,0xbe,0x64,0xd9,0x89,0xbe,0x20,0x9c,0xaf,0xbe,0xa0,0x51,0x4f,0xbd,0xe5,0x42,0x24,0x3c,0x2f,0x84,0x0d,0xbe,0xf3,0x94,0x90,0x3d,0xa8,0x22,0x5c,0x3d,0x0e,0x7e,0x84,0x3e,0x32,0x27,0x6c,0x3e,0x00,0xc1,0x09,0xbe,0x4d,0xd2,0x25,0x3d,0xd5,0xb2,0x8d,0x3e,0x60,0xbf,0x44,0x3c,0x0e,0x5a,0x66,0x3e,0x75,0xc2,0x9f,0xbe,0x94,0x98,0x6d,0x3d,0x70,0x09,0xa0,0xbe,0xd7,0x95,0x06,0xbe,0xa4,0xb8,0x01,0xbd,0xd0,0x4f,0x8c,0x3e,0x06,0xd4,0xe5,0x3d,0xb5,0x06,0x0f,0x3c,0x75,0xf3,0x2c,0xbe,0x0e,0x16,0x98,0xbe,0x85,0x42,0xd1,0x3d,0xa3,0x50,0x3c,0xbd,0x0e,0x4e,0x05,0x3e,0x03,0xa0,0x99,0x3d,0x51,0xf6,0xa6,0x3e,0xaf,0xc7,0x1a,0x3e,0x73,0xd2,0x41,0x3e,0x38,0x0d,0x6d,0x3e,0x87,0xa5,0x4d,0xbe,0x42,0xe7,0x08,0x3e,0x0a,0xe0,0x52,0xbe,0x37,0x9d,0x8c,0x3e,0xa9,0x97,0x83,0xbd,0x40,0xe2,0x03,0xbe,0x13,0xb6,0xaa,0xbe,0xd1,0x1e,0x4c,0xbd,0x97,0xa9,0xe8,0xbd,0x02,0x21,0x3a,0xbe,0xe4,0x5d,0x56,0x3e,0x71,0x33,0x23,0xbf,0x87,0x59,0x9a,0xbe,0xdf,0xe4,0x7c,0x3d,0x52,0xf2,0x36,0x3e,0x5e,0x29,0x9b,0x3e,0xc5,0xe3,0x25,0xbc,0xd8,0x6a,0x86,0x3e,0x32,0x9a,0x81,0xbe,0x02,0x11,0x97,0x3c,0x2f,0xf0,0x84,0xbd,0x98,0x84,0x2b,0x3e,0x6d,0x92,0xe7,0x3c,0xd7,0xb4,0x86,0xbb,0x08,0x6a,0x0d,0x3e,0x0d,0x2e,0x04,0xbe,0x46,0x5c,0x25,0xbe,0xec,0x0b,0x82,0x3e,0x04,0x9b,0x9c,0x3e,0xba,0x8b,0x3e,0x3d,0x7b,0xd6,0x27,0xbe,0x62,0xd7,0xaa,0x3e,0x2f,0xea,0x45,0x3e,0xad,0xc9,0x1e,0xbc,0x8c,0xce,0x6d,0x3e,0x2c,0x92,0xb1,0x3e,0xe6,0xac,0xb9,0x3e,0x58,0xca,0x7e,0xbe,0x90,0x2d,0xb7,0x3e,0xf1,0xf6,0x86,0xbe,0xa0,0x51,0x6d,0x3e,0xdb,0xcc,0xa9,0x3e,0x61,0xf4,0x21,0x3e,0x0c,0xae,0x52,0x3e,0x8f,0xcc,0x7f,0x3e,0x46,0x7c,0x86,0x3e,0x85,0xf9,0x92,0x3e,0x09,0x44,0x9a,0xbd,0x8a,0x42,0xeb,0xbe,0xa1,0xab,0x77,0xbe,0xc4,0x97,0xe7,0x3d,0x16,0x9b,0xaf,0x3e,0x3c,0x10,0x23,0x3e,0x89,0xe4,0x65,0x3e,0xd1,0xf1,0x8a,0x3e,0x78,0xcf,0xe6,0xbd,0xa7,0x60,0xca,0xbd,0x78,0xb6,0x35,0x3c,0xe3,0xe7,0x74,0x3d,0x2a,0xf3,0x01,0xbe,0x69,0x8e,0x80,0x3e,0x8b,0x82,0xbf,0x3e,0xef,0xd2,0xd7,0x3d,0x0d,0xa7,0xa2,0x3e,0x0d,0x7e,0x61,0x3e,0x5b,0x9c,0xca,0x3e,0x90,0x5c,0x8e,0xbe,0x4b,0x53,0x98,0x3d,0x4a,0x52,0x76,0xbe,0x36,0xa3,0x52,0x3e,0x1a,0x2a,0x24,0xbe,0x3b,0xa2,0xc5,0x3d,0x9f,0xb9,0xa0,0xbe,0xc0,0xa1,0xbe,0xbe,0x9f,0xae,0x27,0xbe,0x9b,0x98,0xe4,0xbd,0x38,0x68,0x60,0xbe,0x4d,0xc5,0xc8,0x3d,0x43,0x2a,0x9c,0x3e,0xde,0x47,0x51,0x3d,0xd1,0xd0,0x23,0xbe,0x54,0xec,0x8e,0x3d,0x60,0x22,0x87,0x3d,0x10,0xb2,0x52,0x3d,0x7e,0x1f,0x6f,0x3e,0xd8,0x22,0x1d,0xbe,0xa0,0x4c,0x85,0xbc,0x04,0x14,0xb4,0x3d,0xfe,0xe6,0x1d,0xbe,0xb4,0xda,0x22,0x3e,0x46,0x5d,0x4a,0xbe,0x00,0x90,0x85,0x3d,0xd0,0xc2,0xb0,0x3c,0x58,0x49,0x64,0xbe,0xc2,0xa1,0x56,0x3e,0x0f,0x87,0x82,0xbe,0xc0,0x15,0x57,0x3c,0x46,0xd6,0x5d,0xbe,0x48,0xd7,0xc7,0xbd,0x69,0x18,0x60,0xbe,0xe8,0xcb,0x61,0x3d,0x64,0xf4,0xd9,0x3d,0x42,0x9d,0xda,0xbd,0x8c,0x2a,0xc2,0x3d,0xc1,0xd4,0x49,0xbe,0xfc,0x7c,0x4a,0xbe,0x50,0x97,0xa5,0xbc,0x80,0xa6,0xf7,0xbd,0x20,0x9e,0x0a,0x3e,0x1b,0x57,0x83,0xbe,0x29,0xc1,0x34,0xbe,0x40,0x0f,0xc5,0xbc,0xab,0x07,0x33,0xbd,0x69,0x66,0xa6,0x3e,0xe5,0x81,0x89,0x3e,0xed,0x00,0xd0,0xbd,0xf1,0x1c,0x68,0xbe,0xc6,0xf1,0x0b,0xbe,0x01,0x85,0xb9,0xbd,0x74,0xa7,0x23,0x3d,0xcc,0x94,0x83,0x3e,0x2c,0xae,0x58,0x3d,0x54,0x4c,0x2f,0x3d,0xa8,0xff,0x3c,0x3e,0xed,0x2a,0x17,0x3e,0xc2,0x91,0x6b,0x3e,0xde,0x74,0x5a,0xbd,0xd3,0x6f,0x97,0xbe,0x4f,0xdb,0x3c,0x3e,0xf1,0x40,0x84,0xbe,0xdf,0xe3,0x65,0xbe,0x8a,0x72,0xd8,0xbd,0xf6,0x31,0x97,0x3e,0xdd,0x99,0x87,0xbd,0x05,0x5d,0xc9,0xbc,0x05,0x44,0xbc,0x3d,0xad,0x4f,0x4b,0xbb,0x4b,0xb0,0x18,0x3d,0x73,0x05,0xb8,0xbd,0x86,0xc8,0x3a,0xbe,0x28,0x50,0xb1,0x3e,0xe6,0xa1,0xc7,0xbd,0xe5,0xee,0x86,0xbe,0x90,0xbc,0xf8,0x3d,0x3a,0x62,0xf7,0xbe,0xa6,0x97,0x2c,0x3e,0xac,0x16,0xa0,0x3e,0xc8,0xdd,0x30,0xbe,0xbd,0xf7,0x43,0x3e,0x31,0xa6,0x4d,0xbd,0xb8,0xba,0x0d,0x3e,0xb8,0x6e,0x4f,0xbd,0x0a,0x3f,0xcb,0xbe,0x1f,0x18,0x2b,0x3e,0x48,0xc3,0x40,0xbd,0xa7,0x1d,0xee,0x3d,0x7a,0x00,0x20,0xbe,0x84,0xed,0x85,0x3e,0x7f,0xf6,0x29,0x3c,0x87,0xa6,0xff,0x3b,0x75,0x81,0x80,0x3e,0x25,0xa3,0x61,0xbe,0x2c,0x04,0x44,0xbe,0x9c,0xd8,0xea,0x3d,0x7a,0xdb,0x6a,0xbe,0x7d,0x57,0x41,0xbe,0x7c,0x94,0xc6,0xbd,0xcd,0x79,0xab,0xbd,0xa3,0x25,0x15,0xbf,0xd2,0x8d,0x12,0xbf,0x93,0x71,0xf5,0x3c,0xe9,0xaf,0xa3,0xbe,0x63,0xd5,0x12,0xbe,0x6b,0xcf,0x9a,0x3e,0xe0,0x44,0xfb,0xbd,0x80,0xe0,0x0f,0xbe,0x7b,0x7d,0xe3,0xbc,0x58,0x7d,0x8a,0x39,0xfa,0x66,0x3d,0x3e,0x5e,0x19,0x9e,0x3e,0x82,0xd5,0x3a,0xbd,0x65,0x15,0x5d,0xbd,0x00,0x78,0x90,0xbc,0x35,0x37,0x27,0x3e,0x33,0x30,0x9c,0x3e,0x6b,0x03,0x8d,0x3e,0x41,0xfc,0x3e,0x3d,0x0a,0x6c,0x2d,0x3e,0xa8,0x39,0x11,0xbe,0xba,0x7f,0x28,0xbe,0x83,0x43,0x30,0xbe,0x1d,0xaa,0x78,0x3e,0x71,0x04,0xfc,0xbd,0xac,0x76,0x76,0xbd,0x0a,0xee,0xc4,0xbd,0xa3,0x27,0x7d,0x3d,0x62,0x39,0x5e,0x3d,0x20,0x91,0x38,0xbd,0xcd,0xd7,0x02,0x3e,0x28,0xd1,0x19,0xbe,0x0b,0x51,0xa4,0x3e,0xff,0x62,0x6c,0xbe,0xa8,0xdb,0x90,0x3e,0xc1,0x01,0x29,0x3e,0x37,0x14,0x8b,0x3c,0x39,0xc2,0x0c,0xbd,0x9c,0x88,0x88,0x3e,0xb4,0xc4,0x7a,0x3e,0xf8,0xeb,0x29,0x3d,0xce,0xa7,0x5d,0x3e,0x5c,0x0d,0xaf,0x3d,0x47,0xc8,0x52,0xbe,0x7b,0x75,0x87,0xbe,0xf5,0xba,0x29,0xbe,0xff,0xa0,0x2e,0xbe,0x7c,0xab,0xdd,0xbd,0x7f,0x43,0x97,0xbe,0x93,0xfc,0x5b,0x3e,0x85,0x23,0x03,0xbe,0x73,0x1b,0x96,0xbd,0xaa,0xf9,0x11,0xbe,0x28,0x28,0x82,0xbe,0xe2,0x97,0x44,0xbe,0x11,0x68,0x05,0xbe,0xd5,0xde,0x3a,0x3e,0xb2,0xe9,0x36,0x3e,0x0b,0x76,0x8e,0xbe,0x81,0x8b,0x89,0xbe,0x2a,0x65,0x24,0xbe,0xaa,0x25,0x8c,0x3e,0x92,0x09,0x1c,0xbe,0x89,0xba,0x34,0x3d,0x50,0x13,0x09,0xbd,0x40,0x37,0x16,0x3e,0xfb,0xbb,0x96,0x3d,0xa2,0x49,0x62,0x3e,0x60,0x70,0x04,0x3d,0x20,0x98,0xe1,0x3d,0x2e,0x51,0x75,0x3b,0x57,0x29,0x8d,0x3d,0x48,0x92,0x60,0x3d,0x26,0x73,0x4a,0xbe,0x40,0xe1,0x4c,0xbd,0x66,0xe8,0x96,0xbe,0x32,0xd4,0x76,0x3e,0x82,0x5d,0xb5,0xbd,0x6f,0x74,0x92,0x3e,0x9f,0x14,0x5e,0xbe,0x5b,0x2d,0x80,0x3e,0xf0,0x20,0x7e,0xbe,0x62,0xc8,0x5f,0xbe,0x5c,0x51,0x47,0xbe,0x47,0xbc,0x49,0xbe,0x18,0x80,0x29,0x3d,0xf9,0xbf,0x80,0xbe,0x0c,0x35,0xf6,0xbd,0x1e,0x41,0x97,0xbd,0xa0,0xae,0x94,0xbd,0xdc,0x6c,0xf7,0xbd,0x9a,0xaa,0x2f,0x3e,0x58,0xb0,0x92,0xbe,0xaf,0x98,0x98,0x3e,0x0c,0x6f,0x9c,0x3d,0xa2,0x65,0x61,0x3e,0xde,0x1b,0x76,0x3e,0x66,0xe8,0x99,0xbe,0x3a,0x7a,0x4a,0xbe,0xec,0xfc,0xaa,0xbd,0xf2,0x55,0xab,0xbd,0x16,0xd7,0x77,0x3e,0xe0,0xd6,0x60,0x3d,0x0f,0x98,0x93,0xbe,0x6d,0x00,0xa9,0x3d,0xd3,0x17,0xa1,0x3e,0x7a,0x87,0x10,0xbe,0x30,0xd5,0x85,0xbd,0xbc,0x18,0x65,0xbe,0x6a,0x02,0x54,0xbc,0xee,0xc6,0x08,0xbe,0x94,0xbf,0x1f,0xbe,0xbf,0x03,0xb4,0xbd,0xb8,0x4a,0x86,0x3b,0x6e,0x95,0xa4,0x3e,0xd9,0x6a,0x4d,0x3e,0xe0,0x53,0x8f,0x3e,0x9c,0xaa,0x90,0x3e,0x0a,0xe3,0x88,0x3e,0x69,0xe7,0x2d,0xbe,0xbb,0x9f,0xab,0x3c,0x27,0x46,0x98,0xbe,0x86,0x88,0x7d,0x3d,0x18,0xd0,0x2b,0xbd,0xf9,0x7c,0x13,0xbd,0xc6,0x8c,0x9c,0x3c,0xff,0x30,0x51,0xbe,0x74,0x94,0x5c,0x3d,0x55,0x70,0x38,0x3e,0x38,0x96,0x6c,0x3e,0x30,0x68,0x7b,0xbc,0xb6,0xaa,0x5d,0x3e,0x31,0xba,0x8d,0x3e,0xe0,0x65,0x3c,0x3e,0xcd,0xee,0x51,0xbe,0x10,0xb2,0x76,0x3e,0x91,0x5c,0x64,0xbe,0xe8,0x21,0xff,0x3d,0xa9,0x48,0x1c,0xbe,0xa3,0xb3,0x9f,0x3d,0x7b,0x35,0x13,0x3d,0x09,0xa5,0x94,0x3e,0xd0,0x22,0x7c,0xbe,0xe9,0xf6,0x96,0xbe,0xa3,0x76,0x16,0x3d,0xc1,0x0b,0x36,0x3e,0x08,0x0c,0xe4,0xbd,0xbf,0x79,0xd4,0x3d,0xcf,0xd7,0x9e,0xbe,0x6a,0x8c,0x27,0xbe,0xbb,0xdb,0x01,0x3d,0xd6,0xe8,0x5d,0x3d,0x71,0x98,0x24,0x3e,0x16,0x5d,0x42,0xbe,0xc2,0x9b,0x42,0x3e,0x82,0xd4,0xb5,0x3d,0xa5,0x60,0xa7,0xbe,0x5b,0xfe,0xb8,0xbd,0x05,0xe5,0x77,0xbe,0xc8,0x1c,0x80,0x3e,0x23,0x4b,0x92,0xbe,0x46,0x7a,0xc1,0xbe,0xec,0x57,0x6f,0xbe,0x70,0x8a,0x9d,0xbe,0xbf,0x70,0xa2,0xbe,0x3d,0x2d,0x14,0xbd,0xcd,0x72,0xaa,0x3c,0xa6,0xb2,0x52,0x3d,0x33,0x30,0x85,0x3e,0x19,0xc4,0x27,0x3e,0xe0,0xf5,0x6c,0x3e,0x71,0x0e,0x56,0x3e,0x93,0x8f,0xb7,0xbd,0x48,0x2b,0xb5,0x3e,0x76,0x7b,0x48,0xbe,0x7f,0xf3,0xfa,0xbc,0xf6,0xdc,0x59,0x3e,0x14,0x37,0xa2,0x3d,0x9b,0x26,0x19,0x3e,0xf4,0xa6,0x4f,0xbe,0x3c,0x61,0x67,0xbe,0xf1,0x26,0xdf,0xbb,0x50,0xb5,0x8c,0xbd,0xc6,0x19,0xea,0x3d,0x6c,0xc2,0x4e,0xbb,0xaf,0xb6,0x92,0x3e,0xdd,0x95,0x58,0xbe,0xb3,0xcd,0x58,0x3e,0x6f,0x6a,0x4a,0x3e,0x72,0xba,0x93,0x3e,0xa2,0x97,0xb1,0x3d,0x62,0xcc,0xb7,0x3e,0x4d,0x91,0x0a,0xbe,0x1b,0xda,0x28,0x3e,0x6c,0x28,0x93,0x3e,0x07,0x27,0xaf,0x3e,0xb8,0x58,0xfc,0xbd,0x67,0x2c,0x5b,0x3e,0x86,0x4d,0x82,0x3e,0x48,0x20,0xbe,0x3e,0x7b,0x4c,0x6b,0xbd,0xa7,0xfc,0xa6,0xbe,0xe0,0x31,0xca,0x3d,0xe4,0x47,0x3e,0x3c,0x1d,0x99,0x6d,0xbe,0x7c,0x19,0x8f,0x3c,0x84,0x34,0x8c,0xbe,0x82,0xa9,0x21,0xbd,0xea,0xb2,0x1f,0xbe,0xf4,0x37,0x6b,0xbd,0xe3,0x7b,0x04,0x3e,0x85,0x68,0x73,0x3e,0xfb,0xb7,0x1b,0x3e,0x99,0x0b,0xc7,0x3d,0x61,0xe6,0xb3,0xbe,0x0d,0x6c,0xa3,0xbe,0x8b,0xe2,0xa0,0x3c,0xd0,0x62,0xcc,0xbe,0xce,0x92,0x28,0x3e,0x39,0xdb,0xd9,0xbc,0xa6,0x56,0x87,0x3e,0xff,0x8a,0x7a,0x3e,0xf5,0xd2,0x9c,0xbd,0x7b,0x4a,0x0b,0x3e,0xac,0xce,0xc1,0xbd,0xf4,0xe6,0x88,0x3e,0xfb,0xa3,0x6f,0x3e,0x75,0x7c,0x1d,0x3e,0xed,0x05,0x50,0x3d,0x71,0x6d,0x86,0xbe,0x2e,0x57,0x3e,0x3e,0x0a,0x76,0x51,0xbe,0x0a,0x65,0xc9,0xbe,0x14,0x18,0xbf,0xbb,0x55,0xbc,0x3d,0x3e,0x0e,0x55,0x32,0xbe,0x1a,0x53,0x9c,0xbc,0x5a,0x1f,0x8e,0xbd,0x2d,0x09,0xa6,0x3e,0x44,0x7c,0x68,0x3d,0x3b,0x99,0x91,0xbd,0x5b,0x3c,0xb2,0x3d,0x54,0x5f,0x7d,0x3c,0xec,0xeb,0xa0,0x3e,0x50,0x97,0x19,0xbe,0xdf,0xf8,0x82,0x3e,0x90,0xd7,0xa8,0x3e,0x31,0x6d,0x8f,0xbd,0xba,0xf2,0xd4,0xbd,0x63,0x25,0xb6,0xbd,0x78,0xc2,0x42,0x3e,0x5d,0x07,0x24,0x3d,0x0d,0x1e,0x72,0xbe,0x0f,0x63,0xce,0x3e,0x95,0x98,0x9e,0xbe,0x03,0x82,0x3c,0x3e,0x2d,0x44,0x07,0xbf,0x89,0x7d,0x1d,0xbf,0x82,0x12,0xaf,0x3e,0x10,0x58,0x4c,0xbe,0x88,0x9b,0x7a,0xbe,0xce,0x74,0xdd,0xbd,0x3a,0x32,0x20,0x3e,0x20,0xae,0x99,0x3e,0x9c,0xff,0x68,0x3e,0x88,0xa0,0xe8,0xbd,0x42,0x82,0x13,0xbd,0x57,0x1f,0xa5,0xbd,0xaa,0x04,0x86,0xbe,0xdc,0x8d,0x17,0xba,0x5f,0x9e,0x20,0x3e,0x46,0xf6,0x88,0x3e,0x99,0x93,0x34,0x3e,0xc1,0xf1,0x90,0x3e,0xb7,0xfb,0xea,0xbc,0xe6,0xaf,0x7c,0x3e,0xed,0x32,0x40,0x3e,0xf2,0x21,0x42,0xbe,0x9f,0x83,0x63,0xbd,0xa9,0xf7,0x5d,0xbe,0x4a,0xf2,0x6d,0x3e,0x4c,0x9d,0x64,0x3d,0x77,0x48,0x50,0xbe,0xce,0xdd,0x2c,0xbe,0x54,0x41,0x9a,0x3d,0x1d,0x48,0x9c,0xbc,0xa5,0xab,0x8c,0x3e,0xaa,0x82,0xc6,0x3d,0xd3,0xc5,0x05,0xbe,0x8d,0x43,0x2a,0x3e,0x3b,0xf5,0x08,0x3e,0x4c,0xc1,0x77,0xbe,0x96,0xe0,0x71,0x3e,0x7c,0x31,0x79,0xbe,0xaa,0xd6,0x3d,0x3d,0x82,0xe6,0x0c,0xbd,0x04,0xca,0x27,0xbe,0x33,0x76,0xe8,0x3d,0x0e,0x5a,0x8d,0xbe,0x9e,0xc1,0x10,0x3e,0xa9,0x82,0xa2,0x3e,0x69,0x57,0xa1,0x3e,0x42,0xd1,0x8d,0x3c,0x12,0x39,0x9a,0x3e,0x73,0x94,0xcf,0x3d,0x88,0x1d,0xeb,0x3d,0xc5,0x50,0xa6,0x3e,0xa0,0xbb,0x3e,0xbe,0xad,0x85,0xb2,0x3d,0xe7,0x19,0x7e,0xbe,0x1c,0x86,0xbf,0xbd,0xbf,0x77,0xbb,0xbd,0x5b,0x5d,0x90,0x3e,0x68,0x39,0x97,0xbe,0xda,0xb8,0x14,0xbe,0x50,0x6a,0x00,0x3e,0xa2,0xb6,0x0c,0x3e,0x16,0x1f,0x09,0xbc,0xc3,0xe9,0xca,0xbb,0x10,0x17,0x35,0x3e,0x6f,0x0a,0x60,0xbe,0xf2,0x2b,0x58,0x3e,0xdc,0x6c,0x06,0x3e,0xb1,0x99,0x4a,0x3e,0xb3,0x39,0xd0,0xbd,0xd6,0x82,0x28,0x3e,0xad,0xe9,0x73,0xbe,0xcb,0xec,0x1a,0x3e,0x88,0x52,0x6b,0x3d,0x87,0xb3,0xe4,0x3d,0xc9,0xa1,0x94,0x3d,0x8c,0xbd,0xbe,0x3e,0x2d,0x7f,0xb8,0x3e,0xd2,0x12,0xa7,0xbd,0xe1,0xb3,0xa1,0x3e,0x25,0x61,0x27,0x3e,0x65,0x89,0x14,0xbd,0x85,0x7d,0x56,0x3d,0x8c,0xf4,0x34,0xbd,0x14,0x86,0x05,0x3e,0x9d,0xbf,0xb5,0x3e,0x2f,0x54,0x6b,0x3e,0xb6,0x76,0x5d,0xbd,0xd2,0x93,0x5a,0x3d,0xc4,0x0b,0xb9,0x3e,0xaf,0x9b,0x9a,0xbc,0x11,0xa0,0x00,0xbe,0x12,0x0f,0xde,0xbd,0x90,0xc5,0x54,0xbd,0x67,0x79,0x89,0x3d,0x64,0xe0,0x92,0x3e,0xcd,0x9d,0x1f,0x3e,0x48,0x16,0xb8,0xbd,0x77,0xee,0x84,0xbe,0x88,0x1a,0xab,0x3e,0x24,0x2b,0x97,0x3c,0x89,0x5c,0x59,0xbc,0x40,0x8e,0xbd,0x3d,0x99,0x91,0x0a,0x3e,0x63,0x14,0x07,0xbe,0xe9,0x09,0x51,0x3e,0x82,0x21,0x69,0x3e,0xdb,0x09,0x5f,0xbe,0x0c,0x2f,0xb7,0x3d,0xee,0x70,0x01,0xbe,0x45,0xfa,0x3c,0xbe,0x87,0xd9,0xb5,0xbd,0x4c,0x6c,0x06,0x3e,0x5a,0xb3,0xfc,0x3d,0x2c,0xb2,0xa1,0xbe,0x40,0x77,0x63,0x3d,0xa8,0x97,0xff,0x3d,0x42,0xd3,0xeb,0xbd,0x8a,0xe1,0x0d,0xbe,0x32,0xed,0xc0,0x3d,0x8d,0xd8,0x20,0x3e,0x4d,0x61,0x01,0x3e,0x1f,0x6a,0xad,0xbc,0x68,0x3a,0xa0,0x39,0x37,0xe9,0x97,0x3c,0xb6,0x05,0x74,0x3e,0xea,0xe5,0xd1,0xbd,0xa8,0x44,0x43,0x3d,0xab,0xbb,0xf6,0x3c,0xec,0xfe,0xe3,0xbc,0x8e,0xdc,0x7e,0xbe,0x12,0x55,0x00,0xbe,0xcd,0x16,0x91,0xbd,0xf9,0x2a,0x29,0xbd,0x9a,0x07,0xf5,0x3d,0xaf,0xd2,0x81,0x3e,0x7e,0x27,0xd0,0xbd,0x41,0x44,0x4f,0x3d,0x2d,0xa6,0x80,0xbd,0x88,0xfb,0x17,0x3e,0x1b,0x40,0x39,0xbe,0xac,0x09,0x65,0xbe,0x11,0x64,0x7d,0x3d,0x1d,0x25,0xa3,0x3e,0x1c,0x14,0x48,0xbe,0x24,0x7d,0xa2,0x3e,0x01,0x4c,0x96,0x3e,0x72,0x73,0x80,0xbb,0xae,0x84,0x23,0x3a,0x89,0x50,0xff,0xbd,0x01,0x1a,0xe8,0xbd,0x97,0x58,0x72,0x3e,0x17,0x29,0x57,0xbe,0xdb,0x4c,0x3c,0x3e,0x71,0xf1,0x93,0xbd,0x31,0x86,0x8f,0xbe,0x92,0xe5,0xa3,0x3d,0xc4,0x77,0x1b,0x3e,0xe3,0x84,0x85,0x3e,0x47,0xb1,0x99,0x3e,0x53,0x45,0x54,0x3e,0x01,0xa5,0x01,0x3d,0x9c,0xd1,0x08,0xbe,0xf8,0xfa,0x3b,0x3e,0xfd,0xf6,0x25,0xbd,0x9f,0xf9,0x95,0xbd,0x24,0xd4,0x6b,0xbd,0xdb,0xf5,0x74,0xbd,0xe9,0x70,0x85,0xbe,0x92,0x42,0xbd,0x3e,0x30,0xc9,0xe4,0xbd,0x2f,0xef,0x73,0xbe,0x8e,0xd9,0x3a,0x3e,0x36,0x51,0xcb,0xbb,0xce,0x24,0x20,0xbe,0x1d,0x58,0x4b,0xbe,0xc7,0xb4,0x98,0x3e,0x7e,0x28,0x74,0xbe,0x5d,0x7e,0x42,0x3e,0x3d,0xf5,0xa2,0x3d,0xd4,0x4a,0x44,0xbe,0xfc,0xa9,0x42,0xbe,0x52,0xc6,0xf6,0xbd,0x0c,0x80,0xa8,0x3e,0x8d,0x29,0x46,0x3e,0x23,0xf1,0x22,0xbd,0x84,0xa0,0x51,0xbe,0xee,0x9b,0x63,0xbc,0xb8,0x68,0x35,0x3d,0x7a,0xd8,0xd4,0x3d,0x8e,0x87,0x2a,0xbe,0xfd,0xed,0x99,0x3e,0xde,0xab,0x96,0x3e,0xd8,0x87,0xa4,0x3e,0xd9,0xa5,0xad,0x3e,0x04,0xde,0x32,0x3e,0x5e,0x9c,0x5d,0x3d,0xc3,0xd2,0x8c,0x3e,0x08,0xf0,0x5a,0x3e,0x8c,0x79,0x2d,0x3e,0xc1,0xa6,0x13,0x3e,0xf2,0xef,0xff,0xff,0x04,0x00,0x00,0x00,0x00,0x10,0x00,0x00,0xab,0x79,0x7e,0xbd,0x92,0xf8,0xd5,0x3d,0x70,0xba,0x7b,0x3e,0x8d,0xd3,0x48,0x3e,0x0f,0x6f,0x96,0x3c,0x6e,0x5d,0x35,0x3e,0x7e,0x9c,0xf2,0xbd,0xae,0x10,0x92,0x3d,0x01,0xe9,0x19,0xbe,0x91,0x35,0x02,0xbe,0x7b,0xaa,0x88,0x3e,0xa5,0x48,0x09,0x3e,0x6b,0xad,0xdb,0x3c,0x64,0x28,0x4a,0x3e,0xa5,0x74,0xb2,0x3d,0xa2,0x62,0x7e,0xbe,0x28,0xa0,0x8b,0xbc,0xc2,0xa9,0x07,0xbd,0x81,0x92,0xea,0xbd,0x9b,0x5f,0x8e,0x3c,0x0b,0x82,0x92,0xbe,0x11,0xbb,0xbe,0xbd,0x5a,0xf0,0x24,0x3d,0x9f,0xfd,0x21,0x3e,0xac,0x19,0xc2,0xbd,0x14,0x7b,0x2c,0x3e,0x1b,0x13,0x55,0xbe,0x0e,0x8b,0xa7,0xbe,0xd0,0xca,0x41,0x3e,0x5b,0x33,0x02,0xbe,0x6f,0xb4,0x69,0x3e,0x73,0x47,0x82,0xbe,0x65,0xbe,0xa6,0x3d,0x74,0x0a,0xa3,0xbd,0x23,0xc8,0x3d,0xbd,0xab,0x91,0x7c,0xbc,0x02,0xd0,0x17,0xbd,0x6f,0xbb,0xbc,0xbd,0xb7,0xe6,0x8e,0xbd,0xd2,0x48,0x6f,0xbe,0xbb,0xef,0xe4,0xbd,0x29,0xcb,0x9a,0x3d,0x08,0xd2,0x97,0xbe,0xc9,0xef,0x59,0xbe,0xe4,0x34,0x0a,0xbd,0x2d,0x5d,0x7c,0x3e,0x07,0x60,0x03,0x3e,0xb8,0x64,0xf1,0x3d,0xd2,0x86,0x9e,0x3e,0xb6,0x9f,0x84,0xbe,0xbc,0x9c,0x46,0x3e,0x1a,0x77,0x3f,0x3d,0xd2,0x34,0x7a,0xbe,0xe2,0xe4,0x10,0x3e,0x1c,0xcf,0x89,0xbe,0x12,0xc5,0x6b,0x3e,0x7a,0xb9,0x8b,0x3d,0x2f,0xce,0x7c,0xbe,0xd2,0xf9,0xf3,0x3d,0xda,0x1f,0x23,0x3e,0x9c,0x4b,0x3f,0x3e,0x16,0x92,0xe5,0x3d,0xba,0xdb,0x42,0xbd,0x33,0x24,0x09,0x3c,0x5c,0x53,0xea,0x3d,0x80,0x7a,0x5f,0xbb,0xb8,0xe3,0x93,0xbe,0xdc,0x05,0x46,0xbe,0x6f,0x4c,0x96,0xbe,0xe3,0x1f,0x5a,0xbe,0x0f,0xb1,0x99,0xbe,0x4d,0x65,0x51,0xbd,0x73,0xd2,0x8d,0x3e,0x8a,0xc7,0xeb,0x3d,0x8c,0x23,0x4e,0x3d,0x31,0xfa,0x00,0x3d,0x0d,0x87,0x87,0xbc,0x56,0xcb,0x96,0xbd,0xab,0x87,0x3e,0x3e,0x70,0xe1,0x54,0xbe,0x18,0x39,0x64,0x3d,0x87,0xe9,0x9c,0x3d,0x41,0x85,0x95,0xbd,0x81,0xdd,0x8f,0x3e,0x50,0xfe,0x01,0xbd,0x70,0x69,0xbf,0x3d,0xed,0x9a,0x89,0x3e,0x77,0x96,0xa9,0xbd,0x4f,0x25,0x25,0xbe,0x32,0xcc,0x54,0xbb,0xe8,0x12,0xe2,0x3d,0x5f,0x0b,0x81,0xbd,0x3a,0xfa,0x64,0x3d,0x5d,0x89,0x76,0xbe,0x9b,0x8d,0x10,0xbe,0x8a,0xb7,0xec,0xbd,0xf9,0x74,0x08,0x3e,0x7b,0x13,0x87,0x3e,0x78,0xbb,0x86,0x3e,0x25,0xd9,0x0d,0xbe,0xc5,0xd2,0x51,0x3e,0x4b,0x05,0x0a,0xbe,0x7e,0xdc,0x8d,0x3e,0x9e,0xd4,0xb9,0x3e,0x56,0xe5,0x91,0xbc,0xa7,0x4e,0x21,0x3e,0xd1,0x5e,0xdb,0xbc,0x72,0x74,0x1c,0xbe,0xa4,0x70,0x5f,0xbd,0xcb,0xe7,0x9d,0x3e,0x9f,0x9f,0x6c,0x3c,0xb0,0x9e,0xaf,0x3c,0x09,0x5d,0x2d,0xbe,0x1a,0x48,0x07,0x3e,0x06,0xac,0x6c,0xbe,0x14,0xb2,0x2c,0xbe,0x80,0x48,0x90,0xbe,0xa2,0x08,0x60,0x3e,0xeb,0x98,0x5f,0xbe,0x26,0x6e,0x46,0xbe,0x37,0x16,0x20,0xbc,0x44,0x98,0xe4,0xbd,0xd6,0x16,0x2c,0xbe,0xd5,0x30,0x57,0x3e,0xc3,0xfc,0x6c,0x3d,0xe8,0xaa,0x14,0x3b,0xd3,0x48,0x16,0x3d,0x52,0xe2,0x47,0xbd,0x2f,0xde,0x5d,0x3e,0xb9,0x06,0x3d,0xbe,0x72,0x8e,0x6c,0x3e,0x60,0x12,0x85,0x3e,0xe6,0x13,0x62,0x3e,0x61,0x01,0xc5,0x3d,0xee,0x9c,0x3d,0xbe,0x50,0x0b,0x20,0xbe,0x1a,0x31,0x74,0xbe,0x13,0x51,0xa3,0xbe,0x9b,0xb9,0xcb,0xbd,0xcd,0x9c,0x21,0xbe,0x2f,0x3a,0x2b,0x3e,0x33,0x92,0x60,0x3c,0x46,0xf2,0x7e,0x3d,0xc0,0xc1,0xf0,0xbc,0x90,0x1a,0xda,0x3d,0x8f,0x0e,0x8f,0xbd,0xad,0xc5,0x55,0xbe,0xca,0x4c,0x5c,0x3e,0x10,0xf8,0xab,0x3c,0x85,0xfc,0x4b,0x3c,0x6e,0x18,0x91,0xbe,0x81,0x29,0x20,0x3e,0x65,0x93,0x94,0xbe,0x21,0x40,0xa8,0xbe,0xea,0x05,0x5b,0x3e,0xe4,0xf6,0x51,0xbe,0x11,0xb2,0xa8,0x3e,0x2c,0xc4,0xdc,0x3d,0x0b,0x04,0xff,0x3d,0x51,0x2d,0x53,0x3e,0xbe,0x35,0x97,0xbe,0xca,0x74,0xb6,0xbd,0x3c,0xea,0x28,0xbe,0xb4,0xd1,0x40,0x3e,0x56,0x5c,0x1d,0x3e,0xce,0xb4,0xdb,0xbd,0xc1,0xac,0x97,0xbe,0x0d,0x49,0x50,0x3e,0xe5,0x86,0x19,0x3e,0x2d,0xe9,0xe2,0x3d,0x3a,0x94,0x4a,0x3e,0xa5,0xb5,0x81,0x3e,0x71,0x81,0xb1,0xbe,0xef,0xa7,0xa7,0x3e,0xcb,0x76,0x82,0xbe,0x3c,0xe9,0xf5,0x3d,0x70,0x87,0x25,0xbe,0x40,0xa9,0x32,0x3d,0xda,0xaf,0xc9,0x3c,0x03,0xa4,0x80,0x3e,0x80,0xd3,0xd2,0x3b,0x43,0xad,0x9b,0x3e,0x36,0x87,0x11,0x3e,0x11,0x38,0x1b,0x3e,0x3d,0x40,0xa7,0xbe,0x5b,0xbb,0xd4,0x3d,0x7b,0x0b,0xab,0x3e,0xeb,0xcc,0x7a,0x3e,0xa3,0x4b,0x62,0x3e,0x37,0x81,0x6a,0x39,0x1a,0xb7,0x1b,0x3e,0x5a,0xf0,0xba,0x3e,0x05,0x6f,0xb0,0xbd,0x42,0xab,0xb0,0xbd,0x0b,0xea,0x8a,0xbe,0x5e,0xaa,0x7a,0x3e,0x04,0xe5,0xe9,0xbd,0x7a,0x3b,0x09,0x3e,0xa4,0xf2,0x33,0xbe,0xcf,0x67,0xbe,0xbd,0xe2,0x80,0xaf,0x3d,0xc1,0xd6,0x8a,0x3e,0xa6,0xde,0x98,0x3e,0xd4,0xa6,0x34,0x3d,0xbf,0xb6,0x8f,0x3e,0x14,0x6b,0x7f,0xbe,0x2a,0x78,0x01,0x3e,0x5e,0x77,0x5a,0x3e,0x7d,0x90,0x28,0x3c,0x00,0xa9,0x79,0x3b,0xfe,0x59,0x13,0xbd,0x15,0xf4,0x80,0x3e,0x00,0x82,0x51,0xba,0xd3,0x48,0x6c,0x3e,0x59,0x00,0x72,0x3d,0x6a,0x28,0xaa,0x3e,0x0c,0x9d,0x80,0xbd,0x92,0x37,0xd4,0x3e,0x15,0x42,0xa2,0xbb,0xea,0x2c,0x24,0x3c,0xdb,0x2f,0xba,0xbd,0x17,0x91,0xc7,0xbd,0x8b,0x8d,0xac,0x3d,0xf7,0x83,0x53,0x3e,0x3f,0x44,0x57,0x3e,0x72,0xe9,0xd6,0xbd,0xad,0x23,0x98,0x3e,0xb4,0x4b,0xa9,0x3e,0x91,0xf6,0x8d,0x3e,0x4d,0x3d,0x2f,0x3e,0xa6,0xc7,0x1e,0x3e,0xf3,0x52,0x9c,0x3e,0xd0,0xc2,0xdc,0x3b,0xd3,0x42,0x0a,0x3e,0xd1,0x5a,0x2c,0xbe,0x74,0x51,0x6a,0x3d,0x16,0xeb,0x8e,0xbe,0x41,0x21,0xa3,0x3e,0x93,0x52,0x21,0x3d,0xb2,0x82,0x5b,0x3e,0xac,0x3e,0xd7,0xbd,0x43,0x2a,0xdf,0x3d,0x43,0xed,0x6f,0xbe,0x5d,0xea,0x83,0x3e,0xf8,0x8b,0x50,0xbe,0x66,0x81,0x0c,0x3e,0x64,0x00,0xa8,0x3d,0xdd,0x50,0xde,0xbd,0xe3,0x8a,0x55,0xbe,0xde,0xcd,0x6c,0x3e,0x31,0x4e,0x93,0x3d,0x5f,0xc1,0x2e,0xbe,0x1a,0xfe,0x80,0xbe,0x2b,0x0f,0x49,0x3d,0x6d,0x24,0x5a,0xbd,0x16,0x0c,0x05,0x3e,0xe3,0x2a,0xf5,0xbd,0xde,0x35,0x3c,0xbe,0x70,0xd6,0x89,0xbc,0x6a,0xf4,0x58,0x3e,0x0a,0x33,0x9e,0xbe,0x2d,0xea,0xf6,0xb9,0x31,0x1c,0xb6,0xbc,0xbc,0x4a,0xec,0xbc,0xb7,0xba,0xdd,0xbd,0x33,0x15,0x5d,0xbe,0x4c,0xeb,0x68,0x3e,0x2a,0x23,0x5a,0xbc,0xdc,0xeb,0xec,0x3d,0x5e,0x48,0x2f,0xbe,0x4d,0x9e,0x8c,0x3d,0x18,0x1f,0x8c,0x3d,0x99,0xfc,0x84,0x3e,0x95,0x0a,0x0d,0x3e,0x4e,0x64,0x50,0x3d,0xf5,0x40,0x97,0xbe,0x00,0xe6,0xdb,0x3a,0x56,0xdf,0x47,0x3e,0x1e,0xb1,0x91,0xbd,0x38,0xe0,0xa2,0x3d,0x76,0xc5,0xbd,0x3d,0x40,0xf1,0xaa,0xbe,0xbe,0xb0,0x5e,0xbe,0x7d,0x45,0x92,0xbd,0x5f,0x96,0x01,0xbe,0x12,0xee,0xa0,0xbd,0x51,0x35,0xe0,0xbd,0x84,0xac,0x51,0xbe,0x5d,0xb6,0x70,0x3e,0xdd,0xa1,0x5b,0x3e,0x95,0x50,0x8d,0x3c,0x20,0x0b,0x97,0x3c,0x56,0x2c,0x2a,0x3e,0xe1,0x3a,0x54,0x3e,0xcc,0xa0,0xb2,0x3e,0x6d,0x5f,0x86,0x3e,0x33,0x85,0x24,0x3d,0xa1,0xcc,0x37,0xbe,0x47,0x08,0xf0,0x3d,0x3e,0xa5,0xc8,0xbd,0xc3,0x52,0xee,0xbc,0x40,0xcf,0xd2,0x3d,0x76,0x57,0x88,0x3e,0xc2,0xd3,0x19,0x3e,0xf1,0x90,0xef,0xbc,0x9c,0x51,0xaa,0x3e,0x3c,0x42,0x8e,0x3e,0x40,0xb5,0x9b,0xbb,0x70,0x02,0x13,0x3e,0xb3,0xc3,0x8e,0x3d,0xeb,0xaa,0x26,0xbe,0x58,0x9a,0x1e,0xbe,0x01,0x0c,0x6b,0xbd,0x10,0x09,0x34,0x3e,0xea,0x0f,0x0e,0xbe,0xda,0x29,0xdb,0xbd,0x5a,0x4d,0xac,0x3e,0xf7,0x76,0x8c,0xb9,0x4b,0xb7,0xac,0xbd,0xb0,0x98,0x3e,0xbe,0x09,0x0c,0xcd,0x3d,0xb5,0xa3,0x1b,0x3e,0x92,0x12,0x71,0x3e,0x88,0xcd,0x45,0x3e,0xfa,0x04,0x2f,0x3e,0x6d,0x08,0x96,0xbd,0xcf,0xe8,0x91,0x3e,0xd6,0x20,0x79,0xbe,0x11,0x69,0x08,0x3e,0x6f,0xf0,0x96,0x3e,0x28,0xa9,0x9c,0x3d,0xb2,0x20,0x8e,0x3e,0xf8,0xdc,0xd0,0x3e,0x60,0xa7,0x1a,0xbe,0x35,0x51,0xd9,0xbc,0x28,0xb2,0x86,0xbd,0xff,0x94,0x86,0xbe,0x12,0xb0,0x1f,0x3e,0x8f,0x21,0xc1,0x3e,0xb1,0x20,0x1d,0xbe,0x1e,0xe9,0x60,0x3e,0x04,0x17,0x7f,0xbd,0xc7,0xaf,0x91,0xbe,0x8d,0x7f,0x83,0x3e,0xc2,0x73,0x34,0xbd,0xa7,0x6f,0x8d,0x3e,0xf8,0x7d,0x72,0x3e,0xa5,0xd5,0x55,0xbe,0x32,0x89,0xb8,0x3e,0xb0,0x4a,0x6a,0xbd,0x0c,0x97,0x26,0xbe,0x2b,0x7c,0x14,0x3c,0x17,0x37,0x1f,0x3d,0x04,0xe7,0x89,0xbe,0xcf,0x6e,0xc1,0xbd,0x82,0x18,0x65,0xbd,0x47,0x45,0x86,0x3e,0x46,0x8a,0xf5,0x3d,0xff,0x3d,0xb4,0x3e,0xa6,0x34,0x4e,0x3e,0xb7,0xf1,0x8e,0x3e,0xfb,0x64,0x41,0xbe,0x85,0x92,0x80,0x3e,0x41,0xaf,0x21,0x3c,0x1f,0xba,0x38,0xbd,0x88,0xa3,0x4d,0x3e,0x1a,0x37,0xb4,0x3e,0xe4,0x02,0x91,0xbe,0xe6,0xa9,0x87,0xbe,0xf5,0x00,0x8a,0x3e,0xaa,0x33,0xd6,0x3c,0xf2,0xc6,0x81,0xbe,0x00,0xc6,0x32,0x3a,0x89,0x34,0x4a,0x3e,0x24,0xb8,0x9d,0x3e,0x02,0x71,0xa1,0x3e,0x9a,0x51,0x05,0xbe,0x9d,0x09,0xbb,0x3e,0x95,0xc2,0x3e,0xbe,0xf9,0x4f,0xa3,0xbd,0xeb,0x7a,0xbc,0x3e,0x0a,0x38,0xa0,0xbd,0xb1,0x49,0xfd,0x3d,0x8e,0xa4,0x3b,0x3e,0x9c,0x25,0x3c,0x3d,0xf3,0x34,0x3e,0x3e,0x06,0x79,0xa6,0x3c,0x99,0x62,0xb0,0xbe,0x58,0x97,0x00,0xbe,0x23,0x02,0x70,0xbd,0x5e,0xbe,0xc6,0x3e,0x3b,0xa9,0x97,0xbd,0x1e,0xcc,0xbd,0x3e,0xda,0x46,0x72,0x3e,0x44,0x88,0xc2,0x3e,0x98,0xf4,0x00,0xbd,0x87,0x96,0xd3,0x3e,0x7a,0xd4,0xb7,0x3e,0x72,0xa4,0x06,0xbe,0x50,0x15,0xc7,0xbc,0x96,0xcf,0x94,0xbd,0x6c,0x08,0x75,0x3e,0xc0,0x67,0x82,0x3d,0xea,0x9f,0x91,0xbe,0xe8,0x49,0xc4,0x3d,0x8a,0xd0,0x87,0xbe,0x8b,0x1b,0x48,0xbe,0x1e,0x28,0x90,0x3e,0xc0,0x02,0x21,0xbd,0x94,0xbd,0xdf,0xbd,0xb0,0x06,0xa2,0xbd,0xb2,0xa4,0x1f,0xbe,0x78,0x96,0x56,0xbd,0x7a,0x85,0x7a,0xbe,0xaa,0x0d,0xaf,0x3e,0xfc,0xce,0x8c,0xbe,0xde,0xed,0x8c,0xbe,0x30,0xa6,0x84,0xbc,0x32,0x7b,0x5f,0x3e,0xe7,0x97,0x9b,0x3e,0xdb,0xed,0x6d,0xbe,0x9d,0x66,0x83,0x3e,0xf4,0x67,0x22,0x3e,0x0c,0x0b,0x22,0x3e,0xfa,0xa1,0x37,0x3e,0x60,0x1a,0x26,0x3d,0x64,0x00,0xa2,0xbd,0x1b,0x65,0x86,0x3e,0x72,0x0f,0x72,0xbe,0x0e,0x83,0xb5,0xbd,0xa0,0x5b,0x8f,0xbe,0xe2,0x82,0x8c,0xbe,0x18,0x42,0x10,0x3e,0x78,0x3d,0x56,0xbd,0xd8,0x31,0x0f,0x3d,0x02,0x6b,0x27,0x3e,0x80,0x9a,0x62,0xbe,0x2e,0x8c,0x85,0xbd,0x08,0xa6,0xb1,0x3d,0x25,0x93,0x16,0xbe,0xd0,0x94,0xc3,0xbc,0x61,0xd6,0x90,0x3e,0x78,0x19,0xe5,0x3d,0x8e,0x42,0x90,0xbe,0x90,0xf5,0x8c,0xbc,0x44,0x76,0x96,0xbe,0x48,0x81,0x3b,0x3d,0x66,0x05,0x94,0xbe,0x80,0xb6,0x5a,0xbe,0x38,0x8b,0x36,0xbd,0xd0,0xc8,0xcb,0x3d,0xa6,0xef,0x8e,0xbe,0x51,0x97,0x0c,0xbe,0x0d,0x26,0x8c,0x3e,0x18,0x8d,0x68,0xbe,0x16,0x93,0x03,0xbb,0x9d,0x70,0x01,0x3e,0xf6,0xed,0x21,0x3e,0x66,0x91,0x75,0xbe,0xd0,0x10,0x95,0xbe,0x90,0x3c,0x54,0xbe,0xcb,0x1e,0x70,0xbe,0x4f,0x78,0x90,0x3e,0xa4,0x16,0x7c,0xbe,0xc0,0x83,0x08,0xbc,0x8d,0x83,0x54,0xbe,0xda,0x53,0x16,0xbe,0x7f,0xf5,0x5e,0xbe,0x14,0x81,0x95,0xbe,0xbe,0xea,0xb7,0x3c,0x80,0xff,0x8f,0x3b,0x47,0x35,0x7f,0x3e,0xd5,0x57,0x8e,0x3e,0xa3,0x68,0x52,0xbe,0xfe,0x84,0x06,0xbc,0xfc,0xa1,0xf0,0x3d,0xcf,0x60,0x82,0xbd,0x66,0x54,0xcd,0xbd,0x20,0xb9,0xaf,0xbb,0x00,0x14,0xca,0xbb,0x5d,0x5b,0x8c,0x3e,0x70,0x91,0x8d,0xbc,0x82,0x37,0x5d,0xbd,0x36,0xfe,0x49,0xbe,0x20,0x7d,0x8c,0x3d,0x86,0x9a,0x04,0x3e,0x89,0xf2,0x41,0xbd,0xe1,0xf5,0xd8,0x3d,0x18,0x28,0x4a,0xbe,0x62,0xee,0x4e,0x3e,0x72,0x03,0x91,0xbe,0xe0,0xf9,0x7d,0x3d,0x04,0xb4,0x51,0xbe,0x40,0xbc,0x3c,0x3d,0xa8,0x67,0x22,0xbd,0x5c,0xbb,0x2e,0x3e,0x83,0x13,0xa8,0xbe,0xaa,0x43,0x0e,0xbe,0xe8,0xfa,0x30,0xbe,0x80,0xd5,0xab,0xbc,0x78,0x43,0x16,0xbd,0x60,0x03,0x36,0x3e,0xa0,0x63,0x3f,0xbc,0xb6,0x73,0xab,0xbe,0xbf,0x77,0x28,0xbe,0xfe,0x84,0x34,0xbe,0x01,0xf1,0x31,0x3e,0x62,0x18,0x04,0x3e,0xce,0x57,0x54,0x3e,0xe7,0xed,0x3e,0x3d,0x36,0x8d,0x31,0xbe,0xbb,0xee,0xf1,0x3d,0x01,0x3d,0x8b,0x3e,0xf5,0xce,0x00,0x3e,0xf9,0x88,0xb1,0x3e,0x62,0x6b,0x0d,0x3d,0x66,0xe0,0xfa,0xbd,0xaa,0x74,0xaa,0xbd,0x9f,0x46,0x13,0xbe,0x13,0xe7,0x3a,0x3e,0x17,0x50,0xa1,0x3d,0x5c,0x93,0x9f,0x3c,0xb7,0x6e,0x04,0xbe,0x2b,0xd1,0x82,0xbe,0x58,0x6e,0xe0,0xbc,0xfe,0x05,0xe1,0x3c,0xdb,0x12,0xf4,0x3d,0x78,0x40,0x94,0xbd,0x5f,0x5c,0x47,0x3e,0xa0,0x64,0x6e,0xbd,0x2e,0xa7,0xd5,0x3d,0xfc,0xae,0x76,0xbe,0x5e,0xa0,0x73,0x3e,0xe6,0xe7,0x0f,0x3e,0x3e,0x04,0x95,0xbd,0x7c,0xa9,0x09,0x3e,0xa8,0xe2,0x93,0xbe,0xb8,0xc0,0x69,0xbd,0x19,0x0b,0x7c,0xbe,0x48,0x22,0x1e,0xbd,0xcb,0x14,0x7c,0xbe,0xc0,0x58,0x39,0xbd,0x65,0xa1,0x08,0x3e,0xd8,0x37,0x9d,0x3d,0x68,0x45,0x5b,0x3e,0x21,0xc6,0x04,0x3e,0xd1,0x98,0xfc,0x3d,0x3b,0x51,0x15,0x3e,0x42,0xe1,0x9e,0x3e,0xbb,0xf4,0x16,0xbd,0x80,0x30,0x97,0xbd,0x10,0xe9,0x9d,0x3c,0x55,0xa4,0x36,0xbe,0x39,0x36,0x07,0xbe,0xed,0x0d,0x58,0x3e,0xff,0xfb,0xf6,0xbd,0x60,0x95,0x41,0x3e,0xc3,0x0e,0x09,0x3e,0x82,0x11,0xad,0x3e,0xe8,0xd8,0x30,0x3e,0xc3,0x64,0x7f,0xbe,0x3d,0xec,0x75,0x3d,0x68,0x6b,0xbe,0xbd,0x55,0x36,0xb0,0x3d,0x00,0xaa,0x28,0xbe,0x37,0xcc,0x96,0x3d,0x89,0xeb,0xaf,0x3c,0x41,0x56,0x2d,0x3e,0x06,0x0a,0x53,0xbe,0x33,0x21,0x95,0x3e,0xe2,0x2c,0x46,0x3e,0xca,0xdd,0xda,0xbd,0x33,0x8d,0x80,0x3e,0x9d,0xdc,0x70,0x3e,0x07,0x5a,0x8e,0x3d,0x29,0xf4,0x83,0xbe,0x42,0xe0,0x34,0x3e,0x48,0x04,0x04,0x3e,0x4b,0x17,0x63,0xbe,0x35,0x3b,0x12,0xbe,0xa2,0x93,0x4d,0x3e,0x36,0xdf,0x40,0x3e,0xcc,0x0b,0x91,0xbe,0x1a,0xe6,0x22,0x3e,0x42,0xa0,0x41,0x3e,0xc0,0x3b,0xa1,0x3c,0xf4,0x1d,0x8c,0x3d,0x34,0x4a,0xc3,0x3d,0x7d,0x5a,0x8f,0x3e,0xc0,0x1b,0x3c,0xbc,0x5a,0x69,0x85,0xbe,0x02,0xb3,0x39,0xbe,0xe7,0x00,0x85,0xbe,0x34,0xd0,0xb0,0x3d,0x3b,0xce,0x34,0xbe,0x4c,0x8d,0x1d,0x3e,0xc8,0x23,0x85,0xbe,0x02,0x89,0x45,0x3e,0x50,0x4f,0xb3,0x3c,0x00,0xa5,0x7c,0xbe,0xf0,0xda,0xec,0xbd,0x5a,0x83,0xa5,0xbd,0x96,0x3b,0x0a,0x3e,0x1e,0x0f,0x57,0x3e,0xb2,0x0d,0x80,0xbe,0xf0,0x0f,0x58,0xbd,0x42,0x20,0x04,0xbe,0x12,0xb9,0x64,0x3e,0xc5,0x2d,0xad,0xbd,0x28,0x60,0x01,0x3d,0xeb,0x75,0x38,0x3e,0xf1,0x4e,0x34,0x3e,0x31,0x4c,0x11,0xbe,0x2f,0x2a,0x9b,0x3e,0x8a,0x16,0xa4,0xbd,0x6b,0xa4,0x5f,0x3e,0x64,0xe0,0x9d,0x3d,0x04,0x55,0x30,0x3e,0xf0,0xa4,0xc5,0x3d,0xb8,0x3c,0x19,0x3d,0x00,0x8a,0x7c,0xbd,0xfc,0xef,0x1c,0x3e,0x31,0xec,0x6b,0xbe,0xea,0xcd,0x46,0x3e,0x58,0xc7,0x9a,0xbe,0x44,0x9d,0xa5,0xbd,0xa6,0x38,0xa3,0xbe,0x78,0xa1,0x49,0xbe,0x66,0xf5,0x71,0x3e,0xc4,0xea,0xa6,0xbe,0xb8,0x4d,0xd2,0xbd,0x6c,0x05,0xb7,0xbe,0xca,0xfb,0x63,0x3c,0x19,0x81,0x2b,0xbe,0xff,0xf8,0x84,0xbd,0xee,0xfd,0xfa,0xbd,0xd1,0x68,0x05,0xbe,0x76,0xc9,0xed,0x3d,0x8e,0x15,0xb9,0xbd,0xde,0xf2,0x88,0x3d,0x00,0x74,0x20,0xbe,0x86,0x95,0x79,0x3e,0xb5,0x7e,0x65,0xbe,0x80,0x2a,0xd5,0xbc,0x77,0x9c,0x04,0xbe,0x17,0xea,0x8d,0xbe,0x8a,0xb1,0x01,0x3d,0x77,0x35,0x3e,0xbd,0x07,0x1e,0x8f,0xbc,0xbb,0xdd,0xcf,0xbd,0xf7,0x71,0x7e,0x3d,0xeb,0xef,0x61,0xbe,0xd6,0x61,0xaa,0xbd,0xef,0x9e,0x15,0x3e,0x26,0x25,0xd0,0x3d,0x10,0xea,0x98,0x3d,0xb8,0x71,0x59,0xbd,0x6b,0x17,0x59,0x3e,0x3b,0xf0,0x99,0xbe,0x08,0x85,0x83,0xbe,0xc4,0x2a,0x66,0xbe,0x3e,0x79,0xa1,0xbe,0xe0,0x8e,0x1a,0x3e,0x66,0xe0,0x72,0xbb,0x19,0xd6,0x1e,0xbe,0x8a,0x32,0x85,0x3e,0x16,0xe0,0x92,0xbe,0xaa,0xd1,0x44,0xbe,0x98,0xf6,0xa7,0xbd,0x7f,0x8a,0x1f,0x3e,0x0b,0x7d,0x7f,0x3e,0x06,0x45,0x27,0x3e,0x26,0xce,0x2a,0xbe,0xdc,0xd1,0x71,0xbe,0x1e,0x5e,0xeb,0xbb,0x6b,0x2e,0x8d,0x3e,0x2e,0x85,0x0d,0x3e,0xce,0x34,0x33,0xbe,0x20,0xa5,0xe2,0xbd,0x52,0x99,0x47,0x3e,0x0b,0xc5,0xeb,0x3d,0x02,0x76,0x9e,0x3e,0x17,0x76,0x7f,0xbe,0xdb,0x66,0x1f,0xbe,0x29,0xc0,0xc3,0xbd,0x88,0x2b,0xdb,0x3d,0xb8,0x49,0x9d,0xbd,0x17,0x7d,0x87,0x3e,0x32,0xd1,0x28,0xbe,0xfd,0xc9,0x07,0xbe,0xcf,0xc5,0x30,0x3e,0x40,0x73,0xd5,0xbb,0x58,0x7d,0x51,0xbe,0x7d,0xb5,0x1a,0x3d,0xe9,0xc1,0x14,0x3e,0x45,0x97,0x80,0x3d,0xc7,0x58,0x07,0x3e,0x38,0x00,0x55,0x3e,0x93,0x9f,0x5b,0xbe,0xeb,0x8a,0xbd,0x3e,0xbd,0xeb,0x4c,0x3e,0xcd,0x6e,0xa1,0xbc,0x8e,0xd0,0xc2,0x3d,0xed,0x5a,0xa7,0x3e,0xd2,0x72,0xab,0xbe,0x20,0x93,0xc2,0xbc,0x2c,0x18,0x0b,0x3e,0x73,0x47,0x27,0x3e,0xbe,0xfa,0x04,0x3e,0xaa,0x02,0x35,0xbe,0x7d,0x6d,0x88,0x3d,0x56,0xe0,0x8f,0x3b,0x93,0x37,0x2b,0xbe,0x00,0xa6,0xff,0x3d,0xec,0x9e,0xd1,0xbd,0x70,0x4c,0xa6,0x3c,0x2a,0xd2,0x3d,0xbe,0x3d,0x2d,0xe0,0x3d,0x4c,0x13,0x3d,0x3e,0xf8,0x24,0x4d,0xbe,0xfd,0xbd,0x68,0xbe,0x02,0x0a,0x21,0x3e,0x1f,0xf3,0x6b,0xbe,0xa0,0x18,0xd8,0xbc,0xda,0x11,0x0a,0xbe,0xf3,0x17,0x85,0xbe,0x82,0xc7,0x17,0x3e,0xc4,0x1d,0x6f,0xbe,0xa9,0x84,0x3f,0x3e,0xf6,0xa4,0x65,0xbe,0xd5,0xd3,0x42,0x3e,0xa4,0x91,0xa0,0xbd,0x7f,0x0c,0x27,0xbe,0x04,0xb6,0xa2,0xbe,0x12,0xbe,0x47,0x3e,0xf7,0x1d,0x2e,0x3e,0x93,0xbe,0x46,0xbe,0x11,0x3d,0x90,0xbe,0xd6,0x02,0x93,0xbd,0x61,0xd7,0x20,0x3e,0xd7,0x46,0x47,0x3e,0x09,0x63,0xd6,0x3b,0xdc,0xa1,0x78,0x3e,0x65,0x25,0x77,0x3e,0xdc,0x4a,0x94,0xbe,0x91,0xc7,0xce,0xbd,0x5d,0x36,0xa4,0xbe,0x3c,0x5a,0x71,0xbc,0x93,0xff,0x07,0x3e,0xb7,0x42,0x9a,0x3e,0x39,0xe9,0xa3,0xbc,0xfe,0x5b,0x94,0xbe,0xa4,0xbd,0xad,0xbd,0xad,0x3a,0xc9,0x3d,0x6b,0x87,0x02,0x3e,0x05,0xb3,0x97,0x3e,0x94,0x49,0x8b,0xbe,0xc9,0xba,0x91,0x3c,0x7b,0xa7,0x92,0x3e,0x59,0xce,0xa5,0x3d,0xc5,0xc1,0x9c,0xbd,0x0b,0xf3,0x13,0xbc,0x33,0xb8,0x2f,0xbe,0x11,0x99,0xb3,0x3d,0xad,0xc0,0xb9,0x3d,0x9e,0x27,0x4a,0x3e,0xd8,0x12,0x69,0xbd,0xbc,0x33,0xa3,0x3c,0x5d,0x94,0x61,0xbe,0xaf,0x39,0x8c,0x3e,0x40,0x07,0x2e,0x3d,0x0c,0xb9,0xee,0x3d,0x09,0xfe,0x96,0x3d,0x0a,0xdd,0x93,0xbe,0x79,0x59,0x79,0xbc,0xaa,0x56,0x98,0xbe,0xe8,0x54,0x81,0xbe,0x33,0x07,0xa2,0x3d,0xf0,0x24,0x8c,0x3e,0x06,0x9f,0xef,0xbc,0x43,0xd1,0x67,0x3e,0xc2,0x2d,0xbc,0xbc,0xcf,0x8a,0xc5,0xbc,0x94,0x12,0x70,0xbe,0x7a,0x07,0x47,0x3e,0x7f,0x79,0x66,0x3e,0x2e,0x67,0x57,0xbe,0x90,0x26,0x71,0x3e,0x6e,0x57,0x49,0xbe,0x06,0x44,0x0c,0x3e,0x36,0x75,0x0c,0x3e,0x43,0x93,0x85,0xbd,0x0d,0x6c,0x23,0x3e,0x6c,0x20,0xf3,0x3d,0xd1,0xe2,0x9d,0x3c,0x96,0x49,0x4a,0xbe,0xe4,0xfd,0x7f,0xbe,0x55,0x01,0x90,0xbe,0x18,0x92,0xf3,0xba,0x17,0x42,0x30,0xbe,0x44,0x9e,0x48,0xbc,0x7d,0x0c,0x3e,0xbe,0x48,0x48,0x7b,0x3e,0x22,0x6c,0xcc,0xb9,0x88,0x1b,0x43,0x3e,0x8c,0x84,0xfa,0xbd,0xb3,0x90,0x13,0x3e,0x06,0xb3,0x67,0x3e,0x67,0x95,0x6c,0x3e,0x41,0x00,0x60,0xbe,0x33,0x39,0xc7,0xbd,0xd8,0xb4,0xdf,0xbd,0x3e,0x21,0xf9,0xbd,0x1b,0x8d,0x98,0x3d,0x65,0x62,0x11,0xbe,0xe0,0x95,0x04,0x3e,0x32,0xde,0x2f,0x3e,0xd4,0x02,0xeb,0xbd,0x0e,0x85,0x33,0xbd,0x7e,0xba,0x33,0x3e,0x60,0xe0,0x3c,0xbe,0x7a,0x42,0xaf,0xbd,0x42,0xe1,0xfa,0xbd,0x93,0xe7,0x84,0xbc,0x66,0x97,0x0e,0xbe,0xff,0xc2,0x47,0x3d,0x5b,0x0c,0x31,0xbe,0x76,0x16,0x9b,0x3e,0x40,0xa1,0xa1,0x3e,0xcc,0x58,0x3c,0xbe,0xac,0x0d,0x1d,0xbe,0xdc,0xe5,0xa6,0x3e,0xea,0x12,0x9d,0x3e,0x7c,0xf1,0x8a,0xbe,0xa9,0x78,0x8a,0x3e,0x4c,0xc9,0x05,0x3e,0x07,0xfb,0x5a,0xbe,0xb9,0x7a,0xca,0x3d,0x18,0x93,0xf8,0xbd,0xe1,0x19,0x15,0x3e,0xfd,0x15,0x2c,0x3c,0x47,0x0d,0x48,0x3d,0xc6,0xc5,0x34,0x3e,0x79,0x24,0x7e,0x3d,0x2c,0xf6,0x04,0x3e,0x7e,0x70,0x1e,0xbe,0x6e,0xa0,0x50,0xbe,0x62,0x16,0x19,0xbe,0x1e,0xc7,0x80,0x3e,0xa4,0x7f,0x27,0xbe,0xd4,0x57,0x66,0xbe,0xfe,0x4f,0x6c,0x3e,0xc7,0x7e,0x88,0xbe,0xf5,0x35,0x71,0x3e,0x1f,0x7f,0x92,0x3e,0x6c,0x84,0x1b,0x3e,0x66,0xe4,0x2a,0xbe,0xd2,0x0b,0x43,0xbe,0xd0,0xf3,0x93,0x3e,0xaf,0xbc,0x85,0x3e,0xca,0x6e,0x84,0xbd,0x23,0xa6,0xc5,0xbd,0xe3,0xd9,0x4a,0xbc,0x11,0x4e,0xf7,0x3c,0x0b,0x52,0x1a,0x3e,0xa7,0xd0,0x15,0x3e,0xe2,0xe7,0x09,0xbd,0x50,0x13,0x8f,0xbc,0xbd,0x00,0x84,0x3e,0xe6,0x40,0xb2,0x3c,0xc2,0xf8,0x03,0xbe,0x72,0xde,0x48,0x3e,0xfe,0x34,0xb7,0x3c,0x2e,0xad,0x2c,0x3e,0xd8,0xdd,0xdc,0xbd,0x63,0x81,0x4e,0xbe,0xb2,0x6c,0x8b,0xbd,0x5d,0xee,0x12,0xbc,0xaa,0x50,0xa1,0xbd,0x11,0xee,0x84,0x3e,0x38,0x18,0x4b,0x3e,0x12,0x21,0xad,0x3e,0x43,0x8c,0xae,0x3e,0xd5,0xeb,0x82,0xbe,0x35,0x57,0x92,0x3e,0x5d,0x1d,0xf4,0xbd,0xbc,0x33,0xa9,0x3c,0x66,0x81,0xe8,0x3d,0xda,0x49,0xed,0xbc,0x29,0x0e,0xfa,0x3d,0x68,0x95,0xde,0xbc,0x9e,0x3b,0x39,0xbd,0x2e,0xb0,0x63,0xbe,0xf5,0x0c,0x57,0x3e,0x42,0x5f,0x6b,0x3e,0xcf,0x2a,0xb6,0x3e,0x59,0x5d,0xf2,0xbb,0xb5,0x95,0x1a,0xbe,0x1b,0x5b,0x44,0xbd,0x93,0xb5,0xd9,0xbe,0x58,0x89,0x4d,0x3d,0x4f,0xf5,0x24,0x3e,0x2d,0xce,0x81,0x3e,0x55,0xb4,0x3a,0x3c,0x03,0x9f,0x58,0xbe,0xfd,0x32,0xcb,0xbd,0x45,0x84,0x8e,0x3e,0xdc,0xba,0x26,0xbe,0x36,0x87,0xb0,0xbb,0xb6,0xc4,0x54,0xbe,0xf8,0x08,0x97,0x3e,0xa0,0x93,0xd1,0xbc,0x70,0x6c,0x5a,0xbe,0x81,0x22,0x59,0x3e,0x8a,0x91,0x9c,0x3d,0x98,0x8e,0x3f,0x3e,0x25,0x17,0x0b,0xbe,0x1a,0x5d,0xea,0xbe,0x2c,0x7a,0x39,0x3e,0x8c,0x1b,0x24,0xbe,0x16,0x7f,0x16,0xbe,0x08,0xea,0x47,0x3e,0xb4,0x17,0x7d,0xbe,0x7e,0xfc,0x27,0xbe,0x7f,0x68,0x7d,0xbd,0x97,0xde,0x95,0x3e,0x97,0x48,0xb7,0x3e,0xdb,0x91,0x65,0x3d,0x64,0x7c,0x96,0xbe,0x2f,0x0d,0x8c,0x3c,0x3c,0x63,0xaa,0xbd,0x1e,0xb7,0x1d,0x3e,0xab,0x7a,0x7b,0x3e,0x7b,0x26,0x6f,0x3e,0x4f,0x94,0xfc,0xbd,0xb7,0xd5,0xa8,0xbb,0x9f,0x96,0x68,0xbe,0x60,0x42,0x8a,0xbe,0x5e,0x58,0x35,0x3e,0x04,0xb7,0x63,0x3e,0x89,0x9d,0x3c,0xbe,0xd3,0x17,0xe8,0xba,0x0b,0xfb,0x3b,0x3e,0x80,0xce,0x8a,0xbe,0x5e,0x27,0x3b,0xbd,0x51,0x06,0x43,0xbe,0x56,0xe1,0x15,0xbe,0x0a,0xa3,0xf7,0x3d,0x90,0x2f,0x5a,0x3d,0x4a,0xf3,0x7a,0x3d,0xac,0xc7,0x7c,0x3f,0x72,0x54,0x2a,0x3e,0xbd,0x05,0x96,0x3d,0xa9,0xfc,0xff,0x3d,0xf3,0xe1,0x52,0xbd,0x7a,0xef,0xc2,0xbd,0x63,0x2b,0x97,0xbe,0x2c,0x6e,0xae,0x3e,0x3f,0x0f,0x1b,0x3e,0x03,0x17,0x80,0x3e,0x1e,0xb4,0xd2,0x3e,0x00,0x8f,0x50,0xbe,0x6d,0xc1,0xd4,0xbd,0x5d,0xe4,0x54,0xbe,0xc1,0xe2,0xac,0xbd,0x00,0x24,0xd2,0x3e,0x9f,0x10,0x23,0x3e,0x80,0x46,0x6a,0xbe,0xad,0xab,0x25,0xbd,0x09,0x04,0x4a,0x3d,0xb1,0x7e,0xd9,0x3c,0xa7,0x0f,0x75,0xbe,0x17,0x8c,0xff,0xbd,0x01,0xc1,0x42,0x3e,0x7a,0x1f,0xc8,0x3e,0xa4,0x43,0xc5,0x3d,0x7f,0x81,0x92,0xbe,0xe3,0x3a,0x33,0xbe,0x38,0x0c,0x4f,0x3e,0x6f,0x4a,0xa9,0xbd,0xe6,0x1f,0x4f,0xbe,0xf1,0x71,0x77,0x3c,0x59,0x9f,0x95,0xbe,0x43,0xc9,0xb8,0x3e,0xc0,0x8d,0x48,0xbd,0xf7,0x91,0xad,0x3e,0x73,0x79,0x84,0x3e,0xe2,0xba,0x0a,0xbe,0xcd,0xe0,0xb5,0x3e,0x23,0xdc,0x8a,0xbd,0x8c,0x0c,0x6b,0xbe,0xb0,0x11,0xf2,0x3c,0xbc,0xc4,0x65,0xbd,0xcb,0xea,0x84,0xbd,0xe6,0x32,0xb4,0xba,0x99,0x16,0x96,0x3e,0x0d,0xc3,0xa8,0xbb,0x7b,0x65,0xd3,0x3d,0x2f,0x0e,0x51,0xbe,0xf8,0xed,0x6c,0x3e,0xbb,0xd3,0x2a,0x3d,0x2f,0xc4,0xc7,0xbd,0x4d,0x57,0xfb,0xbc,0x94,0xd9,0x40,0xbe,0xdb,0x6a,0x58,0x3e,0x85,0x4e,0xa0,0x3e,0x66,0x6c,0x4c,0x3e,0x10,0xe1,0x7f,0xbe,0x8a,0xa0,0x52,0x3e,0x69,0xa5,0x5d,0xbe,0x2c,0xbc,0x80,0xbd,0xf0,0x35,0xcd,0xbd,0x92,0xe6,0xdc,0xbd,0x09,0x77,0x19,0x3e,0xc2,0x97,0x51,0x3e,0xde,0x96,0x56,0x3d,0x15,0x0a,0x84,0x3e,0x7d,0xa7,0x3d,0xbe,0x85,0x26,0x92,0xbb,0x24,0x9a,0x04,0x3e,0x37,0xf1,0xfd,0xbd,0x35,0x39,0x51,0xbd,0x01,0xe3,0xb2,0x3d,0x29,0x85,0x0d,0xbd,0x00,0x00,0x06,0x00,0x08,0x00,0x04,0x00,0x06,0x00,0x00,0x00,0x04,0x00,0x00,0x00,0x80,0x00,0x00,0x00,0x87,0x67,0x3f,0xbe,0x28,0x0e,0xaf,0x3e,0xa0,0x69,0x7b,0xbb,0x94,0xa3,0x1c,0x3e,0xfc,0xd0,0x80,0x3e,0x4e,0xef,0xc7,0x3e,0xf1,0x58,0x43,0xbe,0xcb,0x19,0x82,0x3e,0x21,0xea,0x20,0x3e,0x78,0xd8,0x3c,0xbe,0x14,0xd1,0x31,0xbe,0x95,0xcb,0x99,0xbe,0x82,0x42,0xb4,0xbe,0xa0,0xb9,0x96,0xbe,0x1e,0x7b,0xc2,0x3e,0x4c,0xa8,0x93,0xbd,0xb5,0xcb,0xab,0x3e,0xe3,0x07,0x0c,0xbe,0xae,0x54,0xa9,0x3e,0x25,0x9d,0x81,0xbe,0x67,0x55,0xc1,0x3e,0xc9,0x2c,0xc1,0x3e,0x8c,0x9c,0x2b,0xbe,0x47,0x22,0x86,0x3e,0xec,0x7d,0x53,0x3e,0x19,0xd7,0xf8,0x3e,0x23,0x18,0xd7,0x3e,0x7a,0x01,0xf3,0x3e,0x58,0x9d,0xa6,0xbe,0x5b,0x61,0x30,0x3e,0xda,0x77,0xb6,0xbe,0xd3,0xd6,0xd0,0x3e,0x80,0xf9,0xff,0xff,0x84,0xf9,0xff,0xff,0x0f,0x00,0x00,0x00,0x4d,0x4c,0x49,0x52,0x20,0x43,0x6f,0x6e,0x76,0x65,0x72,0x74,0x65,0x64,0x2e,0x00,0x01,0x00,0x00,0x00,0x14,0x00,0x00,0x00,0x00,0x00,0x0e,0x00,0x18,0x00,0x14,0x00,0x10,0x00,0x0c,0x00,0x08,0x00,0x04,0x00,0x0e,0x00,0x00,0x00,0x14,0x00,0x00,0x00,0x1c,0x00,0x00,0x00,0x10,0x01,0x00,0x00,0x14,0x01,0x00,0x00,0x18,0x01,0x00,0x00,0x04,0x00,0x00,0x00,0x6d,0x61,0x69,0x6e,0x00,0x00,0x00,0x00,0x04,0x00,0x00,0x00,0xb8,0x00,0x00,0x00,0x70,0x00,0x00,0x00,0x38,0x00,0x00,0x00,0x04,0x00,0x00,0x00,0x66,0xff,0xff,0xff,0x10,0x00,0x00,0x00,0x00,0x00,0x00,0x08,0x0c,0x00,0x00,0x00,0x10,0x00,0x00,0x00,0x00,0xfa,0xff,0xff,0x01,0x00,0x00,0x00,0x0c,0x00,0x00,0x00,0x03,0x00,0x00,0x00,0x0b,0x00,0x00,0x00,0x01,0x00,0x00,0x00,0x06,0x00,0x00,0x00,0x96,0xff,0xff,0xff,0x10,0x00,0x00,0x00,0x00,0x00,0x00,0x08,0x10,0x00,0x00,0x00,0x14,0x00,0x00,0x00,0x86,0xff,0xff,0xff,0x00,0x00,0x00,0x01,0x01,0x00,0x00,0x00,0x0b,0x00,0x00,0x00,0x03,0x00,0x00,0x00,0x0a,0x00,0x00,0x00,0x02,0x00,0x00,0x00,0x05,0x00,0x00,0x00,0xca,0xff,0xff,0xff,0x10,0x00,0x00,0x00,0x00,0x00,0x00,0x08,0x10,0x00,0x00,0x00,0x14,0x00,0x00,0x00,0xba,0xff,0xff,0xff,0x00,0x00,0x00,0x01,0x01,0x00,0x00,0x00,0x0a,0x00,0x00,0x00,0x03,0x00,0x00,0x00,0x09,0x00,0x00,0x00,0x03,0x00,0x00,0x00,0x04,0x00,0x00,0x00,0x00,0x00,0x0e,0x00,0x16,0x00,0x00,0x00,0x10,0x00,0x0c,0x00,0x0b,0x00,0x04,0x00,0x0e,0x00,0x00,0x00,0x18,0x00,0x00,0x00,0x00,0x00,0x00,0x08,0x18,0x00,0x00,0x00,0x1c,0x00,0x00,0x00,0x00,0x00,0x06,0x00,0x08,0x00,0x07,0x00,0x06,0x00,0x00,0x00,0x00,0x00,0x00,0x01,0x01,0x00,0x00,0x00,0x09,0x00,0x00,0x00,0x03,0x00,0x00,0x00,0x00,0x00,0x00,0x00,0x08,0x00,0x00,0x00,0x07,0x00,0x00,0x00,0x01,0x00,0x00,0x00,0x0c,0x00,0x00,0x00,0x01,0x00,0x00,0x00,0x00,0x00,0x00,0x00,0x0d,0x00,0x00,0x00,0xf4,0x04,0x00,0x00,0x9c,0x04,0x00,0x00,0x44,0x04,0x00,0x00,0x04,0x04,0x00,0x00,0xc8,0x03,0x00,0x00,0x68,0x03,0x00,0x00,0x0c,0x03,0x00,0x00,0xac,0x02,0x00,0x00,0x58,0x02,0x00,0x00,0xb0,0x01,0x00,0x00,0x08,0x01,0x00,0x00,0x60,0x00,0x00,0x00,0x04,0x00,0x00,0x00,0x56,0xfb,0xff,0xff,0x00,0x00,0x00,0x01,0x14,0x00,0x00,0x00,0x1c,0x00,0x00,0x00,0x1c,0x00,0x00,0x00,0x0d,0x00,0x00,0x00,0x34,0x00,0x00,0x00,0x02,0x00,0x00,0x00,0xff,0xff,0xff,0xff,0x01,0x00,0x00,0x00,0x40,0xfb,0xff,0xff,0x1b,0x00,0x00,0x00,0x53,0x74,0x61,0x74,0x65,0x66,0x75,0x6c,0x50,0x61,0x72,0x74,0x69,0x74,0x69,0x6f,0x6e,0x65,0x64,0x43,0x61,0x6c,0x6c,0x5f,0x31,0x3a,0x30,0x00,0x02,0x00,0x00,0x00,0x01,0x00,0x00,0x00,0x01,0x00,0x00,0x00,0xae,0xfb,0xff,0xff,0x00,0x00,0x00,0x01,0x14,0x00,0x00,0x00,0x1c,0x00,0x00,0x00,0x1c,0x00,0x00,0x00,0x0c,0x00,0x00,0x00,0x80,0x00,0x00,0x00,0x02,0x00,0x00,0x00,0xff,0xff,0xff,0xff,0x20,0x00,0x00,0x00,0x98,0xfb,0xff,0xff,0x67,0x00,0x00,0x00,0x73,0x65,0x71,0x75,0x65,0x6e,0x74,0x69,0x61,0x6c,0x5f,0x32,0x39,0x5f,0x31,0x2f,0x64,0x65,0x6e,0x73,0x65,0x5f,0x31,0x30,0x30,0x5f,0x31,0x2f,0x4d,0x61,0x74,0x4d,0x75,0x6c,0x3b,0x73,0x65,0x71,0x75,0x65,0x6e,0x74,0x69,0x61,0x6c,0x5f,0x32,0x39,0x5f,0x31,0x2f,0x64,0x65,0x6e,0x73,0x65,0x5f,0x31,0x30,0x30,0x5f,0x31,0x2f,0x52,0x65,0x6c,0x75,0x3b,0x73,0x65,0x71,0x75,0x65,0x6e,0x74,0x69,0x61,0x6c,0x5f,0x32,0x39,0x5f,0x31,0x2f,0x64,0x65,0x6e,0x73,0x65,0x5f,0x31,0x30,0x30,0x5f,0x31,0x2f,0x42,0x69,0x61,0x73,0x41,0x64,0x64,0x00,0x02,0x00,0x00,0x00,0x01,0x00,0x00,0x00,0x20,0x00,0x00,0x00,0x52,0xfc,0xff,0xff,0x00,0x00,0x00,0x01,0x14,0x00,0x00,0x00,0x1c,0x00,0x00,0x00,0x1c,0x00,0x00,0x00,0x0b,0x00,0x00,0x00,0x80,0x00,0x00,0x00,0x02,0x00,0x00,0x00,0xff,0xff,0xff,0xff,0x20,0x00,0x00,0x00,0x3c,0xfc,0xff,0xff,0x64,0x00,0x00,0x00,0x73,0x65,0x71,0x75,0x65,0x6e,0x74,0x69,0x61,0x6c,0x5f,0x32,0x39,0x5f,0x31,0x2f,0x64,0x65,0x6e,0x73,0x65,0x5f,0x39,0x39,0x5f,0x31,0x2f,0x4d,0x61,0x74,0x4d,0x75,0x6c,0x3b,0x73,0x65,0x71,0x75,0x65,0x6e,0x74,0x69,0x61,0x6c,0x5f,0x32,0x39,0x5f,0x31,0x2f,0x64,0x65,0x6e,0x73,0x65,0x5f,0x39,0x39,0x5f,0x31,0x2f,0x52,0x65,0x6c,0x75,0x3b,0x73,0x65,0x71,0x75,0x65,0x6e,0x74,0x69,0x61,0x6c,0x5f,0x32,0x39,0x5f,0x31,0x2f,0x64,0x65,0x6e,0x73,0x65,0x5f,0x39,0x39,0x5f,0x31,0x2f,0x42,0x69,0x61,0x73,0x41,0x64,0x64,0x00,0x00,0x00,0x00,0x02,0x00,0x00,0x00,0x01,0x00,0x00,0x00,0x20,0x00,0x00,0x00,0xf6,0xfc,0xff,0xff,0x00,0x00,0x00,0x01,0x14,0x00,0x00,0x00,0x1c,0x00,0x00,0x00,0x1c,0x00,0x00,0x00,0x0a,0x00,0x00,0x00,0x80,0x00,0x00,0x00,0x02,0x00,0x00,0x00,0xff,0xff,0xff,0xff,0x20,0x00,0x00,0x00,0xe0,0xfc,0xff,0xff,0x64,0x00,0x00,0x00,0x73,0x65,0x71,0x75,0x65,0x6e,0x74,0x69,0x61,0x6c,0x5f,0x32,0x39,0x5f,0x31,0x2f,0x64,0x65,0x6e,0x73,0x65,0x5f,0x39,0x38,0x5f,0x31,0x2f,0x4d,0x61,0x74,0x4d,0x75,0x6c,0x3b,0x73,0x65,0x71,0x75,0x65,0x6e,0x74,0x69,0x61,0x6c,0x5f,0x32,0x39,0x5f,0x31,0x2f,0x64,0x65,0x6e,0x73,0x65,0x5f,0x39,0x38,0x5f,0x31,0x2f,0x52,0x65,0x6c,0x75,0x3b,0x73,0x65,0x71,0x75,0x65,0x6e,0x74,0x69,0x61,0x6c,0x5f,0x32,0x39,0x5f,0x31,0x2f,0x64,0x65,0x6e,0x73,0x65,0x5f,0x39,0x38,0x5f,0x31,0x2f,0x42,0x69,0x61,0x73,0x41,0x64,0x64,0x00,0x00,0x00,0x00,0x02,0x00,0x00,0x00,0x01,0x00,0x00,0x00,0x20,0x00,0x00,0x00,0xee,0xfd,0xff,0xff,0x00,0x00,0x00,0x01,0x10,0x00,0x00,0x00,0x10,0x00,0x00,0x00,0x09,0x00,0x00,0x00,0x30,0x00,0x00,0x00,0x74,0xfd,0xff,0xff,0x21,0x00,0x00,0x00,0x73,0x65,0x71,0x75,0x65,0x6e,0x74,0x69,0x61,0x6c,0x5f,0x32,0x39,0x5f,0x31,0x2f,0x64,0x65,0x6e,0x73,0x65,0x5f,0x39,0x38,0x5f,0x31,0x2f,0x4d,0x61,0x74,0x4d,0x75,0x6c,0x00,0x00,0x00,0x02,0x00,0x00,0x00,0x20,0x00,0x00,0x00,0x01,0x00,0x00,0x00,0x3e,0xfe,0xff,0xff,0x00,0x00,0x00,0x01,0x10,0x00,0x00,0x00,0x10,0x00,0x00,0x00,0x08,0x00,0x00,0x00,0x40,0x00,0x00,0x00,0xc4,0xfd,0xff,0xff,0x31,0x00,0x00,0x00,0x73,0x65,0x71,0x75,0x65,0x6e,0x74,0x69,0x61,0x6c,0x5f,0x32,0x39,0x5f,0x31,0x2f,0x64,0x65,0x6e,0x73,0x65,0x5f,0x39,0x38,0x5f,0x31,0x2f,0x42,0x69,0x61,0x73,0x41,0x64,0x64,0x2f,0x52,0x65,0x61,0x64,0x56,0x61,0x72,0x69,0x61,0x62,0x6c,0x65,0x4f,0x70,0x00,0x00,0x00,0x01,0x00,0x00,0x00,0x20,0x00,0x00,0x00,0x9a,0xfe,0xff,0xff,0x00,0x00,0x00,0x01,0x10,0x00,0x00,0x00,0x10,0x00,0x00,0x00,0x07,0x00,0x00,0x00,0x3c,0x00,0x00,0x00,0x20,0xfe,0xff,0xff,0x2e,0x00,0x00,0x00,0x73,0x65,0x71,0x75,0x65,0x6e,0x74,0x69,0x61,0x6c,0x5f,0x32,0x39,0x5f,0x31,0x2f,0x64,0x65,0x6e,0x73,0x65,0x5f,0x31,0x30,0x31,0x5f,0x31,0x2f,0x41,0x64,0x64,0x2f,0x52,0x65,0x61,0x64,0x56,0x61,0x72,0x69,0x61,0x62,0x6c,0x65,0x4f,0x70,0x00,0x00,0x01,0x00,0x00,0x00,0x01,0x00,0x00,0x00,0xf2,0xfe,0xff,0xff,0x00,0x00,0x00,0x01,0x10,0x00,0x00,0x00,0x10,0x00,0x00,0x00,0x06,0x00,0x00,0x00,0x40,0x00,0x00,0x00,0x78,0xfe,0xff,0xff,0x32,0x00,0x00,0x00,0x73,0x65,0x71,0x75,0x65,0x6e,0x74,0x69,0x61,0x6c,0x5f,0x32,0x39,0x5f,0x31,0x2f,0x64,0x65,0x6e,0x73,0x65,0x5f,0x31,0x30,0x30,0x5f,0x31,0x2f,0x42,0x69,0x61,0x73,0x41,0x64,0x64,0x2f,0x52,0x65,0x61,0x64,0x56,0x61,0x72,0x69,0x61,0x62,0x6c,0x65,0x4f,0x70,0x00,0x00,0x01,0x00,0x00,0x00,0x20,0x00,0x00,0x00,0x4e,0xff,0xff,0xff,0x00,0x00,0x00,0x01,0x10,0x00,0x00,0x00,0x10,0x00,0x00,0x00,0x05,0x00,0x00,0x00,0x1c,0x00,0x00,0x00,0xd4,0xfe,0xff,0xff,0x0f,0x00,0x00,0x00,0x61,0x72,0x69,0x74,0x68,0x2e,0x63,0x6f,0x6e,0x73,0x74,0x61,0x6e,0x74,0x33,0x00,0x01,0x00,0x00,0x00,0x20,0x00,0x00,0x00,0x86,0xff,0xff,0xff,0x00,0x00,0x00,0x01,0x10,0x00,0x00,0x00,0x10,0x00,0x00,0x00,0x04,0x00,0x00,0x00,0x1c,0x00,0x00,0x00,0x0c,0xff,0xff,0xff,0x0f,0x00,0x00,0x00,0x61,0x72,0x69,0x74,0x68,0x2e,0x63,0x6f,0x6e,0x73,0x74,0x61,0x6e,0x74,0x32,0x00,0x02,0x00,0x00,0x00,0x20,0x00,0x00,0x00,0x20,0x00,0x00,0x00,0xc2,0xff,0xff,0xff,0x00,0x00,0x00,0x01,0x10,0x00,0x00,0x00,0x10,0x00,0x00,0x00,0x03,0x00,0x00,0x00,0x1c,0x00,0x00,0x00,0x48,0xff,0xff,0xff,0x0f,0x00,0x00,0x00,0x61,0x72,0x69,0x74,0x68,0x2e,0x63,0x6f,0x6e,0x73,0x74,0x61,0x6e,0x74,0x31,0x00,0x02,0x00,0x00,0x00,0x20,0x00,0x00,0x00,0x20,0x00,0x00,0x00,0x00,0x00,0x16,0x00,0x18,0x00,0x14,0x00,0x00,0x00,0x10,0x00,0x0c,0x00,0x08,0x00,0x00,0x00,0x00,0x00,0x00,0x00,0x07,0x00,0x16,0x00,0x00,0x00,0x00,0x00,0x00,0x01,0x10,0x00,0x00,0x00,0x10,0x00,0x00,0x00,0x02,0x00,0x00,0x00,0x1c,0x00,0x00,0x00,0x9c,0xff,0xff,0xff,0x0e,0x00,0x00,0x00,0x61,0x72,0x69,0x74,0x68,0x2e,0x63,0x6f,0x6e,0x73,0x74,0x61,0x6e,0x74,0x00,0x00,0x02,0x00,0x00,0x00,0x01,0x00,0x00,0x00,0x20,0x00,0x00,0x00,0x00,0x00,0x16,0x00,0x1c,0x00,0x18,0x00,0x00,0x00,0x14,0x00,0x10,0x00,0x0c,0x00,0x00,0x00,0x00,0x00,0x08,0x00,0x07,0x00,0x16,0x00,0x00,0x00,0x00,0x00,0x00,0x01,0x14,0x00,0x00,0x00,0x20,0x00,0x00,0x00,0x20,0x00,0x00,0x00,0x01,0x00,0x00,0x00,0x40,0x00,0x00,0x00,0x02,0x00,0x00,0x00,0xff,0xff,0xff,0xff,0x01,0x00,0x00,0x00,0x04,0x00,0x04,0x00,0x04,0x00,0x00,0x00,0x20,0x00,0x00,0x00,0x73,0x65,0x72,0x76,0x69,0x6e,0x67,0x5f,0x64,0x65,0x66,0x61,0x75,0x6c,0x74,0x5f,0x69,0x6e,0x70,0x75,0x74,0x5f,0x6c,0x61,0x79,0x65,0x72,0x5f,0x32,0x39,0x3a,0x30,0x00,0x00,0x00,0x00,0x02,0x00,0x00,0x00,0x01,0x00,0x00,0x00,0x01,0x00,0x00,0x00,0x01,0x00,0x00,0x00,0x10,0x00,0x00,0x00,0x0c,0x00,0x0c,0x00,0x0b,0x00,0x00,0x00,0x00,0x00,0x04,0x00,0x0c,0x00,0x00,0x00,0x09,0x00,0x00,0x00,0x00,0x00,0x00,0x09};
const unsigned int g_kasus_a_model_3_float_model_data_len = 11196;

#endif // G_KASUS_A_MODEL_3_FLOAT_H
