// File ini dibuat secara otomatis
#ifndef G_KASUS_A_MODEL_1_FLOAT_H
#define G_KASUS_A_MODEL_1_FLOAT_H

// Model: Kasus A Model 1 Float
// 1L, 8N, float32
// Size: 1616 bytes (1.58 KB)
const unsigned char g_kasus_a_model_1_float_model_data[] = {0x1c,0x00,0x00,0x00,0x54,0x46,0x4c,0x33,0x14,0x00,0x20,0x00,0x1c,0x00,0x18,0x00,0x14,0x00,0x10,0x00,0x0c,0x00,0x00,0x00,0x08,0x00,0x04,0x00,0x14,0x00,0x00,0x00,0x1c,0x00,0x00,0x00,0x98,0x00,0x00,0x00,0xf0,0x00,0x00,0x00,0x4c,0x02,0x00,0x00,0x5c,0x02,0x00,0x00,0xfc,0x05,0x00,0x00,0x03,0x00,0x00,0x00,0x01,0x00,0x00,0x00,0x10,0x00,0x00,0x00,0x00,0x00,0x0a,0x00,0x10,0x00,0x0c,0x00,0x08,0x00,0x04,0x00,0x0a,0x00,0x00,0x00,0x0c,0x00,0x00,0x00,0x1c,0x00,0x00,0x00,0x3c,0x00,0x00,0x00,0x0f,0x00,0x00,0x00,0x73,0x65,0x72,0x76,0x69,0x6e,0x67,0x5f,0x64,0x65,0x66,0x61,0x75,0x6c,0x74,0x00,0x01,0x00,0x00,0x00,0x04,0x00,0x00,0x00,0x90,0xff,0xff,0xff,0x06,0x00,0x00,0x00,0x04,0x00,0x00,0x00,0x08,0x00,0x00,0x00,0x6f,0x75,0x74,0x70,0x75,0x74,0x5f,0x30,0x00,0x00,0x00,0x00,0x01,0x00,0x00,0x00,0x04,0x00,0x00,0x00,0x62,0xfe,0xff,0xff,0x04,0x00,0x00,0x00,0x0e,0x00,0x00,0x00,0x69,0x6e,0x70,0x75,0x74,0x5f,0x6c,0x61,0x79,0x65,0x72,0x5f,0x32,0x37,0x00,0x00,0x02,0x00,0x00,0x00,0x34,0x00,0x00,0x00,0x04,0x00,0x00,0x00,0xdc,0xff,0xff,0xff,0x09,0x00,0x00,0x00,0x04,0x00,0x00,0x00,0x13,0x00,0x00,0x00,0x43,0x4f,0x4e,0x56,0x45,0x52,0x53,0x49,0x4f,0x4e,0x5f,0x4d,0x45,0x54,0x41,0x44,0x41,0x54,0x41,0x00,0x08,0x00,0x0c,0x00,0x08,0x00,0x04,0x00,0x08,0x00,0x00,0x00,0x08,0x00,0x00,0x00,0x04,0x00,0x00,0x00,0x13,0x00,0x00,0x00,0x6d,0x69,0x6e,0x5f,0x72,0x75,0x6e,0x74,0x69,0x6d,0x65,0x5f,0x76,0x65,0x72,0x73,0x69,0x6f,0x6e,0x00,0x0a,0x00,0x00,0x00,0x58,0x01,0x00,0x00,0x50,0x01,0x00,0x00,0x20,0x01,0x00,0x00,0x04,0x01,0x00,0x00,0xd4,0x00,0x00,0x00,0xa4,0x00,0x00,0x00,0x9c,0x00,0x00,0x00,0x94,0x00,0x00,0x00,0x74,0x00,0x00,0x00,0x04,0x00,0x00,0x00,0x06,0xff,0xff,0xff,0x04,0x00,0x00,0x00,0x60,0x00,0x00,0x00,0x10,0x00,0x00,0x00,0x00,0x00,0x00,0x00,0x08,0x00,0x0e,0x00,0x08,0x00,0x04,0x00,0x08,0x00,0x00,0x00,0x10,0x00,0x00,0x00,0x24,0x00,0x00,0x00,0x00,0x00,0x06,0x00,0x08,0x00,0x04,0x00,0x06,0x00,0x00,0x00,0x04,0x00,0x00,0x00,0x00,0x00,0x00,0x00,0x0c,0x00,0x18,0x00,0x14,0x00,0x10,0x00,0x0c,0x00,0x04,0x00,0x0c,0x00,0x00,0x00,0x93,0x3a,0x72,0x0a,0x35,0xcd,0xee,0xc5,0x02,0x00,0x00,0x00,0x02,0x00,0x00,0x00,0x04,0x00,0x00,0x00,0x06,0x00,0x00,0x00,0x32,0x2e,0x31,0x38,0x2e,0x30,0x00,0x00,0x72,0xff,0xff,0xff,0x04,0x00,0x00,0x00,0x10,0x00,0x00,0x00,0x31,0x2e,0x35,0x2e,0x30,0x00,0x00,0x00,0x00,0x00,0x00,0x00,0x00,0x00,0x00,0x00,0xd8,0xfb,0xff,0xff,0xdc,0xfb,0xff,0xff,0x96,0xff,0xff,0xff,0x04,0x00,0x00,0x00,0x20,0x00,0x00,0x00,0x37,0x9a,0x8c,0xbf,0x23,0xb5,0xa3,0xbf,0x15,0x57,0x89,0x3f,0x76,0xf9,0x5b,0x3f,0x22,0xa5,0xd6,0x3d,0xba,0xd4,0xaf,0x3e,0xd2,0x32,0xf0,0x3e,0xcf,0x4f,0x35,0x3f,0xc2,0xff,0xff,0xff,0x04,0x00,0x00,0x00,0x20,0x00,0x00,0x00,0x03,0xae,0xf7,0x3e,0x89,0x79,0x1d,0x3f,0x36,0xee,0xa8,0x3e,0x0e,0xe5,0xb7,0x3e,0x66,0xdc,0x6c,0xbe,0xf7,0xe5,0xaf,0x3e,0xe7,0x0d,0xc5,0x3e,0x2e,0xc8,0xca,0x3e,0xee,0xff,0xff,0xff,0x04,0x00,0x00,0x00,0x04,0x00,0x00,0x00,0x70,0xe5,0xd8,0xbe,0x00,0x00,0x06,0x00,0x08,0x00,0x04,0x00,0x06,0x00,0x00,0x00,0x04,0x00,0x00,0x00,0x20,0x00,0x00,0x00,0xbd,0x80,0x80,0xbf,0x1b,0xc2,0x30,0xbf,0xac,0x95,0x34,0x3f,0x5c,0xa9,0x03,0x3f,0x31,0x00,0x5f,0xbe,0xd7,0x86,0x52,0x3f,0x25,0x31,0x04,0x3f,0xc0,0xb7,0xd9,0x3e,0x7c,0xfc,0xff,0xff,0x80,0xfc,0xff,0xff,0x0f,0x00,0x00,0x00,0x4d,0x4c,0x49,0x52,0x20,0x43,0x6f,0x6e,0x76,0x65,0x72,0x74,0x65,0x64,0x2e,0x00,0x01,0x00,0x00,0x00,0x14,0x00,0x00,0x00,0x00,0x00,0x0e,0x00,0x18,0x00,0x14,0x00,0x10,0x00,0x0c,0x00,0x08,0x00,0x04,0x00,0x0e,0x00,0x00,0x00,0x14,0x00,0x00,0x00,0x1c,0x00,0x00,0x00,0xa0,0x00,0x00,0x00,0xa4,0x00,0x00,0x00,0xa8,0x00,0x00,0x00,0x04,0x00,0x00,0x00,0x6d,0x61,0x69,0x6e,0x00,0x00,0x00,0x00,0x02,0x00,0x00,0x00,0x48,0x00,0x00,0x00,0x04,0x00,0x00,0x00,0xce,0xff,0xff,0xff,0x10,0x00,0x00,0x00,0x00,0x00,0x00,0x08,0x0c,0x00,0x00,0x00,0x10,0x00,0x00,0x00,0xf4,0xfc,0xff,0xff,0x01,0x00,0x00,0x00,0x06,0x00,0x00,0x00,0x03,0x00,0x00,0x00,0x05,0x00,0x00,0x00,0x01,0x00,0x00,0x00,0x02,0x00,0x00,0x00,0x00,0x00,0x0e,0x00,0x16,0x00,0x00,0x00,0x10,0x00,0x0c,0x00,0x0b,0x00,0x04,0x00,0x0e,0x00,0x00,0x00,0x18,0x00,0x00,0x00,0x00,0x00,0x00,0x08,0x18,0x00,0x00,0x00,0x1c,0x00,0x00,0x00,0x00,0x00,0x06,0x00,0x08,0x00,0x07,0x00,0x06,0x00,0x00,0x00,0x00,0x00,0x00,0x01,0x01,0x00,0x00,0x00,0x05,0x00,0x00,0x00,0x03,0x00,0x00,0x00,0x00,0x00,0x00,0x00,0x04,0x00,0x00,0x00,0x03,0x00,0x00,0x00,0x01,0x00,0x00,0x00,0x06,0x00,0x00,0x00,0x01,0x00,0x00,0x00,0x00,0x00,0x00,0x00,0x07,0x00,0x00,0x00,0x68,0x02,0x00,0x00,0x10,0x02,0x00,0x00,0xbc,0x01,0x00,0x00,0x5c,0x01,0x00,0x00,0x08,0x01,0x00,0x00,0x60,0x00,0x00,0x00,0x04,0x00,0x00,0x00,0xca,0xfd,0xff,0xff,0x00,0x00,0x00,0x01,0x14,0x00,0x00,0x00,0x1c,0x00,0x00,0x00,0x1c,0x00,0x00,0x00,0x07,0x00,0x00,0x00,0x34,0x00,0x00,0x00,0x02,0x00,0x00,0x00,0xff,0xff,0xff,0xff,0x01,0x00,0x00,0x00,0xb4,0xfd,0xff,0xff,0x1b,0x00,0x00,0x00,0x53,0x74,0x61,0x74,0x65,0x66,0x75,0x6c,0x50,0x61,0x72,0x74,0x69,0x74,0x69,0x6f,0x6e,0x65,0x64,0x43,0x61,0x6c,0x6c,0x5f,0x31,0x3a,0x30,0x00,0x02,0x00,0x00,0x00,0x01,0x00,0x00,0x00,0x01,0x00,0x00,0x00,0x22,0xfe,0xff,0xff,0x00,0x00,0x00,0x01,0x14,0x00,0x00,0x00,0x1c,0x00,0x00,0x00,0x1c,0x00,0x00,0x00,0x06,0x00,0x00,0x00,0x80,0x00,0x00,0x00,0x02,0x00,0x00,0x00,0xff,0xff,0xff,0xff,0x08,0x00,0x00,0x00,0x0c,0xfe,0xff,0xff,0x64,0x00,0x00,0x00,0x73,0x65,0x71,0x75,0x65,0x6e,0x74,0x69,0x61,0x6c,0x5f,0x32,0x37,0x5f,0x31,0x2f,0x64,0x65,0x6e,0x73,0x65,0x5f,0x39,0x33,0x5f,0x31,0x2f,0x4d,0x61,0x74,0x4d,0x75,0x6c,0x3b,0x73,0x65,0x71,0x75,0x65,0x6e,0x74,0x69,0x61,0x6c,0x5f,0x32,0x37,0x5f,0x31,0x2f,0x64,0x65,0x6e,0x73,0x65,0x5f,0x39,0x33,0x5f,0x31,0x2f,0x52,0x65,0x6c,0x75,0x3b,0x73,0x65,0x71,0x75,0x65,0x6e,0x74,0x69,0x61,0x6c,0x5f,0x32,0x37,0x5f,0x31,0x2f,0x64,0x65,0x6e,0x73,0x65,0x5f,0x39,0x33,0x5f,0x31,0x2f,0x42,0x69,0x61,0x73,0x41,0x64,0x64,0x00,0x00,0x00,0x00,0x02,0x00,0x00,0x00,0x01,0x00,0x00,0x00,0x08,0x00,0x00,0x00,0x1a,0xff,0xff,0xff,0x00,0x00,0x00,0x01,0x10,0x00,0x00,0x00,0x10,0x00,0x00,0x00,0x05,0x00,0x00,0x00,0x30,0x00,0x00,0x00,0xa0,0xfe,0xff,0xff,0x21,0x00,0x00,0x00,0x73,0x65,0x71,0x75,0x65,0x6e,0x74,0x69,0x61,0x6c,0x5f,0x32,0x37,0x5f,0x31,0x2f,0x64,0x65,0x6e,0x73,0x65,0x5f,0x39,0x33,0x5f,0x31,0x2f,0x4d,0x61,0x74,0x4d,0x75,0x6c,0x00,0x00,0x00,0x02,0x00,0x00,0x00,0x08,0x00,0x00,0x00,0x01,0x00,0x00,0x00,0x6a,0xff,0xff,0xff,0x00,0x00,0x00,0x01,0x10,0x00,0x00,0x00,0x10,0x00,0x00,0x00,0x04,0x00,0x00,0x00,0x40,0x00,0x00,0x00,0xf0,0xfe,0xff,0xff,0x31,0x00,0x00,0x00,0x73,0x65,0x71,0x75,0x65,0x6e,0x74,0x69,0x61,0x6c,0x5f,0x32,0x37,0x5f,0x31,0x2f,0x64,0x65,0x6e,0x73,0x65,0x5f,0x39,0x33,0x5f,0x31,0x2f,0x42,0x69,0x61,0x73,0x41,0x64,0x64,0x2f,0x52,0x65,0x61,0x64,0x56,0x61,0x72,0x69,0x61,0x62,0x6c,0x65,0x4f,0x70,0x00,0x00,0x00,0x01,0x00,0x00,0x00,0x08,0x00,0x00,0x00,0xc6,0xff,0xff,0xff,0x00,0x00,0x00,0x01,0x10,0x00,0x00,0x00,0x10,0x00,0x00,0x00,0x03,0x00,0x00,0x00,0x1c,0x00,0x00,0x00,0x4c,0xff,0xff,0xff,0x0f,0x00,0x00,0x00,0x61,0x72,0x69,0x74,0x68,0x2e,0x63,0x6f,0x6e,0x73,0x74,0x61,0x6e,0x74,0x31,0x00,0x01,0x00,0x00,0x00,0x01,0x00,0x00,0x00,0x00,0x00,0x16,0x00,0x18,0x00,0x14,0x00,0x00,0x00,0x10,0x00,0x0c,0x00,0x08,0x00,0x00,0x00,0x00,0x00,0x00,0x00,0x07,0x00,0x16,0x00,0x00,0x00,0x00,0x00,0x00,0x01,0x10,0x00,0x00,0x00,0x10,0x00,0x00,0x00,0x02,0x00,0x00,0x00,0x1c,0x00,0x00,0x00,0x9c,0xff,0xff,0xff,0x0e,0x00,0x00,0x00,0x61,0x72,0x69,0x74,0x68,0x2e,0x63,0x6f,0x6e,0x73,0x74,0x61,0x6e,0x74,0x00,0x00,0x02,0x00,0x00,0x00,0x01,0x00,0x00,0x00,0x08,0x00,0x00,0x00,0x00,0x00,0x16,0x00,0x1c,0x00,0x18,0x00,0x00,0x00,0x14,0x00,0x10,0x00,0x0c,0x00,0x00,0x00,0x00,0x00,0x08,0x00,0x07,0x00,0x16,0x00,0x00,0x00,0x00,0x00,0x00,0x01,0x14,0x00,0x00,0x00,0x20,0x00,0x00,0x00,0x20,0x00,0x00,0x00,0x01,0x00,0x00,0x00,0x40,0x00,0x00,0x00,0x02,0x00,0x00,0x00,0xff,0xff,0xff,0xff,0x01,0x00,0x00,0x00,0x04,0x00,0x04,0x00,0x04,0x00,0x00,0x00,0x20,0x00,0x00,0x00,0x73,0x65,0x72,0x76,0x69,0x6e,0x67,0x5f,0x64,0x65,0x66,0x61,0x75,0x6c,0x74,0x5f,0x69,0x6e,0x70,0x75,0x74,0x5f,0x6c,0x61,0x79,0x65,0x72,0x5f,0x32,0x37,0x3a,0x30,0x00,0x00,0x00,0x00,0x02,0x00,0x00,0x00,0x01,0x00,0x00,0x00,0x01,0x00,0x00,0x00,0x01,0x00,0x00,0x00,0x10,0x00,0x00,0x00,0x0c,0x00,0x0c,0x00,0x0b,0x00,0x00,0x00,0x00,0x00,0x04,0x00,0x0c,0x00,0x00,0x00,0x09,0x00,0x00,0x00,0x00,0x00,0x00,0x09};
const unsigned int g_kasus_a_model_1_float_model_data_len = 1616;

#endif // G_KASUS_A_MODEL_1_FLOAT_H
