// File ini dibuat secara otomatis
#ifndef G_KASUS_D_MODEL_1_FLOAT_H
#define G_KASUS_D_MODEL_1_FLOAT_H

// Model: Kasus D Model 1 Float
// 1L, 8N, float32
// Size: 2472 bytes (2.41 KB)
const unsigned char g_kasus_d_model_1_float_model_data[] = {0x1c,0x00,0x00,0x00,0x54,0x46,0x4c,0x33,0x14,0x00,0x20,0x00,0x1c,0x00,0x18,0x00,0x14,0x00,0x10,0x00,0x0c,0x00,0x00,0x00,0x08,0x00,0x04,0x00,0x14,0x00,0x00,0x00,0x1c,0x00,0x00,0x00,0x94,0x00,0x00,0x00,0xec,0x00,0x00,0x00,0xd0,0x04,0x00,0x00,0xe0,0x04,0x00,0x00,0x44,0x09,0x00,0x00,0x03,0x00,0x00,0x00,0x01,0x00,0x00,0x00,0x10,0x00,0x00,0x00,0x00,0x00,0x0a,0x00,0x10,0x00,0x0c,0x00,0x08,0x00,0x04,0x00,0x0a,0x00,0x00,0x00,0x0c,0x00,0x00,0x00,0x1c,0x00,0x00,0x00,0x3c,0x00,0x00,0x00,0x0f,0x00,0x00,0x00,0x73,0x65,0x72,0x76,0x69,0x6e,0x67,0x5f,0x64,0x65,0x66,0x61,0x75,0x6c,0x74,0x00,0x01,0x00,0x00,0x00,0x04,0x00,0x00,0x00,0x94,0xff,0xff,0xff,0x07,0x00,0x00,0x00,0x04,0x00,0x00,0x00,0x08,0x00,0x00,0x00,0x6f,0x75,0x74,0x70,0x75,0x74,0x5f,0x30,0x00,0x00,0x00,0x00,0x01,0x00,0x00,0x00,0x04,0x00,0x00,0x00,0x1a,0xfb,0xff,0xff,0x04,0x00,0x00,0x00,0x0b,0x00,0x00,0x00,0x69,0x6e,0x70,0x75,0x74,0x5f,0x6c,0x61,0x79,0x65,0x72,0x00,0x02,0x00,0x00,0x00,0x34,0x00,0x00,0x00,0x04,0x00,0x00,0x00,0xdc,0xff,0xff,0xff,0x0a,0x00,0x00,0x00,0x04,0x00,0x00,0x00,0x13,0x00,0x00,0x00,0x43,0x4f,0x4e,0x56,0x45,0x52,0x53,0x49,0x4f,0x4e,0x5f,0x4d,0x45,0x54,0x41,0x44,0x41,0x54,0x41,0x00,0x08,0x00,0x0c,0x00,0x08,0x00,0x04,0x00,0x08,0x00,0x00,0x00,0x09,0x00,0x00,0x00,0x04,0x00,0x00,0x00,0x13,0x00,0x00,0x00,0x6d,0x69,0x6e,0x5f,0x72,0x75,0x6e,0x74,0x69,0x6d,0x65,0x5f,0x76,0x65,0x72,0x73,0x69,0x6f,0x6e,0x00,0x0b,0x00,0x00,0x00,0xe0,0x03,0x00,0x00,0xd8,0x03,0x00,0x00,0x68,0x03,0x00,0x00,0x4c,0x03,0x00,0x00,0x1c,0x03,0x00,0x00,0xac,0x00,0x00,0x00,0xa4,0x00,0x00,0x00,0x9c,0x00,0x00,0x00,0x94,0x00,0x00,0x00,0x74,0x00,0x00,0x00,0x04,0x00,0x00,0x00,0xbe,0xfb,0xff,0xff,0x04,0x00,0x00,0x00,0x60,0x00,0x00,0x00,0x10,0x00,0x00,0x00,0x00,0x00,0x00,0x00,0x08,0x00,0x0e,0x00,0x08,0x00,0x04,0x00,0x08,0x00,0x00,0x00,0x10,0x00,0x00,0x00,0x24,0x00,0x00,0x00,0x00,0x00,0x06,0x00,0x08,0x00,0x04,0x00,0x06,0x00,0x00,0x00,0x04,0x00,0x00,0x00,0x00,0x00,0x00,0x00,0x0c,0x00,0x18,0x00,0x14,0x00,0x10,0x00,0x0c,0x00,0x04,0x00,0x0c,0x00,0x00,0x00,0xbe,0x8b,0xbc,0x7d,0x3a,0x44,0x86,0x56,0x02,0x00,0x00,0x00,0x02,0x00,0x00,0x00,0x04,0x00,0x00,0x00,0x06,0x00,0x00,0x00,0x32,0x2e,0x31,0x38,0x2e,0x30,0x00,0x00,0x2a,0xfc,0xff,0xff,0x04,0x00,0x00,0x00,0x10,0x00,0x00,0x00,0x31,0x2e,0x35,0x2e,0x30,0x00,0x00,0x00,0x00,0x00,0x00,0x00,0x00,0x00,0x00,0x00,0x8c,0xf8,0xff,0xff,0x90,0xf8,0xff,0xff,0x94,0xf8,0xff,0xff,0x52,0xfc,0xff,0xff,0x04,0x00,0x00,0x00,0x60,0x02,0x00,0x00,0x17,0x9e,0x46,0x3e,0x1f,0x31,0x34,0x3f,0xa2,0x79,0x91,0x3e,0x4e,0xb6,0x10,0x3f,0xdf,0xe5,0x9a,0x3e,0xc4,0xa4,0xdc,0x3d,0x4f,0x4f,0xee,0x3e,0xaf,0xc5,0x85,0xbd,0x8e,0x70,0x94,0x3e,0x79,0x2a,0xb2,0x3e,0x4e,0xc6,0x8f,0xbc,0xb5,0x56,0xe6,0xbe,0x30,0x89,0xf8,0xbe,0x90,0x2d,0x9d,0x3e,0x6e,0x12,0x7c,0xbf,0x64,0x04,0x09,0x3f,0xef,0xa2,0x65,0xbe,0xfe,0x21,0x9b,0xbd,0x0b,0x8e,0x9d,0x3e,0x31,0xc8,0xb2,0x3e,0x19,0xde,0x0c,0x3f,0xd8,0xa7,0x01,0x3e,0x67,0x35,0x2c,0x3e,0x21,0x6b,0xf6,0x3e,0x8b,0x08,0x20,0x3e,0xb4,0x12,0x56,0x3f,0x5b,0xa8,0x1b,0x3e,0xfc,0xb4,0x10,0xbc,0x42,0xd2,0xbd,0x3e,0x75,0x73,0xea,0x3e,0xec,0x04,0xdc,0xbd,0x42,0x30,0x96,0xbe,0x76,0xb6,0xd2,0x3e,0xab,0xe5,0x9a,0xbf,0x6d,0x36,0xf0,0x3e,0x59,0x87,0x94,0xbe,0x21,0x40,0x33,0x3f,0xd0,0xef,0x44,0xbc,0x26,0xad,0x7b,0xbd,0xbc,0x04,0x4c,0xbf,0x26,0xb5,0xf2,0x3d,0x01,0x05,0x9e,0xbe,0x60,0xb0,0x37,0xbf,0xa3,0x2f,0xb8,0x3d,0x7d,0x02,0x3d,0xbb,0xe7,0x9a,0xdb,0x3d,0xb1,0x7f,0x6b,0x3e,0x0f,0x07,0xa7,0x3e,0xcb,0x9c,0x3d,0x3e,0xa2,0x8a,0x1c,0x3e,0x1b,0xf9,0x22,0x3e,0x1b,0x5c,0x0c,0xbf,0x06,0x75,0x65,0x3e,0x56,0x0a,0xba,0xbe,0xf4,0xfc,0xbf,0xbb,0x5d,0xb2,0xa2,0xbe,0xce,0xc0,0xf6,0x3e,0x09,0x87,0x23,0xbe,0xc2,0x23,0xf5,0xbd,0x7a,0x8f,0xd6,0x3e,0x7e,0x9b,0x03,0xbf,0x8d,0x75,0x2e,0x3e,0x8e,0x09,0xa6,0xbe,0xe9,0xcc,0x4f,0x3e,0x01,0x73,0xa4,0xbe,0xa4,0x94,0xb8,0x3e,0x64,0xf0,0x8d,0x3e,0xd5,0xbc,0x8c,0xbe,0xe5,0xe4,0xfe,0xbd,0xbf,0x33,0x16,0x3f,0x02,0x98,0x97,0xbe,0x00,0x78,0x2f,0xbd,0x58,0x4a,0x3b,0xbe,0x0f,0x7e,0x68,0xbe,0x90,0x90,0x06,0xbf,0xda,0x3d,0x55,0x3d,0x45,0x45,0xdc,0xbc,0xf6,0xf5,0x73,0x3e,0xff,0x13,0xb2,0x3d,0x47,0x51,0x11,0xbf,0x98,0x61,0x5d,0xbe,0x63,0x1f,0x12,0xbe,0x9f,0x86,0x21,0xbe,0xd4,0x73,0xee,0xbe,0xc6,0x27,0xb9,0x3e,0x0d,0x1f,0x35,0xbe,0x5c,0x92,0x20,0x3e,0xd3,0x6d,0xbc,0x3e,0x37,0x39,0x0b,0x3f,0x04,0x60,0x63,0x3e,0x58,0xaf,0xd5,0x3d,0x87,0xc2,0xdc,0x3d,0x21,0x5f,0xc9,0xbe,0x60,0xae,0x24,0xbf,0xee,0x3d,0x44,0x3c,0x35,0xf2,0x71,0x3e,0x8f,0x15,0xae,0x3c,0x22,0xe8,0x2a,0xbf,0x2b,0xcf,0x09,0x3d,0x42,0x17,0xab,0xbd,0x2a,0xb6,0x38,0xbe,0xd4,0x95,0x5a,0x3d,0x94,0x49,0x32,0xbd,0xa5,0x20,0x82,0xbe,0x7a,0x44,0x12,0x3e,0xef,0x3c,0x0d,0xbf,0x5e,0x41,0x8e,0xbe,0x35,0x65,0x45,0x3e,0x1a,0x14,0x48,0xbd,0x7a,0x01,0xa4,0xbe,0xe5,0x2b,0xe7,0xbc,0xdc,0x1d,0x9b,0xbe,0xab,0xd7,0x87,0xbd,0x2f,0xd6,0xdb,0xbd,0x1b,0x86,0x97,0xbe,0x94,0x1a,0x5b,0x3d,0x6c,0x55,0x15,0xbf,0xde,0xa3,0xa3,0x3e,0x17,0x54,0x18,0xbe,0x01,0x10,0xa0,0x3d,0xa6,0xd8,0x1b,0xbf,0x2a,0x76,0x0d,0xbe,0x75,0x9a,0x82,0xbf,0x5f,0xce,0x99,0xbf,0xa3,0x2a,0xa6,0xbf,0x8e,0xa0,0x54,0xbe,0x5a,0x68,0xf3,0xbe,0x83,0x17,0x27,0xbf,0x2b,0x69,0xcd,0x3e,0xd2,0xbb,0xe3,0x3b,0x2f,0xc7,0xe2,0x3e,0xe9,0x7f,0x01,0x3f,0x5d,0x78,0x8e,0xbf,0x08,0x1a,0x95,0x3e,0xef,0x17,0xf0,0x3d,0x49,0xff,0xce,0x3d,0xd5,0x36,0x72,0xbe,0xec,0xc8,0x17,0xbf,0x7c,0x9e,0x00,0xbf,0x2b,0xb1,0xe3,0xbe,0x27,0x09,0x99,0x3c,0x9f,0x31,0x19,0xbe,0x3a,0x4f,0xc6,0x3e,0x95,0x09,0x6b,0x3d,0xd2,0x31,0x00,0x3f,0xf3,0x28,0x8f,0xbe,0xd5,0x4c,0x41,0xbe,0x17,0x5c,0xb1,0x3e,0x9b,0x91,0x93,0xbd,0xdb,0x43,0xf6,0xbe,0x31,0x28,0x09,0xbf,0x11,0x0e,0x39,0xbe,0xbe,0xfe,0xff,0xff,0x04,0x00,0x00,0x00,0x20,0x00,0x00,0x00,0x25,0x59,0xd4,0xbe,0x82,0x08,0xfe,0xbe,0xaf,0x17,0x29,0xbe,0xb7,0x04,0xe9,0xba,0xf8,0x05,0xdf,0xbd,0x52,0xc3,0x32,0x3e,0xdc,0x91,0x84,0x3f,0x49,0x95,0xa4,0x3e,0xea,0xfe,0xff,0xff,0x04,0x00,0x00,0x00,0x0c,0x00,0x00,0x00,0xb6,0x11,0xe9,0xbe,0xbc,0x3f,0x1f,0x3f,0x40,0x76,0x1c,0xbf,0x02,0xff,0xff,0xff,0x04,0x00,0x00,0x00,0x60,0x00,0x00,0x00,0xa7,0x47,0x71,0xbf,0x4a,0x8f,0xdf,0xbe,0x13,0x39,0x21,0x3d,0x07,0x0c,0x2f,0xbb,0x15,0x79,0x4d,0x3f,0x70,0x06,0x23,0xbf,0xc3,0xcb,0x1b,0xbf,0x21,0xd7,0x2b,0x3f,0x29,0x7d,0x8e,0xbf,0x43,0x2a,0x7c,0xbf,0x70,0x96,0x98,0xbf,0xa8,0x4c,0x58,0xbf,0x84,0x3b,0x4e,0x3d,0x0d,0x73,0x0a,0x3f,0xc1,0xd8,0x97,0x3f,0xf6,0x51,0xc9,0x3e,0x93,0x93,0x81,0x3f,0x3f,0xc6,0xc4,0x3f,0xad,0x18,0x33,0xbf,0x24,0x91,0x6f,0xbf,0x4e,0xa3,0x61,0x3d,0xeb,0x17,0x90,0x3e,0x32,0x7d,0x3b,0xbe,0xf1,0x74,0x09,0xbf,0xb4,0xfb,0xff,0xff,0xb8,0xfb,0xff,0xff,0x0f,0x00,0x00,0x00,0x4d,0x4c,0x49,0x52,0x20,0x43,0x6f,0x6e,0x76,0x65,0x72,0x74,0x65,0x64,0x2e,0x00,0x01,0x00,0x00,0x00,0x14,0x00,0x00,0x00,0x00,0x00,0x0e,0x00,0x18,0x00,0x14,0x00,0x10,0x00,0x0c,0x00,0x08,0x00,0x04,0x00,0x0e,0x00,0x00,0x00,0x14,0x00,0x00,0x00,0x1c,0x00,0x00,0x00,0xec,0x00,0x00,0x00,0xf0,0x00,0x00,0x00,0xf4,0x00,0x00,0x00,0x04,0x00,0x00,0x00,0x6d,0x61,0x69,0x6e,0x00,0x00,0x00,0x00,0x03,0x00,0x00,0x00,0x94,0x00,0x00,0x00,0x50,0x00,0x00,0x00,0x14,0x00,0x00,0x00,0x00,0x00,0x0e,0x00,0x1a,0x00,0x14,0x00,0x10,0x00,0x0c,0x00,0x0b,0x00,0x04,0x00,0x0e,0x00,0x00,0x00,0x1c,0x00,0x00,0x00,0x00,0x00,0x00,0x09,0x1c,0x00,0x00,0x00,0x20,0x00,0x00,0x00,0x01,0x00,0x00,0x00,0x00,0x00,0x06,0x00,0x08,0x00,0x04,0x00,0x06,0x00,0x00,0x00,0x00,0x00,0x80,0x3f,0x01,0x00,0x00,0x00,0x07,0x00,0x00,0x00,0x01,0x00,0x00,0x00,0x06,0x00,0x00,0x00,0xce,0xff,0xff,0xff,0x10,0x00,0x00,0x00,0x00,0x00,0x00,0x08,0x0c,0x00,0x00,0x00,0x10,0x00,0x00,0x00,0x78,0xfc,0xff,0xff,0x01,0x00,0x00,0x00,0x06,0x00,0x00,0x00,0x03,0x00,0x00,0x00,0x05,0x00,0x00,0x00,0x01,0x00,0x00,0x00,0x02,0x00,0x00,0x00,0x00,0x00,0x0e,0x00,0x16,0x00,0x00,0x00,0x10,0x00,0x0c,0x00,0x0b,0x00,0x04,0x00,0x0e,0x00,0x00,0x00,0x18,0x00,0x00,0x00,0x00,0x00,0x00,0x08,0x18,0x00,0x00,0x00,0x1c,0x00,0x00,0x00,0x00,0x00,0x06,0x00,0x08,0x00,0x07,0x00,0x06,0x00,0x00,0x00,0x00,0x00,0x00,0x01,0x01,0x00,0x00,0x00,0x05,0x00,0x00,0x00,0x03,0x00,0x00,0x00,0x00,0x00,0x00,0x00,0x04,0x00,0x00,0x00,0x03,0x00,0x00,0x00,0x01,0x00,0x00,0x00,0x07,0x00,0x00,0x00,0x01,0x00,0x00,0x00,0x00,0x00,0x00,0x00,0x08,0x00,0x00,0x00,0xe4,0x02,0x00,0x00,0x8c,0x02,0x00,0x00,0x18,0x02,0x00,0x00,0xc0,0x01,0x00,0x00,0x74,0x01,0x00,0x00,0xe0,0x00,0x00,0x00,0x60,0x00,0x00,0x00,0x04,0x00,0x00,0x00,0x52,0xfd,0xff,0xff,0x00,0x00,0x00,0x01,0x14,0x00,0x00,0x00,0x1c,0x00,0x00,0x00,0x1c,0x00,0x00,0x00,0x08,0x00,0x00,0x00,0x34,0x00,0x00,0x00,0x02,0x00,0x00,0x00,0xff,0xff,0xff,0xff,0x03,0x00,0x00,0x00,0x3c,0xfd,0xff,0xff,0x1b,0x00,0x00,0x00,0x53,0x74,0x61,0x74,0x65,0x66,0x75,0x6c,0x50,0x61,0x72,0x74,0x69,0x74,0x69,0x6f,0x6e,0x65,0x64,0x43,0x61,0x6c,0x6c,0x5f,0x31,0x3a,0x30,0x00,0x02,0x00,0x00,0x00,0x01,0x00,0x00,0x00,0x03,0x00,0x00,0x00,0xaa,0xfd,0xff,0xff,0x00,0x00,0x00,0x01,0x14,0x00,0x00,0x00,0x1c,0x00,0x00,0x00,0x1c,0x00,0x00,0x00,0x07,0x00,0x00,0x00,0x58,0x00,0x00,0x00,0x02,0x00,0x00,0x00,0xff,0xff,0xff,0xff,0x03,0x00,0x00,0x00,0x94,0xfd,0xff,0xff,0x3c,0x00,0x00,0x00,0x73,0x65,0x71,0x75,0x65,0x6e,0x74,0x69,0x61,0x6c,0x5f,0x31,0x2f,0x64,0x65,0x6e,0x73,0x65,0x5f,0x31,0x5f,0x32,0x2f,0x4d,0x61,0x74,0x4d,0x75,0x6c,0x3b,0x73,0x65,0x71,0x75,0x65,0x6e,0x74,0x69,0x61,0x6c,0x5f,0x31,0x2f,0x64,0x65,0x6e,0x73,0x65,0x5f,0x31,0x5f,0x32,0x2f,0x42,0x69,0x61,0x73,0x41,0x64,0x64,0x00,0x00,0x00,0x00,0x02,0x00,0x00,0x00,0x01,0x00,0x00,0x00,0x03,0x00,0x00,0x00,0x26,0xfe,0xff,0xff,0x00,0x00,0x00,0x01,0x14,0x00,0x00,0x00,0x1c,0x00,0x00,0x00,0x1c,0x00,0x00,0x00,0x06,0x00,0x00,0x00,0x6c,0x00,0x00,0x00,0x02,0x00,0x00,0x00,0xff,0xff,0xff,0xff,0x08,0x00,0x00,0x00,0x10,0xfe,0xff,0xff,0x52,0x00,0x00,0x00,0x73,0x65,0x71,0x75,0x65,0x6e,0x74,0x69,0x61,0x6c,0x5f,0x31,0x2f,0x64,0x65,0x6e,0x73,0x65,0x5f,0x31,0x2f,0x4d,0x61,0x74,0x4d,0x75,0x6c,0x3b,0x73,0x65,0x71,0x75,0x65,0x6e,0x74,0x69,0x61,0x6c,0x5f,0x31,0x2f,0x64,0x65,0x6e,0x73,0x65,0x5f,0x31,0x2f,0x52,0x65,0x6c,0x75,0x3b,0x73,0x65,0x71,0x75,0x65,0x6e,0x74,0x69,0x61,0x6c,0x5f,0x31,0x2f,0x64,0x65,0x6e,0x73,0x65,0x5f,0x31,0x2f,0x42,0x69,0x61,0x73,0x41,0x64,0x64,0x00,0x00,0x02,0x00,0x00,0x00,0x01,0x00,0x00,0x00,0x08,0x00,0x00,0x00,0x0a,0xff,0xff,0xff,0x00,0x00,0x00,0x01,0x10,0x00,0x00,0x00,0x10,0x00,0x00,0x00,0x05,0x00,0x00,0x00,0x28,0x00,0x00,0x00,0x90,0xfe,0xff,0xff,0x1b,0x00,0x00,0x00,0x73,0x65,0x71,0x75,0x65,0x6e,0x74,0x69,0x61,0x6c,0x5f,0x31,0x2f,0x64,0x65,0x6e,0x73,0x65,0x5f,0x31,0x2f,0x4d,0x61,0x74,0x4d,0x75,0x6c,0x00,0x02,0x00,0x00,0x00,0x08,0x00,0x00,0x00,0x13,0x00,0x00,0x00,0x52,0xff,0xff,0xff,0x00,0x00,0x00,0x01,0x10,0x00,0x00,0x00,0x10,0x00,0x00,0x00,0x04,0x00,0x00,0x00,0x38,0x00,0x00,0x00,0xd8,0xfe,0xff,0xff,0x2b,0x00,0x00,0x00,0x73,0x65,0x71,0x75,0x65,0x6e,0x74,0x69,0x61,0x6c,0x5f,0x31,0x2f,0x64,0x65,0x6e,0x73,0x65,0x5f,0x31,0x2f,0x42,0x69,0x61,0x73,0x41,0x64,0x64,0x2f,0x52,0x65,0x61,0x64,0x56,0x61,0x72,0x69,0x61,0x62,0x6c,0x65,0x4f,0x70,0x00,0x01,0x00,0x00,0x00,0x08,0x00,0x00,0x00,0xa6,0xff,0xff,0xff,0x00,0x00,0x00,0x01,0x10,0x00,0x00,0x00,0x10,0x00,0x00,0x00,0x03,0x00,0x00,0x00,0x3c,0x00,0x00,0x00,0x2c,0xff,0xff,0xff,0x2d,0x00,0x00,0x00,0x73,0x65,0x71,0x75,0x65,0x6e,0x74,0x69,0x61,0x6c,0x5f,0x31,0x2f,0x64,0x65,0x6e,0x73,0x65,0x5f,0x31,0x5f,0x32,0x2f,0x42,0x69,0x61,0x73,0x41,0x64,0x64,0x2f,0x52,0x65,0x61,0x64,0x56,0x61,0x72,0x69,0x61,0x62,0x6c,0x65,0x4f,0x70,0x00,0x00,0x00,0x01,0x00,0x00,0x00,0x03,0x00,0x00,0x00,0x00,0x00,0x16,0x00,0x18,0x00,0x14,0x00,0x00,0x00,0x10,0x00,0x0c,0x00,0x08,0x00,0x00,0x00,0x00,0x00,0x00,0x00,0x07,0x00,0x16,0x00,0x00,0x00,0x00,0x00,0x00,0x01,0x10,0x00,0x00,0x00,0x10,0x00,0x00,0x00,0x02,0x00,0x00,0x00,0x1c,0x00,0x00,0x00,0x9c,0xff,0xff,0xff,0x0e,0x00,0x00,0x00,0x61,0x72,0x69,0x74,0x68,0x2e,0x63,0x6f,0x6e,0x73,0x74,0x61,0x6e,0x74,0x00,0x00,0x02,0x00,0x00,0x00,0x03,0x00,0x00,0x00,0x08,0x00,0x00,0x00,0x00,0x00,0x16,0x00,0x1c,0x00,0x18,0x00,0x00,0x00,0x14,0x00,0x10,0x00,0x0c,0x00,0x00,0x00,0x00,0x00,0x08,0x00,0x07,0x00,0x16,0x00,0x00,0x00,0x00,0x00,0x00,0x01,0x14,0x00,0x00,0x00,0x20,0x00,0x00,0x00,0x20,0x00,0x00,0x00,0x01,0x00,0x00,0x00,0x3c,0x00,0x00,0x00,0x02,0x00,0x00,0x00,0xff,0xff,0xff,0xff,0x13,0x00,0x00,0x00,0x04,0x00,0x04,0x00,0x04,0x00,0x00,0x00,0x1d,0x00,0x00,0x00,0x73,0x65,0x72,0x76,0x69,0x6e,0x67,0x5f,0x64,0x65,0x66,0x61,0x75,0x6c,0x74,0x5f,0x69,0x6e,0x70,0x75,0x74,0x5f,0x6c,0x61,0x79,0x65,0x72,0x3a,0x30,0x00,0x00,0x00,0x02,0x00,0x00,0x00,0x01,0x00,0x00,0x00,0x13,0x00,0x00,0x00,0x02,0x00,0x00,0x00,0x20,0x00,0x00,0x00,0x04,0x00,0x00,0x00,0xf4,0xff,0xff,0xff,0x19,0x00,0x00,0x00,0x00,0x00,0x00,0x19,0x0c,0x00,0x0c,0x00,0x0b,0x00,0x00,0x00,0x00,0x00,0x04,0x00,0x0c,0x00,0x00,0x00,0x09,0x00,0x00,0x00,0x00,0x00,0x00,0x09};
const unsigned int g_kasus_d_model_1_float_model_data_len = 2472;

#endif // G_KASUS_D_MODEL_1_FLOAT_H
