// File ini dibuat secara otomatis
#ifndef G_KASUS_D_MODEL_2_INT8_H
#define G_KASUS_D_MODEL_2_INT8_H

// Model: Kasus D Model 2 INT8
// 2L, 16N, int8 quantized
// Size: 3288 bytes (3.21 KB)
const unsigned char g_kasus_d_model_2_int8_model_data[] = {0x20,0x00,0x00,0x00,0x54,0x46,0x4c,0x33,0x00,0x00,0x00,0x00,0x14,0x00,0x20,0x00,0x1c,0x00,0x18,0x00,0x14,0x00,0x10,0x00,0x0c,0x00,0x00,0x00,0x08,0x00,0x04,0x00,0x14,0x00,0x00,0x00,0x1c,0x00,0x00,0x00,0x98,0x00,0x00,0x00,0x18,0x01,0x00,0x00,0x44,0x05,0x00,0x00,0x54,0x05,0x00,0x00,0x68,0x0c,0x00,0x00,0x03,0x00,0x00,0x00,0x01,0x00,0x00,0x00,0x10,0x00,0x00,0x00,0x00,0x00,0x0a,0x00,0x10,0x00,0x0c,0x00,0x08,0x00,0x04,0x00,0x0a,0x00,0x00,0x00,0x0c,0x00,0x00,0x00,0x1c,0x00,0x00,0x00,0x3c,0x00,0x00,0x00,0x0f,0x00,0x00,0x00,0x73,0x65,0x72,0x76,0x69,0x6e,0x67,0x5f,0x64,0x65,0x66,0x61,0x75,0x6c,0x74,0x00,0x01,0x00,0x00,0x00,0x04,0x00,0x00,0x00,0x68,0xff,0xff,0xff,0x0a,0x00,0x00,0x00,0x04,0x00,0x00,0x00,0x08,0x00,0x00,0x00,0x6f,0x75,0x74,0x70,0x75,0x74,0x5f,0x30,0x00,0x00,0x00,0x00,0x01,0x00,0x00,0x00,0x04,0x00,0x00,0x00,0xa2,0xfa,0xff,0xff,0x04,0x00,0x00,0x00,0x0d,0x00,0x00,0x00,0x69,0x6e,0x70,0x75,0x74,0x5f,0x6c,0x61,0x79,0x65,0x72,0x5f,0x31,0x00,0x00,0x00,0x03,0x00,0x00,0x00,0x5c,0x00,0x00,0x00,0x2c,0x00,0x00,0x00,0x04,0x00,0x00,0x00,0xb8,0xff,0xff,0xff,0x0e,0x00,0x00,0x00,0x04,0x00,0x00,0x00,0x13,0x00,0x00,0x00,0x43,0x4f,0x4e,0x56,0x45,0x52,0x53,0x49,0x4f,0x4e,0x5f,0x4d,0x45,0x54,0x41,0x44,0x41,0x54,0x41,0x00,0xdc,0xff,0xff,0xff,0x0d,0x00,0x00,0x00,0x04,0x00,0x00,0x00,0x13,0x00,0x00,0x00,0x6d,0x69,0x6e,0x5f,0x72,0x75,0x6e,0x74,0x69,0x6d,0x65,0x5f,0x76,0x65,0x72,0x73,0x69,0x6f,0x6e,0x00,0x08,0x00,0x0c,0x00,0x08,0x00,0x04,0x00,0x08,0x00,0x00,0x00,0x0c,0x00,0x00,0x00,0x04,0x00,0x00,0x00,0x13,0x00,0x00,0x00,0x6d,0x69,0x6e,0x5f,0x72,0x75,0x6e,0x74,0x69,0x6d,0x65,0x5f,0x76,0x65,0x72,0x73,0x69,0x6f,0x6e,0x00,0x0f,0x00,0x00,0x00,0x28,0x04,0x00,0x00,0x20,0x04,0x00,0x00,0x04,0x04,0x00,0x00,0xc4,0x03,0x00,0x00,0x74,0x03,0x00,0x00,0x64,0x02,0x00,0x00,0x14,0x02,0x00,0x00,0xd4,0x00,0x00,0x00,0xcc,0x00,0x00,0x00,0xc4,0x00,0x00,0x00,0xbc,0x00,0x00,0x00,0xb4,0x00,0x00,0x00,0x94,0x00,0x00,0x00,0x74,0x00,0x00,0x00,0x04,0x00,0x00,0x00,0x82,0xfb,0xff,0xff,0x04,0x00,0x00,0x00,0x60,0x00,0x00,0x00,0x0c,0x00,0x00,0x00,0x08,0x00,0x0e,0x00,0x08,0x00,0x04,0x00,0x08,0x00,0x00,0x00,0x10,0x00,0x00,0x00,0x28,0x00,0x00,0x00,0x00,0x00,0x06,0x00,0x08,0x00,0x04,0x00,0x06,0x00,0x00,0x00,0x04,0x00,0x00,0x00,0x01,0x00,0x00,0x00,0xeb,0x03,0x00,0x00,0x0c,0x00,0x18,0x00,0x14,0x00,0x10,0x00,0x0c,0x00,0x04,0x00,0x0c,0x00,0x00,0x00,0xd4,0xbe,0x3e,0xc5,0xa2,0xc9,0xb2,0x59,0x02,0x00,0x00,0x00,0x02,0x00,0x00,0x00,0x04,0x00,0x00,0x00,0x06,0x00,0x00,0x00,0x32,0x2e,0x31,0x38,0x2e,0x30,0x00,0x00,0xee,0xfb,0xff,0xff,0x04,0x00,0x00,0x00,0x10,0x00,0x00,0x00,0x00,0x00,0x00,0x00,0x00,0x00,0x00,0x00,0x00,0x00,0x00,0x00,0x00,0x00,0x00,0x00,0x0a,0xfc,0xff,0xff,0x04,0x00,0x00,0x00,0x10,0x00,0x00,0x00,0x31,0x2e,0x31,0x34,0x2e,0x30,0x00,0x00,0x00,0x00,0x00,0x00,0x00,0x00,0x00,0x00,0xf4,0xfb,0xff,0xff,0xf8,0xfb,0xff,0xff,0xfc,0xfb,0xff,0xff,0x00,0xfc,0xff,0xff,0x36,0xfc,0xff,0xff,0x04,0x00,0x00,0x00,0x30,0x01,0x00,0x00,0xff,0xf2,0xd4,0x1e,0xf2,0xef,0x04,0xc7,0x2f,0x39,0xe3,0x33,0x1a,0xdd,0x1e,0x35,0xe7,0xfd,0x11,0x15,0x4e,0x17,0x4a,0x62,0xdc,0x59,0x2a,0xf2,0x39,0x31,0xd6,0x27,0x32,0xc5,0x39,0xd4,0x0f,0xf5,0x4e,0x24,0x02,0xe4,0xd7,0xe4,0xfe,0xdb,0xbd,0xf3,0x20,0xe3,0xfa,0xdc,0x2b,0x4e,0xf7,0xfd,0x28,0x32,0x53,0x01,0x48,0xf6,0x2f,0x0a,0xd9,0xea,0x0d,0xbe,0xc8,0xe8,0xf2,0x23,0xde,0xce,0x19,0xbb,0xfb,0xff,0x3a,0xf9,0xee,0xd8,0xda,0x2a,0xe5,0x44,0x07,0x0c,0x3e,0xdd,0x0b,0xc8,0xfa,0xc1,0x2e,0xcf,0x14,0xd9,0xd3,0xf1,0xc5,0xc6,0x15,0x2b,0x4f,0xde,0x4b,0x2a,0x06,0x39,0x05,0x0b,0xf4,0x0b,0x35,0x35,0xb4,0x4f,0xed,0x39,0xf7,0xd7,0xe9,0x04,0xcd,0x1b,0xdc,0x11,0xca,0x3a,0xbe,0x51,0xc0,0xf9,0x3b,0x21,0xc2,0xd5,0xcb,0xee,0xdc,0xd1,0xd8,0x42,0x06,0x02,0xd9,0x08,0xce,0x43,0xd3,0x27,0x28,0xd3,0xfc,0x4c,0xea,0xe1,0xfa,0x31,0x0e,0x36,0x25,0xd2,0xbb,0x0a,0xed,0x1a,0x2b,0x51,0x04,0xfc,0x1a,0x3d,0x3a,0xfc,0x27,0xc7,0x21,0xed,0xeb,0xd9,0xf9,0xca,0xf9,0x18,0x26,0x14,0xf4,0xa6,0x5b,0xf0,0xed,0xd2,0xc2,0xcc,0x00,0x25,0xf9,0xce,0x29,0x18,0x50,0xbc,0x4e,0x2c,0xe6,0xdd,0xec,0xf3,0x36,0x31,0x1f,0x47,0xef,0x01,0x25,0xc9,0x1c,0xe4,0xf6,0xea,0x10,0xd8,0xff,0x15,0x1f,0xc3,0xda,0x16,0x38,0xd9,0x26,0xc7,0x36,0xdc,0x40,0xca,0x05,0x0a,0x3a,0xfa,0x07,0x36,0xe5,0xf1,0x0e,0xe3,0xdb,0xe3,0xe7,0x27,0xf2,0xc8,0x29,0xbc,0x9b,0xd7,0xe9,0xe3,0xe0,0x6b,0xeb,0x28,0x16,0xac,0xb1,0x18,0x1a,0xe7,0xee,0xb4,0xf6,0x48,0xd4,0xca,0xaa,0xe8,0xdb,0xee,0xf6,0x31,0xe0,0x0a,0xde,0x2b,0x30,0x1f,0xf4,0x43,0x21,0x5c,0x3b,0x0e,0xf6,0x3c,0xd5,0xa9,0x3e,0x81,0x49,0x18,0x35,0x33,0x72,0xfd,0xff,0xff,0x04,0x00,0x00,0x00,0x40,0x00,0x00,0x00,0x85,0xfe,0xff,0xff,0x07,0xfd,0xff,0xff,0x2f,0x05,0x00,0x00,0x31,0x0a,0x00,0x00,0x65,0x01,0x00,0x00,0xa8,0x02,0x00,0x00,0x5a,0x06,0x00,0x00,0xf3,0x06,0x00,0x00,0x62,0xfd,0xff,0xff,0xf1,0x04,0x00,0x00,0x4e,0x03,0x00,0x00,0x65,0x01,0x00,0x00,0x6a,0x00,0x00,0x00,0xe4,0x09,0x00,0x00,0x69,0x06,0x00,0x00,0xd3,0xfb,0xff,0xff,0xbe,0xfd,0xff,0xff,0x04,0x00,0x00,0x00,0x00,0x01,0x00,0x00,0x31,0x6a,0x08,0x2c,0xd1,0x02,0x2d,0xa9,0x51,0xff,0xb1,0x41,0xdf,0xd2,0xe9,0x01,0xbf,0x1d,0x14,0x7f,0xbe,0xe7,0x11,0x3d,0xdf,0x61,0x1d,0x41,0xd3,0x4a,0xfe,0xee,0x3d,0xa3,0x41,0x39,0xe8,0x1f,0x0f,0x2a,0xeb,0xfa,0xe4,0x26,0xe0,0x53,0x40,0xc7,0x01,0x4a,0x21,0x67,0x18,0xf1,0xfc,0xe7,0xf9,0xfb,0xe9,0x44,0xff,0x1a,0x50,0xff,0x2f,0x47,0xfb,0xee,0x0f,0xf6,0x13,0xc5,0x29,0x1d,0xef,0x42,0xe8,0xdf,0x18,0x49,0x1d,0x14,0x09,0x01,0x1a,0xc5,0x19,0x0c,0x33,0x06,0x00,0xd1,0xd4,0xd2,0xc6,0x0e,0xcd,0xf1,0x04,0xe6,0xd5,0xf1,0x27,0x1f,0xfa,0x5b,0x21,0xfc,0x03,0x6f,0x15,0xa9,0xbe,0x0c,0x04,0x19,0xcd,0x10,0x40,0xdc,0xd5,0x24,0xd2,0xd4,0xd2,0xc5,0xe9,0x32,0xbc,0x69,0xba,0xd8,0xd5,0xce,0x33,0x1a,0xfd,0x07,0x03,0xff,0x28,0x02,0xf8,0x43,0xef,0x2c,0x4a,0xb7,0x0d,0x30,0xfa,0x37,0xca,0xbb,0xff,0x1b,0xf9,0xf3,0xe3,0xd5,0x2f,0xd4,0xce,0xd4,0x2f,0x36,0x2d,0x53,0xc5,0x0d,0x12,0xfb,0x13,0xcc,0xf4,0xf1,0x4c,0xcb,0x1c,0x0c,0x4a,0x49,0xc6,0xe2,0xc3,0xf7,0x32,0xd7,0x14,0x00,0xdb,0x1e,0x3a,0xd1,0x05,0x2f,0xdd,0xe0,0x23,0x55,0xea,0xf9,0x39,0xd3,0x24,0x6c,0x03,0xdd,0xfb,0x06,0xd9,0x26,0x45,0x29,0xc4,0x01,0x41,0x25,0x24,0x2e,0xee,0x17,0xd2,0xba,0x32,0xf4,0x27,0x1b,0xd4,0xf4,0x45,0xcc,0x3c,0x17,0xed,0x17,0x19,0xe9,0x22,0x26,0x08,0x1c,0xde,0xd8,0x47,0xfd,0x16,0x2f,0x02,0x2d,0x29,0xd6,0x29,0xb6,0xf4,0xdb,0xca,0xfe,0xff,0xff,0x04,0x00,0x00,0x00,0x40,0x00,0x00,0x00,0x5f,0xfb,0xff,0xff,0xe7,0x09,0x00,0x00,0xd9,0x05,0x00,0x00,0x0f,0x05,0x00,0x00,0x5e,0xfb,0xff,0xff,0x75,0xff,0xff,0xff,0x18,0x06,0x00,0x00,0xea,0xfd,0xff,0xff,0x18,0xfc,0xff,0xff,0xd8,0x02,0x00,0x00,0x17,0x00,0x00,0x00,0x02,0xff,0xff,0xff,0xe7,0x09,0x00,0x00,0x6a,0xff,0xff,0xff,0x4d,0x02,0x00,0x00,0x15,0x01,0x00,0x00,0x16,0xff,0xff,0xff,0x04,0x00,0x00,0x00,0x30,0x00,0x00,0x00,0xf5,0xf7,0x16,0xae,0xda,0xc5,0xdd,0xe4,0x21,0x5c,0x37,0x45,0xd6,0x3b,0xb3,0x3f,0xdb,0x45,0x58,0x1b,0xc7,0x07,0x49,0xce,0xe2,0x9e,0xfa,0xfd,0x13,0xe7,0xf8,0xde,0x60,0x2a,0xc9,0x0c,0x15,0xe7,0xa3,0xea,0x41,0xf2,0xf8,0x17,0x81,0xbe,0x2b,0xe8,0x52,0xff,0xff,0xff,0x04,0x00,0x00,0x00,0x0c,0x00,0x00,0x00,0x6b,0xfd,0xff,0xff,0x0c,0x03,0x00,0x00,0x0d,0xfd,0xff,0xff,0x38,0xff,0xff,0xff,0x3c,0xff,0xff,0xff,0x0f,0x00,0x00,0x00,0x4d,0x4c,0x49,0x52,0x20,0x43,0x6f,0x6e,0x76,0x65,0x72,0x74,0x65,0x64,0x2e,0x00,0x01,0x00,0x00,0x00,0x14,0x00,0x00,0x00,0x00,0x00,0x0e,0x00,0x18,0x00,0x14,0x00,0x10,0x00,0x0c,0x00,0x08,0x00,0x04,0x00,0x0e,0x00,0x00,0x00,0x14,0x00,0x00,0x00,0x1c,0x00,0x00,0x00,0x28,0x01,0x00,0x00,0x2c,0x01,0x00,0x00,0x30,0x01,0x00,0x00,0x04,0x00,0x00,0x00,0x6d,0x61,0x69,0x6e,0x00,0x00,0x00,0x00,0x04,0x00,0x00,0x00,0xd0,0x00,0x00,0x00,0x88,0x00,0x00,0x00,0x50,0x00,0x00,0x00,0x14,0x00,0x00,0x00,0x00,0x00,0x0e,0x00,0x1a,0x00,0x14,0x00,0x10,0x00,0x0c,0x00,0x0b,0x00,0x04,0x00,0x0e,0x00,0x00,0x00,0x1c,0x00,0x00,0x00,0x00,0x00,0x00,0x09,0x1c,0x00,0x00,0x00,0x20,0x00,0x00,0x00,0x01,0x00,0x00,0x00,0x00,0x00,0x06,0x00,0x08,0x00,0x04,0x00,0x06,0x00,0x00,0x00,0x00,0x00,0x80,0x3f,0x01,0x00,0x00,0x00,0x0a,0x00,0x00,0x00,0x01,0x00,0x00,0x00,0x09,0x00,0x00,0x00,0x96,0xff,0xff,0xff,0x14,0x00,0x00,0x00,0x00,0x00,0x00,0x08,0x10,0x00,0x00,0x00,0x14,0x00,0x00,0x00,0x04,0x00,0x04,0x00,0x04,0x00,0x00,0x00,0x01,0x00,0x00,0x00,0x09,0x00,0x00,0x00,0x03,0x00,0x00,0x00,0x08,0x00,0x00,0x00,0x02,0x00,0x00,0x00,0x01,0x00,0x00,0x00,0xca,0xff,0xff,0xff,0x10,0x00,0x00,0x00,0x00,0x00,0x00,0x08,0x10,0x00,0x00,0x00,0x14,0x00,0x00,0x00,0xba,0xff,0xff,0xff,0x00,0x00,0x00,0x01,0x01,0x00,0x00,0x00,0x08,0x00,0x00,0x00,0x03,0x00,0x00,0x00,0x07,0x00,0x00,0x00,0x04,0x00,0x00,0x00,0x03,0x00,0x00,0x00,0x00,0x00,0x0e,0x00,0x16,0x00,0x00,0x00,0x10,0x00,0x0c,0x00,0x0b,0x00,0x04,0x00,0x0e,0x00,0x00,0x00,0x18,0x00,0x00,0x00,0x00,0x00,0x00,0x08,0x18,0x00,0x00,0x00,0x1c,0x00,0x00,0x00,0x00,0x00,0x06,0x00,0x08,0x00,0x07,0x00,0x06,0x00,0x00,0x00,0x00,0x00,0x00,0x01,0x01,0x00,0x00,0x00,0x07,0x00,0x00,0x00,0x03,0x00,0x00,0x00,0x00,0x00,0x00,0x00,0x06,0x00,0x00,0x00,0x05,0x00,0x00,0x00,0x01,0x00,0x00,0x00,0x0a,0x00,0x00,0x00,0x01,0x00,0x00,0x00,0x00,0x00,0x00,0x00,0x0b,0x00,0x00,0x00,0x30,0x05,0x00,0x00,0xb8,0x04,0x00,0x00,0x3c,0x04,0x00,0x00,0xd8,0x03,0x00,0x00,0x74,0x03,0x00,0x00,0x10,0x03,0x00,0x00,0xac,0x02,0x00,0x00,0xe8,0x01,0x00,0x00,0x24,0x01,0x00,0x00,0x80,0x00,0x00,0x00,0x04,0x00,0x00,0x00,0x12,0xfb,0xff,0xff,0x00,0x00,0x00,0x01,0x18,0x00,0x00,0x00,0x20,0x00,0x00,0x00,0x3c,0x00,0x00,0x00,0x0b,0x00,0x00,0x00,0x00,0x00,0x00,0x09,0x50,0x00,0x00,0x00,0x02,0x00,0x00,0x00,0xff,0xff,0xff,0xff,0x03,0x00,0x00,0x00,0xfc,0xfa,0xff,0xff,0x08,0x00,0x00,0x00,0x10,0x00,0x00,0x00,0x01,0x00,0x00,0x00,0x80,0xff,0xff,0xff,0xff,0xff,0xff,0xff,0x01,0x00,0x00,0x00,0x00,0x00,0x80,0x3b,0x1b,0x00,0x00,0x00,0x53,0x74,0x61,0x74,0x65,0x66,0x75,0x6c,0x50,0x61,0x72,0x74,0x69,0x74,0x69,0x6f,0x6e,0x65,0x64,0x43,0x61,0x6c,0x6c,0x5f,0x31,0x3a,0x30,0x00,0x02,0x00,0x00,0x00,0x01,0x00,0x00,0x00,0x03,0x00,0x00,0x00,0x8a,0xfb,0xff,0xff,0x00,0x00,0x00,0x01,0x18,0x00,0x00,0x00,0x20,0x00,0x00,0x00,0x3c,0x00,0x00,0x00,0x0a,0x00,0x00,0x00,0x00,0x00,0x00,0x09,0x78,0x00,0x00,0x00,0x02,0x00,0x00,0x00,0xff,0xff,0xff,0xff,0x03,0x00,0x00,0x00,0x74,0xfb,0xff,0xff,0x08,0x00,0x00,0x00,0x10,0x00,0x00,0x00,0x01,0x00,0x00,0x00,0xef,0xff,0xff,0xff,0xff,0xff,0xff,0xff,0x01,0x00,0x00,0x00,0x58,0xf8,0xbf,0x3d,0x40,0x00,0x00,0x00,0x73,0x65,0x71,0x75,0x65,0x6e,0x74,0x69,0x61,0x6c,0x5f,0x31,0x5f,0x31,0x2f,0x64,0x65,0x6e,0x73,0x65,0x5f,0x34,0x5f,0x31,0x2f,0x4d,0x61,0x74,0x4d,0x75,0x6c,0x3b,0x73,0x65,0x71,0x75,0x65,0x6e,0x74,0x69,0x61,0x6c,0x5f,0x31,0x5f,0x31,0x2f,0x64,0x65,0x6e,0x73,0x65,0x5f,0x34,0x5f,0x31,0x2f,0x42,0x69,0x61,0x73,0x41,0x64,0x64,0x00,0x00,0x00,0x00,0x02,0x00,0x00,0x00,0x01,0x00,0x00,0x00,0x03,0x00,0x00,0x00,0x2a,0xfc,0xff,0xff,0x00,0x00,0x00,0x01,0x18,0x00,0x00,0x00,0x20,0x00,0x00,0x00,0x40,0x00,0x00,0x00,0x09,0x00,0x00,0x00,0x00,0x00,0x00,0x09,0x98,0x00,0x00,0x00,0x02,0x00,0x00,0x00,0xff,0xff,0xff,0xff,0x10,0x00,0x00,0x00,0x14,0xfc,0xff,0xff,0x08,0x00,0x00,0x00,0x14,0x00,0x00,0x00,0x01,0x00,0x00,0x00,0x80,0xff,0xff,0xff,0xff,0xff,0xff,0xff,0x00,0x00,0x00,0x00,0x01,0x00,0x00,0x00,0x2b,0x77,0xe2,0x3c,0x5e,0x00,0x00,0x00,0x73,0x65,0x71,0x75,0x65,0x6e,0x74,0x69,0x61,0x6c,0x5f,0x31,0x5f,0x31,0x2f,0x64,0x65,0x6e,0x73,0x65,0x5f,0x33,0x5f,0x31,0x2f,0x4d,0x61,0x74,0x4d,0x75,0x6c,0x3b,0x73,0x65,0x71,0x75,0x65,0x6e,0x74,0x69,0x61,0x6c,0x5f,0x31,0x5f,0x31,0x2f,0x64,0x65,0x6e,0x73,0x65,0x5f,0x33,0x5f,0x31,0x2f,0x52,0x65,0x6c,0x75,0x3b,0x73,0x65,0x71,0x75,0x65,0x6e,0x74,0x69,0x61,0x6c,0x5f,0x31,0x5f,0x31,0x2f,0x64,0x65,0x6e,0x73,0x65,0x5f,0x33,0x5f,0x31,0x2f,0x42,0x69,0x61,0x73,0x41,0x64,0x64,0x00,0x00,0x02,0x00,0x00,0x00,0x01,0x00,0x00,0x00,0x10,0x00,0x00,0x00,0xea,0xfc,0xff,0xff,0x00,0x00,0x00,0x01,0x18,0x00,0x00,0x00,0x20,0x00,0x00,0x00,0x40,0x00,0x00,0x00,0x08,0x00,0x00,0x00,0x00,0x00,0x00,0x09,0x98,0x00,0x00,0x00,0x02,0x00,0x00,0x00,0xff,0xff,0xff,0xff,0x10,0x00,0x00,0x00,0xd4,0xfc,0xff,0xff,0x08,0x00,0x00,0x00,0x14,0x00,0x00,0x00,0x01,0x00,0x00,0x00,0x80,0xff,0xff,0xff,0xff,0xff,0xff,0xff,0x00,0x00,0x00,0x00,0x01,0x00,0x00,0x00,0x6a,0x2f,0xc2,0x3c,0x5e,0x00,0x00,0x00,0x73,0x65,0x71,0x75,0x65,0x6e,0x74,0x69,0x61,0x6c,0x5f,0x31,0x5f,0x31,0x2f,0x64,0x65,0x6e,0x73,0x65,0x5f,0x32,0x5f,0x31,0x2f,0x4d,0x61,0x74,0x4d,0x75,0x6c,0x3b,0x73,0x65,0x71,0x75,0x65,0x6e,0x74,0x69,0x61,0x6c,0x5f,0x31,0x5f,0x31,0x2f,0x64,0x65,0x6e,0x73,0x65,0x5f,0x32,0x5f,0x31,0x2f,0x52,0x65,0x6c,0x75,0x3b,0x73,0x65,0x71,0x75,0x65,0x6e,0x74,0x69,0x61,0x6c,0x5f,0x31,0x5f,0x31,0x2f,0x64,0x65,0x6e,0x73,0x65,0x5f,0x32,0x5f,0x31,0x2f,0x42,0x69,0x61,0x73,0x41,0x64,0x64,0x00,0x00,0x02,0x00,0x00,0x00,0x01,0x00,0x00,0x00,0x10,0x00,0x00,0x00,0x1e,0xfe,0xff,0xff,0x00,0x00,0x00,0x01,0x14,0x00,0x00,0x00,0x30,0x00,0x00,0x00,0x07,0x00,0x00,0x00,0x00,0x00,0x00,0x09,0x3c,0x00,0x00,0x00,0x84,0xfd,0xff,0xff,0x08,0x00,0x00,0x00,0x10,0x00,0x00,0x00,0x01,0x00,0x00,0x00,0x00,0x00,0x00,0x00,0x00,0x00,0x00,0x00,0x01,0x00,0x00,0x00,0xa4,0x31,0xd1,0x3b,0x12,0x00,0x00,0x00,0x74,0x66,0x6c,0x2e,0x70,0x73,0x65,0x75,0x64,0x6f,0x5f,0x71,0x63,0x6f,0x6e,0x73,0x74,0x35,0x00,0x00,0x02,0x00,0x00,0x00,0x10,0x00,0x00,0x00,0x13,0x00,0x00,0x00,0x7e,0xfe,0xff,0xff,0x00,0x00,0x00,0x01,0x14,0x00,0x00,0x00,0x34,0x00,0x00,0x00,0x06,0x00,0x00,0x00,0x00,0x00,0x00,0x02,0x40,0x00,0x00,0x00,0xe4,0xfd,0xff,0xff,0x08,0x00,0x00,0x00,0x14,0x00,0x00,0x00,0x01,0x00,0x00,0x00,0x00,0x00,0x00,0x00,0x00,0x00,0x00,0x00,0x00,0x00,0x00,0x00,0x01,0x00,0x00,0x00,0xb1,0xba,0x0b,0x39,0x12,0x00,0x00,0x00,0x74,0x66,0x6c,0x2e,0x70,0x73,0x65,0x75,0x64,0x6f,0x5f,0x71,0x63,0x6f,0x6e,0x73,0x74,0x34,0x00,0x00,0x01,0x00,0x00,0x00,0x10,0x00,0x00,0x00,0xde,0xfe,0xff,0xff,0x00,0x00,0x00,0x01,0x14,0x00,0x00,0x00,0x30,0x00,0x00,0x00,0x05,0x00,0x00,0x00,0x00,0x00,0x00,0x09,0x3c,0x00,0x00,0x00,0x44,0xfe,0xff,0xff,0x08,0x00,0x00,0x00,0x10,0x00,0x00,0x00,0x01,0x00,0x00,0x00,0x00,0x00,0x00,0x00,0x00,0x00,0x00,0x00,0x01,0x00,0x00,0x00,0x46,0x34,0xd5,0x3b,0x12,0x00,0x00,0x00,0x74,0x66,0x6c,0x2e,0x70,0x73,0x65,0x75,0x64,0x6f,0x5f,0x71,0x63,0x6f,0x6e,0x73,0x74,0x33,0x00,0x00,0x02,0x00,0x00,0x00,0x10,0x00,0x00,0x00,0x10,0x00,0x00,0x00,0x3e,0xff,0xff,0xff,0x00,0x00,0x00,0x01,0x14,0x00,0x00,0x00,0x34,0x00,0x00,0x00,0x04,0x00,0x00,0x00,0x00,0x00,0x00,0x02,0x40,0x00,0x00,0x00,0xa4,0xfe,0xff,0xff,0x08,0x00,0x00,0x00,0x14,0x00,0x00,0x00,0x01,0x00,0x00,0x00,0x00,0x00,0x00,0x00,0x00,0x00,0x00,0x00,0x00,0x00,0x00,0x00,0x01,0x00,0x00,0x00,0x1a,0xb9,0x21,0x39,0x12,0x00,0x00,0x00,0x74,0x66,0x6c,0x2e,0x70,0x73,0x65,0x75,0x64,0x6f,0x5f,0x71,0x63,0x6f,0x6e,0x73,0x74,0x32,0x00,0x00,0x01,0x00,0x00,0x00,0x10,0x00,0x00,0x00,0x9e,0xff,0xff,0xff,0x00,0x00,0x00,0x01,0x14,0x00,0x00,0x00,0x30,0x00,0x00,0x00,0x03,0x00,0x00,0x00,0x00,0x00,0x00,0x09,0x3c,0x00,0x00,0x00,0x04,0xff,0xff,0xff,0x08,0x00,0x00,0x00,0x10,0x00,0x00,0x00,0x01,0x00,0x00,0x00,0x00,0x00,0x00,0x00,0x00,0x00,0x00,0x00,0x01,0x00,0x00,0x00,0xc7,0xe6,0x10,0x3c,0x12,0x00,0x00,0x00,0x74,0x66,0x6c,0x2e,0x70,0x73,0x65,0x75,0x64,0x6f,0x5f,0x71,0x63,0x6f,0x6e,0x73,0x74,0x31,0x00,0x00,0x02,0x00,0x00,0x00,0x03,0x00,0x00,0x00,0x10,0x00,0x00,0x00,0x00,0x00,0x16,0x00,0x1c,0x00,0x18,0x00,0x17,0x00,0x10,0x00,0x0c,0x00,0x08,0x00,0x00,0x00,0x00,0x00,0x00,0x00,0x07,0x00,0x16,0x00,0x00,0x00,0x00,0x00,0x00,0x01,0x14,0x00,0x00,0x00,0x30,0x00,0x00,0x00,0x02,0x00,0x00,0x00,0x00,0x00,0x00,0x02,0x3c,0x00,0x00,0x00,0x7c,0xff,0xff,0xff,0x08,0x00,0x00,0x00,0x10,0x00,0x00,0x00,0x01,0x00,0x00,0x00,0x00,0x00,0x00,0x00,0x00,0x00,0x00,0x00,0x01,0x00,0x00,0x00,0x2f,0x2f,0x80,0x39,0x11,0x00,0x00,0x00,0x74,0x66,0x6c,0x2e,0x70,0x73,0x65,0x75,0x64,0x6f,0x5f,0x71,0x63,0x6f,0x6e,0x73,0x74,0x00,0x00,0x00,0x01,0x00,0x00,0x00,0x03,0x00,0x00,0x00,0x00,0x00,0x16,0x00,0x20,0x00,0x1c,0x00,0x1b,0x00,0x14,0x00,0x10,0x00,0x0c,0x00,0x00,0x00,0x00,0x00,0x08,0x00,0x07,0x00,0x16,0x00,0x00,0x00,0x00,0x00,0x00,0x01,0x18,0x00,0x00,0x00,0x2c,0x00,0x00,0x00,0x48,0x00,0x00,0x00,0x01,0x00,0x00,0x00,0x00,0x00,0x00,0x09,0x60,0x00,0x00,0x00,0x02,0x00,0x00,0x00,0xff,0xff,0xff,0xff,0x13,0x00,0x00,0x00,0x0c,0x00,0x0c,0x00,0x00,0x00,0x00,0x00,0x08,0x00,0x04,0x00,0x0c,0x00,0x00,0x00,0x08,0x00,0x00,0x00,0x10,0x00,0x00,0x00,0x01,0x00,0x00,0x00,0xe8,0xff,0xff,0xff,0xff,0xff,0xff,0xff,0x01,0x00,0x00,0x00,0x34,0xfe,0xaa,0x3c,0x1f,0x00,0x00,0x00,0x73,0x65,0x72,0x76,0x69,0x6e,0x67,0x5f,0x64,0x65,0x66,0x61,0x75,0x6c,0x74,0x5f,0x69,0x6e,0x70,0x75,0x74,0x5f,0x6c,0x61,0x79,0x65,0x72,0x5f,0x31,0x3a,0x30,0x00,0x02,0x00,0x00,0x00,0x01,0x00,0x00,0x00,0x13,0x00,0x00,0x00,0x02,0x00,0x00,0x00,0x24,0x00,0x00,0x00,0x04,0x00,0x00,0x00,0xf0,0xff,0xff,0xff,0x19,0x00,0x00,0x00,0x02,0x00,0x00,0x00,0x00,0x00,0x00,0x19,0x0c,0x00,0x10,0x00,0x0f,0x00,0x00,0x00,0x08,0x00,0x04,0x00,0x0c,0x00,0x00,0x00,0x09,0x00,0x00,0x00,0x04,0x00,0x00,0x00,0x00,0x00,0x00,0x09};
const unsigned int g_kasus_d_model_2_int8_model_data_len = 3288;

#endif // G_KASUS_D_MODEL_2_INT8_H
