// File ini dibuat secara otomatis
#ifndef G_KASUS_D_MODEL_3_INT8_H
#define G_KASUS_D_MODEL_3_INT8_H

// Model: Kasus D Model 3 INT8
// 3L, 32N, int8 quantized
// Size: 6176 bytes (6.03 KB)
const unsigned char g_kasus_d_model_3_int8_model_data[] = {0x1c,0x00,0x00,0x00,0x54,0x46,0x4c,0x33,0x14,0x00,0x20,0x00,0x1c,0x00,0x18,0x00,0x14,0x00,0x10,0x00,0x0c,0x00,0x00,0x00,0x08,0x00,0x04,0x00,0x14,0x00,0x00,0x00,0x1c,0x00,0x00,0x00,0x98,0x00,0x00,0x00,0x18,0x01,0x00,0x00,0xcc,0x0e,0x00,0x00,0xdc,0x0e,0x00,0x00,0xb4,0x17,0x00,0x00,0x03,0x00,0x00,0x00,0x01,0x00,0x00,0x00,0x10,0x00,0x00,0x00,0x00,0x00,0x0a,0x00,0x10,0x00,0x0c,0x00,0x08,0x00,0x04,0x00,0x0a,0x00,0x00,0x00,0x0c,0x00,0x00,0x00,0x1c,0x00,0x00,0x00,0x3c,0x00,0x00,0x00,0x0f,0x00,0x00,0x00,0x73,0x65,0x72,0x76,0x69,0x6e,0x67,0x5f,0x64,0x65,0x66,0x61,0x75,0x6c,0x74,0x00,0x01,0x00,0x00,0x00,0x04,0x00,0x00,0x00,0x68,0xff,0xff,0xff,0x0d,0x00,0x00,0x00,0x04,0x00,0x00,0x00,0x08,0x00,0x00,0x00,0x6f,0x75,0x74,0x70,0x75,0x74,0x5f,0x30,0x00,0x00,0x00,0x00,0x01,0x00,0x00,0x00,0x04,0x00,0x00,0x00,0x16,0xf1,0xff,0xff,0x04,0x00,0x00,0x00,0x0d,0x00,0x00,0x00,0x69,0x6e,0x70,0x75,0x74,0x5f,0x6c,0x61,0x79,0x65,0x72,0x5f,0x32,0x00,0x00,0x00,0x03,0x00,0x00,0x00,0x5c,0x00,0x00,0x00,0x2c,0x00,0x00,0x00,0x04,0x00,0x00,0x00,0xb8,0xff,0xff,0xff,0x11,0x00,0x00,0x00,0x04,0x00,0x00,0x00,0x13,0x00,0x00,0x00,0x43,0x4f,0x4e,0x56,0x45,0x52,0x53,0x49,0x4f,0x4e,0x5f,0x4d,0x45,0x54,0x41,0x44,0x41,0x54,0x41,0x00,0xdc,0xff,0xff,0xff,0x10,0x00,0x00,0x00,0x04,0x00,0x00,0x00,0x13,0x00,0x00,0x00,0x6d,0x69,0x6e,0x5f,0x72,0x75,0x6e,0x74,0x69,0x6d,0x65,0x5f,0x76,0x65,0x72,0x73,0x69,0x6f,0x6e,0x00,0x08,0x00,0x0c,0x00,0x08,0x00,0x04,0x00,0x08,0x00,0x00,0x00,0x0f,0x00,0x00,0x00,0x04,0x00,0x00,0x00,0x13,0x00,0x00,0x00,0x6d,0x69,0x6e,0x5f,0x72,0x75,0x6e,0x74,0x69,0x6d,0x65,0x5f,0x76,0x65,0x72,0x73,0x69,0x6f,0x6e,0x00,0x12,0x00,0x00,0x00,0xb0,0x0d,0x00,0x00,0xa8,0x0d,0x00,0x00,0x8c,0x0d,0x00,0x00,0x1c,0x0d,0x00,0x00,0x8c,0x0c,0x00,0x00,0x7c,0x08,0x00,0x00,0xec,0x07,0x00,0x00,0xdc,0x03,0x00,0x00,0x4c,0x03,0x00,0x00,0xdc,0x00,0x00,0x00,0xd4,0x00,0x00,0x00,0xcc,0x00,0x00,0x00,0xc4,0x00,0x00,0x00,0xbc,0x00,0x00,0x00,0xb4,0x00,0x00,0x00,0x94,0x00,0x00,0x00,0x74,0x00,0x00,0x00,0x04,0x00,0x00,0x00,0x02,0xf2,0xff,0xff,0x04,0x00,0x00,0x00,0x60,0x00,0x00,0x00,0x0c,0x00,0x00,0x00,0x08,0x00,0x0e,0x00,0x08,0x00,0x04,0x00,0x08,0x00,0x00,0x00,0x10,0x00,0x00,0x00,0x28,0x00,0x00,0x00,0x00,0x00,0x06,0x00,0x08,0x00,0x04,0x00,0x06,0x00,0x00,0x00,0x04,0x00,0x00,0x00,0x01,0x00,0x00,0x00,0xeb,0x03,0x00,0x00,0x0c,0x00,0x18,0x00,0x14,0x00,0x10,0x00,0x0c,0x00,0x04,0x00,0x0c,0x00,0x00,0x00,0xb1,0x99,0x71,0xf7,0x5b,0x1e,0x94,0x05,0x02,0x00,0x00,0x00,0x02,0x00,0x00,0x00,0x04,0x00,0x00,0x00,0x06,0x00,0x00,0x00,0x32,0x2e,0x31,0x38,0x2e,0x30,0x00,0x00,0x6e,0xf2,0xff,0xff,0x04,0x00,0x00,0x00,0x10,0x00,0x00,0x00,0x00,0x00,0x00,0x00,0x00,0x00,0x00,0x00,0x00,0x00,0x00,0x00,0x00,0x00,0x00,0x00,0x8a,0xf2,0xff,0xff,0x04,0x00,0x00,0x00,0x10,0x00,0x00,0x00,0x31,0x2e,0x31,0x34,0x2e,0x30,0x00,0x00,0x00,0x00,0x00,0x00,0x00,0x00,0x00,0x00,0x74,0xf2,0xff,0xff,0x78,0xf2,0xff,0xff,0x7c,0xf2,0xff,0xff,0x80,0xf2,0xff,0xff,0x84,0xf2,0xff,0xff,0xba,0xf2,0xff,0xff,0x04,0x00,0x00,0x00,0x60,0x02,0x00,0x00,0xef,0xd0,0x28,0x23,0x69,0xec,0x5a,0x35,0xb8,0xcc,0x1d,0xba,0xfb,0x56,0xaf,0x62,0xec,0x64,0x4e,0x24,0x30,0x40,0x0d,0x50,0x11,0x1e,0xe3,0x08,0xd0,0xf4,0x4b,0x36,0x3b,0xa5,0xda,0x35,0x29,0xe1,0x50,0x59,0xc9,0xd8,0xdc,0x60,0x49,0x15,0x32,0xb8,0x14,0x12,0x41,0x3b,0xdf,0x04,0xc7,0x08,0x9d,0xde,0xd3,0x41,0x21,0xad,0x00,0xe5,0xcf,0xd7,0x5e,0x46,0x45,0xba,0xf6,0x64,0xec,0xcb,0xe1,0x50,0xae,0x25,0x31,0xcb,0xd8,0x0c,0x32,0x16,0x31,0x37,0x50,0x01,0xb8,0x07,0xeb,0x11,0xef,0xc1,0x3c,0xc2,0xe1,0x27,0x1c,0x28,0x52,0xd6,0xe6,0xbb,0xdf,0x27,0x17,0x0c,0x30,0x9c,0xea,0x31,0x40,0xc4,0xb8,0xb9,0xa7,0x4d,0xbd,0xed,0x23,0x46,0xdb,0xda,0x84,0x2e,0x19,0x3f,0x1a,0xbe,0xd2,0x50,0xc0,0x27,0xb2,0x0e,0xfa,0xcf,0xfa,0xf0,0x99,0x22,0x5d,0xca,0xc4,0x11,0xf0,0x38,0xd9,0xed,0xea,0xce,0xc7,0xfd,0x03,0xe7,0xd8,0x0e,0x12,0xf9,0xcc,0xff,0xbe,0x01,0x95,0x5e,0x8b,0x34,0x1f,0x1a,0xb7,0xe6,0xd2,0xe9,0x51,0xbd,0xaf,0xf0,0x3b,0x42,0xdd,0xdd,0x33,0xec,0x49,0xa8,0x31,0x13,0xc8,0xb8,0x34,0x13,0x3a,0xdd,0x51,0x06,0x00,0xc2,0x1c,0x9c,0xab,0xe0,0x43,0x08,0xcf,0x4b,0x17,0xc9,0xc0,0x60,0x0e,0xde,0xc4,0xf0,0xac,0x4a,0xa5,0x05,0x0c,0x04,0x03,0xde,0xce,0x3d,0xee,0x32,0xc8,0xff,0xab,0xc8,0xdd,0x39,0xf4,0x35,0x9c,0xb6,0xe7,0xef,0xca,0xb3,0xb6,0x81,0x0e,0x23,0x0b,0xbc,0xfd,0xad,0x39,0xb1,0xb9,0x51,0x3a,0x9d,0xb0,0x14,0xda,0x2e,0x35,0xd5,0xe0,0x39,0xf0,0xd0,0x40,0x2f,0x52,0x4c,0xe9,0x22,0x66,0xf7,0x6a,0x42,0x57,0xd3,0xfd,0x14,0x21,0xd3,0xad,0x1e,0xe1,0x44,0x41,0xd7,0x10,0xef,0xe1,0x3b,0x29,0x01,0xbe,0xd4,0x15,0x48,0x04,0x07,0xac,0xec,0xd8,0x36,0xaa,0x3e,0x52,0xcc,0x35,0xe4,0x2e,0x2e,0xa9,0xb1,0xb4,0xba,0xad,0x39,0xec,0xe6,0xd4,0xbf,0xed,0xca,0xd6,0xe9,0x43,0x06,0x61,0xeb,0x19,0xb3,0xcf,0xcb,0xad,0x8e,0x29,0xfb,0x27,0x59,0x2e,0x9d,0x57,0x17,0xe2,0x3f,0xe6,0x08,0x34,0xbc,0x09,0xb5,0x4c,0xe5,0x15,0x06,0x11,0x3d,0x9e,0x60,0x29,0xc0,0x02,0xba,0x1c,0xc5,0xba,0x08,0xfb,0x15,0xc9,0x3d,0xf0,0xb5,0x06,0xb1,0x17,0x53,0xea,0xbd,0x31,0xbd,0x54,0xa6,0xd1,0xe1,0x1e,0xc8,0xc9,0x40,0xd9,0x2a,0x2f,0x65,0x2e,0xc4,0x4a,0x2d,0x0a,0xb5,0xd4,0xd2,0xdb,0x10,0xdb,0x26,0xae,0x27,0x2c,0xc6,0x37,0x3c,0xe6,0x56,0xa8,0xbd,0x3f,0xfe,0xc4,0x5f,0xe2,0xb2,0xda,0xd9,0xd0,0x40,0xcd,0x11,0xba,0xcc,0x9b,0xdc,0xde,0x22,0x6d,0xff,0x1e,0x50,0xb9,0x42,0x3f,0x2d,0x47,0x3c,0x1b,0xd8,0xbd,0xac,0x35,0x37,0xfb,0xc3,0x15,0x4d,0x13,0xf5,0x00,0x10,0x23,0x44,0xc9,0xdc,0x4b,0x00,0xdf,0xe3,0xcf,0xf6,0xa6,0xfb,0xcf,0xad,0x21,0x33,0xc8,0xbf,0xc1,0xc5,0xad,0xc7,0xa3,0xdc,0xcf,0x19,0x4e,0xf4,0xf4,0x56,0x1b,0xc1,0x1e,0x28,0xd8,0x4a,0xe4,0x19,0x3c,0xb5,0x51,0x61,0x4e,0x41,0x47,0x39,0xbb,0x24,0x49,0x45,0xe1,0x3f,0xda,0xca,0xbc,0x1f,0xdc,0x07,0xd0,0xb2,0x51,0x9b,0xbd,0x0e,0xfc,0x57,0xd5,0x42,0x10,0x38,0xb6,0x56,0xb9,0xd6,0x18,0x33,0xe6,0xca,0x20,0xff,0xd4,0x29,0x1b,0x27,0x21,0xea,0x26,0x55,0x51,0xe5,0xe6,0xdb,0x0a,0xa8,0x39,0x45,0xa7,0xf3,0xa7,0xc5,0x50,0x1a,0xd2,0xbb,0x5c,0x5b,0xdd,0xd8,0x2b,0x02,0x24,0x39,0xe8,0x47,0xbb,0xf4,0x30,0x54,0xeb,0xce,0x23,0x00,0xc7,0xd9,0xf6,0x38,0x4c,0xdd,0x4d,0xd6,0x19,0xcd,0x2f,0xd4,0x15,0xf0,0x38,0x50,0x0d,0xc2,0x04,0xed,0xc4,0x1b,0xda,0xf6,0x64,0xb6,0x27,0x46,0x6d,0xd6,0x26,0xf5,0xff,0xff,0x04,0x00,0x00,0x00,0x80,0x00,0x00,0x00,0x5e,0xfe,0xff,0xff,0x4e,0xff,0xff,0xff,0x72,0x01,0x00,0x00,0x2f,0x03,0x00,0x00,0x5c,0xfe,0xff,0xff,0x63,0xfd,0xff,0xff,0xef,0x06,0x00,0x00,0x79,0x04,0x00,0x00,0x52,0x01,0x00,0x00,0xac,0x01,0x00,0x00,0xb3,0x04,0x00,0x00,0x6d,0x03,0x00,0x00,0xd7,0x06,0x00,0x00,0x9e,0x02,0x00,0x00,0x43,0xfb,0xff,0xff,0x9f,0x00,0x00,0x00,0xf6,0x05,0x00,0x00,0x9e,0x06,0x00,0x00,0xb5,0xfb,0xff,0xff,0x92,0x02,0x00,0x00,0xb6,0x03,0x00,0x00,0xde,0x03,0x00,0x00,0x21,0x07,0x00,0x00,0x5a,0x02,0x00,0x00,0x4c,0x04,0x00,0x00,0xdc,0x01,0x00,0x00,0x7f,0xfc,0xff,0xff,0x72,0x04,0x00,0x00,0xbc,0x02,0x00,0x00,0x64,0x02,0x00,0x00,0x7f,0xfd,0xff,0xff,0x42,0x03,0x00,0x00,0xb2,0xf5,0xff,0xff,0x04,0x00,0x00,0x00,0x00,0x04,0x00,0x00,0xda,0x28,0xef,0xcc,0x08,0xfa,0x24,0xc6,0x43,0x1c,0xdd,0xdd,0x04,0x3f,0xb7,0xba,0x3c,0xea,0xb5,0x34,0xfd,0x2b,0x25,0x02,0x3f,0x31,0xc3,0xec,0xe9,0x17,0x0d,0xf5,0x23,0xf7,0x38,0x45,0x4a,0xa0,0xae,0xf3,0x1b,0xf4,0xa4,0x3b,0xf3,0xb8,0x34,0xb7,0xf6,0x0c,0x2f,0x2a,0x16,0x4a,0x11,0xb3,0x45,0x32,0x44,0xf4,0x35,0xcb,0x05,0xf3,0x68,0x68,0x04,0xca,0xd6,0x4b,0xaa,0xc7,0x17,0x59,0x2a,0xb7,0xab,0x0c,0x74,0xe2,0xec,0x44,0xd7,0x12,0xf7,0x45,0xef,0x42,0x0c,0x2c,0xcc,0xb1,0x4a,0x54,0x22,0x60,0xe6,0x0a,0xf3,0xd4,0x4e,0xdf,0xf0,0x30,0xdf,0x0e,0xc4,0x49,0xc3,0xd8,0xe9,0x24,0xb6,0x33,0x31,0x17,0xf3,0xbb,0x28,0xb3,0xf0,0x1f,0x2e,0xbe,0x0a,0x29,0x08,0x28,0x51,0xc1,0x32,0x4a,0xf9,0x53,0x08,0xb8,0x46,0xe5,0x5c,0xd4,0xe8,0xe6,0x1a,0xfa,0x38,0x22,0x0d,0x45,0x24,0xcf,0xb4,0xf6,0x04,0xb8,0xd2,0xe4,0xd2,0xc2,0x21,0x35,0x51,0xfd,0xfa,0x2e,0x04,0x18,0xf6,0xe4,0x47,0x31,0xe1,0xf5,0xeb,0xc8,0x72,0x10,0xd1,0xca,0xfe,0xd7,0x02,0xfe,0x22,0x42,0xd2,0x3e,0x04,0xa9,0x20,0xef,0x15,0x24,0xbc,0xe9,0x41,0x1c,0x40,0x21,0x49,0x1e,0x40,0x09,0x28,0xbd,0x1d,0xed,0xa2,0x37,0x18,0x5f,0x89,0x46,0x06,0x05,0x26,0x63,0xd9,0x5f,0xb6,0x64,0x21,0x40,0xef,0xde,0x34,0x66,0x3d,0x52,0x5e,0x0b,0xd5,0x1c,0xd0,0x30,0x2c,0x4b,0xe3,0xcb,0x56,0xd0,0x66,0x21,0xca,0x67,0x2f,0x12,0x24,0x03,0x5a,0x3e,0x24,0x0d,0x03,0xe8,0xff,0x64,0xa9,0x3b,0xea,0xae,0xa3,0xe6,0x24,0x18,0x25,0x46,0x40,0x47,0x7f,0xf2,0xc8,0xe9,0x34,0x39,0x90,0x71,0x4d,0x07,0x42,0x40,0x3e,0xdc,0xe5,0xd4,0x4a,0x10,0x27,0xf9,0xc8,0x1f,0xd3,0xf7,0xaf,0xc7,0x32,0x0b,0x44,0x07,0x41,0xc1,0x4d,0x01,0xc4,0x2e,0x3d,0x23,0x00,0xf0,0xc4,0xa0,0x3f,0xe2,0xe7,0x3c,0x25,0x36,0x2e,0x1b,0xcb,0x3f,0xf5,0x16,0xba,0x43,0x5b,0xd1,0xe6,0x0d,0xe3,0xd5,0x1c,0xce,0xf7,0x31,0x01,0x2b,0x24,0x1b,0x1e,0xda,0x6b,0xd6,0xe0,0xb5,0xf0,0x2b,0xd5,0x03,0x62,0x36,0xda,0x1f,0xb6,0xf7,0xf8,0x4c,0xdf,0xc3,0x28,0x05,0x36,0xb3,0x1f,0x3a,0xf3,0xc0,0x2f,0x0f,0x0f,0xc1,0x1a,0xb9,0xf4,0xc2,0xdd,0xec,0xec,0x07,0xbe,0xf2,0x2b,0x53,0xd8,0x03,0xb3,0x1e,0xaa,0x04,0x29,0x56,0x52,0xd3,0xd7,0x0e,0xd8,0xe7,0xf8,0xc8,0xc9,0xca,0xd7,0xec,0xe0,0x59,0xf9,0xe4,0x41,0x26,0x08,0xd9,0x29,0x3d,0xf2,0xa0,0xec,0x40,0x19,0x25,0x50,0xc5,0xe7,0x03,0xeb,0xf2,0xe1,0x1e,0x53,0x2b,0xe7,0x40,0x58,0xf1,0x65,0xdf,0xa8,0xfc,0xf7,0xaf,0xff,0x39,0x5f,0x37,0xca,0x3a,0x1c,0xe7,0x1f,0xc4,0x49,0xd7,0x0b,0x17,0x2d,0x10,0xdd,0xd7,0x55,0x02,0xea,0x1d,0xee,0xb2,0xff,0xfa,0xed,0x4c,0x00,0xf7,0xcb,0x24,0x0a,0x03,0xde,0xbb,0x46,0x3d,0xd5,0xfb,0x94,0x2f,0xd7,0xda,0xec,0x49,0xf6,0x2c,0xe9,0xc6,0xd0,0xdb,0xd3,0x1f,0x0f,0xe5,0x37,0x1f,0x57,0x4f,0xc9,0x11,0x62,0x2a,0x73,0xc2,0xfa,0x3c,0x13,0x13,0x4a,0xe9,0xd7,0x21,0x46,0xc0,0xa5,0xc9,0xb1,0x09,0x15,0xf1,0xae,0x46,0x42,0xc5,0xba,0xfc,0xd6,0x11,0xbf,0xec,0xea,0xd3,0xac,0xdf,0xa7,0x04,0xbe,0x25,0x44,0xca,0x02,0xb1,0xda,0x0c,0xe8,0x36,0xe7,0xd3,0xc9,0xc8,0xbd,0x2e,0xc8,0x1e,0xc5,0x22,0x4a,0x3c,0x22,0xe1,0xf1,0xca,0x50,0x24,0x52,0x4d,0xfd,0x40,0xb5,0x48,0xca,0xe1,0x4e,0x3e,0x00,0x17,0xe8,0x62,0x23,0xca,0xc6,0x1f,0xf8,0x17,0x38,0x0e,0xe0,0x37,0xec,0xfb,0x05,0xcb,0xc3,0xc5,0x62,0x2d,0x13,0x03,0x21,0xd1,0xfb,0xab,0x46,0xff,0x3c,0x14,0xcc,0x58,0x26,0xfa,0x23,0xcb,0x19,0x2a,0x0c,0x0f,0xd7,0xdd,0x21,0xbb,0xc0,0x42,0x3a,0x44,0x2e,0xee,0x24,0x1b,0xfc,0x16,0xd1,0x06,0x0b,0x4d,0x10,0xec,0x46,0x49,0x4b,0x37,0xda,0xc7,0xf8,0x33,0xd7,0x34,0xc7,0x10,0x28,0x13,0xd4,0x5f,0x04,0x02,0xfd,0xdc,0xfe,0xb7,0x05,0x3d,0xc8,0x5d,0xf8,0xca,0x42,0xdb,0x40,0x3e,0x45,0x54,0x06,0xca,0x5a,0x56,0xfe,0x22,0x09,0x45,0x45,0xec,0xf3,0x2b,0xf0,0x16,0x3e,0xc7,0x5e,0xb3,0xe8,0x29,0xd5,0xb7,0xf1,0xb9,0xe4,0x52,0xb9,0xfd,0x0e,0xfe,0x1a,0x4c,0x2b,0x51,0xee,0x22,0xe4,0xf2,0x17,0xe0,0x04,0xf5,0x3c,0xf7,0xee,0x08,0xa9,0x30,0x06,0x49,0xdb,0xa1,0xd4,0x19,0xf3,0x02,0x11,0xf4,0x16,0x40,0xf6,0xfc,0xf9,0x38,0x46,0xd8,0x51,0x03,0x16,0x22,0xe7,0x17,0x37,0xb2,0xf2,0x5e,0x55,0x08,0xac,0xc0,0x33,0xd3,0xd5,0xe5,0xe9,0xb2,0xbe,0x4f,0xbe,0x51,0xda,0xa5,0x4c,0x0d,0x0b,0x04,0xf5,0x66,0x11,0x3f,0xb5,0xe9,0x57,0xb7,0xfa,0x54,0xc3,0xb5,0xc5,0x2e,0x4b,0x0a,0xc3,0x47,0x28,0xed,0xf2,0x1c,0x2a,0x31,0xe3,0xc1,0xb6,0x1f,0x08,0x04,0x4b,0x52,0xdf,0xd9,0xf9,0x17,0xe6,0x43,0xb7,0xca,0xce,0xff,0x20,0xf9,0xd6,0xd9,0x72,0xde,0xf4,0xdb,0x54,0x48,0xbb,0x0c,0x36,0xe3,0xe9,0xf4,0xe6,0xc6,0xe8,0x58,0x58,0xd6,0x34,0x28,0x0a,0x0a,0xbb,0x49,0xda,0x38,0xf5,0xd7,0xb9,0xe0,0xce,0x0d,0x2d,0x02,0x02,0x2e,0x21,0xde,0xe3,0xf5,0xce,0x14,0xfa,0xc5,0x2a,0x14,0xd8,0x59,0x37,0x39,0x12,0xe7,0xbf,0x0a,0xb9,0x01,0xbd,0xe0,0xf9,0x22,0x30,0xd1,0x28,0x1e,0x16,0x53,0xcc,0xdd,0x2d,0xa5,0xdb,0xc4,0x60,0x4d,0xd2,0xe2,0xc0,0x38,0x17,0x33,0x1b,0xc9,0xfe,0xee,0xc8,0xbb,0x5c,0xaa,0xb5,0xe5,0x70,0x0f,0x26,0x2e,0x5a,0xdc,0x1e,0x62,0xaf,0x30,0x57,0x54,0xb3,0xeb,0xd5,0x9d,0x62,0x50,0x13,0x1b,0xb5,0x4e,0xe2,0x08,0x15,0x56,0xcc,0xe2,0xa6,0x57,0xd8,0x0a,0x15,0x4d,0xec,0xe8,0x0d,0x42,0x2f,0x2b,0xfb,0x3e,0x5f,0x52,0x93,0x61,0x41,0x43,0x1c,0x54,0x3f,0x06,0x03,0xf7,0x21,0xe4,0xea,0x40,0x12,0x35,0x57,0xaa,0x41,0xda,0xee,0x0e,0x07,0xf1,0x0d,0x2e,0xb3,0x27,0x03,0xaa,0x21,0x43,0x2a,0xe1,0x06,0xda,0xfa,0xa8,0x47,0x33,0xf3,0x39,0x14,0xdf,0xe4,0x55,0xda,0xe5,0x23,0xea,0xe9,0x36,0x26,0xdf,0xfe,0xbf,0x47,0x29,0x73,0xef,0xa3,0xea,0x20,0x3f,0x13,0xed,0xfb,0xf1,0x47,0xf2,0x2e,0xd3,0xd8,0x41,0xcf,0xe9,0xc9,0x13,0xbe,0xf9,0xff,0xff,0x04,0x00,0x00,0x00,0x80,0x00,0x00,0x00,0x38,0x07,0x00,0x00,0x9c,0xfb,0xff,0xff,0xe5,0xfa,0xff,0xff,0x0c,0xfe,0xff,0xff,0xdf,0xfa,0xff,0xff,0xa6,0xfd,0xff,0xff,0x62,0x08,0x00,0x00,0x6a,0x06,0x00,0x00,0x35,0x0a,0x00,0x00,0x9f,0x02,0x00,0x00,0x1e,0x00,0x00,0x00,0x0c,0xff,0xff,0xff,0x09,0x09,0x00,0x00,0x2a,0x03,0x00,0x00,0x5f,0xfd,0xff,0xff,0x29,0x08,0x00,0x00,0x53,0xfd,0xff,0xff,0x37,0x01,0x00,0x00,0xab,0xff,0xff,0xff,0x0b,0xfc,0xff,0xff,0xa3,0x00,0x00,0x00,0x5c,0xff,0xff,0xff,0x3a,0xfd,0xff,0xff,0xba,0xff,0xff,0xff,0x12,0x03,0x00,0x00,0x3d,0x08,0x00,0x00,0x3d,0x03,0x00,0x00,0xe6,0x02,0x00,0x00,0x2a,0x09,0x00,0x00,0x18,0x08,0x00,0x00,0x00,0x01,0x00,0x00,0x97,0x0a,0x00,0x00,0x4a,0xfa,0xff,0xff,0x04,0x00,0x00,0x00,0x00,0x04,0x00,0x00,0x2d,0xdf,0xd4,0x40,0x24,0xa5,0x1a,0x3c,0xbf,0xeb,0x3c,0x41,0xc6,0x26,0x3d,0x43,0x08,0xcc,0xd2,0xa1,0xc3,0xbb,0xe9,0x1f,0xd4,0x52,0xcb,0x40,0xf2,0xe7,0x50,0xc0,0x04,0xf7,0x96,0x1b,0x0e,0xfe,0xe5,0x14,0x3f,0xd5,0x1e,0xde,0x18,0xf8,0x2f,0xfc,0x13,0x53,0xbd,0x2c,0x53,0x44,0x34,0xf5,0x3a,0x24,0x11,0x0d,0x23,0xe5,0xe7,0x5b,0xee,0xf9,0x1c,0x47,0x64,0x10,0x00,0x04,0x93,0x0d,0xb0,0xad,0x19,0x57,0x4f,0xb6,0xb8,0xc4,0x4e,0x54,0x20,0xed,0xa9,0x5c,0x26,0xfc,0xc5,0x37,0xca,0x30,0x26,0xd7,0xee,0x50,0xda,0xba,0x16,0x20,0x22,0x56,0x29,0x3e,0xe9,0x0d,0x5f,0xbd,0x35,0x15,0xc1,0x15,0x2c,0x2b,0xe8,0xac,0x58,0x8c,0xd7,0x17,0xf5,0xfc,0xfe,0xf7,0xe5,0x35,0xef,0xfe,0x1f,0xac,0xc5,0x20,0x5e,0x48,0xea,0x2f,0xcf,0xc7,0xbc,0xd0,0x1a,0x13,0x21,0x41,0xf4,0x0b,0x4d,0xd6,0xc3,0x2c,0x60,0x5c,0x0c,0x4d,0xb4,0xee,0xaa,0x9f,0xba,0xbe,0xd1,0x1c,0xee,0x05,0x20,0xd0,0xb9,0x38,0x30,0xd6,0x12,0xf0,0x38,0x62,0x27,0x54,0x22,0xd7,0x36,0xb9,0x4a,0xd5,0x37,0x66,0xd4,0x1d,0x06,0x65,0x43,0x94,0x3c,0x5e,0x09,0xb6,0x23,0xc0,0xe7,0x54,0xbd,0xf8,0xf4,0x05,0xac,0x12,0xf0,0xe3,0xa6,0x0f,0x40,0xc1,0x27,0x2a,0x5f,0x5c,0x56,0x5e,0x48,0x37,0xcd,0xf2,0xd1,0x1d,0x3c,0xae,0xbd,0xeb,0x27,0xcc,0x1d,0x3f,0x35,0xfe,0x4c,0x1b,0x1b,0x26,0xba,0xda,0xba,0x52,0x32,0x4c,0x59,0xe0,0xca,0xf1,0xed,0xf2,0x39,0x26,0xe1,0x26,0x0f,0x18,0xc4,0x2e,0x31,0x47,0x27,0xf3,0xb0,0x55,0x25,0xed,0x29,0xc6,0xa2,0x2e,0x3e,0xcd,0xc2,0x4e,0x38,0xc4,0xd8,0x31,0x2d,0x66,0xb3,0xc0,0xf2,0xa3,0xf7,0x0d,0x47,0x57,0xf2,0x01,0x19,0xe3,0xb6,0xad,0xc1,0xc4,0xf8,0x24,0x32,0xf4,0x44,0x2c,0xc9,0xac,0x35,0xb4,0x1f,0xe0,0xf3,0xa3,0xeb,0x50,0x2e,0x32,0x43,0x29,0xec,0x31,0x41,0x09,0xe5,0x25,0x56,0xc2,0x5f,0x70,0x00,0x56,0x39,0x02,0x41,0xb9,0xef,0xc6,0xf7,0xee,0xc3,0x0a,0x37,0x66,0x02,0x08,0xf2,0xeb,0x5b,0xc4,0x57,0x40,0xa4,0xc3,0x03,0xb0,0xdb,0xd9,0xbd,0x0e,0xb3,0xb5,0x3f,0xef,0x30,0x0a,0x23,0x4c,0xbc,0x46,0xbb,0x53,0xc1,0x4c,0xbb,0x56,0x3c,0xc5,0x0e,0x33,0x69,0x00,0xf7,0x1e,0xe6,0xe9,0xa8,0xdf,0x42,0xf6,0x31,0xea,0x18,0xc0,0xd9,0x40,0x64,0x4b,0xbb,0xc8,0x05,0xe5,0xe1,0x0b,0xdf,0x9f,0xfe,0xc3,0xab,0x25,0x49,0x52,0xaf,0x4a,0xa4,0xea,0x6a,0x54,0x30,0x66,0x43,0xd4,0x41,0xbf,0xf6,0x3e,0x3f,0x27,0x65,0x02,0x22,0xf0,0x6d,0x26,0x17,0xd1,0x0c,0x0d,0x46,0x13,0xf2,0x2c,0xe4,0x32,0xad,0xc1,0x02,0xca,0x57,0xdd,0xd2,0x73,0x13,0xc3,0x19,0x12,0x4c,0x05,0x0e,0x2b,0xdc,0xff,0x09,0x11,0xd6,0xd3,0xc8,0xc8,0xbd,0xe3,0x45,0xde,0xee,0xc9,0x2f,0x18,0x0c,0xe3,0xc5,0x21,0x00,0xbd,0xfb,0x3b,0x28,0xea,0x1d,0xed,0x49,0xc5,0x45,0x1b,0xe7,0xea,0xad,0xab,0xd8,0x0d,0x34,0x43,0xfe,0x2d,0xff,0x15,0xa5,0x23,0xe5,0xbf,0xf1,0xf8,0x07,0xfa,0x25,0x4c,0x54,0x5a,0xee,0xbd,0xce,0x9d,0xc8,0xcf,0x77,0xfa,0x02,0x0c,0xce,0xed,0x7f,0x1f,0xd4,0x02,0x07,0xb4,0xc4,0x23,0x07,0x1c,0x05,0xe3,0x1f,0x43,0x51,0x1e,0x5f,0x31,0x1f,0x5d,0x1a,0x91,0xbe,0x2c,0x22,0x31,0x22,0xcd,0x56,0x62,0xb4,0x2e,0x27,0x15,0x0d,0x7a,0x43,0xa3,0xef,0x0b,0xfe,0xb9,0xd6,0xec,0xdf,0x53,0x1d,0x4c,0x60,0x0f,0xcb,0x60,0xdf,0xc0,0xbb,0x4b,0x3f,0xb8,0x08,0xfa,0xde,0xe8,0xe8,0x17,0x4a,0xe0,0xba,0xf0,0x01,0xb3,0xb5,0x47,0xf0,0xd6,0xad,0xb6,0x23,0x40,0x0d,0xd7,0x19,0xec,0x0f,0x0f,0xdf,0xf7,0x2f,0xc3,0xfc,0x0f,0xbb,0x4f,0xdf,0x3c,0xc7,0x19,0x97,0xd7,0x3c,0xd7,0x1c,0x21,0x0d,0x10,0xf7,0x51,0x2a,0x60,0x20,0x9a,0xce,0x40,0x42,0xa4,0x5a,0xda,0x54,0xc4,0xd1,0x28,0xd0,0xb5,0x6a,0x4c,0x6b,0x15,0xc8,0x0f,0x40,0xba,0xab,0x14,0x2c,0xcc,0xc5,0xcb,0xdf,0x46,0x16,0xf2,0xb4,0x2f,0xc1,0x90,0x28,0x1d,0x01,0x6a,0x25,0x41,0xed,0x4a,0x0c,0x0b,0x24,0xdc,0x1d,0x9b,0x3d,0xbe,0x29,0x37,0x12,0x17,0x46,0x46,0xd7,0x10,0x07,0x63,0x3b,0x63,0x5c,0x3b,0xf8,0x13,0x2f,0xac,0x07,0x98,0xce,0x33,0x04,0xc4,0xc2,0xd5,0x1c,0x57,0x7b,0xdf,0xf6,0x33,0xec,0xe1,0xb5,0x33,0x18,0xd7,0x0d,0xef,0x0b,0xe1,0xf5,0xcf,0xc8,0x15,0xea,0x62,0x17,0x46,0x1c,0x03,0x00,0xef,0xd5,0x38,0x03,0x3a,0xe8,0x46,0x6b,0x68,0x9e,0xcc,0x29,0x3d,0x04,0x48,0xf2,0xef,0x3a,0x3b,0xf5,0xbe,0xdd,0xc4,0xcd,0x3d,0x10,0x98,0x4b,0x08,0xc2,0x0b,0x10,0x0d,0x11,0xf2,0xbe,0x29,0xb2,0x3d,0xfd,0x49,0xc7,0xc2,0xea,0x57,0xd8,0x33,0xbc,0xcd,0xef,0xef,0x17,0xb5,0x5a,0x25,0xdd,0x04,0x17,0xfc,0xeb,0xe6,0xf6,0x65,0x0d,0x18,0xd5,0xc1,0x15,0x58,0x3a,0x3d,0xe1,0x1a,0x3d,0x3a,0xb6,0x24,0x73,0x16,0x34,0x38,0x4d,0xc3,0xca,0x48,0x1f,0x6f,0xf6,0xae,0xbb,0x18,0xf5,0xb9,0x06,0xb3,0x25,0xcc,0xee,0xc1,0x59,0xe2,0xe7,0x4a,0xaa,0xfe,0xc8,0xaf,0xf8,0xd6,0x33,0x1e,0x26,0xfc,0x13,0xf1,0xfb,0x5c,0x29,0x3b,0x47,0x17,0x43,0x4a,0xe5,0xb1,0x54,0xd0,0xd6,0x52,0x19,0xce,0xea,0x08,0xc7,0x03,0xe3,0xb7,0x41,0x0f,0xe5,0xdf,0xe3,0x1c,0x4b,0x28,0xeb,0x58,0x3b,0x24,0xcc,0xc9,0x50,0xc0,0x61,0x19,0xf7,0x0f,0xd2,0x02,0xca,0xf4,0x31,0x32,0x43,0x3d,0x17,0xc9,0x13,0x1b,0xf1,0x30,0xe3,0xf2,0x17,0x16,0x3d,0x0d,0xe9,0x37,0x40,0x50,0x0f,0x6c,0x3b,0xb5,0xf7,0x3e,0x23,0x0e,0xf7,0xac,0xa4,0x50,0x45,0x22,0x20,0x69,0xf3,0x18,0xce,0xee,0x62,0xce,0xb0,0xc6,0xdd,0x1c,0x17,0xf4,0x63,0x5c,0x4c,0x64,0xfd,0xff,0x43,0x47,0xe6,0x74,0x15,0xf1,0xcf,0xfc,0x18,0xd2,0x24,0x27,0xf1,0xfe,0x1a,0x47,0x15,0xc2,0xec,0x43,0x38,0xf9,0x4c,0xfd,0x02,0xfd,0xbf,0x53,0xce,0x51,0xec,0xca,0x20,0xf8,0x50,0x6a,0x8a,0x2c,0x1b,0x2d,0x45,0xab,0x1a,0xa8,0xbe,0xcb,0x07,0x03,0x51,0xe1,0x3c,0xd8,0x34,0x60,0x98,0x2f,0x14,0xed,0xc2,0xc7,0x16,0x3b,0x1b,0xb8,0x2d,0x12,0xb8,0x54,0x63,0x6a,0x40,0xee,0x56,0xfe,0xff,0xff,0x04,0x00,0x00,0x00,0x80,0x00,0x00,0x00,0x02,0x00,0x00,0x00,0x25,0x04,0x00,0x00,0x3a,0xff,0xff,0xff,0x81,0x00,0x00,0x00,0xbc,0x00,0x00,0x00,0x35,0x01,0x00,0x00,0xc7,0xfd,0xff,0xff,0x37,0x05,0x00,0x00,0xf7,0x00,0x00,0x00,0xa2,0xff,0xff,0xff,0x90,0xfd,0xff,0xff,0x94,0x00,0x00,0x00,0xff,0x03,0x00,0x00,0x3e,0x04,0x00,0x00,0x50,0xfd,0xff,0xff,0x8c,0x03,0x00,0x00,0xa3,0x06,0x00,0x00,0xd2,0x05,0x00,0x00,0x0b,0xff,0xff,0xff,0x08,0xff,0xff,0xff,0x38,0x05,0x00,0x00,0x70,0xfc,0xff,0xff,0x84,0x03,0x00,0x00,0x08,0x03,0x00,0x00,0x58,0x04,0x00,0x00,0xd0,0xfe,0xff,0xff,0x57,0xff,0xff,0xff,0x94,0x01,0x00,0x00,0xdb,0xfb,0xff,0xff,0x74,0xfc,0xff,0xff,0xb7,0xfc,0xff,0xff,0xe2,0x04,0x00,0x00,0xe2,0xfe,0xff,0xff,0x04,0x00,0x00,0x00,0x60,0x00,0x00,0x00,0x2c,0x14,0xae,0x32,0x5c,0x5f,0x29,0x44,0xdd,0xd6,0x2f,0x50,0xda,0xb0,0x1f,0xd2,0xff,0x22,0x0c,0xb3,0xc6,0x22,0x4c,0x9d,0xa4,0xe1,0x26,0x04,0x2a,0x3b,0x45,0xff,0xf9,0x19,0xb7,0x24,0x22,0xe0,0xeb,0x43,0x12,0x46,0xed,0x98,0x4c,0x5c,0xa4,0x30,0x29,0x6c,0xee,0xbc,0x68,0x04,0x09,0x65,0x11,0xff,0x07,0xab,0xff,0x05,0xd7,0x4c,0xad,0xd2,0x53,0xf5,0xf6,0xf3,0x13,0x09,0x4a,0xdb,0x6a,0xa0,0x33,0x4c,0xe4,0x0d,0xa2,0x81,0xfc,0x48,0xa8,0x28,0x9d,0x37,0x04,0x52,0x6b,0xa9,0x37,0x4e,0xff,0x93,0x4e,0xff,0xff,0xff,0x04,0x00,0x00,0x00,0x0c,0x00,0x00,0x00,0x5c,0xfe,0xff,0xff,0xad,0x02,0x00,0x00,0xc4,0xfd,0xff,0xff,0x34,0xff,0xff,0xff,0x38,0xff,0xff,0xff,0x0f,0x00,0x00,0x00,0x4d,0x4c,0x49,0x52,0x20,0x43,0x6f,0x6e,0x76,0x65,0x72,0x74,0x65,0x64,0x2e,0x00,0x01,0x00,0x00,0x00,0x14,0x00,0x00,0x00,0x00,0x00,0x0e,0x00,0x18,0x00,0x14,0x00,0x10,0x00,0x0c,0x00,0x08,0x00,0x04,0x00,0x0e,0x00,0x00,0x00,0x14,0x00,0x00,0x00,0x1c,0x00,0x00,0x00,0x60,0x01,0x00,0x00,0x64,0x01,0x00,0x00,0x68,0x01,0x00,0x00,0x04,0x00,0x00,0x00,0x6d,0x61,0x69,0x6e,0x00,0x00,0x00,0x00,0x05,0x00,0x00,0x00,0x08,0x01,0x00,0x00,0xc0,0x00,0x00,0x00,0x88,0x00,0x00,0x00,0x50,0x00,0x00,0x00,0x14,0x00,0x00,0x00,0x00,0x00,0x0e,0x00,0x1a,0x00,0x14,0x00,0x10,0x00,0x0c,0x00,0x0b,0x00,0x04,0x00,0x0e,0x00,0x00,0x00,0x1c,0x00,0x00,0x00,0x00,0x00,0x00,0x09,0x1c,0x00,0x00,0x00,0x20,0x00,0x00,0x00,0x01,0x00,0x00,0x00,0x00,0x00,0x06,0x00,0x08,0x00,0x04,0x00,0x06,0x00,0x00,0x00,0x00,0x00,0x80,0x3f,0x01,0x00,0x00,0x00,0x0d,0x00,0x00,0x00,0x01,0x00,0x00,0x00,0x0c,0x00,0x00,0x00,0x62,0xff,0xff,0xff,0x14,0x00,0x00,0x00,0x00,0x00,0x00,0x08,0x10,0x00,0x00,0x00,0x14,0x00,0x00,0x00,0x04,0x00,0x04,0x00,0x04,0x00,0x00,0x00,0x01,0x00,0x00,0x00,0x0c,0x00,0x00,0x00,0x03,0x00,0x00,0x00,0x0b,0x00,0x00,0x00,0x02,0x00,0x00,0x00,0x01,0x00,0x00,0x00,0x96,0xff,0xff,0xff,0x10,0x00,0x00,0x00,0x00,0x00,0x00,0x08,0x10,0x00,0x00,0x00,0x14,0x00,0x00,0x00,0x86,0xff,0xff,0xff,0x00,0x00,0x00,0x01,0x01,0x00,0x00,0x00,0x0b,0x00,0x00,0x00,0x03,0x00,0x00,0x00,0x0a,0x00,0x00,0x00,0x04,0x00,0x00,0x00,0x03,0x00,0x00,0x00,0xca,0xff,0xff,0xff,0x10,0x00,0x00,0x00,0x00,0x00,0x00,0x08,0x10,0x00,0x00,0x00,0x14,0x00,0x00,0x00,0xba,0xff,0xff,0xff,0x00,0x00,0x00,0x01,0x01,0x00,0x00,0x00,0x0a,0x00,0x00,0x00,0x03,0x00,0x00,0x00,0x09,0x00,0x00,0x00,0x06,0x00,0x00,0x00,0x05,0x00,0x00,0x00,0x00,0x00,0x0e,0x00,0x16,0x00,0x00,0x00,0x10,0x00,0x0c,0x00,0x0b,0x00,0x04,0x00,0x0e,0x00,0x00,0x00,0x18,0x00,0x00,0x00,0x00,0x00,0x00,0x08,0x18,0x00,0x00,0x00,0x1c,0x00,0x00,0x00,0x00,0x00,0x06,0x00,0x08,0x00,0x07,0x00,0x06,0x00,0x00,0x00,0x00,0x00,0x00,0x01,0x01,0x00,0x00,0x00,0x09,0x00,0x00,0x00,0x03,0x00,0x00,0x00,0x00,0x00,0x00,0x00,0x08,0x00,0x00,0x00,0x07,0x00,0x00,0x00,0x01,0x00,0x00,0x00,0x0d,0x00,0x00,0x00,0x01,0x00,0x00,0x00,0x00,0x00,0x00,0x00,0x0e,0x00,0x00,0x00,0xbc,0x06,0x00,0x00,0x44,0x06,0x00,0x00,0xc8,0x05,0x00,0x00,0x64,0x05,0x00,0x00,0x00,0x05,0x00,0x00,0x9c,0x04,0x00,0x00,0x38,0x04,0x00,0x00,0xd4,0x03,0x00,0x00,0x70,0x03,0x00,0x00,0xac,0x02,0x00,0x00,0xe8,0x01,0x00,0x00,0x24,0x01,0x00,0x00,0x80,0x00,0x00,0x00,0x04,0x00,0x00,0x00,0x92,0xf9,0xff,0xff,0x00,0x00,0x00,0x01,0x18,0x00,0x00,0x00,0x20,0x00,0x00,0x00,0x3c,0x00,0x00,0x00,0x0e,0x00,0x00,0x00,0x00,0x00,0x00,0x09,0x50,0x00,0x00,0x00,0x02,0x00,0x00,0x00,0xff,0xff,0xff,0xff,0x03,0x00,0x00,0x00,0x7c,0xf9,0xff,0xff,0x08,0x00,0x00,0x00,0x10,0x00,0x00,0x00,0x01,0x00,0x00,0x00,0x80,0xff,0xff,0xff,0xff,0xff,0xff,0xff,0x01,0x00,0x00,0x00,0x00,0x00,0x80,0x3b,0x1b,0x00,0x00,0x00,0x53,0x74,0x61,0x74,0x65,0x66,0x75,0x6c,0x50,0x61,0x72,0x74,0x69,0x74,0x69,0x6f,0x6e,0x65,0x64,0x43,0x61,0x6c,0x6c,0x5f,0x31,0x3a,0x30,0x00,0x02,0x00,0x00,0x00,0x01,0x00,0x00,0x00,0x03,0x00,0x00,0x00,0x0a,0xfa,0xff,0xff,0x00,0x00,0x00,0x01,0x18,0x00,0x00,0x00,0x20,0x00,0x00,0x00,0x3c,0x00,0x00,0x00,0x0d,0x00,0x00,0x00,0x00,0x00,0x00,0x09,0x78,0x00,0x00,0x00,0x02,0x00,0x00,0x00,0xff,0xff,0xff,0xff,0x03,0x00,0x00,0x00,0xf4,0xf9,0xff,0xff,0x08,0x00,0x00,0x00,0x10,0x00,0x00,0x00,0x01,0x00,0x00,0x00,0xb9,0xff,0xff,0xff,0xff,0xff,0xff,0xff,0x01,0x00,0x00,0x00,0x87,0xd2,0xd4,0x3d,0x40,0x00,0x00,0x00,0x73,0x65,0x71,0x75,0x65,0x6e,0x74,0x69,0x61,0x6c,0x5f,0x32,0x5f,0x31,0x2f,0x64,0x65,0x6e,0x73,0x65,0x5f,0x38,0x5f,0x31,0x2f,0x4d,0x61,0x74,0x4d,0x75,0x6c,0x3b,0x73,0x65,0x71,0x75,0x65,0x6e,0x74,0x69,0x61,0x6c,0x5f,0x32,0x5f,0x31,0x2f,0x64,0x65,0x6e,0x73,0x65,0x5f,0x38,0x5f,0x31,0x2f,0x42,0x69,0x61,0x73,0x41,0x64,0x64,0x00,0x00,0x00,0x00,0x02,0x00,0x00,0x00,0x01,0x00,0x00,0x00,0x03,0x00,0x00,0x00,0xaa,0xfa,0xff,0xff,0x00,0x00,0x00,0x01,0x18,0x00,0x00,0x00,0x20,0x00,0x00,0x00,0x40,0x00,0x00,0x00,0x0c,0x00,0x00,0x00,0x00,0x00,0x00,0x09,0x98,0x00,0x00,0x00,0x02,0x00,0x00,0x00,0xff,0xff,0xff,0xff,0x20,0x00,0x00,0x00,0x94,0xfa,0xff,0xff,0x08,0x00,0x00,0x00,0x14,0x00,0x00,0x00,0x01,0x00,0x00,0x00,0x80,0xff,0xff,0xff,0xff,0xff,0xff,0xff,0x00,0x00,0x00,0x00,0x01,0x00,0x00,0x00,0x44,0x7b,0xcb,0x3c,0x5e,0x00,0x00,0x00,0x73,0x65,0x71,0x75,0x65,0x6e,0x74,0x69,0x61,0x6c,0x5f,0x32,0x5f,0x31,0x2f,0x64,0x65,0x6e,0x73,0x65,0x5f,0x37,0x5f,0x31,0x2f,0x4d,0x61,0x74,0x4d,0x75,0x6c,0x3b,0x73,0x65,0x71,0x75,0x65,0x6e,0x74,0x69,0x61,0x6c,0x5f,0x32,0x5f,0x31,0x2f,0x64,0x65,0x6e,0x73,0x65,0x5f,0x37,0x5f,0x31,0x2f,0x52,0x65,0x6c,0x75,0x3b,0x73,0x65,0x71,0x75,0x65,0x6e,0x74,0x69,0x61,0x6c,0x5f,0x32,0x5f,0x31,0x2f,0x64,0x65,0x6e,0x73,0x65,0x5f,0x37,0x5f,0x31,0x2f,0x42,0x69,0x61,0x73,0x41,0x64,0x64,0x00,0x00,0x02,0x00,0x00,0x00,0x01,0x00,0x00,0x00,0x20,0x00,0x00,0x00,0x6a,0xfb,0xff,0xff,0x00,0x00,0x00,0x01,0x18,0x00,0x00,0x00,0x20,0x00,0x00,0x00,0x40,0x00,0x00,0x00,0x0b,0x00,0x00,0x00,0x00,0x00,0x00,0x09,0x98,0x00,0x00,0x00,0x02,0x00,0x00,0x00,0xff,0xff,0xff,0xff,0x20,0x00,0x00,0x00,0x54,0xfb,0xff,0xff,0x08,0x00,0x00,0x00,0x14,0x00,0x00,0x00,0x01,0x00,0x00,0x00,0x80,0xff,0xff,0xff,0xff,0xff,0xff,0xff,0x00,0x00,0x00,0x00,0x01,0x00,0x00,0x00,0x9c,0x2c,0xaf,0x3c,0x5e,0x00,0x00,0x00,0x73,0x65,0x71,0x75,0x65,0x6e,0x74,0x69,0x61,0x6c,0x5f,0x32,0x5f,0x31,0x2f,0x64,0x65,0x6e,0x73,0x65,0x5f,0x36,0x5f,0x31,0x2f,0x4d,0x61,0x74,0x4d,0x75,0x6c,0x3b,0x73,0x65,0x71,0x75,0x65,0x6e,0x74,0x69,0x61,0x6c,0x5f,0x32,0x5f,0x31,0x2f,0x64,0x65,0x6e,0x73,0x65,0x5f,0x36,0x5f,0x31,0x2f,0x52,0x65,0x6c,0x75,0x3b,0x73,0x65,0x71,0x75,0x65,0x6e,0x74,0x69,0x61,0x6c,0x5f,0x32,0x5f,0x31,0x2f,0x64,0x65,0x6e,0x73,0x65,0x5f,0x36,0x5f,0x31,0x2f,0x42,0x69,0x61,0x73,0x41,0x64,0x64,0x00,0x00,0x02,0x00,0x00,0x00,0x01,0x00,0x00,0x00,0x20,0x00,0x00,0x00,0x2a,0xfc,0xff,0xff,0x00,0x00,0x00,0x01,0x18,0x00,0x00,0x00,0x20,0x00,0x00,0x00,0x40,0x00,0x00,0x00,0x0a,0x00,0x00,0x00,0x00,0x00,0x00,0x09,0x98,0x00,0x00,0x00,0x02,0x00,0x00,0x00,0xff,0xff,0xff,0xff,0x20,0x00,0x00,0x00,0x14,0xfc,0xff,0xff,0x08,0x00,0x00,0x00,0x14,0x00,0x00,0x00,0x01,0x00,0x00,0x00,0x80,0xff,0xff,0xff,0xff,0xff,0xff,0xff,0x00,0x00,0x00,0x00,0x01,0x00,0x00,0x00,0x37,0x75,0x70,0x3c,0x5e,0x00,0x00,0x00,0x73,0x65,0x71,0x75,0x65,0x6e,0x74,0x69,0x61,0x6c,0x5f,0x32,0x5f,0x31,0x2f,0x64,0x65,0x6e,0x73,0x65,0x5f,0x35,0x5f,0x31,0x2f,0x4d,0x61,0x74,0x4d,0x75,0x6c,0x3b,0x73,0x65,0x71,0x75,0x65,0x6e,0x74,0x69,0x61,0x6c,0x5f,0x32,0x5f,0x31,0x2f,0x64,0x65,0x6e,0x73,0x65,0x5f,0x35,0x5f,0x31,0x2f,0x52,0x65,0x6c,0x75,0x3b,0x73,0x65,0x71,0x75,0x65,0x6e,0x74,0x69,0x61,0x6c,0x5f,0x32,0x5f,0x31,0x2f,0x64,0x65,0x6e,0x73,0x65,0x5f,0x35,0x5f,0x31,0x2f,0x42,0x69,0x61,0x73,0x41,0x64,0x64,0x00,0x00,0x02,0x00,0x00,0x00,0x01,0x00,0x00,0x00,0x20,0x00,0x00,0x00,0x5e,0xfd,0xff,0xff,0x00,0x00,0x00,0x01,0x14,0x00,0x00,0x00,0x30,0x00,0x00,0x00,0x09,0x00,0x00,0x00,0x00,0x00,0x00,0x09,0x3c,0x00,0x00,0x00,0xc4,0xfc,0xff,0xff,0x08,0x00,0x00,0x00,0x10,0x00,0x00,0x00,0x01,0x00,0x00,0x00,0x00,0x00,0x00,0x00,0x00,0x00,0x00,0x00,0x01,0x00,0x00,0x00,0xfb,0x05,0x7e,0x3b,0x12,0x00,0x00,0x00,0x74,0x66,0x6c,0x2e,0x70,0x73,0x65,0x75,0x64,0x6f,0x5f,0x71,0x63,0x6f,0x6e,0x73,0x74,0x37,0x00,0x00,0x02,0x00,0x00,0x00,0x20,0x00,0x00,0x00,0x13,0x00,0x00,0x00,0xbe,0xfd,0xff,0xff,0x00,0x00,0x00,0x01,0x14,0x00,0x00,0x00,0x34,0x00,0x00,0x00,0x08,0x00,0x00,0x00,0x00,0x00,0x00,0x02,0x40,0x00,0x00,0x00,0x24,0xfd,0xff,0xff,0x08,0x00,0x00,0x00,0x14,0x00,0x00,0x00,0x01,0x00,0x00,0x00,0x00,0x00,0x00,0x00,0x00,0x00,0x00,0x00,0x00,0x00,0x00,0x00,0x01,0x00,0x00,0x00,0x54,0x2b,0xbc,0x38,0x12,0x00,0x00,0x00,0x74,0x66,0x6c,0x2e,0x70,0x73,0x65,0x75,0x64,0x6f,0x5f,0x71,0x63,0x6f,0x6e,0x73,0x74,0x36,0x00,0x00,0x01,0x00,0x00,0x00,0x20,0x00,0x00,0x00,0x1e,0xfe,0xff,0xff,0x00,0x00,0x00,0x01,0x14,0x00,0x00,0x00,0x30,0x00,0x00,0x00,0x07,0x00,0x00,0x00,0x00,0x00,0x00,0x09,0x3c,0x00,0x00,0x00,0x84,0xfd,0xff,0xff,0x08,0x00,0x00,0x00,0x10,0x00,0x00,0x00,0x01,0x00,0x00,0x00,0x00,0x00,0x00,0x00,0x00,0x00,0x00,0x00,0x01,0x00,0x00,0x00,0x8c,0xf1,0x6e,0x3b,0x12,0x00,0x00,0x00,0x74,0x66,0x6c,0x2e,0x70,0x73,0x65,0x75,0x64,0x6f,0x5f,0x71,0x63,0x6f,0x6e,0x73,0x74,0x35,0x00,0x00,0x02,0x00,0x00,0x00,0x20,0x00,0x00,0x00,0x20,0x00,0x00,0x00,0x7e,0xfe,0xff,0xff,0x00,0x00,0x00,0x01,0x14,0x00,0x00,0x00,0x34,0x00,0x00,0x00,0x06,0x00,0x00,0x00,0x00,0x00,0x00,0x02,0x40,0x00,0x00,0x00,0xe4,0xfd,0xff,0xff,0x08,0x00,0x00,0x00,0x14,0x00,0x00,0x00,0x01,0x00,0x00,0x00,0x00,0x00,0x00,0x00,0x00,0x00,0x00,0x00,0x00,0x00,0x00,0x00,0x01,0x00,0x00,0x00,0xdb,0x6f,0x60,0x38,0x12,0x00,0x00,0x00,0x74,0x66,0x6c,0x2e,0x70,0x73,0x65,0x75,0x64,0x6f,0x5f,0x71,0x63,0x6f,0x6e,0x73,0x74,0x34,0x00,0x00,0x01,0x00,0x00,0x00,0x20,0x00,0x00,0x00,0xde,0xfe,0xff,0xff,0x00,0x00,0x00,0x01,0x14,0x00,0x00,0x00,0x30,0x00,0x00,0x00,0x05,0x00,0x00,0x00,0x00,0x00,0x00,0x09,0x3c,0x00,0x00,0x00,0x44,0xfe,0xff,0xff,0x08,0x00,0x00,0x00,0x10,0x00,0x00,0x00,0x01,0x00,0x00,0x00,0x00,0x00,0x00,0x00,0x00,0x00,0x00,0x00,0x01,0x00,0x00,0x00,0x68,0x8c,0x69,0x3b,0x12,0x00,0x00,0x00,0x74,0x66,0x6c,0x2e,0x70,0x73,0x65,0x75,0x64,0x6f,0x5f,0x71,0x63,0x6f,0x6e,0x73,0x74,0x33,0x00,0x00,0x02,0x00,0x00,0x00,0x20,0x00,0x00,0x00,0x20,0x00,0x00,0x00,0x3e,0xff,0xff,0xff,0x00,0x00,0x00,0x01,0x14,0x00,0x00,0x00,0x34,0x00,0x00,0x00,0x04,0x00,0x00,0x00,0x00,0x00,0x00,0x02,0x40,0x00,0x00,0x00,0xa4,0xfe,0xff,0xff,0x08,0x00,0x00,0x00,0x14,0x00,0x00,0x00,0x01,0x00,0x00,0x00,0x00,0x00,0x00,0x00,0x00,0x00,0x00,0x00,0x00,0x00,0x00,0x00,0x01,0x00,0x00,0x00,0xae,0xcf,0x9f,0x38,0x12,0x00,0x00,0x00,0x74,0x66,0x6c,0x2e,0x70,0x73,0x65,0x75,0x64,0x6f,0x5f,0x71,0x63,0x6f,0x6e,0x73,0x74,0x32,0x00,0x00,0x01,0x00,0x00,0x00,0x20,0x00,0x00,0x00,0x9e,0xff,0xff,0xff,0x00,0x00,0x00,0x01,0x14,0x00,0x00,0x00,0x30,0x00,0x00,0x00,0x03,0x00,0x00,0x00,0x00,0x00,0x00,0x09,0x3c,0x00,0x00,0x00,0x04,0xff,0xff,0xff,0x08,0x00,0x00,0x00,0x10,0x00,0x00,0x00,0x01,0x00,0x00,0x00,0x00,0x00,0x00,0x00,0x00,0x00,0x00,0x00,0x01,0x00,0x00,0x00,0x33,0x21,0x9e,0x3b,0x12,0x00,0x00,0x00,0x74,0x66,0x6c,0x2e,0x70,0x73,0x65,0x75,0x64,0x6f,0x5f,0x71,0x63,0x6f,0x6e,0x73,0x74,0x31,0x00,0x00,0x02,0x00,0x00,0x00,0x03,0x00,0x00,0x00,0x20,0x00,0x00,0x00,0x00,0x00,0x16,0x00,0x1c,0x00,0x18,0x00,0x17,0x00,0x10,0x00,0x0c,0x00,0x08,0x00,0x00,0x00,0x00,0x00,0x00,0x00,0x07,0x00,0x16,0x00,0x00,0x00,0x00,0x00,0x00,0x01,0x14,0x00,0x00,0x00,0x30,0x00,0x00,0x00,0x02,0x00,0x00,0x00,0x00,0x00,0x00,0x02,0x3c,0x00,0x00,0x00,0x7c,0xff,0xff,0xff,0x08,0x00,0x00,0x00,0x10,0x00,0x00,0x00,0x01,0x00,0x00,0x00,0x00,0x00,0x00,0x00,0x00,0x00,0x00,0x00,0x01,0x00,0x00,0x00,0xef,0x60,0xfb,0x38,0x11,0x00,0x00,0x00,0x74,0x66,0x6c,0x2e,0x70,0x73,0x65,0x75,0x64,0x6f,0x5f,0x71,0x63,0x6f,0x6e,0x73,0x74,0x00,0x00,0x00,0x01,0x00,0x00,0x00,0x03,0x00,0x00,0x00,0x00,0x00,0x16,0x00,0x20,0x00,0x1c,0x00,0x1b,0x00,0x14,0x00,0x10,0x00,0x0c,0x00,0x00,0x00,0x00,0x00,0x08,0x00,0x07,0x00,0x16,0x00,0x00,0x00,0x00,0x00,0x00,0x01,0x18,0x00,0x00,0x00,0x2c,0x00,0x00,0x00,0x48,0x00,0x00,0x00,0x01,0x00,0x00,0x00,0x00,0x00,0x00,0x09,0x60,0x00,0x00,0x00,0x02,0x00,0x00,0x00,0xff,0xff,0xff,0xff,0x13,0x00,0x00,0x00,0x0c,0x00,0x0c,0x00,0x00,0x00,0x00,0x00,0x08,0x00,0x04,0x00,0x0c,0x00,0x00,0x00,0x08,0x00,0x00,0x00,0x10,0x00,0x00,0x00,0x01,0x00,0x00,0x00,0xf0,0xff,0xff,0xff,0xff,0xff,0xff,0xff,0x01,0x00,0x00,0x00,0x2a,0xa2,0xbd,0x3c,0x1f,0x00,0x00,0x00,0x73,0x65,0x72,0x76,0x69,0x6e,0x67,0x5f,0x64,0x65,0x66,0x61,0x75,0x6c,0x74,0x5f,0x69,0x6e,0x70,0x75,0x74,0x5f,0x6c,0x61,0x79,0x65,0x72,0x5f,0x32,0x3a,0x30,0x00,0x02,0x00,0x00,0x00,0x01,0x00,0x00,0x00,0x13,0x00,0x00,0x00,0x02,0x00,0x00,0x00,0x24,0x00,0x00,0x00,0x04,0x00,0x00,0x00,0xf0,0xff,0xff,0xff,0x19,0x00,0x00,0x00,0x02,0x00,0x00,0x00,0x00,0x00,0x00,0x19,0x0c,0x00,0x10,0x00,0x0f,0x00,0x00,0x00,0x08,0x00,0x04,0x00,0x0c,0x00,0x00,0x00,0x09,0x00,0x00,0x00,0x04,0x00,0x00,0x00,0x00,0x00,0x00,0x09};
const unsigned int g_kasus_d_model_3_int8_model_data_len = 6176;

#endif // G_KASUS_D_MODEL_3_INT8_H
