// File ini dibuat secara otomatis
#ifndef G_KASUS_B_NL_MODEL_3_FLOAT_H
#define G_KASUS_B_NL_MODEL_3_FLOAT_H

// Model: Kasus B NL Model 3 Float
// 3L, 32N, float32
// Size: 11124 bytes (10.86 KB)
const unsigned char g_kasus_b_nl_model_3_float_model_data[] = {0x1c,0x00,0x00,0x00,0x54,0x46,0x4c,0x33,0x14,0x00,0x20,0x00,0x1c,0x00,0x18,0x00,0x14,0x00,0x10,0x00,0x0c,0x00,0x00,0x00,0x08,0x00,0x04,0x00,0x14,0x00,0x00,0x00,0x1c,0x00,0x00,0x00,0x98,0x00,0x00,0x00,0xf0,0x00,0x00,0x00,0xbc,0x24,0x00,0x00,0xcc,0x24,0x00,0x00,0x20,0x2b,0x00,0x00,0x03,0x00,0x00,0x00,0x01,0x00,0x00,0x00,0x10,0x00,0x00,0x00,0x00,0x00,0x0a,0x00,0x10,0x00,0x0c,0x00,0x08,0x00,0x04,0x00,0x0a,0x00,0x00,0x00,0x0c,0x00,0x00,0x00,0x1c,0x00,0x00,0x00,0x3c,0x00,0x00,0x00,0x0f,0x00,0x00,0x00,0x73,0x65,0x72,0x76,0x69,0x6e,0x67,0x5f,0x64,0x65,0x66,0x61,0x75,0x6c,0x74,0x00,0x01,0x00,0x00,0x00,0x04,0x00,0x00,0x00,0x90,0xff,0xff,0xff,0x0c,0x00,0x00,0x00,0x04,0x00,0x00,0x00,0x08,0x00,0x00,0x00,0x6f,0x75,0x74,0x70,0x75,0x74,0x5f,0x30,0x00,0x00,0x00,0x00,0x01,0x00,0x00,0x00,0x04,0x00,0x00,0x00,0x52,0xdc,0xff,0xff,0x04,0x00,0x00,0x00,0x0d,0x00,0x00,0x00,0x69,0x6e,0x70,0x75,0x74,0x5f,0x6c,0x61,0x79,0x65,0x72,0x5f,0x33,0x00,0x00,0x00,0x02,0x00,0x00,0x00,0x34,0x00,0x00,0x00,0x04,0x00,0x00,0x00,0xdc,0xff,0xff,0xff,0x0f,0x00,0x00,0x00,0x04,0x00,0x00,0x00,0x13,0x00,0x00,0x00,0x43,0x4f,0x4e,0x56,0x45,0x52,0x53,0x49,0x4f,0x4e,0x5f,0x4d,0x45,0x54,0x41,0x44,0x41,0x54,0x41,0x00,0x08,0x00,0x0c,0x00,0x08,0x00,0x04,0x00,0x08,0x00,0x00,0x00,0x0e,0x00,0x00,0x00,0x04,0x00,0x00,0x00,0x13,0x00,0x00,0x00,0x6d,0x69,0x6e,0x5f,0x72,0x75,0x6e,0x74,0x69,0x6d,0x65,0x5f,0x76,0x65,0x72,0x73,0x69,0x6f,0x6e,0x00,0x10,0x00,0x00,0x00,0xc8,0x23,0x00,0x00,0xc0,0x23,0x00,0x00,0x30,0x23,0x00,0x00,0x18,0x13,0x00,0x00,0x08,0x03,0x00,0x00,0x78,0x02,0x00,0x00,0xe8,0x01,0x00,0x00,0xd4,0x01,0x00,0x00,0x44,0x01,0x00,0x00,0xb4,0x00,0x00,0x00,0xac,0x00,0x00,0x00,0xa4,0x00,0x00,0x00,0x9c,0x00,0x00,0x00,0x94,0x00,0x00,0x00,0x74,0x00,0x00,0x00,0x04,0x00,0x00,0x00,0x0e,0xdd,0xff,0xff,0x04,0x00,0x00,0x00,0x60,0x00,0x00,0x00,0x10,0x00,0x00,0x00,0x00,0x00,0x00,0x00,0x08,0x00,0x0e,0x00,0x08,0x00,0x04,0x00,0x08,0x00,0x00,0x00,0x10,0x00,0x00,0x00,0x24,0x00,0x00,0x00,0x00,0x00,0x06,0x00,0x08,0x00,0x04,0x00,0x06,0x00,0x00,0x00,0x04,0x00,0x00,0x00,0x00,0x00,0x00,0x00,0x0c,0x00,0x18,0x00,0x14,0x00,0x10,0x00,0x0c,0x00,0x04,0x00,0x0c,0x00,0x00,0x00,0xa1,0x56,0xde,0x59,0x09,0x54,0xcb,0xcb,0x02,0x00,0x00,0x00,0x02,0x00,0x00,0x00,0x04,0x00,0x00,0x00,0x06,0x00,0x00,0x00,0x32,0x2e,0x31,0x38,0x2e,0x30,0x00,0x00,0x7a,0xdd,0xff,0xff,0x04,0x00,0x00,0x00,0x10,0x00,0x00,0x00,0x31,0x2e,0x35,0x2e,0x30,0x00,0x00,0x00,0x00,0x00,0x00,0x00,0x00,0x00,0x00,0x00,0xc8,0xd6,0xff,0xff,0xcc,0xd6,0xff,0xff,0xd0,0xd6,0xff,0xff,0xd4,0xd6,0xff,0xff,0xa6,0xdd,0xff,0xff,0x04,0x00,0x00,0x00,0x80,0x00,0x00,0x00,0xea,0x6b,0x02,0x3f,0x16,0xa9,0x8f,0xbe,0x13,0x07,0xad,0xbd,0x42,0xe5,0x64,0xbe,0x26,0xd5,0xe5,0xbe,0x9b,0x3e,0x59,0x3e,0x22,0x6b,0xc6,0xbe,0x15,0x32,0xb5,0x3e,0xec,0xbf,0xbc,0xbe,0xa7,0xdf,0x1c,0xbe,0x04,0xa1,0x9d,0x3e,0x44,0x2e,0x99,0xbd,0x9c,0x04,0xb7,0xbe,0xd8,0x29,0x81,0xbe,0x8d,0x55,0x0a,0xbe,0xcd,0x49,0xb3,0x3e,0xeb,0xa2,0x98,0xbc,0xb6,0xea,0x97,0xbe,0x99,0x14,0x45,0xbd,0x91,0xe0,0xf1,0xbd,0x8f,0x13,0xb8,0x3e,0xe6,0x6c,0x9c,0x3e,0x8f,0x59,0xb9,0x3e,0x9b,0x34,0x2e,0xbe,0x5d,0x2e,0xc3,0xbe,0xee,0x21,0x30,0xbe,0x33,0x78,0xfd,0x3e,0x44,0x83,0xec,0x3e,0xcc,0x8e,0xb8,0xbe,0xbf,0x33,0xce,0xbe,0x3c,0x7e,0x89,0xbe,0x58,0xf9,0xb3,0xbe,0x32,0xde,0xff,0xff,0x04,0x00,0x00,0x00,0x80,0x00,0x00,0x00,0xad,0x91,0x7a,0xbd,0x75,0xa8,0xc5,0xbd,0x37,0x57,0xf2,0xbe,0x82,0x56,0x4a,0x3e,0xcb,0xce,0x9a,0xbe,0x61,0xec,0xe7,0xbd,0x3e,0x75,0x3d,0xbe,0x8f,0xd7,0x01,0xbe,0x60,0x70,0xd5,0xbd,0x12,0xd1,0x82,0xbe,0x9d,0x4e,0xcc,0xbd,0xe4,0xaa,0xae,0xbe,0xd8,0x49,0xb5,0xbe,0x3a,0x05,0x54,0x3e,0xc8,0xda,0x90,0xbe,0x21,0xab,0x11,0xbf,0x0f,0x97,0x29,0x3f,0xa7,0x10,0xa8,0x3e,0x03,0x9f,0xa3,0xbe,0x3b,0x76,0xcc,0x3d,0x19,0x5b,0xd7,0xbc,0xcd,0xa1,0xa9,0xbd,0xf2,0x88,0x1c,0xbe,0x56,0x18,0xc1,0xbe,0x81,0xef,0xaf,0xbd,0xad,0x99,0x23,0x3e,0x4b,0x49,0xa1,0xbd,0x0b,0xdd,0x4c,0xbe,0x23,0xaf,0x91,0xbe,0xfc,0x04,0x94,0xbe,0xd3,0x9e,0xbb,0xbe,0x87,0xdd,0x98,0xbe,0xbe,0xde,0xff,0xff,0x04,0x00,0x00,0x00,0x04,0x00,0x00,0x00,0x9c,0x9f,0x3d,0xbc,0xce,0xde,0xff,0xff,0x04,0x00,0x00,0x00,0x80,0x00,0x00,0x00,0x03,0x70,0x89,0xbe,0xa6,0x9c,0xbb,0x3c,0x47,0x16,0x09,0x3f,0x73,0xf7,0x11,0xbd,0x92,0xbf,0xa2,0xbd,0x01,0x67,0x52,0xbe,0xfa,0xf1,0x4a,0xbc,0xfe,0x63,0x41,0xbe,0x86,0x46,0xe9,0xbd,0x9f,0x90,0xdb,0xbe,0x26,0x7d,0xb7,0x3e,0x40,0x2b,0x18,0xbe,0x71,0x68,0x93,0xbc,0x1d,0xe3,0x31,0xbe,0x4a,0xe6,0x99,0x3e,0xac,0x09,0xb4,0xbc,0x9b,0x85,0xbf,0xbb,0xe8,0x95,0x2a,0xbe,0x33,0x39,0x24,0x3f,0x99,0x49,0xb2,0xbd,0x47,0x78,0xd1,0x3c,0xaa,0x19,0x1e,0x3f,0x28,0x93,0x64,0xbd,0x42,0x53,0x16,0xbe,0x51,0xac,0x83,0xbd,0x59,0x4f,0x7b,0xbc,0xb0,0x6b,0x8e,0xbd,0xa9,0xc7,0x15,0x3f,0x1f,0x6b,0x1e,0x3f,0x42,0xbd,0x8a,0xbe,0x7d,0x77,0x7d,0xbe,0x6f,0xb1,0x01,0x3e,0x5a,0xdf,0xff,0xff,0x04,0x00,0x00,0x00,0x80,0x00,0x00,0x00,0x00,0x00,0x00,0x00,0xfe,0xd9,0x98,0xbc,0xe9,0x82,0x1f,0x3e,0x07,0xa7,0x8a,0x3e,0xf3,0x46,0x56,0xbe,0xbf,0x0b,0x01,0xbd,0x08,0xf1,0x20,0xbc,0x6b,0xef,0x20,0xbe,0x39,0xfa,0xdb,0xbc,0xd2,0xb3,0x39,0xbd,0x0e,0x02,0xd2,0x3e,0x1f,0xd9,0x95,0xbc,0xed,0x42,0x1b,0xbd,0x00,0x00,0x00,0x00,0x98,0x84,0x28,0xbd,0x85,0x16,0x22,0xbe,0x7f,0x31,0xb0,0xbc,0x72,0x49,0x2f,0x3e,0x90,0x71,0x00,0x3f,0xd1,0x66,0x15,0xbd,0x34,0x99,0xf0,0xbc,0x78,0x8a,0xfe,0x3e,0xe5,0x93,0xdc,0xbc,0x80,0xd9,0xcb,0xbc,0x63,0x24,0xd8,0xbc,0xe8,0x41,0x98,0xbc,0x4b,0xca,0xd0,0x3e,0xaa,0x13,0xb1,0xbd,0x25,0xe0,0xce,0xbb,0xc1,0xa6,0xc8,0x3e,0x06,0x0f,0x56,0xbd,0xd1,0x2e,0x04,0x3c,0xe6,0xdf,0xff,0xff,0x04,0x00,0x00,0x00,0x00,0x10,0x00,0x00,0xc9,0x4f,0x92,0xbe,0x14,0x7c,0x87,0x3e,0xb0,0xda,0xd4,0x3e,0x3b,0x5c,0xa7,0x3e,0xd3,0x0e,0x26,0x3d,0x15,0x67,0x66,0xbe,0xe0,0x7f,0x75,0xbe,0xe7,0x0b,0xb2,0xbe,0x1f,0x3d,0x35,0x3e,0xc3,0xd8,0x34,0x3e,0xd7,0x71,0x2b,0xbd,0x14,0x85,0x75,0x3e,0x04,0xa3,0x2f,0xbe,0x40,0x9e,0x45,0xbe,0xbc,0x26,0x48,0x3d,0x35,0xa1,0x8d,0x3e,0x28,0xe1,0x92,0xbe,0xea,0x75,0x04,0x3e,0xaa,0xa4,0xb6,0x3e,0x74,0xce,0x4e,0xbe,0x66,0x88,0xb4,0xbd,0x27,0x0d,0x13,0x3e,0x71,0xad,0x1b,0xbe,0x1e,0xa8,0x10,0x3e,0x45,0x8a,0x57,0x3e,0x70,0xa6,0x54,0xbe,0x94,0xff,0x8f,0xbe,0xce,0x97,0x98,0xbe,0xba,0x98,0x87,0x3e,0x52,0x5a,0x86,0x3e,0x6c,0x8c,0x47,0xbb,0x27,0xf2,0x94,0xbd,0xaf,0x1e,0x9a,0xbb,0xf5,0x48,0xa8,0xbe,0x25,0x36,0x07,0xbe,0x70,0xc6,0x33,0xbe,0xff,0x0c,0xb2,0xbe,0x66,0x54,0x76,0x3e,0x7f,0x5f,0x83,0xbe,0x47,0x02,0x6a,0x3e,0x2a,0x6b,0x41,0xbe,0x3c,0x3f,0xd2,0x3c,0x3d,0xeb,0xca,0x3e,0x9c,0x03,0x8c,0xbd,0x32,0x9c,0xa3,0xbd,0x87,0xb9,0x22,0xbe,0xf4,0xcc,0x64,0x3e,0x25,0xba,0x07,0xbe,0x9f,0x97,0x70,0xbf,0x9a,0xc8,0x69,0xbe,0xfb,0x6b,0x8d,0x3e,0x53,0xe2,0x9a,0x3d,0xb1,0xd8,0xa8,0x3e,0x49,0xa5,0x82,0x3e,0xac,0x5f,0x03,0xbe,0xa3,0x44,0x99,0xbd,0x0e,0x34,0xad,0xbe,0x74,0xc9,0xa0,0xbe,0xa7,0xdc,0xd8,0x3e,0x14,0x1b,0x04,0x3e,0xf5,0x5f,0xb8,0xbe,0x17,0x59,0x45,0x3e,0x21,0xec,0x8a,0xbe,0x08,0x82,0x9e,0xbd,0xa3,0x20,0x51,0x3c,0xa8,0x32,0x20,0xbe,0x1f,0x22,0xe9,0x3d,0x8f,0x75,0xae,0xbe,0x3a,0x6b,0x5b,0xbc,0x41,0xc4,0x6f,0xbc,0x7e,0xe7,0x04,0xbe,0x21,0x60,0x85,0xbe,0xc5,0xf3,0x84,0x3e,0xfa,0x64,0xd6,0xbc,0x87,0x1c,0xc4,0xbb,0x46,0xfe,0xa6,0xbe,0x25,0x39,0x11,0xbd,0x23,0x12,0x03,0xbe,0x1d,0x38,0xca,0xbe,0xc1,0xc5,0x0a,0xbf,0x48,0xd3,0x19,0x3f,0x41,0x8a,0xf1,0x3d,0x19,0xd4,0x4b,0x3e,0x93,0xce,0xc4,0x3d,0x5f,0x94,0x48,0x3c,0xa5,0xaa,0x6d,0x3e,0x9a,0x31,0x76,0xbe,0x80,0x94,0x22,0x3e,0x80,0x38,0x64,0x3e,0x19,0xff,0x5a,0x3c,0xaf,0xcf,0xa2,0x3e,0x07,0x9b,0x6c,0xbc,0xc6,0xdb,0x34,0xbe,0xea,0x13,0x20,0xbe,0xda,0xa8,0x9c,0xbe,0x7f,0xfe,0x66,0x3e,0xaf,0xbc,0xff,0x3d,0x52,0xe8,0x7a,0xbe,0x30,0xf7,0x55,0x3d,0x78,0xb2,0x4f,0x3d,0x7c,0x06,0xc2,0xbd,0x43,0x03,0x66,0x3d,0x58,0xd5,0x6f,0xbe,0xf9,0xfd,0x51,0x3e,0x20,0x76,0x99,0xbe,0x5a,0xaf,0xca,0xbc,0x5c,0xce,0x3e,0xbe,0x84,0xf2,0x65,0xbe,0x18,0x95,0x18,0x3e,0x20,0x0e,0xdd,0x3c,0xcb,0xa4,0x95,0x3e,0x67,0x30,0x25,0xbe,0x90,0xd0,0x18,0xbc,0x16,0xe1,0x88,0xbd,0xa9,0x0e,0x95,0xbe,0x08,0x3c,0xb3,0x3d,0x15,0xf7,0x1b,0xbe,0xbf,0x77,0x0d,0x3d,0x49,0x5d,0x4a,0xbe,0xf4,0xf1,0x8d,0xbe,0x50,0xc1,0xfa,0xbc,0x71,0x15,0x86,0xbe,0xd7,0xd8,0x84,0x3c,0x00,0xf5,0xfb,0xbd,0x30,0x92,0xfc,0x3d,0x78,0xa2,0x3a,0xbe,0x18,0x4d,0x1c,0xbd,0x80,0xf4,0x75,0xbc,0xec,0x26,0xae,0x3e,0xbe,0xbb,0xa1,0xbe,0x74,0xcf,0x4b,0xbe,0xaa,0x93,0x81,0xbe,0x02,0x7f,0x3e,0x3e,0x11,0x99,0xba,0x3e,0xce,0x68,0xa5,0xbe,0x19,0xbe,0x67,0x3e,0x8a,0xc3,0xef,0x3d,0xc9,0x46,0x57,0xbd,0xe6,0x87,0x92,0xbd,0x10,0x3b,0x57,0x3e,0x2b,0x15,0xa2,0x3d,0xef,0xfc,0x4a,0xbe,0x40,0x91,0x3e,0xbe,0x02,0x2e,0x34,0x3e,0x6b,0x63,0x10,0xbf,0xd7,0x81,0x8b,0x3c,0xb8,0x79,0xaa,0x3e,0x64,0xb1,0x52,0xbe,0x3f,0x01,0x4a,0x3e,0x03,0xa7,0xad,0x3e,0x9e,0x03,0xc5,0x3e,0xb8,0x17,0xb6,0xbe,0x1e,0xde,0xa0,0xbe,0x5b,0x70,0xcc,0xbe,0x83,0xdd,0x16,0xbc,0xa3,0xdd,0x19,0xbe,0x0e,0x93,0x27,0xbd,0x1e,0x04,0x4e,0xbd,0xd2,0x39,0x96,0xbe,0x51,0xba,0x73,0x3e,0xcb,0x9c,0xb9,0xbe,0x7f,0xdd,0xb4,0x3e,0xc7,0xa5,0xa2,0x3e,0x9f,0x8b,0xcd,0xbc,0x01,0x2b,0x7d,0x3e,0x6a,0x28,0x33,0x3e,0x98,0x47,0xbe,0x3e,0x5d,0xa4,0xf9,0xbc,0x05,0xfd,0x37,0xbc,0x3d,0x80,0x4e,0x3e,0x21,0x5e,0x3d,0x3e,0xf2,0x37,0x2d,0x3f,0x77,0x8e,0x28,0x3d,0x77,0x00,0x9e,0x3e,0x58,0x37,0x22,0x3e,0xe9,0xb3,0x80,0xbe,0x4c,0x27,0x93,0xbe,0xd7,0xb9,0x4e,0xbe,0xe7,0x88,0x0b,0x3f,0x84,0xa6,0x38,0x3d,0x00,0xbe,0x09,0xbe,0x52,0x07,0x94,0xbe,0xec,0x7d,0x98,0xbe,0x11,0x1b,0x9f,0x3e,0xd7,0x95,0xb8,0x3e,0x16,0x6b,0x80,0x3e,0xd3,0x9a,0x22,0x3d,0x29,0xbb,0x83,0xbe,0xdb,0x5b,0xb1,0x3e,0x56,0x4d,0x2a,0x3e,0xbc,0x37,0xab,0x3d,0xb2,0xf0,0x7a,0x3e,0xee,0x17,0x93,0x3e,0xa0,0xff,0x43,0x3e,0x65,0x4a,0x19,0xbe,0x6e,0x98,0x90,0xbe,0xbc,0xd1,0x81,0xbd,0x92,0x90,0x13,0xbe,0xbd,0x10,0xda,0x3d,0xef,0x03,0x09,0xbd,0xf6,0x48,0x64,0xbe,0x57,0x69,0x47,0xbe,0x3a,0x0b,0x06,0xbe,0x73,0x7e,0x9b,0x3e,0x33,0xa3,0x95,0x3e,0x71,0x7d,0x80,0xbd,0xf6,0x23,0x16,0x3e,0xae,0x11,0x8e,0xbd,0x91,0x47,0x16,0xbe,0x49,0x39,0xdf,0x3d,0xe8,0x36,0xe5,0x3d,0x5d,0xd0,0xaa,0xbd,0x8c,0xe4,0x96,0xbe,0xbc,0x91,0x5c,0x3e,0x11,0xe9,0x0c,0xbd,0x9e,0x9d,0x5a,0xbe,0xd2,0x1e,0x41,0x3e,0xb7,0x97,0x09,0xbe,0x22,0x58,0x96,0xbe,0x47,0x8f,0x79,0xbe,0xfa,0xe9,0xfb,0xbd,0x8d,0xe8,0x99,0xbe,0x46,0x79,0x69,0x3e,0x76,0xe9,0x32,0xbe,0x8c,0xc8,0xa2,0x3e,0x89,0xa3,0x6f,0xbe,0xf2,0xbd,0x8d,0x3e,0x91,0xbe,0x69,0x3e,0x58,0x63,0x19,0xbe,0x37,0x33,0x63,0x3d,0x3a,0xfd,0x71,0xbe,0x2a,0x46,0x59,0x3e,0xd2,0xd3,0x9a,0x3e,0x5a,0x7f,0xc6,0xbd,0x45,0x90,0xfc,0xbd,0xc6,0xa8,0x1a,0x3f,0x8d,0xb3,0x68,0x3e,0x61,0xe3,0x2a,0x3e,0x09,0xca,0x37,0x3e,0xa5,0x5d,0x1f,0x3e,0x39,0x44,0x15,0xbf,0x19,0x70,0x0b,0x3b,0xd2,0xe7,0x7d,0x3e,0x38,0x62,0x85,0xbc,0xee,0xff,0xba,0x3e,0x27,0x22,0x4f,0x3e,0xa3,0x42,0x87,0x3e,0x41,0x62,0xba,0x3e,0x62,0x9a,0x48,0x3e,0x2a,0x0b,0xd0,0xbd,0xb8,0xb2,0xb6,0xbd,0x3f,0xbf,0x33,0x3e,0x66,0x06,0x80,0x3e,0x9e,0xcc,0x37,0xbe,0x1b,0x7b,0x9d,0x3b,0xc2,0x17,0x4c,0x3d,0x3c,0x7a,0xc5,0x3d,0x46,0x0c,0xe6,0x3c,0x28,0x80,0x53,0xbe,0x35,0x78,0xf8,0xbd,0x79,0xe8,0x98,0xbe,0x13,0xba,0xc1,0x3e,0xa0,0x74,0xf4,0xbd,0xe6,0x0b,0x03,0xbe,0x58,0x6a,0xb6,0xbe,0xc8,0x3d,0x99,0x3d,0x41,0x85,0x72,0x3e,0x4a,0x5d,0x3d,0xbe,0x8c,0x8e,0x9b,0xbe,0xb0,0x0c,0x96,0xbe,0xbb,0xb0,0xad,0xbe,0xa0,0xa3,0x23,0xbe,0xac,0xf2,0x71,0xbf,0x06,0x2c,0x26,0xbe,0x32,0x5f,0xdd,0xbd,0xea,0x2b,0xf1,0x3d,0xed,0x80,0xab,0x3e,0x44,0x9b,0x9e,0x3e,0x7d,0x04,0x08,0x3e,0x8f,0x90,0x59,0xbe,0x8c,0x07,0x74,0xbe,0x7b,0x50,0x65,0xbd,0x6f,0xa6,0x0c,0x3e,0x7f,0xf8,0xc9,0x3e,0x2b,0x5f,0xcf,0xbd,0xcb,0xa3,0xb9,0xbd,0xe4,0xc3,0xa7,0xbe,0x55,0x39,0x89,0xbd,0x4f,0x62,0x96,0x3e,0x46,0x18,0x50,0xbd,0x5b,0x14,0x33,0xbd,0x83,0x08,0x88,0x3e,0xa5,0xb5,0x70,0x3e,0x21,0xd7,0x12,0x3e,0xb2,0x4d,0x15,0xbe,0xfb,0x5a,0x92,0x3e,0x46,0x58,0xa6,0xbd,0xfb,0x7a,0x84,0xbd,0xab,0xa8,0x63,0x3e,0x26,0x83,0xc2,0x3e,0x1c,0x8d,0x96,0x3e,0x0f,0x85,0x57,0x3e,0x54,0x2b,0x39,0x3e,0x44,0x85,0x1c,0x3e,0x73,0x10,0x97,0xbe,0x67,0x75,0xfe,0xbd,0xca,0x31,0x3d,0x3d,0xe0,0x1e,0x9a,0xbe,0x57,0x58,0xab,0x3d,0x0b,0x9f,0x8f,0x3e,0xf2,0x85,0x8b,0x3e,0x18,0x43,0x05,0x3e,0xda,0xd9,0x4b,0x3e,0xe8,0x4f,0x37,0xbc,0x58,0x67,0x02,0x3e,0xc6,0xad,0x64,0xbe,0xcf,0xe1,0x54,0x3e,0xd1,0x97,0x99,0x3e,0xe8,0x0c,0xc9,0xbb,0x83,0x6e,0x91,0x3b,0xe8,0xd0,0x56,0x3e,0xad,0xe5,0x39,0x3e,0xba,0x9f,0x0c,0xbe,0x22,0xed,0x6e,0x3e,0x4f,0x09,0xec,0xbd,0x58,0x3c,0x49,0xbe,0x1e,0xbb,0x7a,0xbc,0xe9,0xde,0xdc,0x3c,0x84,0xc5,0x9b,0x3d,0xd9,0x81,0x1b,0x3e,0x99,0xaa,0x57,0x3e,0x0e,0x02,0x9c,0xbe,0x85,0x23,0x65,0x3e,0x9d,0x6d,0xe3,0xbd,0x82,0x9c,0xea,0xbd,0xdf,0x3d,0xa9,0xbe,0x47,0xd0,0x0c,0x3f,0xb1,0xfd,0x34,0x3e,0x4f,0x12,0x1c,0xbe,0x84,0xb2,0x52,0xbd,0x85,0x1e,0x3c,0xbe,0x4b,0x3e,0x45,0xbd,0x2d,0x38,0xeb,0x3d,0x94,0xb4,0x8c,0xbe,0x68,0x5b,0x6e,0xbe,0x29,0x8e,0x94,0xbe,0xd1,0x3f,0x65,0xbb,0x5c,0xef,0x53,0xbe,0xd0,0x31,0x73,0xbe,0x76,0xb7,0x8a,0xbe,0xe5,0xe4,0x86,0x3e,0xcd,0x30,0x26,0xbd,0xe4,0x3c,0xcf,0x3e,0x39,0x5f,0x44,0xbe,0xe9,0xf8,0xd1,0x3e,0x08,0x7a,0x68,0xbe,0x03,0xd6,0x96,0x3d,0x5c,0xea,0x9c,0xbd,0x22,0xe4,0x0b,0x3d,0xab,0x93,0xd0,0x3e,0xf9,0x9b,0x3a,0x3b,0x18,0x86,0x82,0xbd,0xaf,0x76,0x5b,0x3e,0x2f,0xb0,0x8c,0x3c,0xca,0xec,0xac,0x3e,0xb8,0x82,0x09,0xbe,0xd7,0x6e,0x2e,0x3e,0x2c,0x5f,0x45,0x3e,0xbf,0x9d,0xd1,0xbe,0x2d,0x84,0xad,0x3d,0x7c,0xb7,0x72,0x3e,0x7b,0x56,0x5e,0x3d,0x71,0x43,0x9c,0x3b,0x27,0x3e,0x0f,0xbe,0x23,0x72,0x71,0xbc,0x90,0x12,0xab,0x3e,0xfb,0xff,0x8e,0x3e,0xe0,0x14,0x84,0xbe,0xb9,0x0b,0xc2,0x3e,0xbd,0x4f,0x72,0xbc,0x67,0x1a,0x9b,0x3e,0x42,0x2f,0xa1,0x3d,0x0b,0x99,0x2e,0x3e,0x92,0x0e,0x9e,0x3e,0xc6,0x96,0x7e,0xbe,0xe5,0xba,0x65,0xbe,0x62,0x44,0x24,0xbe,0x99,0xe4,0x8a,0xbd,0x76,0xdd,0x95,0xbe,0x81,0x93,0x32,0x3c,0x6d,0x3c,0x2e,0xbe,0xd8,0xc6,0xb4,0x3d,0x80,0x13,0x59,0x3d,0xef,0x9a,0x03,0xbd,0xbf,0x88,0x24,0xbd,0x71,0xb4,0x1b,0x3e,0x30,0xb3,0x0f,0x3e,0x48,0xab,0xfd,0xbd,0xe2,0xdc,0xe0,0xbd,0x42,0x7c,0x48,0xba,0x70,0x55,0xc9,0xbc,0x37,0x43,0x04,0x3d,0xa0,0x77,0x28,0xbd,0xff,0x5f,0x47,0x3e,0x0b,0x1d,0x2e,0xbe,0x4e,0x13,0x46,0x3e,0x38,0xac,0xb7,0xbc,0x18,0x40,0x30,0x3d,0xe0,0xd7,0xcd,0xbd,0x52,0x2e,0xcd,0x3d,0xa8,0x5d,0x2d,0x3e,0x5f,0x81,0x94,0xbe,0xb2,0xc9,0xcb,0xbd,0xe0,0x15,0xf0,0xbd,0x20,0x06,0x0d,0x3d,0x5c,0x3e,0xdd,0x3d,0xd8,0xbb,0x9b,0xbe,0x9b,0x96,0xd3,0x3c,0xb1,0xb7,0xe4,0xbd,0xc9,0x45,0x8a,0x3b,0xf1,0x97,0xab,0x3e,0x5f,0xcc,0xb4,0xbe,0x5a,0xff,0x86,0x3e,0xfa,0xb1,0x53,0x3e,0x0f,0x78,0x70,0xbe,0xd3,0x63,0x5a,0xbe,0xda,0x9c,0x44,0x3e,0xf3,0x1d,0xc3,0x3e,0x34,0x2c,0x12,0xbd,0x36,0x99,0xfe,0x3d,0x5b,0x9f,0x6e,0x3e,0x6e,0x26,0x7c,0xbe,0xd1,0x0e,0x14,0xbe,0xa7,0xf9,0xcb,0x3b,0xa4,0x69,0xc2,0x3e,0x4f,0x41,0x02,0xbe,0x23,0x05,0xb1,0xbd,0x10,0xd3,0x1b,0xbe,0xba,0x0f,0x99,0xbe,0x2d,0x92,0x3f,0x3e,0xb7,0x73,0x67,0x3e,0xed,0x03,0x7b,0x3e,0xa0,0x94,0x91,0xbe,0xd9,0x6b,0x2d,0xbe,0x14,0xeb,0x99,0x3e,0xe6,0xf6,0xb5,0x3e,0x11,0x3d,0x4f,0xbe,0x7c,0x03,0xab,0x3e,0x78,0x46,0x90,0xbd,0xbb,0x19,0x72,0xbe,0x1a,0x3c,0xd3,0x3b,0x01,0xfe,0x36,0x3e,0x25,0x11,0x72,0x3e,0x44,0x89,0x12,0xbe,0x52,0x39,0xe4,0x3d,0x1d,0xa0,0x88,0x3e,0x80,0xfd,0xa5,0xbe,0xad,0xb5,0x87,0xba,0x57,0x2e,0x59,0xbe,0xfb,0xa1,0x0d,0xbf,0xcc,0xf5,0xf7,0xbd,0xe5,0x98,0x69,0x3e,0x5e,0xc7,0x70,0x3e,0x78,0x1d,0x1b,0xbf,0x9f,0xc5,0x0b,0x3f,0x1e,0xa8,0x3f,0x3d,0x10,0xd2,0xe7,0xbe,0x8f,0x1a,0x0e,0xbe,0xb9,0xa8,0x07,0x3d,0xe0,0x6a,0xa1,0x3e,0xe6,0xb2,0x00,0xbe,0xe7,0x5d,0x39,0xbe,0xa3,0x30,0x9f,0xbe,0x4b,0xda,0x7e,0x3c,0xe8,0x14,0x54,0x3e,0x0d,0x47,0x9d,0xbd,0x48,0xa3,0x6d,0xbe,0x14,0xfa,0x88,0x3e,0xae,0x2c,0x23,0x3c,0xd6,0xf4,0xb5,0xbc,0xff,0x9c,0xc5,0x3e,0xd4,0xe9,0xef,0x3c,0xb7,0xb8,0x7d,0xbd,0x1c,0x7f,0x8b,0xbe,0x78,0x04,0x48,0x3e,0xf0,0x89,0x63,0x3e,0x40,0x20,0x22,0x3e,0x5f,0xc9,0xca,0x3d,0x8b,0xd0,0x2b,0xbe,0x97,0xd2,0x65,0x3e,0xa3,0x68,0xc7,0x3e,0xdb,0x1d,0xac,0x3c,0xb5,0x0f,0xb5,0x3c,0xd7,0x37,0xb0,0xbd,0x1a,0x64,0xa8,0xbd,0xf6,0xdb,0xea,0x3d,0x34,0x06,0x06,0xbe,0xc2,0xb4,0x92,0xbd,0xac,0xe0,0xff,0xbd,0x86,0xb9,0x9b,0xbe,0x17,0x6a,0xc7,0x3e,0xd7,0xd1,0x4b,0x3e,0x57,0xb7,0x56,0x3e,0x09,0x2d,0x88,0xbe,0x9c,0x88,0x27,0xbd,0x53,0x69,0x2b,0xbc,0x1a,0x5f,0x96,0x3e,0xfd,0x67,0x90,0x3d,0x77,0xaf,0x4b,0xbe,0x8b,0x1f,0x4e,0xbe,0xdf,0x49,0x54,0x3e,0x6c,0x8a,0x5b,0x3e,0xfa,0x08,0x68,0x3e,0xc9,0x13,0x8d,0xbe,0xfe,0xca,0xc7,0xbd,0xc0,0xe5,0x5a,0xbe,0xf1,0x16,0x99,0x3e,0xce,0x2a,0x47,0xbc,0x70,0xbe,0x6e,0xbe,0x2e,0xe1,0x42,0xbe,0xe3,0xe5,0x80,0x3e,0xe5,0x83,0xdb,0x3d,0x10,0xb6,0x37,0xbd,0x69,0x52,0x98,0xbe,0xea,0x91,0xfc,0x3d,0x0c,0x8e,0xea,0x3d,0x0d,0xe6,0x31,0x3e,0xb8,0x4c,0xa3,0x3d,0xc0,0xa7,0xae,0xbb,0x69,0x9e,0x3f,0xbe,0x3a,0x5e,0x1d,0x3e,0x47,0x86,0x72,0xbd,0x18,0x3f,0x34,0xbd,0xe6,0xe2,0x7b,0xbe,0xb0,0xff,0x96,0xbe,0x40,0xd9,0x71,0xbe,0x3e,0x47,0x0e,0xbe,0xc6,0x20,0x5f,0x3e,0xa0,0x48,0xa4,0x3d,0x9b,0xed,0x1e,0xbe,0x05,0x32,0xed,0xbd,0x15,0x1b,0x82,0xbc,0xaf,0x2d,0x9d,0x3d,0x8c,0xe0,0x32,0xbc,0xd0,0xc0,0x91,0xbe,0x71,0xa4,0x86,0x3e,0xdb,0xcc,0x11,0x3d,0x25,0x36,0x09,0xbe,0xf9,0x47,0x6c,0x3e,0x79,0x9e,0x27,0x3e,0x0f,0x57,0xaf,0x3e,0xec,0xba,0xcb,0xbd,0xbc,0xde,0xaf,0x3d,0x3d,0x6a,0x9f,0x3e,0x55,0x9f,0x24,0xbe,0x3a,0x2c,0xd4,0x3e,0x40,0x66,0x99,0x3e,0x38,0xd0,0xbf,0xbd,0xe1,0x5d,0x67,0x3d,0xb1,0x04,0xde,0x3b,0x50,0xf0,0x8a,0xbe,0xb6,0x0c,0xf2,0xbc,0x3e,0xe9,0x2e,0x3f,0x25,0x67,0x5c,0x3e,0x0d,0x30,0x5d,0xbd,0x80,0x48,0x88,0x39,0xfd,0xea,0x35,0xbe,0x91,0x2e,0x20,0xbd,0x69,0x27,0x72,0x3d,0x74,0x30,0x94,0x3e,0x5b,0x7e,0xee,0x3d,0xaa,0x49,0x9a,0xbe,0xea,0x28,0xf8,0x3d,0xd4,0x55,0x03,0x3d,0x98,0xd2,0x51,0xbe,0xff,0x6a,0x5b,0xbe,0x20,0x1b,0x67,0x3e,0x65,0x93,0x42,0x3e,0x05,0x68,0x7c,0xbe,0x18,0xf4,0x75,0xbe,0x81,0x1a,0x55,0xbe,0x88,0xcb,0x20,0xbe,0x5c,0xec,0x5a,0xbd,0x3a,0xec,0x9a,0xbe,0x8f,0xf6,0x82,0x3e,0xa0,0x1e,0x91,0xbd,0xf2,0x3e,0x29,0xbc,0x8d,0xb0,0x4c,0xbe,0x68,0xaf,0x5b,0xbe,0xb4,0xaa,0x23,0xbd,0x86,0xae,0x59,0xbe,0x25,0xb7,0xa6,0xbe,0x54,0x96,0x17,0x3f,0x10,0x2f,0x8d,0x3e,0x4e,0x0d,0xb8,0xbe,0x9d,0x67,0x93,0x3e,0x1c,0x76,0x62,0x3e,0x40,0xd5,0x0f,0xbe,0xac,0x68,0x1a,0x3e,0x24,0x61,0xa2,0xbe,0xb8,0x52,0x41,0x3e,0xe9,0x23,0x0e,0xbc,0x1c,0xec,0x92,0xbd,0x8e,0x20,0xcb,0xbc,0xee,0x77,0x8a,0x3e,0x14,0x57,0x90,0xbe,0x97,0x13,0x7f,0x3d,0xda,0x45,0xad,0xbe,0x01,0xf1,0x04,0x3e,0x9d,0xa4,0xdd,0xbc,0xbe,0x66,0x27,0x3e,0x24,0xc0,0x12,0xbe,0xed,0xd6,0xac,0xbe,0xf3,0x8e,0xfd,0xbd,0xca,0xb7,0xd6,0x3d,0x18,0xf8,0x7f,0x3e,0x02,0x16,0x14,0xbe,0x7c,0x6a,0xef,0xbd,0xe3,0x89,0xcb,0x3d,0x2a,0x0e,0x8e,0xbe,0x6f,0xbe,0x5b,0xbe,0xd0,0x17,0x05,0x3e,0x5f,0xe8,0x09,0xbe,0x03,0x19,0x93,0x3d,0xb9,0x81,0x8c,0xbf,0xe5,0xad,0xce,0xbe,0xf4,0x99,0x8e,0xbd,0xf0,0x40,0x2f,0x3d,0xbc,0x46,0x9e,0x3e,0x0f,0x92,0x3f,0x3e,0x42,0x9a,0xa7,0x3e,0xe3,0x46,0xa8,0xbd,0x50,0x38,0x9b,0xbe,0x1e,0xa8,0x20,0xbd,0x9e,0x97,0x10,0xbe,0x8a,0x1f,0x87,0x3e,0x51,0x6e,0x3b,0xbe,0xdd,0x21,0x8e,0xbd,0xda,0x57,0x83,0x3d,0x70,0xe1,0x57,0x3e,0x00,0x7a,0xcf,0x3e,0x05,0x6f,0xd0,0xbd,0xa4,0x24,0x77,0xbd,0xfa,0x02,0x8e,0xbe,0x4a,0xac,0xb0,0xbe,0x41,0x07,0xdf,0xbd,0x63,0x6c,0xa3,0xbe,0x6e,0x8b,0xc7,0x3e,0xb2,0xc0,0xa2,0xbe,0xe5,0x47,0x30,0x3c,0xfe,0xac,0x58,0x3e,0xb1,0x19,0x42,0xbe,0xe0,0xaa,0x33,0xbe,0xb3,0x0f,0x36,0x3e,0x5d,0x45,0x85,0xba,0x19,0xce,0x95,0xbd,0x61,0xe0,0x42,0xbf,0xc8,0x49,0x1a,0x3e,0x0f,0xf7,0x72,0xbe,0x45,0x43,0x48,0xbe,0x47,0xe5,0x19,0xbb,0x14,0xea,0x95,0xbb,0x3d,0x67,0xc4,0x3e,0x77,0x38,0x44,0x3e,0x00,0x05,0x81,0x3d,0x54,0xda,0x08,0x3d,0x9f,0x9b,0xd5,0x3e,0x92,0x94,0xac,0x3e,0xe3,0x6d,0x9b,0xbe,0xe5,0xae,0x84,0xbe,0x34,0x95,0x1a,0xbd,0xe9,0x50,0xc7,0x3d,0xac,0x99,0x2a,0x3e,0xcf,0x9d,0x1d,0xbd,0x0a,0xd8,0x60,0xbd,0x07,0x10,0x8e,0x3e,0xba,0x55,0x30,0xbd,0x1c,0xf2,0x83,0x3e,0xe1,0x1b,0x85,0xbd,0xfa,0x19,0x92,0xbe,0x45,0x69,0x7b,0xbc,0x1d,0xea,0x55,0x3e,0x61,0x2d,0x77,0x3e,0xe0,0x45,0x89,0xbd,0x1b,0x76,0x08,0xbe,0xb8,0x4b,0x7f,0xbd,0x21,0x30,0x09,0x3b,0x36,0x4a,0xc9,0xbb,0xad,0x4f,0x5a,0x3f,0xfd,0xf2,0xe3,0x3e,0x69,0xa9,0xa6,0xbe,0x95,0x42,0x62,0xbd,0xd7,0x4a,0x6f,0x3e,0x63,0xc3,0x93,0xbd,0x14,0xfc,0x97,0xbd,0x53,0xb5,0x65,0xbe,0x7e,0x05,0xac,0x3d,0xed,0xcb,0x49,0xbe,0x06,0x66,0x65,0xbe,0x04,0x43,0x89,0xbe,0x6a,0x9c,0x93,0xbd,0x60,0xd6,0x04,0xbe,0x3e,0x91,0x3c,0xbe,0xd0,0x80,0x2b,0xbd,0xaa,0x28,0xf5,0xbd,0xc0,0xd7,0xbf,0xbe,0x54,0xaa,0x7b,0xbd,0x08,0x15,0x9b,0xbc,0xc2,0xf0,0x72,0x3c,0x19,0xb9,0xc4,0x3e,0x69,0x97,0xb0,0xbe,0xdf,0xf9,0xdb,0x3d,0x25,0x9f,0x34,0x3e,0xcd,0x74,0xa2,0xbe,0x71,0x77,0xab,0xbd,0x2a,0xd1,0xa9,0x3e,0xba,0x36,0xbd,0xbe,0xe6,0x26,0xb7,0xbd,0x8f,0x87,0xb4,0xbe,0x4f,0x81,0x2e,0x3e,0x1f,0x66,0x87,0xbf,0xf8,0x8e,0x83,0xbe,0xeb,0x20,0x11,0xbb,0xce,0x9b,0x39,0xbe,0x0b,0x14,0x76,0x3e,0x3a,0x16,0x5f,0x3e,0x28,0xd5,0x5a,0x3e,0xdc,0xab,0x92,0xbe,0x5f,0xdf,0x07,0xbd,0xd2,0x37,0x7f,0xbd,0x71,0x89,0x80,0x3e,0x85,0x60,0x95,0x3e,0x6f,0x8b,0x26,0xbe,0x7e,0xd2,0x13,0xbe,0x3a,0xc4,0x97,0xbe,0xaf,0xe1,0x35,0xbe,0x17,0x24,0xa3,0x3e,0xb1,0xe4,0xf8,0x3d,0xc1,0x04,0x9d,0x3e,0x03,0xcf,0x63,0xbe,0x96,0x37,0x8a,0x3d,0xc5,0xf3,0x03,0x3e,0x8d,0xe1,0x81,0x3e,0x94,0xc5,0xb1,0x3d,0x8d,0xb1,0xc3,0x3c,0x2b,0x42,0x6f,0xbd,0x93,0xc8,0x1b,0xbe,0xc5,0x49,0x06,0x3e,0xa5,0x98,0x83,0x3e,0x93,0xe6,0x5f,0xbe,0xd5,0x0c,0xcd,0x3e,0x58,0x25,0xa4,0x3e,0x7d,0x2f,0x6b,0xbe,0x6a,0x48,0x37,0x3e,0xcc,0xf9,0x28,0xbe,0x87,0xf8,0x9a,0x3e,0x52,0xc0,0x4f,0x3e,0x41,0xc7,0x08,0x3d,0x10,0x7a,0xa5,0x3d,0x8c,0x24,0x11,0xbe,0xce,0x30,0x21,0x3e,0xcb,0x8d,0x98,0xbc,0xed,0x62,0x2e,0x3e,0xb5,0xc8,0x04,0xbe,0xd4,0x69,0xa4,0x3e,0xe1,0xd5,0xa4,0x3e,0xec,0x70,0x15,0x3e,0x42,0x9b,0x43,0xbe,0x5e,0xe9,0xe4,0x3d,0xe5,0xac,0x01,0xbe,0xcc,0xe9,0x13,0x3e,0xa6,0x7a,0x82,0xbe,0x20,0x7c,0xbb,0xbb,0x7f,0x37,0xa0,0x3e,0x4d,0x23,0x8c,0xbd,0xa4,0x29,0xd9,0x3e,0x82,0x60,0x3a,0x3e,0xaa,0x4a,0xa0,0xbe,0x74,0x81,0xa4,0x3e,0x97,0xb4,0xb3,0xbd,0xeb,0x81,0x3e,0xbe,0xf4,0x88,0xe0,0x3c,0xde,0xdc,0xba,0xbe,0xdf,0xdd,0xa3,0xbc,0x63,0xfa,0x14,0xbf,0xd4,0xf9,0xb7,0xbe,0x56,0x3e,0xe5,0xbd,0x36,0xc4,0x12,0x3e,0x2b,0x52,0x7e,0x3e,0x77,0x7d,0xdc,0x3e,0x39,0xf9,0xbe,0x3e,0x8f,0xe0,0xc4,0xbe,0x48,0x20,0x77,0xbd,0xc1,0x6e,0x37,0x3e,0xff,0x08,0x60,0x3c,0xfc,0x18,0x13,0x3d,0xeb,0xa4,0x83,0xbe,0x13,0x57,0x86,0xbe,0x44,0x16,0x25,0xbe,0x48,0x6d,0xff,0xbd,0xa8,0x5d,0xa2,0x3e,0x22,0x88,0x7e,0xbd,0x76,0x39,0x47,0xbe,0x03,0xbe,0x0c,0x3d,0x60,0xcc,0x1b,0x3e,0xf5,0x47,0xe3,0xbc,0xa5,0x29,0x8f,0xbe,0x9a,0x8e,0xc1,0x3e,0x2f,0x87,0x5c,0x3c,0xc6,0xac,0x63,0x3d,0xbd,0xc8,0xdb,0x3e,0x43,0xde,0x25,0xbe,0x3c,0xbb,0x3e,0xbe,0xac,0x29,0x29,0xbe,0xef,0xb8,0x4b,0x3e,0xc5,0x95,0xec,0xbd,0x4f,0x28,0x06,0xbf,0x8d,0xc0,0x0e,0x3e,0xde,0x4e,0xfd,0xbd,0x77,0xda,0x40,0x3d,0xbd,0xc4,0xc8,0x3e,0xea,0xab,0x4b,0x3a,0x33,0x11,0x23,0xbe,0xc5,0x64,0x3c,0xbe,0x80,0x15,0xcf,0xbd,0x60,0xbb,0x5a,0xbd,0x83,0x1f,0x80,0x3e,0xcb,0xcb,0x61,0x3e,0x23,0xef,0x17,0x3d,0x46,0xad,0x70,0xbe,0x85,0x67,0xa4,0xbe,0x9e,0x2e,0x2d,0x3d,0xea,0x65,0x61,0x3e,0x0a,0x91,0x37,0x3b,0x51,0x44,0x07,0x3e,0x0c,0x13,0xd5,0x3c,0x06,0x94,0xa3,0x3d,0x8b,0xcd,0xde,0x3a,0xd1,0x4e,0xdc,0x3d,0x19,0x47,0x9c,0x3d,0xf9,0x84,0x18,0x3e,0x45,0x46,0xba,0x3e,0x35,0xf2,0xd7,0x3d,0x66,0x83,0x24,0x3d,0x5e,0x7f,0x9e,0x3c,0x84,0x94,0x6c,0xbd,0x73,0xae,0x65,0x3e,0x08,0x18,0xc9,0x3d,0xce,0x34,0x33,0xbe,0xdf,0x01,0x55,0xbe,0xc2,0x5f,0xcf,0x3c,0xb8,0x5c,0x55,0x3e,0xa2,0xd3,0x6d,0xbc,0xd5,0xe8,0x88,0x3e,0x47,0x17,0xd4,0x3e,0xef,0x77,0xb0,0x3e,0x08,0x10,0x27,0x3e,0x58,0xce,0x00,0xbc,0x18,0xe6,0x8d,0x3e,0xdf,0xcb,0x17,0x3e,0xdd,0xbd,0xaf,0xbc,0xc7,0xca,0x7e,0x3d,0xdd,0x1f,0x6e,0x3e,0xdf,0xfe,0x96,0x3e,0x93,0xa4,0x0d,0xbe,0x34,0x19,0x60,0xbe,0x43,0x16,0xce,0xbe,0x34,0x2b,0x92,0x3e,0xd7,0xdc,0x72,0xbe,0xef,0x8d,0x24,0x3e,0xb8,0x26,0x28,0xbb,0xfb,0x20,0x8a,0x3e,0x6e,0xeb,0x0c,0xbe,0xf6,0xd3,0x03,0xbe,0xa2,0x14,0x86,0xbd,0x4b,0x8d,0xf7,0xbe,0xce,0xca,0x27,0xbe,0x78,0x79,0xcd,0x3d,0x67,0xee,0x06,0x3e,0x05,0x29,0x4a,0x3e,0x3f,0x5c,0x5a,0x3f,0x30,0x58,0x66,0x3e,0x96,0x8c,0x6e,0xbe,0x24,0x12,0xc5,0xbd,0x69,0xbd,0xc5,0xbd,0xd8,0x8f,0x76,0xbd,0x6e,0xb6,0x2d,0xbe,0xf9,0x84,0x9d,0xbe,0x6f,0x66,0xf2,0x3d,0x7a,0xe0,0x41,0x3e,0x6c,0xeb,0x9a,0xbd,0x29,0x07,0xc5,0xbd,0x92,0x06,0x8e,0xbe,0xe7,0x4f,0x07,0x3e,0xe5,0x1c,0x5d,0xbe,0x28,0x74,0x58,0x3e,0x2e,0xc7,0x58,0xbe,0xf3,0xf3,0xc2,0xbb,0x1b,0x16,0x71,0x3d,0x92,0x01,0x4b,0xbd,0xa8,0x8c,0x22,0xbe,0xef,0x96,0x84,0x3d,0xb2,0x7b,0x69,0x3d,0xc0,0x7d,0x13,0x3e,0x5b,0x81,0x0b,0x3e,0x30,0xcd,0xa3,0xbe,0xa3,0x8f,0xb0,0xbd,0xc5,0xee,0x1b,0xbf,0x52,0x7c,0x21,0xbe,0xef,0xbd,0x8f,0x3e,0xbd,0xdd,0x50,0xbe,0x7d,0x9f,0xae,0xbe,0xec,0x84,0x1b,0x3f,0x9c,0xa0,0xa9,0x3d,0x69,0x84,0x2d,0xbe,0x4e,0x10,0xa0,0x3e,0x1d,0x78,0x45,0x3e,0x7c,0x1e,0xab,0x3e,0xe5,0x1b,0x28,0xbe,0x5b,0x86,0x38,0xbc,0x83,0x5a,0x56,0x3e,0x5f,0x7b,0xe4,0x3d,0xa0,0x22,0x31,0x3d,0x9f,0x54,0x33,0x3d,0x31,0x2c,0xa4,0x3c,0x0c,0x22,0x81,0x3e,0xad,0x4b,0x41,0x3d,0x48,0x4f,0x8c,0xbe,0xa1,0x32,0x15,0xbe,0xd3,0x87,0x12,0xbe,0xe8,0x49,0x4c,0xbd,0x40,0xf6,0xd7,0xbd,0xf8,0xeb,0xda,0xbd,0xe1,0x6d,0x5d,0x3e,0xca,0x24,0xa0,0xbd,0xa6,0x99,0x97,0x3e,0x6a,0x38,0x11,0x3e,0xee,0xe8,0x40,0xbe,0x25,0x11,0x4c,0x3e,0x36,0xc9,0x59,0xbe,0xe1,0xab,0xa4,0xbe,0xbe,0x89,0x1c,0xbe,0x23,0xca,0xa3,0xbe,0x5a,0xb2,0x4c,0xbe,0xe3,0x88,0x8a,0xbf,0xa2,0xd2,0x97,0xbd,0x2b,0x40,0x56,0xbe,0xe6,0x8b,0x2f,0x3e,0xd8,0x55,0x49,0x3e,0x2a,0x67,0x31,0xbe,0xb2,0x76,0x9c,0x3d,0x23,0xe1,0x02,0x3e,0xdd,0xa1,0x1a,0xbd,0xed,0xba,0xda,0xbd,0x38,0xd0,0x99,0x3e,0xad,0xa3,0x85,0x3e,0x8b,0x41,0xa5,0xbe,0x2a,0x4c,0xa9,0xbe,0x84,0x5c,0xba,0x3d,0x60,0xd3,0xda,0xbd,0xbc,0xfb,0x58,0xbe,0x88,0x6c,0x46,0xbe,0xff,0x40,0x01,0x3e,0x51,0x31,0x10,0xbe,0xcb,0xf4,0x88,0x3e,0x1a,0xe1,0x41,0xbe,0x94,0x87,0x51,0xbd,0x87,0xa3,0x41,0x3e,0x9f,0x24,0xa4,0x3e,0x01,0xab,0xa2,0x3e,0xa3,0xe3,0x79,0x3e,0x69,0xde,0x45,0x3e,0x0b,0xab,0x7c,0x3e,0x2d,0xe7,0xb5,0xbd,0xde,0x60,0x64,0x3e,0x30,0x01,0x1d,0xbe,0xea,0xe6,0x33,0xbd,0x76,0xba,0xfc,0x3d,0xbf,0xe6,0x1d,0x3f,0x40,0x50,0x14,0x3e,0x63,0x8c,0x02,0x3e,0x1d,0x0b,0x35,0xbd,0x86,0x1b,0xa9,0xbe,0xe9,0xd2,0x8d,0xbd,0xae,0x90,0x0a,0x3e,0x58,0x3c,0xa5,0x3d,0xe2,0xd4,0xa8,0xbd,0x85,0x57,0x95,0xbe,0x65,0x84,0x0c,0xbd,0xf2,0x07,0x01,0x3e,0xa6,0x62,0x87,0x3e,0x29,0x6b,0x9a,0x3e,0xd9,0x81,0xce,0xbd,0x50,0xbb,0x60,0xbe,0x2b,0x94,0x39,0xbe,0x28,0x21,0x6e,0xbd,0x12,0x26,0x71,0x3e,0x8a,0xed,0x93,0xbe,0x2c,0x37,0xbf,0xbd,0x26,0x6f,0x35,0xbe,0xf8,0x50,0x91,0x3e,0x2d,0xb8,0x6a,0xbe,0x30,0x2c,0x24,0x3e,0xbb,0x52,0x70,0x3e,0xf7,0x09,0x56,0xbe,0x4f,0xab,0x04,0xbd,0xb4,0xf0,0xa1,0x3d,0x74,0x71,0x33,0xbe,0xf3,0xc7,0xb2,0x3e,0xa5,0x86,0x95,0xbe,0x5f,0xe3,0x55,0x3e,0x11,0x1d,0x87,0x3e,0xd2,0x28,0x88,0x3e,0xfa,0x75,0x4c,0x3d,0x3c,0x44,0x8b,0xbe,0x87,0xfa,0x2d,0xbe,0x5b,0x50,0xe7,0x3d,0x52,0x79,0x00,0xbe,0x9d,0x78,0x7a,0x3e,0x3c,0xe5,0x72,0xbd,0xf1,0xd0,0x76,0x3d,0x69,0xbc,0xfa,0xbb,0x51,0x09,0x12,0xbd,0x28,0xfc,0x86,0x3e,0xf2,0xef,0xff,0xff,0x04,0x00,0x00,0x00,0x00,0x10,0x00,0x00,0x3c,0xdc,0x95,0xbe,0x50,0x2b,0x4e,0xbd,0xc0,0xe2,0x33,0x3c,0x7a,0x1c,0x01,0x3e,0xf2,0x4a,0x22,0x3e,0x2f,0x3b,0x1f,0xbe,0xbb,0x1f,0x01,0xbe,0x54,0x4f,0x15,0x3e,0xe7,0xce,0x55,0xbe,0x20,0x60,0x4d,0x3c,0xcb,0x32,0x03,0xbe,0x44,0x13,0x8b,0xbe,0x80,0xa4,0x62,0x3c,0xa4,0xb3,0x39,0xbe,0x5b,0x3b,0x99,0xbe,0x90,0x5b,0x27,0xbd,0x80,0x16,0xc5,0xbb,0xd0,0x69,0x41,0xbe,0x38,0x76,0xd6,0x3d,0xde,0x9c,0x75,0x3e,0xcc,0x9d,0x96,0x3d,0xab,0xd6,0x99,0x3e,0x24,0x33,0x45,0x3e,0x48,0xf0,0x81,0xbe,0x10,0x78,0x53,0xbe,0x60,0xc5,0x11,0xbd,0xec,0x42,0x95,0xbe,0x26,0x66,0xf2,0xbd,0xce,0x05,0x8a,0xbe,0x77,0x02,0x8d,0xbe,0x68,0xc0,0x3f,0x3e,0x46,0x20,0xeb,0xbd,0x1e,0x63,0xc4,0x3d,0x2d,0x01,0x8c,0x3e,0x8f,0xf0,0x03,0x3e,0x44,0xa8,0x70,0xbd,0x69,0xb8,0x64,0xbe,0x45,0x68,0x66,0x3e,0xe6,0x20,0x03,0x3e,0x5c,0x60,0x8d,0xbe,0xb8,0x3b,0x96,0x3e,0x3c,0xd7,0x6d,0x3e,0x7b,0x99,0x85,0x3e,0x46,0xdf,0xc9,0x38,0xa0,0xf0,0xdf,0xbd,0x7f,0xb8,0x96,0xbe,0xca,0xf6,0x18,0x3d,0xa5,0xf5,0x71,0xbd,0x89,0xad,0x91,0xbd,0x45,0x9c,0x8a,0xbd,0x30,0x88,0xc1,0xbd,0xae,0x3e,0x37,0xbe,0xee,0x28,0x58,0xbe,0xd8,0xc0,0xaf,0xbd,0x75,0xd6,0x37,0x3e,0xcd,0x02,0x8e,0xbd,0xd8,0xf0,0x2d,0x3e,0x3e,0x77,0x12,0xbe,0x70,0x75,0x0c,0xbe,0x00,0x4c,0x7c,0xbb,0x62,0xeb,0xad,0xbe,0x58,0x48,0xbc,0xbd,0x80,0x5e,0x16,0x3e,0x17,0x5d,0x14,0x3e,0x8a,0x8c,0xaa,0xbe,0x9a,0x74,0x57,0x3e,0x9d,0x95,0x74,0xbf,0xe3,0x68,0x4e,0x3e,0xf4,0x4c,0x88,0x3e,0x71,0x05,0x82,0x3e,0x31,0x93,0xaa,0x3d,0x80,0x65,0xad,0xbe,0xfd,0x63,0x84,0x3e,0x24,0xd8,0x29,0xbe,0x17,0x87,0x2a,0xbd,0x69,0x3a,0x02,0xbe,0xf7,0x6c,0x79,0x3d,0x94,0xc0,0x52,0x3e,0x38,0xec,0xc5,0xbe,0xe0,0x68,0x7a,0x3e,0xe0,0x89,0x5e,0x3c,0x05,0x3c,0x80,0xbe,0x21,0x9a,0x3b,0x3f,0x1e,0x2c,0xc3,0xbd,0xb4,0x3d,0x50,0x3d,0x06,0xcd,0x4e,0x3f,0xab,0xf9,0xb1,0xbe,0x06,0x99,0x19,0xbe,0x35,0xfb,0x00,0xbe,0x76,0x2e,0x0a,0xbe,0x81,0xc6,0xba,0x3c,0x11,0x1e,0x51,0x3f,0x37,0x7b,0xd2,0x3e,0xe9,0x3b,0xc6,0x3d,0xa4,0xce,0x31,0xbe,0xe0,0xc3,0x1f,0x3e,0x75,0x95,0x15,0xbd,0x40,0xc6,0x81,0x3e,0x65,0x07,0x10,0xbf,0x37,0xd5,0xfb,0xbd,0x2a,0x9c,0x20,0x3e,0xf5,0xab,0xc4,0xbd,0x64,0x3a,0xbb,0x3d,0x6b,0xab,0x03,0xbe,0xa0,0xa7,0x7e,0xbd,0xf4,0x1f,0x15,0xbe,0x30,0xd2,0x5b,0xbe,0xa9,0x11,0xa8,0x3d,0x4f,0xe9,0x53,0xbd,0xb9,0x5a,0xef,0xbd,0x41,0x6e,0x46,0xbf,0x1a,0xcb,0x45,0xbe,0x28,0xce,0x7b,0x3d,0xfe,0xaf,0x84,0x3e,0xe3,0x80,0x9c,0x3f,0x32,0x20,0x55,0xbe,0xca,0x26,0x39,0x3e,0x0f,0xed,0x85,0x3f,0xe7,0x40,0x27,0xbe,0x0f,0x29,0x0e,0xbe,0x95,0x06,0x04,0xbe,0xa3,0x9d,0x70,0x3d,0x82,0x28,0x8a,0x3e,0x1c,0x50,0x90,0x3f,0xfe,0x17,0xc7,0x3e,0x68,0x05,0x56,0xbe,0x48,0x0b,0x61,0xbe,0x9b,0xe8,0xd0,0xbe,0xb7,0x12,0x41,0x3e,0xbd,0xf5,0x0c,0xbc,0x18,0x99,0x0d,0x3e,0x00,0x30,0x53,0xb9,0x6f,0x99,0x30,0xbe,0x21,0x2d,0x18,0xbe,0xcd,0xde,0xa1,0xbe,0x1e,0x42,0x66,0x3e,0xa4,0xd4,0xa0,0x3e,0x70,0x4b,0x52,0xbc,0x5e,0x79,0x80,0xbe,0x63,0xa1,0xf1,0x3d,0xa9,0x28,0x87,0xbe,0xb9,0x89,0xea,0x3c,0xf6,0xc9,0x89,0xbe,0x3c,0xd5,0xc7,0xbd,0xd9,0x04,0x8b,0x3e,0x67,0x82,0x2d,0xbe,0x41,0x02,0x2e,0xbf,0xbb,0x91,0x55,0x3e,0xe4,0xd8,0x29,0xbc,0x96,0xd0,0x74,0xbf,0x5a,0x2e,0xd2,0x3e,0xba,0x73,0x9a,0x3e,0xd9,0xab,0xaa,0x3d,0xf5,0xf5,0xac,0x3e,0xca,0x8d,0x7c,0x3d,0x9a,0x6f,0x40,0xbf,0x50,0x83,0x18,0xbf,0x8c,0x40,0x6e,0x3e,0x02,0xb4,0xca,0xbd,0xd7,0xf6,0x62,0xbe,0x9d,0x90,0xd0,0xbd,0xd2,0x96,0xaa,0x3e,0x53,0xc5,0x2a,0x3f,0x43,0x4d,0x21,0x3e,0x24,0x77,0xc6,0x3d,0x7f,0x7f,0x8c,0x3e,0x40,0xa2,0x2e,0x3d,0xd2,0x82,0xb0,0x3e,0x7e,0x1a,0xc3,0x3e,0x6f,0x47,0x8b,0xbd,0x95,0xfd,0x66,0x3e,0xe5,0x62,0xda,0x3d,0x8a,0xd5,0xea,0x3d,0x89,0xd5,0x85,0x3e,0x94,0x3a,0x02,0xbe,0x95,0x39,0xa8,0xbd,0xe9,0xc6,0xb8,0xbc,0x3b,0xa2,0x7c,0x3e,0xc5,0xed,0x31,0xbf,0x4f,0x2d,0x86,0x3e,0xe6,0x91,0xbc,0x3d,0x97,0xd2,0xff,0xbe,0xab,0x58,0x9f,0x3e,0x91,0xce,0xbf,0x3e,0xff,0xb5,0xb1,0x3e,0x61,0x03,0x65,0x3d,0x59,0x74,0xd1,0x3e,0x66,0x9b,0xe7,0xbe,0xa6,0xfa,0x4d,0x3d,0x9d,0xe6,0x43,0x3e,0x1c,0x39,0x45,0xbe,0x02,0xe4,0xa1,0xbd,0xae,0x9e,0x10,0xbe,0x38,0xfc,0x4d,0x3d,0x00,0xe0,0x0f,0x3c,0x58,0xe9,0x9e,0xbd,0xa8,0x41,0x35,0xbd,0x4c,0x56,0x6d,0xbe,0xf0,0x75,0x27,0x3e,0x19,0x3c,0x0d,0x3e,0x43,0x91,0xfe,0x3d,0x8a,0xc3,0x9b,0xbe,0x32,0x47,0x28,0xbe,0xda,0xa3,0x7d,0x3c,0x4e,0x0a,0xa6,0xbd,0xe6,0x30,0x73,0x3e,0xa4,0x37,0x85,0x3d,0xd3,0xdf,0xb9,0xbd,0x0c,0x15,0xd7,0x3d,0x6a,0x50,0xde,0xbd,0xde,0xa4,0x69,0xbe,0x9b,0xa0,0x84,0xbe,0xab,0x37,0x2f,0x3e,0xca,0xa2,0x1b,0x3e,0x98,0xff,0x73,0x3e,0x80,0x4f,0x7d,0xbe,0x65,0xb8,0x77,0xbb,0xf5,0x82,0x5f,0xbd,0xf6,0xf5,0xb5,0xbc,0xec,0xa0,0x29,0x3e,0x55,0x91,0x2c,0xbe,0x02,0x28,0x03,0xbe,0x17,0x25,0xe8,0x3d,0xf0,0x35,0xbe,0x3d,0x14,0x0a,0xd6,0x3e,0x80,0xfa,0xa7,0xbc,0xcf,0xce,0x06,0x3f,0x21,0x37,0x58,0xbd,0x94,0x57,0x45,0x3e,0x2c,0x37,0x41,0x3e,0xcb,0xe6,0x9a,0x3e,0x3e,0x09,0x23,0x3d,0xe4,0x1d,0x7e,0xbd,0x4a,0x29,0x23,0x3e,0xdd,0x5a,0x25,0xbe,0x11,0x03,0xb0,0xbd,0x3b,0xc5,0x3f,0x3d,0xcd,0xec,0xc5,0x3e,0xc9,0xe0,0x49,0xbe,0x52,0xa1,0xfb,0x3d,0x52,0x96,0x9e,0x3d,0x98,0x77,0xeb,0x3d,0x1c,0x5c,0x1a,0xbf,0xaa,0x47,0xc6,0xbd,0x39,0x09,0x49,0xbe,0xdd,0x38,0x34,0x3d,0xcc,0x1d,0x23,0xbe,0xa2,0x83,0x0b,0xbe,0xf7,0xab,0x28,0x3e,0x95,0x5f,0x88,0xbe,0xa2,0x26,0xc3,0xbc,0xf6,0xf1,0x23,0xbf,0xf1,0xeb,0x9f,0x3e,0xc7,0x5a,0x08,0xbe,0x91,0x15,0x1c,0x3e,0x68,0xb2,0x3a,0x3e,0x37,0x32,0x18,0xbe,0x36,0x5d,0xd4,0xbd,0xd8,0x95,0x2b,0xbd,0x40,0x10,0x10,0x3e,0x16,0x13,0x0f,0x3e,0x80,0xe7,0xee,0x3b,0xc6,0x87,0x44,0x3e,0xa9,0x35,0xcb,0x3d,0x3e,0x2b,0x74,0xbe,0xd7,0xa2,0x25,0xbd,0xa2,0x14,0x81,0xbe,0x3e,0xef,0x80,0xbe,0x70,0x3f,0xbe,0xbd,0x1a,0x0e,0x42,0x3e,0x1e,0xf0,0x00,0x3e,0xbb,0x04,0x8a,0x3e,0xc0,0x6e,0xd6,0x3c,0x44,0x7b,0x89,0xbd,0xc0,0xa3,0x6c,0xbe,0x8d,0x73,0xa7,0x3d,0xbb,0x1b,0x7e,0xbe,0x8b,0x17,0x05,0xbe,0xac,0xda,0x6e,0xbe,0x17,0xe2,0x61,0xbe,0x9b,0x46,0xd4,0xbc,0x63,0x4f,0x5d,0x3e,0x4e,0xf1,0xd2,0x3d,0x10,0x5e,0xc5,0xbc,0x4e,0x22,0x5a,0xbe,0x36,0x3c,0x7d,0x3e,0x7c,0x41,0xcc,0x3d,0x16,0x9e,0x2f,0x3e,0xef,0xad,0xf8,0xbd,0x29,0xc5,0xda,0x3e,0xa7,0x39,0x6f,0x3f,0xb3,0xa3,0x67,0x3e,0x97,0x5c,0x9b,0x3e,0x1f,0x55,0xa1,0x3e,0x35,0xfe,0x11,0x3e,0xf4,0x90,0xda,0x3e,0x75,0xbb,0x31,0x3e,0x08,0x31,0x86,0x3d,0x7d,0x0a,0xbf,0x3e,0x20,0xbb,0xad,0x3e,0x20,0xd3,0xf5,0xbd,0x4e,0xf2,0x49,0xbe,0x69,0x28,0xcf,0x3d,0xdd,0x20,0x92,0x3e,0x2b,0x7e,0x5a,0x3e,0x9e,0x14,0x20,0xbe,0x87,0x60,0x3f,0xbf,0x11,0x95,0x21,0xbb,0x64,0x25,0x6d,0x3d,0x18,0xdd,0x4c,0xbf,0xf8,0x99,0x0d,0x3e,0x3f,0xe4,0xae,0x3e,0x06,0xa4,0xae,0xbc,0x15,0x2b,0x52,0x3e,0x8e,0x8e,0xa2,0x3e,0xd6,0x8a,0x30,0xbf,0x76,0x14,0x15,0xbe,0xdb,0xef,0x87,0x3c,0xc4,0x5e,0x65,0x3e,0x21,0x88,0x3b,0x3e,0x8e,0xda,0x8e,0xbd,0x30,0xb1,0x08,0x3e,0x84,0x7b,0x3a,0xbf,0x14,0x73,0x5f,0x3d,0xd5,0x08,0xb1,0xbd,0x69,0x1c,0x04,0xbe,0xee,0xa0,0x7f,0x3e,0x11,0xf0,0x08,0x3e,0x5c,0x34,0x9d,0x3a,0xe3,0xe1,0x84,0xbe,0x55,0x88,0xfe,0xbe,0x56,0x15,0x3d,0xbe,0x7a,0x68,0xb4,0xbd,0xf2,0x64,0x9e,0x3e,0x64,0x68,0x34,0xbf,0x86,0x34,0x87,0x3e,0xbe,0xa4,0x21,0xbe,0x2b,0x75,0xcb,0xbc,0xee,0x31,0xfd,0x3e,0xd0,0x60,0x85,0xbe,0x4a,0x06,0x9f,0xbc,0x6d,0x22,0x44,0x3f,0x67,0x84,0xa8,0x3d,0x1c,0xc5,0x69,0xbe,0x53,0x42,0xe0,0xbd,0x17,0x69,0x9c,0x3e,0x10,0xf1,0xd4,0xbd,0x8f,0x0e,0xf8,0x3e,0x0c,0x0f,0xd5,0x3e,0x0b,0x13,0x80,0xbe,0xf0,0x77,0x0e,0x3e,0x6c,0xd3,0xf4,0xbe,0xdd,0x3e,0x4b,0xbe,0xee,0x99,0xfd,0x3b,0x18,0x3c,0x28,0x3f,0x1c,0x32,0x59,0x3e,0xc3,0xfc,0x9c,0x3d,0x3b,0x87,0x15,0xbe,0x31,0x26,0x8a,0xbe,0xf6,0x86,0x4e,0xbd,0x1a,0x07,0x12,0xbe,0x5e,0xa4,0xab,0x3e,0x35,0x15,0x1d,0x3e,0xb7,0x64,0xba,0x3e,0x3b,0xcd,0x05,0x3e,0x97,0x1f,0xb2,0xbe,0x01,0x00,0xa2,0x3e,0xcc,0x9e,0xd0,0x3e,0xbd,0x59,0x20,0xbe,0x2c,0xa8,0x28,0xbe,0x73,0x14,0x18,0xbf,0xd9,0xea,0xda,0x3e,0x89,0x75,0xa8,0x3e,0x2b,0xff,0x7e,0xbf,0xae,0x66,0x16,0xbe,0x8e,0xa5,0xa6,0x3d,0x9e,0xde,0x9c,0x3c,0x4c,0x90,0x8a,0xbc,0x93,0xb1,0x9f,0xbd,0x49,0x79,0x74,0xbf,0x69,0xa7,0x1f,0xbf,0x07,0x79,0xb1,0x3d,0x04,0xda,0x7f,0xbe,0x8b,0xaf,0x05,0xbd,0x2d,0xa9,0x69,0x3e,0x9f,0xf0,0x9e,0x3d,0x3a,0x7e,0x30,0x3f,0x70,0x95,0x67,0xbc,0xb9,0x67,0xb5,0xbb,0xb7,0x7d,0xac,0x3d,0x43,0x4d,0x82,0x3e,0xbd,0xbd,0x26,0xbe,0xda,0x6f,0x40,0x3e,0xf7,0xd9,0x3e,0x3e,0x14,0xd0,0x93,0x3e,0xc3,0xb6,0xd6,0x3e,0x60,0xa0,0x8b,0xbe,0x89,0xd3,0x07,0xbd,0x34,0xbf,0x79,0xbd,0x60,0xdd,0x41,0x3d,0x1a,0xc8,0x07,0x3e,0x7e,0xdd,0xac,0x3e,0xfc,0x6a,0xef,0xbe,0x76,0x08,0xb0,0x3e,0x68,0x50,0x4d,0x3d,0xbc,0xd3,0x5f,0xbe,0x9c,0x3e,0xc4,0x3e,0xab,0x2f,0x6f,0x3e,0x6b,0xa1,0x2d,0x3e,0x5b,0xb3,0x07,0xbe,0x4a,0x5f,0x92,0x3e,0xc2,0x24,0x34,0xbf,0xe1,0xa0,0xbb,0xbe,0x5b,0x7c,0x3f,0x3e,0x42,0xb9,0xb9,0xbc,0xb8,0x07,0x4e,0xbd,0x58,0x1d,0x4f,0x3d,0x00,0x34,0xc9,0xb9,0x33,0x93,0x12,0xbe,0x08,0x40,0x62,0x3d,0x1e,0x1c,0x6d,0xbe,0x8c,0x2c,0xe6,0xbd,0xc5,0x5b,0x8b,0x3e,0xaa,0x8f,0x73,0x3e,0x14,0x70,0x02,0xbe,0xa0,0x33,0x7a,0x3d,0xa8,0xf7,0x04,0x3d,0xdc,0x11,0x9c,0xbe,0x00,0xa7,0xa6,0x3d,0x85,0x7c,0x8f,0xbe,0x98,0x18,0x14,0x3e,0x5c,0x96,0xf1,0x3d,0xfe,0xa6,0xc1,0xbd,0xf0,0x93,0xd6,0xbc,0x00,0xc7,0x64,0xbc,0xce,0xc5,0x00,0x3e,0x3d,0x3d,0x18,0xbe,0x73,0x12,0x16,0xbe,0x17,0xca,0x6d,0xbe,0x52,0x5f,0x7a,0xbe,0x90,0x98,0x41,0x3e,0x14,0x6f,0xe0,0xbd,0x37,0x04,0x98,0x3e,0x54,0x91,0xdf,0x3d,0x2b,0x79,0x1d,0xbe,0x6a,0x26,0xac,0xbd,0xc8,0xdd,0x43,0x3e,0x00,0x39,0x95,0xbb,0xd1,0x43,0x0e,0x3e,0x46,0xfc,0xaf,0x3e,0xd7,0xf4,0x39,0x3f,0x58,0x36,0x64,0xbe,0xb9,0x7b,0xac,0x3d,0x6e,0x4e,0xa9,0x3e,0xed,0xbf,0xb7,0xbc,0x07,0x13,0xf8,0x3d,0x64,0x71,0x48,0x3e,0x72,0x78,0xac,0x3e,0xda,0x79,0xf4,0x3d,0x45,0x81,0xa4,0x3d,0x8a,0x51,0x91,0xbd,0x86,0x89,0x07,0xbd,0xcc,0x65,0xb6,0xbd,0xec,0x2b,0x94,0x3e,0x03,0x27,0x9c,0xbe,0xeb,0x18,0x4d,0x3e,0xac,0xbe,0xd5,0xbe,0x62,0x01,0xa6,0x3e,0xaa,0xaf,0x86,0x3e,0x3d,0x92,0xe8,0xbe,0x19,0xc2,0x17,0x3e,0xae,0xbe,0x27,0xbe,0x1a,0x46,0x90,0x3e,0x9e,0x5a,0x11,0xbc,0x23,0xe3,0xce,0x3c,0xed,0xa6,0x5f,0xbf,0xba,0x89,0xca,0x3d,0xe6,0xc3,0x78,0x3d,0xc4,0xd7,0x27,0xbe,0x55,0x81,0xaf,0x3d,0x43,0x06,0x6b,0x3e,0xa8,0x32,0x43,0x3d,0xdf,0x6a,0x36,0x3f,0x16,0x0f,0x47,0x3e,0x7a,0xcf,0xbd,0xbd,0x02,0x54,0x59,0x3e,0x79,0xa2,0x81,0xbe,0x21,0xea,0xd3,0xbd,0x16,0x74,0x51,0x3e,0x58,0x04,0x60,0xbb,0x3a,0x92,0xfd,0xbd,0xc2,0x86,0xf1,0xbd,0x1a,0xe3,0x3d,0xbd,0x72,0xbd,0x93,0x3e,0x36,0x7b,0x21,0xbe,0xb3,0xb2,0x29,0xbe,0x04,0xa6,0x94,0x3e,0xe6,0xe6,0xc1,0x3e,0xf6,0x96,0x15,0xbf,0x14,0x40,0xe1,0xbd,0x24,0xab,0x9c,0x3c,0xdb,0xf9,0xc1,0x3c,0x65,0x46,0x47,0x3c,0xd2,0xe1,0x8d,0x3e,0xcd,0x3e,0xa8,0xbe,0x2c,0xf4,0x93,0x3d,0x53,0xcb,0x49,0x3e,0xe9,0x69,0xa3,0xbd,0xbf,0xdd,0x13,0xbe,0xd4,0x94,0xf6,0xbd,0x86,0x1e,0x9d,0x3e,0xdd,0xdb,0xa0,0x3d,0x6a,0x7e,0xa1,0x3d,0x38,0x81,0xdc,0x3c,0x21,0x39,0xb2,0xbd,0x9d,0x37,0x80,0xbe,0x5e,0x35,0x72,0xbd,0xae,0xd2,0x62,0xbd,0x0c,0x12,0xa8,0x3d,0xe4,0x40,0x44,0xbd,0xbf,0x51,0x49,0x3e,0xfc,0xe8,0x4d,0x3e,0xa6,0x16,0x53,0x3d,0xa0,0x27,0x16,0xbe,0xad,0x74,0x8f,0xbe,0x70,0x35,0x7c,0xbd,0xbd,0x5d,0x71,0xbd,0x7d,0xd8,0xd0,0x3d,0x35,0x69,0x8a,0x3e,0x9f,0xa6,0x3d,0xbe,0xf3,0xf8,0x2a,0xbe,0x38,0x69,0x0e,0x3e,0xba,0x1b,0x97,0xbe,0xb8,0x90,0xe9,0x3d,0xa6,0xe4,0x0a,0xbd,0x94,0x21,0x7c,0xbe,0x50,0x8b,0xce,0xbd,0x34,0xb6,0x10,0x3e,0xbb,0x6a,0xdd,0xbb,0x41,0xb0,0xa3,0xbd,0x2b,0x72,0xdf,0x3d,0xc4,0x6a,0xf8,0xbd,0x13,0xd5,0xf6,0x3d,0xe5,0xa9,0x5f,0x3e,0xe2,0x96,0xf0,0x3d,0xcd,0x14,0xbe,0xbd,0xb3,0x94,0xbe,0xbe,0x1d,0xa8,0x91,0x3c,0x33,0x3a,0x6e,0xbe,0x78,0x59,0x89,0x3e,0x53,0x4f,0x9a,0xbe,0xa6,0xe0,0xc9,0x3d,0x1a,0xad,0x16,0x3e,0x31,0x97,0x9b,0xbd,0x58,0x96,0xce,0xbc,0x72,0x3c,0xad,0xbe,0x54,0x54,0x86,0x3e,0xf8,0x5d,0x15,0x3d,0x2d,0xfe,0xc7,0xbe,0x55,0xd4,0x2b,0x3e,0x9a,0xca,0x73,0x3e,0x7a,0x5b,0x94,0xbe,0x4f,0xe1,0x5e,0x3f,0x0f,0xc1,0x34,0x3e,0x99,0xe1,0x72,0x3e,0x40,0x9d,0xe6,0x3e,0x19,0x25,0xbb,0x3d,0x6a,0x4b,0xfb,0xbd,0x0a,0xbc,0x57,0xbe,0xdc,0x29,0x78,0x3e,0xe5,0xa3,0x7b,0xbe,0xeb,0xd3,0x6e,0x3f,0x17,0xe9,0xb5,0x3e,0x98,0x36,0x6e,0xbe,0x3b,0x5e,0x36,0xbd,0x14,0xa6,0xdc,0x3d,0x1c,0x1c,0x21,0x3d,0x33,0x61,0x1d,0x3e,0x87,0xdb,0x5f,0x3f,0x6b,0x04,0x6b,0xbe,0x27,0xa9,0x1d,0x3e,0x1b,0xce,0xd4,0x3d,0x4a,0x20,0x83,0xbe,0xb6,0x1d,0xae,0xbc,0xba,0x91,0x97,0xbe,0x68,0x78,0xeb,0xbe,0xee,0x12,0x5e,0x3f,0xf9,0xa6,0x14,0x3c,0x5d,0x6b,0xcf,0x3c,0xc8,0x69,0x5d,0xbe,0xdf,0x1d,0x4e,0x3f,0xda,0x2a,0x59,0x3e,0xbe,0x6c,0x9e,0xbd,0x4c,0xa0,0x80,0xbd,0x09,0x34,0x2f,0x3f,0x8a,0xf1,0xef,0xbe,0x56,0x3e,0x9b,0x3e,0x3d,0xe7,0x32,0x3f,0xfb,0x4d,0xe4,0xbe,0x39,0xa1,0x82,0xbe,0x92,0xc1,0x25,0xbe,0x6a,0x05,0x8c,0x3e,0x45,0x96,0x21,0xbd,0xd2,0xf9,0x18,0x3f,0x23,0x57,0x34,0x3f,0x1c,0x3c,0x2a,0xbf,0x9f,0x17,0x2e,0xbd,0x99,0x1b,0x83,0x3f,0x3f,0x0a,0xd5,0x3c,0xd4,0xcb,0x80,0x3d,0xd6,0x4a,0xa0,0x3d,0x13,0x57,0x51,0x3e,0xf6,0xd7,0x85,0x3d,0x7e,0x04,0xb1,0xbe,0x28,0x74,0xd0,0xbd,0x88,0x78,0xf7,0xbd,0x2f,0x12,0x84,0xbd,0x87,0xae,0x52,0x3e,0x3c,0xb2,0xc2,0xbe,0xcd,0x81,0xd8,0xbb,0xf2,0x7c,0x73,0xbe,0x41,0x07,0x81,0xbd,0xcc,0x1e,0xaa,0x3d,0x3b,0x44,0xdc,0x3e,0x58,0xeb,0xdf,0xbd,0x6f,0x33,0xc3,0xbd,0x29,0x02,0x53,0xbf,0x0f,0x57,0x9b,0x3d,0xd9,0x88,0xbc,0x3a,0xa8,0x85,0x81,0xbf,0x83,0x07,0x88,0x3e,0x1a,0xae,0xac,0xbd,0xef,0x49,0xe9,0x3d,0xc7,0x08,0xe0,0x3e,0xe3,0xd3,0xf3,0xbd,0x49,0x4f,0x7f,0xbf,0xf3,0xb5,0xfd,0xbe,0xf9,0xcf,0xb4,0x3e,0x5f,0x4c,0x9a,0xbe,0x4c,0xeb,0x54,0xbe,0x42,0x9a,0x6d,0xbd,0x5a,0x9b,0x3f,0xbd,0xe3,0xca,0x90,0x3f,0xcc,0xeb,0xab,0x3c,0x07,0x64,0x24,0xbd,0xf4,0x4f,0x79,0x3e,0x99,0xc4,0x05,0x3e,0x03,0x63,0xea,0x3c,0x09,0x6e,0x3f,0x3d,0x89,0xa5,0x26,0x3e,0x1f,0xe9,0xf6,0x3e,0x79,0xa1,0x91,0x3d,0xc1,0xa8,0x61,0x3e,0xc7,0x2d,0xc3,0x3e,0xd7,0xfa,0xc4,0xbd,0xb8,0x45,0x9a,0x3e,0x39,0xb4,0xf8,0xbd,0xc1,0xf1,0xc0,0x3e,0xdc,0x84,0xa8,0xbe,0x93,0xb5,0x5d,0xbd,0x05,0x21,0x27,0xbc,0x1c,0xb9,0x00,0xbe,0xe3,0xed,0x92,0x3d,0x1c,0xd8,0x56,0x3c,0x42,0x01,0x4a,0x3e,0x27,0x2b,0xb2,0x3d,0x94,0x67,0xcd,0x3e,0xe3,0xb7,0x15,0xbf,0xd8,0xee,0x36,0xbe,0xe1,0xbf,0xde,0x3d,0x3f,0x79,0xc9,0x3e,0x87,0xd8,0xb0,0xbd,0x6d,0xc3,0x78,0x3c,0x54,0x3d,0x07,0x3e,0x10,0xeb,0xe5,0x3e,0xa1,0x7d,0x6d,0xbd,0x51,0xf2,0xea,0xbd,0xcc,0x56,0x73,0x3e,0xba,0x36,0x53,0xbe,0x38,0x48,0xb2,0xbe,0x97,0xe1,0xfc,0x3d,0x14,0xc9,0xec,0xbe,0xf3,0x4d,0x32,0x3f,0x5c,0x97,0x83,0xbe,0x74,0xab,0xce,0x3d,0xa7,0x90,0x2b,0x3d,0x0a,0xbe,0x06,0x3f,0x5f,0xaf,0xa1,0x3d,0x4b,0xd4,0x2a,0xbe,0x6b,0x72,0xec,0x3d,0xba,0xb8,0x1d,0x3f,0x7b,0x96,0x03,0xbf,0x19,0xbf,0x99,0x3e,0x8b,0x3b,0x47,0x3f,0x7b,0xbf,0x68,0xbe,0x45,0xb3,0x66,0xbe,0x2e,0x31,0xb0,0xbd,0xf6,0xb7,0x97,0x3e,0x82,0xfb,0x0b,0xbe,0x38,0x36,0xe9,0x3e,0xf9,0x05,0x9e,0x3e,0x25,0xc9,0x28,0xbf,0xc2,0x13,0x60,0xbe,0x30,0xd8,0x6e,0x3f,0xd5,0x4e,0xd0,0xbd,0xd2,0x32,0x33,0x3e,0xd7,0xf5,0x85,0x3f,0x18,0x0d,0xea,0x3c,0x5e,0xe0,0xd2,0x3e,0xeb,0x53,0x4f,0xbc,0xb0,0x03,0x49,0x3e,0xf7,0x0f,0xde,0x3e,0xfc,0x9b,0xb0,0xba,0x6b,0x66,0x7e,0xbd,0x6d,0x23,0x67,0x3f,0x83,0xa1,0xf4,0x3d,0x67,0x11,0x77,0x3d,0xb2,0xa5,0x54,0x3e,0xe2,0xfd,0x12,0xbe,0x8c,0xd2,0xb8,0x3e,0x84,0xec,0xa4,0xbd,0x78,0x9a,0x08,0x3e,0x8e,0x78,0x0c,0xbf,0x36,0xff,0x2f,0x3d,0xc2,0x69,0xd7,0x3e,0xc8,0x86,0xaf,0xbe,0x72,0xd6,0x8b,0x3e,0xda,0xef,0xd7,0x3e,0x50,0x1e,0x58,0x3e,0xad,0xee,0xdb,0x3e,0x31,0x57,0x93,0x3e,0xdb,0x98,0x40,0xbf,0x1e,0xe0,0x54,0xbe,0x93,0xb4,0x39,0x3e,0xc3,0x53,0x4e,0x3e,0x88,0x3e,0x9b,0x3e,0x30,0x16,0x56,0x3d,0x64,0x20,0x7b,0xbe,0x77,0xc9,0x80,0x3e,0x00,0xdf,0xdb,0x3c,0x92,0x61,0x60,0xbe,0x4a,0x4e,0xa5,0xbd,0x76,0x6b,0x50,0x3e,0x3b,0x61,0x34,0xbe,0x70,0x3c,0xce,0x3c,0xf5,0x2f,0x87,0xbd,0x3e,0xea,0xa2,0xbd,0x7a,0x55,0x68,0x3e,0x18,0x97,0x3b,0x3e,0x70,0x91,0x88,0xbe,0x96,0xf6,0x70,0xbe,0x55,0x43,0x11,0xbe,0xc6,0x09,0x84,0xbd,0xcd,0xc3,0x78,0xbe,0x51,0x56,0x77,0xbe,0xb2,0x76,0x50,0x3e,0x38,0xe2,0x89,0xbe,0xd8,0xe9,0xb0,0xbd,0x9e,0xea,0x1e,0x3e,0xd6,0xc8,0x03,0x3e,0xce,0xb7,0x8d,0xbe,0xd6,0xbb,0x24,0x3e,0xda,0x09,0xc9,0x3d,0xae,0xf8,0x50,0x3e,0x27,0x61,0x1f,0xbe,0x78,0x49,0x82,0xbe,0x6d,0x1a,0x8d,0x3e,0x4b,0x43,0x70,0xbe,0x20,0x1c,0xa4,0xbe,0x77,0xd6,0xcc,0xbd,0x1c,0x23,0xb2,0x3d,0xd8,0x0b,0x04,0x3e,0xb9,0x69,0x63,0xbe,0xad,0x59,0x14,0x3e,0x22,0x01,0x80,0xbe,0xa5,0xd4,0x6c,0x3e,0x7f,0x76,0x9d,0xbe,0xec,0xfc,0x1f,0xbd,0xa2,0xe6,0x5a,0x3e,0x2b,0x46,0x35,0x3e,0x32,0xf0,0x0f,0x3e,0xad,0x36,0x9c,0x3c,0xae,0x92,0x0e,0x3d,0xdf,0x96,0x71,0xbe,0x30,0x47,0xd9,0xbc,0x34,0xf9,0x7c,0xbe,0x60,0xb1,0xbe,0xbd,0x36,0xca,0x67,0x3e,0x0f,0x14,0x5b,0x3e,0x81,0xed,0x29,0xbe,0x8a,0x75,0xaa,0xbd,0x10,0x20,0x9b,0xbd,0x61,0xc4,0x62,0x3c,0xb8,0xb4,0x86,0xbe,0xba,0x92,0xca,0x3c,0x7c,0x94,0x88,0x3d,0xf2,0x0a,0x49,0xbe,0x78,0xe6,0xed,0x3d,0x94,0xef,0xa2,0xbc,0xd2,0x7e,0xa0,0xbe,0x8a,0x07,0x8a,0x3e,0x51,0xe9,0x57,0xbe,0x50,0xac,0xf2,0xbd,0xf0,0x47,0x17,0x3e,0x31,0xab,0x1e,0x3e,0x84,0xe2,0xa2,0xbe,0x18,0xd9,0x97,0xbd,0xed,0xed,0x3e,0xbe,0xe0,0x12,0x39,0xbd,0x96,0xe5,0x90,0xbe,0x0a,0x3b,0x44,0x3e,0x90,0x73,0x1f,0x3e,0xa7,0x1c,0xfb,0xbd,0x87,0xde,0x29,0x3e,0x24,0x10,0xcf,0x3d,0x4b,0x92,0x80,0x3e,0x98,0x14,0x17,0xbd,0x97,0x2f,0x86,0x3e,0xac,0x9b,0x55,0xbe,0xb7,0x5e,0xdf,0xbd,0x01,0xc6,0x3a,0xbc,0x12,0x3d,0x91,0xbd,0x42,0xcc,0x86,0x3e,0xee,0xcc,0x85,0x3c,0x93,0xa4,0x89,0xbd,0xa8,0x26,0x8d,0xbd,0xaa,0x8b,0x72,0xbe,0x98,0xb9,0xdf,0x3d,0x97,0x64,0x96,0xbe,0x48,0x34,0x61,0xbe,0xaa,0x35,0x81,0x3e,0xe2,0x40,0x95,0xbe,0xbf,0x0b,0xb8,0xbe,0xf8,0x5b,0x42,0x3e,0x9c,0x50,0x25,0xbf,0xc5,0x2d,0x80,0xbd,0x1b,0x49,0x30,0xbe,0x83,0x30,0xc3,0xbd,0xb6,0x8b,0x71,0xbe,0xb9,0xfb,0x01,0x3d,0x7e,0x38,0x39,0xbe,0xb9,0x10,0x94,0xbe,0x87,0xa2,0x19,0xbf,0xed,0x3b,0xa7,0x3d,0x03,0x02,0x93,0xbe,0xf8,0x36,0xe6,0xbd,0x1d,0x36,0xe5,0xbe,0xe1,0x33,0x3a,0xba,0xfe,0x9a,0x2e,0xbd,0x95,0x96,0x44,0x3e,0xc5,0x06,0x5d,0x3f,0x18,0xe5,0x15,0x3e,0xba,0x0d,0xf6,0x3d,0x18,0xdf,0x10,0x3f,0x40,0xf6,0x45,0xbe,0x24,0x58,0x1c,0x3e,0x41,0x12,0x4a,0x3c,0x80,0x20,0x47,0xbe,0xdf,0x4f,0x17,0x3e,0x87,0x8e,0x3a,0x3f,0x44,0x91,0x01,0x3f,0x96,0x99,0xb0,0xbd,0x1f,0x31,0x03,0xbe,0xa3,0xf7,0xd6,0xbe,0x7d,0xcb,0x6c,0x3e,0xd6,0x14,0x75,0x3e,0x84,0x25,0x21,0x3e,0xbb,0xc0,0x3b,0x3e,0xad,0x27,0x57,0x3d,0x06,0xdb,0x44,0x3e,0xf2,0x2e,0xfd,0x3d,0x01,0x6e,0x38,0x3d,0x42,0xe4,0xb1,0x3e,0xd3,0x3e,0xfa,0x3d,0x19,0x6d,0xa8,0xbd,0xbc,0x27,0xa2,0x3e,0xb8,0xf9,0x82,0x3b,0xaf,0xda,0x1f,0xbd,0x87,0x5c,0x7a,0xbe,0xa8,0x42,0x03,0x3d,0x04,0x27,0x37,0x3e,0x33,0xdb,0x6f,0x3e,0xaa,0xd2,0x56,0xbf,0x69,0x00,0x9e,0x3e,0x5a,0x3a,0x76,0x3e,0xfd,0xab,0xc9,0xbe,0xfc,0x00,0x41,0xbe,0xd7,0x98,0x04,0xbd,0xd1,0x18,0x42,0xbd,0x48,0x25,0xa8,0x3e,0xf1,0x62,0xd2,0xba,0x7b,0x13,0x80,0xbf,0xbd,0xfa,0xe4,0xbd,0xc2,0x85,0x47,0x3d,0xa0,0xa4,0xba,0x3e,0x2d,0xf6,0x8a,0xbe,0x5e,0x42,0x23,0xbe,0xf3,0xce,0x33,0xbe,0xdf,0xe2,0x3d,0xbf,0x54,0x87,0xbc,0xbd,0x56,0x4d,0xfb,0x3d,0xb9,0x13,0x20,0x3e,0xc8,0xcd,0x62,0x3d,0x1b,0xac,0x66,0xbe,0x60,0x2a,0xbc,0x3d,0x06,0x52,0x09,0x3d,0x57,0x29,0x9b,0xbe,0x80,0xe9,0x12,0x3e,0x5d,0xd4,0x54,0xbe,0x30,0x59,0x2c,0xbe,0x8f,0xa5,0x9b,0xbe,0x66,0x82,0x52,0x3e,0x35,0x8e,0x15,0xbe,0x68,0x24,0x40,0xbe,0x7a,0xba,0xd4,0x3e,0x34,0x0f,0xca,0x3c,0x77,0x0d,0x3b,0xbd,0x14,0xa0,0x00,0x3f,0x54,0xca,0x80,0xbe,0x3a,0x89,0xe3,0x3d,0x54,0x36,0x0d,0x3e,0xff,0x6f,0x94,0xbe,0x37,0xe8,0x65,0xbd,0x1e,0xa6,0x1a,0x3f,0x90,0x27,0xe3,0x3d,0x76,0xe2,0x12,0x3e,0xc5,0x43,0x89,0xbd,0xee,0x1d,0xa7,0x3d,0x83,0x96,0x10,0xbe,0x80,0x88,0x4f,0x3e,0xc1,0xc6,0x4a,0xbf,0xa0,0xe0,0x65,0x3e,0xa0,0x59,0x03,0xbe,0x4a,0xe8,0x62,0x3c,0xb0,0x98,0x0b,0xbd,0x8c,0x1f,0x51,0xbb,0x8a,0x34,0x35,0xbe,0x71,0xf2,0x02,0x3e,0xed,0x1e,0x1a,0xbe,0x27,0x93,0x3b,0xbe,0x48,0x08,0x73,0x3e,0x64,0xbf,0x4c,0xbd,0xd7,0xaa,0xb4,0x3c,0xbe,0xb1,0xb3,0xbd,0x70,0x1f,0x0d,0xbd,0x0c,0x0c,0x02,0xbe,0x48,0x4c,0x53,0x3f,0x9e,0x03,0x7d,0xbe,0xe8,0x72,0x5d,0x3e,0xa6,0x89,0x22,0x3f,0x24,0xa8,0x55,0xbe,0xff,0x6a,0x5f,0xbe,0x98,0xbf,0x59,0x3e,0xf2,0x3c,0xee,0x3d,0x4c,0x0a,0x40,0x3d,0xe3,0x9d,0x45,0x3f,0xb3,0x0c,0x09,0x3f,0x36,0xd2,0x69,0xbe,0x21,0x33,0x23,0x3c,0x4c,0x03,0xe0,0x3c,0x5b,0xa3,0xaf,0x3e,0xab,0xa1,0xf2,0x3d,0xe9,0x9b,0x20,0x3f,0x87,0x61,0xd5,0xbd,0x3e,0xac,0x94,0x3e,0xbf,0xd5,0x43,0xbd,0x93,0x3b,0x12,0xbc,0x2e,0x69,0x04,0xbc,0x3b,0xb9,0x7d,0x3e,0x36,0x96,0x68,0x3e,0x44,0x2d,0xec,0x3e,0x64,0x29,0x9f,0xbb,0x46,0xd7,0xc9,0x3c,0x1c,0x6e,0x1e,0x3e,0xf2,0xfc,0xb8,0x3e,0x43,0x27,0x8d,0x3e,0xf8,0xa4,0x98,0xbe,0xc3,0xf7,0x44,0xbe,0x6b,0x40,0xd3,0xbe,0xda,0xdf,0xa1,0x3e,0x6a,0xab,0x4a,0x3e,0x1a,0x49,0x51,0xbe,0x5e,0x43,0xaf,0x3e,0xa5,0xd3,0x1e,0x3e,0x2f,0x98,0xa6,0xbd,0xce,0x18,0x17,0x3e,0xa0,0x5c,0xbf,0x3e,0xbd,0x29,0x59,0xbf,0x55,0xad,0xf7,0x3d,0x2f,0x5e,0xfd,0xbd,0xa2,0xfc,0xa2,0x3b,0x85,0x06,0xf9,0xbd,0x4a,0xfd,0x59,0xbe,0x41,0xed,0x50,0x3e,0x30,0x22,0x55,0x3f,0x3d,0xf8,0x70,0xbe,0x00,0x9f,0xdb,0x3e,0x16,0x37,0x86,0xbe,0xbf,0xc2,0x4c,0xbe,0xc2,0x8d,0x23,0xbd,0x58,0x01,0x69,0x3e,0xc8,0xb8,0x44,0xbe,0x6d,0xb4,0x52,0x3f,0x9d,0x32,0x1e,0x3d,0xa8,0xa8,0x04,0x3d,0x61,0x72,0x59,0x3e,0xee,0xae,0x4e,0x3f,0xd5,0xf0,0x42,0x3e,0x36,0x03,0x38,0xbe,0xf3,0xf0,0xab,0xbe,0x5e,0x5b,0xfe,0xbe,0x5c,0xca,0xaf,0x3e,0x12,0xfc,0x59,0x3e,0xf1,0x50,0x39,0xbf,0xba,0xe6,0xab,0x3e,0xc0,0x8e,0x0e,0x3e,0xa1,0x06,0xbe,0x3e,0x9e,0x81,0x9c,0x3e,0x56,0x63,0x8c,0x3e,0x6b,0x67,0x4c,0xbf,0xb7,0x9d,0x21,0xbf,0x96,0xee,0x91,0xbd,0xe0,0xe9,0x07,0xbe,0x30,0x15,0x50,0x3e,0x00,0x00,0x06,0x00,0x08,0x00,0x04,0x00,0x06,0x00,0x00,0x00,0x04,0x00,0x00,0x00,0x80,0x00,0x00,0x00,0xd8,0xba,0x56,0x3e,0x4a,0xa8,0x0d,0xbc,0x36,0xcc,0x13,0xbf,0xc0,0x55,0x0c,0xbf,0x5a,0x1b,0xa1,0x3e,0xdd,0x1d,0x12,0x3f,0x27,0x2c,0xba,0x3e,0x75,0x16,0xb1,0x3e,0x0f,0x14,0x9b,0xbe,0xf8,0x6a,0xbd,0x3e,0x49,0x91,0x81,0xbf,0x42,0x11,0x99,0x3e,0xfe,0xa0,0x15,0x3f,0xb4,0x19,0x1b,0xbe,0xb1,0xa7,0xce,0x3e,0x6e,0xed,0xa3,0x3e,0x61,0x62,0x6a,0xbe,0xbd,0x41,0x2b,0xbf,0x09,0x59,0x7d,0x3f,0xff,0xf1,0x8b,0x3e,0x5c,0x9c,0xe4,0x3e,0xf6,0x8b,0x84,0x3f,0xff,0x06,0x10,0x3f,0x76,0xf6,0x9a,0xbd,0x21,0x23,0x3f,0xbe,0x6b,0x4b,0x58,0x3e,0x45,0x29,0x86,0xbf,0xe4,0xa7,0x00,0x3f,0x7c,0xcc,0x9f,0xbe,0x1f,0x23,0x63,0xbf,0xdd,0xca,0x91,0x3e,0x25,0x3d,0xed,0x3e,0xc4,0xf9,0xff,0xff,0xc8,0xf9,0xff,0xff,0x0f,0x00,0x00,0x00,0x4d,0x4c,0x49,0x52,0x20,0x43,0x6f,0x6e,0x76,0x65,0x72,0x74,0x65,0x64,0x2e,0x00,0x01,0x00,0x00,0x00,0x14,0x00,0x00,0x00,0x00,0x00,0x0e,0x00,0x18,0x00,0x14,0x00,0x10,0x00,0x0c,0x00,0x08,0x00,0x04,0x00,0x0e,0x00,0x00,0x00,0x14,0x00,0x00,0x00,0x1c,0x00,0x00,0x00,0x10,0x01,0x00,0x00,0x14,0x01,0x00,0x00,0x18,0x01,0x00,0x00,0x04,0x00,0x00,0x00,0x6d,0x61,0x69,0x6e,0x00,0x00,0x00,0x00,0x04,0x00,0x00,0x00,0xb8,0x00,0x00,0x00,0x70,0x00,0x00,0x00,0x38,0x00,0x00,0x00,0x04,0x00,0x00,0x00,0x66,0xff,0xff,0xff,0x10,0x00,0x00,0x00,0x00,0x00,0x00,0x08,0x0c,0x00,0x00,0x00,0x10,0x00,0x00,0x00,0x44,0xfa,0xff,0xff,0x01,0x00,0x00,0x00,0x0c,0x00,0x00,0x00,0x03,0x00,0x00,0x00,0x0b,0x00,0x00,0x00,0x01,0x00,0x00,0x00,0x06,0x00,0x00,0x00,0x96,0xff,0xff,0xff,0x10,0x00,0x00,0x00,0x00,0x00,0x00,0x08,0x10,0x00,0x00,0x00,0x14,0x00,0x00,0x00,0x86,0xff,0xff,0xff,0x00,0x00,0x00,0x01,0x01,0x00,0x00,0x00,0x0b,0x00,0x00,0x00,0x03,0x00,0x00,0x00,0x0a,0x00,0x00,0x00,0x02,0x00,0x00,0x00,0x04,0x00,0x00,0x00,0xca,0xff,0xff,0xff,0x10,0x00,0x00,0x00,0x00,0x00,0x00,0x08,0x10,0x00,0x00,0x00,0x14,0x00,0x00,0x00,0xba,0xff,0xff,0xff,0x00,0x00,0x00,0x01,0x01,0x00,0x00,0x00,0x0a,0x00,0x00,0x00,0x03,0x00,0x00,0x00,0x09,0x00,0x00,0x00,0x03,0x00,0x00,0x00,0x05,0x00,0x00,0x00,0x00,0x00,0x0e,0x00,0x16,0x00,0x00,0x00,0x10,0x00,0x0c,0x00,0x0b,0x00,0x04,0x00,0x0e,0x00,0x00,0x00,0x18,0x00,0x00,0x00,0x00,0x00,0x00,0x08,0x18,0x00,0x00,0x00,0x1c,0x00,0x00,0x00,0x00,0x00,0x06,0x00,0x08,0x00,0x07,0x00,0x06,0x00,0x00,0x00,0x00,0x00,0x00,0x01,0x01,0x00,0x00,0x00,0x09,0x00,0x00,0x00,0x03,0x00,0x00,0x00,0x00,0x00,0x00,0x00,0x08,0x00,0x00,0x00,0x07,0x00,0x00,0x00,0x01,0x00,0x00,0x00,0x0c,0x00,0x00,0x00,0x01,0x00,0x00,0x00,0x00,0x00,0x00,0x00,0x0d,0x00,0x00,0x00,0xb0,0x04,0x00,0x00,0x58,0x04,0x00,0x00,0x00,0x04,0x00,0x00,0xc0,0x03,0x00,0x00,0x84,0x03,0x00,0x00,0x48,0x03,0x00,0x00,0xec,0x02,0x00,0x00,0x90,0x02,0x00,0x00,0x40,0x02,0x00,0x00,0xa0,0x01,0x00,0x00,0x00,0x01,0x00,0x00,0x60,0x00,0x00,0x00,0x04,0x00,0x00,0x00,0x9a,0xfb,0xff,0xff,0x00,0x00,0x00,0x01,0x14,0x00,0x00,0x00,0x1c,0x00,0x00,0x00,0x1c,0x00,0x00,0x00,0x0d,0x00,0x00,0x00,0x34,0x00,0x00,0x00,0x02,0x00,0x00,0x00,0xff,0xff,0xff,0xff,0x01,0x00,0x00,0x00,0x84,0xfb,0xff,0xff,0x1b,0x00,0x00,0x00,0x53,0x74,0x61,0x74,0x65,0x66,0x75,0x6c,0x50,0x61,0x72,0x74,0x69,0x74,0x69,0x6f,0x6e,0x65,0x64,0x43,0x61,0x6c,0x6c,0x5f,0x31,0x3a,0x30,0x00,0x02,0x00,0x00,0x00,0x01,0x00,0x00,0x00,0x01,0x00,0x00,0x00,0xf2,0xfb,0xff,0xff,0x00,0x00,0x00,0x01,0x14,0x00,0x00,0x00,0x1c,0x00,0x00,0x00,0x1c,0x00,0x00,0x00,0x0c,0x00,0x00,0x00,0x78,0x00,0x00,0x00,0x02,0x00,0x00,0x00,0xff,0xff,0xff,0xff,0x20,0x00,0x00,0x00,0xdc,0xfb,0xff,0xff,0x5e,0x00,0x00,0x00,0x73,0x65,0x71,0x75,0x65,0x6e,0x74,0x69,0x61,0x6c,0x5f,0x33,0x5f,0x31,0x2f,0x64,0x65,0x6e,0x73,0x65,0x5f,0x39,0x5f,0x31,0x2f,0x4d,0x61,0x74,0x4d,0x75,0x6c,0x3b,0x73,0x65,0x71,0x75,0x65,0x6e,0x74,0x69,0x61,0x6c,0x5f,0x33,0x5f,0x31,0x2f,0x64,0x65,0x6e,0x73,0x65,0x5f,0x39,0x5f,0x31,0x2f,0x52,0x65,0x6c,0x75,0x3b,0x73,0x65,0x71,0x75,0x65,0x6e,0x74,0x69,0x61,0x6c,0x5f,0x33,0x5f,0x31,0x2f,0x64,0x65,0x6e,0x73,0x65,0x5f,0x39,0x5f,0x31,0x2f,0x42,0x69,0x61,0x73,0x41,0x64,0x64,0x00,0x00,0x02,0x00,0x00,0x00,0x01,0x00,0x00,0x00,0x20,0x00,0x00,0x00,0x8e,0xfc,0xff,0xff,0x00,0x00,0x00,0x01,0x14,0x00,0x00,0x00,0x1c,0x00,0x00,0x00,0x1c,0x00,0x00,0x00,0x0b,0x00,0x00,0x00,0x78,0x00,0x00,0x00,0x02,0x00,0x00,0x00,0xff,0xff,0xff,0xff,0x20,0x00,0x00,0x00,0x78,0xfc,0xff,0xff,0x5e,0x00,0x00,0x00,0x73,0x65,0x71,0x75,0x65,0x6e,0x74,0x69,0x61,0x6c,0x5f,0x33,0x5f,0x31,0x2f,0x64,0x65,0x6e,0x73,0x65,0x5f,0x38,0x5f,0x31,0x2f,0x4d,0x61,0x74,0x4d,0x75,0x6c,0x3b,0x73,0x65,0x71,0x75,0x65,0x6e,0x74,0x69,0x61,0x6c,0x5f,0x33,0x5f,0x31,0x2f,0x64,0x65,0x6e,0x73,0x65,0x5f,0x38,0x5f,0x31,0x2f,0x52,0x65,0x6c,0x75,0x3b,0x73,0x65,0x71,0x75,0x65,0x6e,0x74,0x69,0x61,0x6c,0x5f,0x33,0x5f,0x31,0x2f,0x64,0x65,0x6e,0x73,0x65,0x5f,0x38,0x5f,0x31,0x2f,0x42,0x69,0x61,0x73,0x41,0x64,0x64,0x00,0x00,0x02,0x00,0x00,0x00,0x01,0x00,0x00,0x00,0x20,0x00,0x00,0x00,0x2a,0xfd,0xff,0xff,0x00,0x00,0x00,0x01,0x14,0x00,0x00,0x00,0x1c,0x00,0x00,0x00,0x1c,0x00,0x00,0x00,0x0a,0x00,0x00,0x00,0x78,0x00,0x00,0x00,0x02,0x00,0x00,0x00,0xff,0xff,0xff,0xff,0x20,0x00,0x00,0x00,0x14,0xfd,0xff,0xff,0x5e,0x00,0x00,0x00,0x73,0x65,0x71,0x75,0x65,0x6e,0x74,0x69,0x61,0x6c,0x5f,0x33,0x5f,0x31,0x2f,0x64,0x65,0x6e,0x73,0x65,0x5f,0x37,0x5f,0x31,0x2f,0x4d,0x61,0x74,0x4d,0x75,0x6c,0x3b,0x73,0x65,0x71,0x75,0x65,0x6e,0x74,0x69,0x61,0x6c,0x5f,0x33,0x5f,0x31,0x2f,0x64,0x65,0x6e,0x73,0x65,0x5f,0x37,0x5f,0x31,0x2f,0x52,0x65,0x6c,0x75,0x3b,0x73,0x65,0x71,0x75,0x65,0x6e,0x74,0x69,0x61,0x6c,0x5f,0x33,0x5f,0x31,0x2f,0x64,0x65,0x6e,0x73,0x65,0x5f,0x37,0x5f,0x31,0x2f,0x42,0x69,0x61,0x73,0x41,0x64,0x64,0x00,0x00,0x02,0x00,0x00,0x00,0x01,0x00,0x00,0x00,0x20,0x00,0x00,0x00,0x1a,0xfe,0xff,0xff,0x00,0x00,0x00,0x01,0x10,0x00,0x00,0x00,0x10,0x00,0x00,0x00,0x09,0x00,0x00,0x00,0x2c,0x00,0x00,0x00,0xa0,0xfd,0xff,0xff,0x1f,0x00,0x00,0x00,0x73,0x65,0x71,0x75,0x65,0x6e,0x74,0x69,0x61,0x6c,0x5f,0x33,0x5f,0x31,0x2f,0x64,0x65,0x6e,0x73,0x65,0x5f,0x37,0x5f,0x31,0x2f,0x4d,0x61,0x74,0x4d,0x75,0x6c,0x00,0x02,0x00,0x00,0x00,0x20,0x00,0x00,0x00,0x01,0x00,0x00,0x00,0x66,0xfe,0xff,0xff,0x00,0x00,0x00,0x01,0x10,0x00,0x00,0x00,0x10,0x00,0x00,0x00,0x08,0x00,0x00,0x00,0x3c,0x00,0x00,0x00,0xec,0xfd,0xff,0xff,0x2f,0x00,0x00,0x00,0x73,0x65,0x71,0x75,0x65,0x6e,0x74,0x69,0x61,0x6c,0x5f,0x33,0x5f,0x31,0x2f,0x64,0x65,0x6e,0x73,0x65,0x5f,0x37,0x5f,0x31,0x2f,0x42,0x69,0x61,0x73,0x41,0x64,0x64,0x2f,0x52,0x65,0x61,0x64,0x56,0x61,0x72,0x69,0x61,0x62,0x6c,0x65,0x4f,0x70,0x00,0x01,0x00,0x00,0x00,0x20,0x00,0x00,0x00,0xbe,0xfe,0xff,0xff,0x00,0x00,0x00,0x01,0x10,0x00,0x00,0x00,0x10,0x00,0x00,0x00,0x07,0x00,0x00,0x00,0x3c,0x00,0x00,0x00,0x44,0xfe,0xff,0xff,0x2c,0x00,0x00,0x00,0x73,0x65,0x71,0x75,0x65,0x6e,0x74,0x69,0x61,0x6c,0x5f,0x33,0x5f,0x31,0x2f,0x64,0x65,0x6e,0x73,0x65,0x5f,0x31,0x30,0x5f,0x31,0x2f,0x41,0x64,0x64,0x2f,0x52,0x65,0x61,0x64,0x56,0x61,0x72,0x69,0x61,0x62,0x6c,0x65,0x4f,0x70,0x00,0x00,0x00,0x00,0x01,0x00,0x00,0x00,0x01,0x00,0x00,0x00,0x16,0xff,0xff,0xff,0x00,0x00,0x00,0x01,0x10,0x00,0x00,0x00,0x10,0x00,0x00,0x00,0x06,0x00,0x00,0x00,0x1c,0x00,0x00,0x00,0x9c,0xfe,0xff,0xff,0x0f,0x00,0x00,0x00,0x61,0x72,0x69,0x74,0x68,0x2e,0x63,0x6f,0x6e,0x73,0x74,0x61,0x6e,0x74,0x34,0x00,0x01,0x00,0x00,0x00,0x20,0x00,0x00,0x00,0x4e,0xff,0xff,0xff,0x00,0x00,0x00,0x01,0x10,0x00,0x00,0x00,0x10,0x00,0x00,0x00,0x05,0x00,0x00,0x00,0x1c,0x00,0x00,0x00,0xd4,0xfe,0xff,0xff,0x0f,0x00,0x00,0x00,0x61,0x72,0x69,0x74,0x68,0x2e,0x63,0x6f,0x6e,0x73,0x74,0x61,0x6e,0x74,0x33,0x00,0x01,0x00,0x00,0x00,0x20,0x00,0x00,0x00,0x86,0xff,0xff,0xff,0x00,0x00,0x00,0x01,0x10,0x00,0x00,0x00,0x10,0x00,0x00,0x00,0x04,0x00,0x00,0x00,0x1c,0x00,0x00,0x00,0x0c,0xff,0xff,0xff,0x0f,0x00,0x00,0x00,0x61,0x72,0x69,0x74,0x68,0x2e,0x63,0x6f,0x6e,0x73,0x74,0x61,0x6e,0x74,0x32,0x00,0x02,0x00,0x00,0x00,0x20,0x00,0x00,0x00,0x20,0x00,0x00,0x00,0xc2,0xff,0xff,0xff,0x00,0x00,0x00,0x01,0x10,0x00,0x00,0x00,0x10,0x00,0x00,0x00,0x03,0x00,0x00,0x00,0x1c,0x00,0x00,0x00,0x48,0xff,0xff,0xff,0x0f,0x00,0x00,0x00,0x61,0x72,0x69,0x74,0x68,0x2e,0x63,0x6f,0x6e,0x73,0x74,0x61,0x6e,0x74,0x31,0x00,0x02,0x00,0x00,0x00,0x20,0x00,0x00,0x00,0x20,0x00,0x00,0x00,0x00,0x00,0x16,0x00,0x18,0x00,0x14,0x00,0x00,0x00,0x10,0x00,0x0c,0x00,0x08,0x00,0x00,0x00,0x00,0x00,0x00,0x00,0x07,0x00,0x16,0x00,0x00,0x00,0x00,0x00,0x00,0x01,0x10,0x00,0x00,0x00,0x10,0x00,0x00,0x00,0x02,0x00,0x00,0x00,0x1c,0x00,0x00,0x00,0x9c,0xff,0xff,0xff,0x0e,0x00,0x00,0x00,0x61,0x72,0x69,0x74,0x68,0x2e,0x63,0x6f,0x6e,0x73,0x74,0x61,0x6e,0x74,0x00,0x00,0x02,0x00,0x00,0x00,0x01,0x00,0x00,0x00,0x20,0x00,0x00,0x00,0x00,0x00,0x16,0x00,0x1c,0x00,0x18,0x00,0x00,0x00,0x14,0x00,0x10,0x00,0x0c,0x00,0x00,0x00,0x00,0x00,0x08,0x00,0x07,0x00,0x16,0x00,0x00,0x00,0x00,0x00,0x00,0x01,0x14,0x00,0x00,0x00,0x20,0x00,0x00,0x00,0x20,0x00,0x00,0x00,0x01,0x00,0x00,0x00,0x3c,0x00,0x00,0x00,0x02,0x00,0x00,0x00,0xff,0xff,0xff,0xff,0x01,0x00,0x00,0x00,0x04,0x00,0x04,0x00,0x04,0x00,0x00,0x00,0x1f,0x00,0x00,0x00,0x73,0x65,0x72,0x76,0x69,0x6e,0x67,0x5f,0x64,0x65,0x66,0x61,0x75,0x6c,0x74,0x5f,0x69,0x6e,0x70,0x75,0x74,0x5f,0x6c,0x61,0x79,0x65,0x72,0x5f,0x33,0x3a,0x30,0x00,0x02,0x00,0x00,0x00,0x01,0x00,0x00,0x00,0x01,0x00,0x00,0x00,0x01,0x00,0x00,0x00,0x10,0x00,0x00,0x00,0x0c,0x00,0x0c,0x00,0x0b,0x00,0x00,0x00,0x00,0x00,0x04,0x00,0x0c,0x00,0x00,0x00,0x09,0x00,0x00,0x00,0x00,0x00,0x00,0x09};
const unsigned int g_kasus_b_nl_model_3_float_model_data_len = 11124;

#endif // G_KASUS_B_NL_MODEL_3_FLOAT_H
