// File ini dibuat secara otomatis
#ifndef G_KASUS_B_NL_MODEL_3_INT8_H
#define G_KASUS_B_NL_MODEL_3_INT8_H

// Model: Kasus B NL Model 3 INT8
// 3L, 32N, int8 quantized
// Size: 5272 bytes (5.15 KB)
const unsigned char g_kasus_b_nl_model_3_int8_model_data[] = {0x1c,0x00,0x00,0x00,0x54,0x46,0x4c,0x33,0x14,0x00,0x20,0x00,0x1c,0x00,0x18,0x00,0x14,0x00,0x10,0x00,0x0c,0x00,0x00,0x00,0x08,0x00,0x04,0x00,0x14,0x00,0x00,0x00,0x1c,0x00,0x00,0x00,0x98,0x00,0x00,0x00,0x18,0x01,0x00,0x00,0x44,0x0c,0x00,0x00,0x54,0x0c,0x00,0x00,0x40,0x14,0x00,0x00,0x03,0x00,0x00,0x00,0x01,0x00,0x00,0x00,0x10,0x00,0x00,0x00,0x00,0x00,0x0a,0x00,0x10,0x00,0x0c,0x00,0x08,0x00,0x04,0x00,0x0a,0x00,0x00,0x00,0x0c,0x00,0x00,0x00,0x1c,0x00,0x00,0x00,0x3c,0x00,0x00,0x00,0x0f,0x00,0x00,0x00,0x73,0x65,0x72,0x76,0x69,0x6e,0x67,0x5f,0x64,0x65,0x66,0x61,0x75,0x6c,0x74,0x00,0x01,0x00,0x00,0x00,0x04,0x00,0x00,0x00,0x68,0xff,0xff,0xff,0x0c,0x00,0x00,0x00,0x04,0x00,0x00,0x00,0x08,0x00,0x00,0x00,0x6f,0x75,0x74,0x70,0x75,0x74,0x5f,0x30,0x00,0x00,0x00,0x00,0x01,0x00,0x00,0x00,0x04,0x00,0x00,0x00,0x4e,0xf4,0xff,0xff,0x04,0x00,0x00,0x00,0x0d,0x00,0x00,0x00,0x69,0x6e,0x70,0x75,0x74,0x5f,0x6c,0x61,0x79,0x65,0x72,0x5f,0x33,0x00,0x00,0x00,0x03,0x00,0x00,0x00,0x5c,0x00,0x00,0x00,0x2c,0x00,0x00,0x00,0x04,0x00,0x00,0x00,0xb8,0xff,0xff,0xff,0x10,0x00,0x00,0x00,0x04,0x00,0x00,0x00,0x13,0x00,0x00,0x00,0x43,0x4f,0x4e,0x56,0x45,0x52,0x53,0x49,0x4f,0x4e,0x5f,0x4d,0x45,0x54,0x41,0x44,0x41,0x54,0x41,0x00,0xdc,0xff,0xff,0xff,0x0f,0x00,0x00,0x00,0x04,0x00,0x00,0x00,0x13,0x00,0x00,0x00,0x6d,0x69,0x6e,0x5f,0x72,0x75,0x6e,0x74,0x69,0x6d,0x65,0x5f,0x76,0x65,0x72,0x73,0x69,0x6f,0x6e,0x00,0x08,0x00,0x0c,0x00,0x08,0x00,0x04,0x00,0x08,0x00,0x00,0x00,0x0e,0x00,0x00,0x00,0x04,0x00,0x00,0x00,0x13,0x00,0x00,0x00,0x6d,0x69,0x6e,0x5f,0x72,0x75,0x6e,0x74,0x69,0x6d,0x65,0x5f,0x76,0x65,0x72,0x73,0x69,0x6f,0x6e,0x00,0x11,0x00,0x00,0x00,0x28,0x0b,0x00,0x00,0x20,0x0b,0x00,0x00,0x0c,0x0b,0x00,0x00,0xd4,0x0a,0x00,0x00,0x44,0x0a,0x00,0x00,0x34,0x06,0x00,0x00,0xa4,0x05,0x00,0x00,0x94,0x01,0x00,0x00,0x04,0x01,0x00,0x00,0xd4,0x00,0x00,0x00,0xcc,0x00,0x00,0x00,0xc4,0x00,0x00,0x00,0xbc,0x00,0x00,0x00,0xb4,0x00,0x00,0x00,0x94,0x00,0x00,0x00,0x74,0x00,0x00,0x00,0x04,0x00,0x00,0x00,0x36,0xf5,0xff,0xff,0x04,0x00,0x00,0x00,0x60,0x00,0x00,0x00,0x0c,0x00,0x00,0x00,0x08,0x00,0x0e,0x00,0x08,0x00,0x04,0x00,0x08,0x00,0x00,0x00,0x10,0x00,0x00,0x00,0x28,0x00,0x00,0x00,0x00,0x00,0x06,0x00,0x08,0x00,0x04,0x00,0x06,0x00,0x00,0x00,0x04,0x00,0x00,0x00,0x01,0x00,0x00,0x00,0xeb,0x03,0x00,0x00,0x0c,0x00,0x18,0x00,0x14,0x00,0x10,0x00,0x0c,0x00,0x04,0x00,0x0c,0x00,0x00,0x00,0xc5,0xab,0xf1,0xfe,0x10,0x21,0xf6,0xc9,0x02,0x00,0x00,0x00,0x02,0x00,0x00,0x00,0x04,0x00,0x00,0x00,0x06,0x00,0x00,0x00,0x32,0x2e,0x31,0x38,0x2e,0x30,0x00,0x00,0xa2,0xf5,0xff,0xff,0x04,0x00,0x00,0x00,0x10,0x00,0x00,0x00,0x00,0x00,0x00,0x00,0x00,0x00,0x00,0x00,0x00,0x00,0x00,0x00,0x00,0x00,0x00,0x00,0xbe,0xf5,0xff,0xff,0x04,0x00,0x00,0x00,0x10,0x00,0x00,0x00,0x31,0x2e,0x31,0x34,0x2e,0x30,0x00,0x00,0x00,0x00,0x00,0x00,0x00,0x00,0x00,0x00,0x44,0xf5,0xff,0xff,0x48,0xf5,0xff,0xff,0x4c,0xf5,0xff,0xff,0x50,0xf5,0xff,0xff,0xea,0xf5,0xff,0xff,0x04,0x00,0x00,0x00,0x20,0x00,0x00,0x00,0x7f,0xba,0xeb,0xc8,0x90,0x35,0x9f,0x58,0xa4,0xda,0x4d,0xed,0xa7,0xc1,0xde,0x57,0xfb,0xb6,0xf4,0xe3,0x5a,0x4c,0x5a,0xd6,0xa1,0xd5,0x7b,0x73,0xa6,0x9c,0xbd,0xa8,0x16,0xf6,0xff,0xff,0x04,0x00,0x00,0x00,0x80,0x00,0x00,0x00,0x3e,0xff,0xff,0xff,0xcd,0xfe,0xff,0xff,0x20,0xfa,0xff,0xff,0x74,0x02,0x00,0x00,0x3f,0xfc,0xff,0xff,0x98,0xfe,0xff,0xff,0xb4,0xfd,0xff,0xff,0x6d,0xfe,0xff,0xff,0xb5,0xfe,0xff,0xff,0xd4,0xfc,0xff,0xff,0xc3,0xfe,0xff,0xff,0xc4,0xfb,0xff,0xff,0x9b,0xfb,0xff,0xff,0x92,0x02,0x00,0x00,0x7d,0xfc,0xff,0xff,0xef,0xf8,0xff,0xff,0x3a,0x08,0x00,0x00,0x13,0x04,0x00,0x00,0x08,0xfc,0xff,0xff,0x3d,0x01,0x00,0x00,0xac,0xff,0xff,0xff,0xf9,0xfe,0xff,0xff,0x1a,0xfe,0xff,0xff,0x51,0xfb,0xff,0xff,0xef,0xfe,0xff,0xff,0xfc,0x01,0x00,0x00,0x06,0xff,0xff,0xff,0x84,0xfd,0xff,0xff,0x78,0xfc,0xff,0xff,0x69,0xfc,0xff,0xff,0x73,0xfb,0xff,0xff,0x4b,0xfc,0xff,0xff,0xa2,0xf6,0xff,0xff,0x04,0x00,0x00,0x00,0x00,0x04,0x00,0x00,0xdf,0x1f,0x30,0x26,0x05,0xe6,0xe4,0xd8,0x14,0x14,0xfb,0x1c,0xec,0xea,0x06,0x20,0xdf,0x0f,0x29,0xe9,0xf6,0x11,0xee,0x10,0x18,0xe8,0xdf,0xde,0x1f,0x1e,0x00,0xf8,0xff,0xda,0xf1,0xec,0xd8,0x1c,0xe2,0x1a,0xea,0x03,0x2e,0xf8,0xf7,0xee,0x1a,0xf1,0x93,0xe6,0x20,0x09,0x26,0x1e,0xf1,0xf7,0xd9,0xdc,0x31,0x0f,0xd6,0x16,0xe1,0xf7,0x01,0xee,0x0d,0xd9,0xfe,0xfe,0xf1,0xe2,0x1e,0xfd,0xff,0xda,0xfc,0xf1,0xd2,0xc1,0x46,0x0e,0x17,0x0b,0x01,0x1b,0xe4,0x12,0x1a,0x02,0x25,0xfe,0xec,0xee,0xdd,0x1a,0x0e,0xe4,0x06,0x06,0xf5,0x06,0xe5,0x18,0xdd,0xfd,0xea,0xe6,0x11,0x03,0x22,0xed,0xff,0xf8,0xde,0x0a,0xee,0x04,0xe9,0xe0,0xfc,0xe2,0x02,0xf2,0x0e,0xeb,0xfc,0xfe,0x27,0xdb,0xe9,0xe3,0x16,0x2a,0xdb,0x1a,0x0e,0xfa,0xf8,0x18,0x09,0xe9,0xea,0x14,0xbf,0x02,0x27,0xe8,0x17,0x27,0x2d,0xd7,0xdc,0xd2,0xff,0xef,0xfb,0xfa,0xde,0x1c,0xd6,0x29,0x25,0xfd,0x1d,0x14,0x2b,0xfc,0xff,0x17,0x15,0x4e,0x05,0x24,0x12,0xe3,0xdf,0xe9,0x3f,0x05,0xf0,0xdf,0xde,0x24,0x2a,0x1d,0x05,0xe2,0x28,0x13,0x0a,0x1c,0x21,0x16,0xef,0xdf,0xf9,0xef,0x0c,0xfc,0xe6,0xe9,0xf1,0x23,0x22,0xf9,0x11,0xf8,0xef,0x0d,0x0d,0xf6,0xde,0x19,0xfc,0xe7,0x16,0xf0,0xde,0xe4,0xf2,0xdd,0x1a,0xec,0x25,0xe5,0x20,0x1a,0xef,0x06,0xe5,0x19,0x23,0xf5,0xf2,0x46,0x1a,0x13,0x15,0x12,0xbd,0x00,0x1d,0xfe,0x2a,0x17,0x1f,0x2a,0x17,0xf4,0xf6,0x14,0x1d,0xeb,0x01,0x06,0x0b,0x03,0xe8,0xf2,0xdd,0x2c,0xf2,0xf1,0xd7,0x09,0x1b,0xeb,0xdd,0xde,0xd9,0xee,0x93,0xed,0xf3,0x0e,0x27,0x24,0x0f,0xe7,0xe4,0xfa,0x10,0x2e,0xf4,0xf6,0xda,0xf8,0x22,0xfa,0xfb,0x1f,0x1b,0x11,0xef,0x21,0xf7,0xf9,0x1a,0x2c,0x22,0x18,0x15,0x12,0xde,0xf2,0x05,0xdd,0x0a,0x20,0x20,0x0f,0x17,0xff,0x0f,0xe6,0x18,0x23,0xff,0x01,0x18,0x15,0xf0,0x1b,0xf3,0xe9,0xfe,0x03,0x09,0x12,0x18,0xdd,0x1a,0xf3,0xf3,0xda,0x40,0x14,0xee,0xfa,0xeb,0xfa,0x0d,0xe0,0xe5,0xde,0x00,0xe8,0xe5,0xe1,0x1e,0xfb,0x2f,0xea,0x2f,0xe6,0x09,0xf7,0x04,0x2f,0x00,0xf9,0x19,0x02,0x27,0xf0,0x14,0x16,0xd1,0x0a,0x1b,0x06,0x01,0xf0,0xfe,0x27,0x20,0xe2,0x2c,0xfe,0x23,0x09,0x14,0x24,0xe3,0xe6,0xed,0xf8,0xde,0x01,0xec,0x0a,0x06,0xfc,0xfb,0x12,0x10,0xf2,0xf3,0x00,0xfd,0x04,0xfb,0x17,0xec,0x16,0xfd,0x05,0xf4,0x0c,0x14,0xde,0xf4,0xf2,0x04,0x0c,0xdd,0x03,0xf3,0x00,0x27,0xd7,0x1f,0x18,0xe5,0xe7,0x16,0x2c,0xfc,0x0e,0x1b,0xe4,0xef,0x01,0x2c,0xf1,0xf6,0xee,0xdd,0x16,0x1a,0x1c,0xdf,0xec,0x23,0x29,0xe9,0x27,0xf8,0xe5,0x01,0x15,0x1b,0xef,0x0d,0x1f,0xda,0x00,0xe7,0xc0,0xf2,0x1a,0x1b,0xba,0x3f,0x05,0xcc,0xf0,0x04,0x24,0xf1,0xeb,0xdc,0x02,0x18,0xf7,0xe5,0x1f,0x01,0xfd,0x2d,0x03,0xf9,0xe0,0x17,0x1a,0x12,0x0b,0xed,0x1a,0x2d,0x02,0x03,0xf6,0xf6,0x0d,0xf1,0xf8,0xf2,0xdd,0x2d,0x17,0x18,0xe1,0xfb,0xff,0x22,0x08,0xe9,0xe9,0x18,0x19,0x1a,0xe0,0xf5,0xe7,0x23,0xff,0xe5,0xea,0x1d,0x0c,0xfb,0xde,0x0e,0x0d,0x14,0x09,0xff,0xea,0x12,0xf9,0xfb,0xe4,0xde,0xe5,0xf0,0x19,0x09,0xee,0xf3,0xfe,0x09,0xff,0xdf,0x1e,0x04,0xf0,0x1b,0x13,0x28,0xf4,0x0a,0x24,0xed,0x30,0x23,0xf5,0x07,0x01,0xe1,0xfd,0x4f,0x19,0xfa,0x00,0xeb,0xfb,0x07,0x21,0x0d,0xdd,0x0e,0x04,0xe8,0xe7,0x1a,0x16,0xe3,0xe4,0xe8,0xee,0xfa,0xdd,0x1e,0xf8,0xff,0xe9,0xe7,0xfb,0xe7,0xda,0x45,0x20,0xd6,0x21,0x1a,0xf0,0x11,0xdb,0x16,0xff,0xf8,0xfd,0x1f,0xdf,0x07,0xd9,0x0f,0xfd,0x13,0xef,0xd9,0xf2,0x0c,0x1d,0xef,0xf2,0x0b,0xe0,0xe7,0x0f,0xf0,0x08,0x81,0xd1,0xf8,0x05,0x24,0x16,0x26,0xf6,0xdd,0xfb,0xf0,0x1f,0xeb,0xf8,0x07,0x18,0x2f,0xf4,0xf9,0xe0,0xd8,0xf3,0xdb,0x2d,0xdb,0x01,0x18,0xea,0xec,0x15,0x00,0xf8,0xa8,0x11,0xe5,0xe9,0x00,0xff,0x2c,0x16,0x07,0x04,0x30,0x27,0xdd,0xe2,0xfc,0x0b,0x13,0xfc,0xfa,0x20,0xfb,0x1e,0xf8,0xdf,0xfe,0x18,0x1c,0xf8,0xf1,0xf9,0x00,0xff,0x63,0x34,0xda,0xfa,0x1b,0xf8,0xf7,0xe6,0x0a,0xe9,0xe6,0xe1,0xf8,0xf1,0xeb,0xfb,0xf2,0xd5,0xf9,0xfe,0x02,0x2c,0xd8,0x0c,0x14,0xdb,0xf6,0x26,0xd5,0xf6,0xd7,0x14,0x86,0xe2,0x00,0xeb,0x1c,0x19,0x19,0xdf,0xfc,0xf9,0x1d,0x22,0xed,0xef,0xde,0xeb,0x25,0x0e,0x23,0xe6,0x08,0x0f,0x1d,0x0a,0x03,0xf9,0xee,0x0f,0x1e,0xe7,0x2e,0x25,0xe5,0x15,0xed,0x23,0x17,0x04,0x09,0xf0,0x12,0xfe,0x14,0xf1,0x25,0x25,0x11,0xea,0x0d,0xf1,0x11,0xe3,0xff,0x24,0xf8,0x31,0x15,0xdc,0x25,0xf6,0xea,0x03,0xd6,0xfe,0xbd,0xd6,0xf3,0x11,0x1d,0x32,0x2b,0xd4,0xf9,0x15,0x02,0x04,0xe2,0xe2,0xed,0xf2,0x25,0xf9,0xe9,0x04,0x12,0xfd,0xe0,0x2c,0x02,0x06,0x32,0xed,0xea,0xed,0x17,0xf3,0xc3,0x10,0xf2,0x05,0x2d,0x00,0xee,0xeb,0xf4,0xfa,0x1d,0x1a,0x04,0xe5,0xdb,0x05,0x19,0x00,0x0f,0x03,0x09,0x00,0x0c,0x09,0x11,0x2a,0x0c,0x05,0x02,0xf9,0x1a,0x0b,0xec,0xe8,0x03,0x18,0xfe,0x1f,0x30,0x28,0x13,0xff,0x20,0x11,0xfe,0x07,0x1b,0x22,0xf0,0xe7,0xd1,0x21,0xe5,0x13,0x00,0x1f,0xf0,0xf1,0xf8,0xc8,0xed,0x0c,0x0f,0x17,0x63,0x1a,0xe5,0xf5,0xf5,0xf9,0xec,0xdc,0x0e,0x16,0xf7,0xf5,0xe0,0x0f,0xe7,0x18,0xe8,0xff,0x07,0xfa,0xee,0x07,0x07,0x11,0x10,0xdb,0xf6,0xba,0xee,0x20,0xe8,0xd9,0x46,0x0a,0xec,0x24,0x16,0x27,0xed,0xff,0x18,0x0d,0x05,0x05,0x02,0x1d,0x05,0xe0,0xef,0xef,0xfa,0xf4,0xf4,0x19,0xf7,0x22,0x10,0xea,0x17,0xe7,0xdb,0xee,0xdb,0xe9,0x83,0xf7,0xe8,0x14,0x17,0xec,0x09,0x0f,0xfc,0xf4,0x23,0x1e,0xdb,0xda,0x0b,0xf4,0xe7,0xea,0x0f,0xf0,0x1f,0xea,0xfa,0x16,0x25,0x25,0x1c,0x16,0x1d,0xf6,0x1a,0xee,0xfb,0x0e,0x47,0x11,0x0f,0xfb,0xda,0xf8,0x10,0x09,0xf6,0xde,0xfc,0x0f,0x1f,0x23,0xf4,0xe7,0xeb,0xf9,0x1b,0xdf,0xf5,0xec,0x21,0xe5,0x13,0x1b,0xe8,0xfc,0x09,0xec,0x28,0xde,0x18,0x1f,0x1f,0x06,0xe1,0xec,0x0d,0xf1,0x1c,0xf9,0x07,0xff,0xfc,0x1f,0xae,0xfa,0xff,0xff,0x04,0x00,0x00,0x00,0x80,0x00,0x00,0x00,0xdb,0xf9,0xff,0xff,0x86,0x00,0x00,0x00,0x43,0x0c,0x00,0x00,0x2f,0xff,0xff,0xff,0x2e,0xfe,0xff,0xff,0x4c,0xfb,0xff,0xff,0xb7,0xff,0xff,0xff,0xad,0xfb,0xff,0xff,0x64,0xfd,0xff,0xff,0x2e,0xf6,0xff,0xff,0x35,0x08,0x00,0x00,0x99,0xfc,0xff,0xff,0x97,0xff,0xff,0xff,0x06,0xfc,0xff,0xff,0xe2,0x06,0x00,0x00,0x7f,0xff,0xff,0xff,0xde,0xff,0xff,0xff,0x30,0xfc,0xff,0xff,0xb0,0x0e,0x00,0x00,0x02,0xfe,0xff,0xff,0x96,0x00,0x00,0x00,0x24,0x0e,0x00,0x00,0xb9,0xfe,0xff,0xff,0xa4,0xfc,0xff,0xff,0x87,0xfe,0xff,0xff,0xa6,0xff,0xff,0xff,0x68,0xfe,0xff,0xff,0x65,0x0d,0x00,0x00,0x2b,0x0e,0x00,0x00,0xcc,0xf9,0xff,0xff,0x55,0xfa,0xff,0xff,0xe6,0x02,0x00,0x00,0x3a,0xfb,0xff,0xff,0x04,0x00,0x00,0x00,0x00,0x04,0x00,0x00,0xe2,0xfb,0x01,0x0d,0x10,0xf0,0xf3,0x0f,0xea,0x01,0xf3,0xe4,0x01,0xed,0xe1,0xfc,0xff,0xec,0x0b,0x19,0x08,0x1f,0x14,0xe6,0xeb,0xfc,0xe2,0xf4,0xe4,0xe3,0x13,0xf4,0x0a,0x1c,0x0d,0xfa,0xe9,0x17,0x0d,0xe3,0x1e,0x18,0x1b,0x00,0xf5,0xe1,0x04,0xfa,0xf9,0xf9,0xf6,0xed,0xea,0xf7,0x13,0xf9,0x12,0xf1,0xf2,0x00,0xdd,0xf6,0x0f,0x0f,0xdd,0x16,0x9d,0x15,0x1c,0x1a,0x09,0xdd,0x1b,0xef,0xfc,0xf3,0x06,0x15,0xd8,0x19,0x01,0xe6,0x4c,0xf6,0x05,0x54,0xdc,0xf0,0xf3,0xf2,0x02,0x55,0x2b,0x0a,0xee,0x10,0xfc,0x1a,0xc6,0xf3,0x10,0xf6,0x09,0xf3,0xfa,0xf1,0xea,0x09,0xfb,0xf4,0xaf,0xec,0x06,0x1b,0x7f,0xea,0x13,0x6d,0xef,0xf2,0xf3,0x06,0x1c,0x75,0x28,0xea,0xe9,0xd6,0x14,0xff,0x0e,0x00,0xee,0xf1,0xdf,0x17,0x21,0xff,0xe6,0x0c,0xe5,0x03,0xe4,0xf6,0x1c,0xee,0xb9,0x16,0xff,0x9d,0x2b,0x1f,0x09,0x23,0x06,0xb2,0xc2,0x18,0xf6,0xe9,0xf5,0x23,0x45,0x10,0x0a,0x1d,0x04,0x24,0x28,0xf9,0x17,0x0b,0x0c,0x1b,0xf3,0xf7,0xfe,0x1a,0xb8,0x1b,0x0a,0xcc,0x20,0x27,0x24,0x06,0x2a,0xd1,0x05,0x14,0xec,0xf8,0xf1,0x05,0x01,0xf8,0xfb,0xe8,0x11,0x0e,0x0d,0xe0,0xef,0x02,0xf8,0x19,0x07,0xf7,0x0b,0xf5,0xe8,0xe5,0x12,0x10,0x19,0xe6,0x00,0xfa,0xfe,0x11,0xee,0xf3,0x0c,0x0a,0x2b,0xfe,0x37,0xfb,0x14,0x14,0x1f,0x04,0xfa,0x11,0xef,0xf7,0x05,0x28,0xec,0x0d,0x08,0x0c,0xc1,0xf6,0xec,0x05,0xef,0xf2,0x11,0xe4,0xfe,0xbd,0x20,0xf2,0x10,0x13,0xf1,0xf5,0xfc,0x0f,0x0f,0x01,0x14,0x0a,0xe7,0xfc,0xe6,0xe6,0xf6,0x14,0x0d,0x1c,0x03,0xf9,0xe8,0x08,0xe6,0xf2,0xe8,0xe9,0xfd,0x16,0x0b,0xfd,0xea,0x1a,0x0a,0x12,0xf3,0x2c,0x61,0x17,0x20,0x21,0x0f,0x2c,0x12,0x07,0x27,0x23,0xf4,0xec,0x0b,0x1e,0x16,0xf0,0xb2,0x00,0x06,0xad,0x0e,0x23,0xfe,0x15,0x21,0xb8,0xf1,0x02,0x17,0x13,0xf9,0x0e,0xb4,0x06,0xf7,0xf3,0x1a,0x0e,0x00,0xe5,0xcc,0xed,0xf7,0x20,0xb7,0x1b,0xf0,0xfd,0x33,0xe5,0xfe,0x50,0x09,0xe8,0xf5,0x20,0xf5,0x32,0x2b,0xe6,0x0e,0xce,0xeb,0x01,0x44,0x16,0x08,0xf1,0xe4,0xfb,0xf1,0x23,0x10,0x26,0x0e,0xdc,0x21,0x2a,0xf0,0xef,0xc2,0x2c,0x22,0x99,0xf1,0x08,0x02,0xfe,0xf8,0x9d,0xbf,0x09,0xe6,0xfd,0x18,0x08,0x48,0xff,0xff,0x09,0x1a,0xef,0x14,0x13,0x1e,0x2c,0xe4,0xfd,0xfa,0x05,0x0e,0x23,0xcf,0x24,0x05,0xe9,0x28,0x18,0x12,0xf2,0x1e,0xb7,0xda,0x13,0xfe,0xfb,0x05,0x00,0xf1,0x06,0xe8,0xf4,0x1c,0x19,0xf3,0x06,0x03,0xe0,0x08,0xe3,0x0f,0x0c,0xf6,0xfd,0xff,0x0d,0xf1,0xf1,0xe8,0xe7,0x14,0xf5,0x1f,0x0b,0xf0,0xf7,0x14,0x00,0x0e,0x24,0x4b,0xe9,0x09,0x22,0xfe,0x0d,0x14,0x23,0x0c,0x08,0xf9,0xfd,0xf7,0x1e,0xe0,0x15,0xd5,0x22,0x1b,0xd1,0x0f,0xef,0x1d,0xff,0x03,0xa5,0x0a,0x06,0xef,0x09,0x18,0x05,0x4a,0x14,0xf6,0x16,0xe6,0xf5,0x15,0x00,0xf3,0xf4,0xfb,0x1e,0xf0,0xef,0x1e,0x27,0xc3,0xf5,0x02,0x02,0x01,0x1d,0xde,0x08,0x14,0xf8,0xf1,0xf3,0x20,0x08,0x08,0x03,0xf7,0xe6,0xfa,0xfa,0x09,0xfb,0x14,0x15,0x05,0xf1,0xe3,0xfa,0xfa,0x0b,0x1c,0xed,0xef,0x0e,0xe1,0x0c,0xfc,0xe6,0xf6,0x0f,0xff,0xf8,0x0b,0xf3,0x0d,0x17,0x0c,0xf6,0xd9,0x02,0xe8,0x1c,0xe1,0x0a,0x0f,0xf8,0xfd,0xdd,0x1b,0x04,0xd7,0x11,0x19,0xe2,0x5a,0x12,0x19,0x2f,0x09,0xf3,0xea,0x19,0xe6,0x61,0x25,0xe8,0xfb,0x0b,0x04,0x10,0x5b,0xe8,0x10,0x0b,0xe5,0xfe,0xe1,0xd0,0x5a,0x01,0x03,0xea,0x54,0x16,0xf8,0xf9,0x47,0xcf,0x1f,0x49,0xd2,0xe5,0xef,0x1c,0xfc,0x3e,0x49,0xbb,0xfc,0x6a,0x03,0x07,0x08,0x15,0x07,0xdc,0xf5,0xf3,0xf9,0x15,0xd9,0xff,0xe7,0xf9,0x09,0x2d,0xf5,0xf6,0xaa,0x08,0x00,0x97,0x1c,0xf7,0x0c,0x2d,0xf4,0x98,0xcd,0x25,0xe1,0xea,0xfa,0xfb,0x75,0x02,0xfc,0x19,0x0e,0x03,0x05,0x11,0x32,0x07,0x17,0x28,0xf6,0x1f,0xf3,0x27,0xde,0xfa,0xff,0xf3,0x07,0x01,0x14,0x09,0x2a,0xc3,0xed,0x0b,0x29,0xf7,0x02,0x0e,0x2f,0xfa,0xf4,0x19,0xeb,0xdc,0x0d,0xd0,0x48,0xe5,0x0a,0x04,0x37,0x08,0xef,0x0c,0x40,0xcb,0x1f,0x51,0xe8,0xe9,0xf7,0x1f,0xf2,0x2f,0x20,0xbc,0xe9,0x61,0xf5,0x12,0x6d,0x03,0x2b,0xff,0x14,0x2d,0x00,0xfa,0x5e,0x0c,0x06,0x16,0xf1,0x25,0xf8,0x0e,0xc7,0x04,0x2c,0xdc,0x1c,0x2c,0x16,0x2d,0x1e,0xb2,0xea,0x13,0x15,0x1f,0x05,0xe7,0x1a,0x03,0xe9,0xf8,0x15,0xee,0x03,0xf9,0xf8,0x18,0x13,0xe4,0xe8,0xf1,0xf9,0xe7,0xe7,0x15,0xe4,0xf7,0x10,0x0d,0xe3,0x11,0x0a,0x15,0xf0,0xe6,0x1d,0xe8,0xdf,0xf6,0x09,0x0d,0xe9,0x0f,0xe6,0x18,0xe0,0xfc,0x16,0x12,0x0f,0x02,0x04,0xe7,0xfd,0xe6,0xf6,0x18,0x16,0xef,0xf7,0xf8,0x01,0xe5,0x03,0x07,0xec,0x0c,0xfe,0xdf,0x1c,0xea,0xf4,0x0f,0x10,0xdf,0xf8,0xed,0xfb,0xe3,0x14,0x10,0xf3,0x11,0x0b,0x1a,0xfc,0x1b,0xea,0xf5,0xff,0xf9,0x1b,0x02,0xf9,0xf9,0xe7,0x0b,0xe1,0xe9,0x1a,0xe2,0xdb,0x14,0xbd,0xf9,0xee,0xf6,0xe7,0x03,0xed,0xe2,0xc2,0x08,0xe2,0xf4,0xd1,0x00,0xfc,0x14,0x5a,0x0f,0x0c,0x3b,0xec,0x10,0x01,0xec,0x0f,0x4c,0x35,0xf7,0xf3,0xd4,0x18,0x19,0x10,0x13,0x05,0x14,0x0d,0x05,0x24,0x0d,0xf7,0x21,0x00,0xfc,0xe7,0x03,0x13,0x18,0xa9,0x20,0x19,0xd7,0xec,0xfd,0xfb,0x22,0x00,0x98,0xf4,0x05,0x26,0xe4,0xef,0xee,0xb3,0xf6,0x0d,0x10,0x06,0xe9,0x0a,0x03,0xe1,0x0f,0xea,0xef,0xe0,0x15,0xf1,0xed,0x2b,0x03,0xfb,0x34,0xe6,0x0c,0x0e,0xe2,0xfa,0x3f,0x0c,0x0f,0xf9,0x08,0xf1,0x15,0xae,0x17,0xf3,0x01,0xfc,0x00,0xee,0x0d,0xf0,0xed,0x19,0xfb,0x02,0xf7,0xfc,0xf3,0x56,0xe6,0x16,0x42,0xea,0xe9,0x16,0x0c,0x05,0x50,0x38,0xe8,0x01,0x03,0x24,0x0c,0x41,0xf5,0x1e,0xfb,0xff,0xff,0x1a,0x18,0x30,0xff,0x03,0x10,0x26,0x1d,0xe1,0xec,0xd5,0x21,0x15,0xeb,0x24,0x10,0xf8,0x0f,0x27,0xa8,0x0d,0xf3,0x01,0xf3,0xea,0x15,0x56,0xe8,0x2d,0xe5,0xeb,0xfc,0x18,0xec,0x55,0x04,0x03,0x16,0x54,0x14,0xed,0xdd,0xcc,0x24,0x16,0xb5,0x23,0x0e,0x27,0x20,0x1c,0xad,0xbe,0xf9,0xf2,0x15,0x46,0xff,0xff,0xff,0x04,0x00,0x00,0x00,0x80,0x00,0x00,0x00,0x00,0x00,0x00,0x00,0xca,0xff,0xff,0xff,0xc7,0x01,0x00,0x00,0x17,0x03,0x00,0x00,0x9d,0xfd,0xff,0xff,0xa4,0xff,0xff,0xff,0xe3,0xff,0xff,0xff,0x35,0xfe,0xff,0xff,0xb2,0xff,0xff,0xff,0x7c,0xff,0xff,0xff,0xae,0x04,0x00,0x00,0xcb,0xff,0xff,0xff,0x91,0xff,0xff,0xff,0x00,0x00,0x00,0x00,0x88,0xff,0xff,0xff,0x32,0xfe,0xff,0xff,0xc1,0xff,0xff,0xff,0xf4,0x01,0x00,0x00,0xb9,0x05,0x00,0x00,0x95,0xff,0xff,0xff,0xaa,0xff,0xff,0xff,0xac,0x05,0x00,0x00,0xb1,0xff,0xff,0xff,0xb7,0xff,0xff,0xff,0xb3,0xff,0xff,0xff,0xca,0xff,0xff,0xff,0xa7,0x04,0x00,0x00,0x03,0xff,0xff,0xff,0xee,0xff,0xff,0xff,0x79,0x04,0x00,0x00,0x67,0xff,0xff,0xff,0x18,0x00,0x00,0x00,0xd2,0xff,0xff,0xff,0x04,0x00,0x00,0x00,0x20,0x00,0x00,0x00,0x19,0xff,0xba,0xbe,0x26,0x45,0x2c,0x2a,0xdb,0x2d,0x85,0x24,0x47,0xee,0x31,0x27,0xe4,0xaf,0x78,0x21,0x36,0x7d,0x44,0xf7,0xe9,0x1a,0x81,0x3d,0xda,0x94,0x23,0x38,0x00,0x00,0x06,0x00,0x08,0x00,0x04,0x00,0x06,0x00,0x00,0x00,0x04,0x00,0x00,0x00,0x04,0x00,0x00,0x00,0xf0,0xff,0xff,0xff,0x80,0xff,0xff,0xff,0x84,0xff,0xff,0xff,0x0f,0x00,0x00,0x00,0x4d,0x4c,0x49,0x52,0x20,0x43,0x6f,0x6e,0x76,0x65,0x72,0x74,0x65,0x64,0x2e,0x00,0x01,0x00,0x00,0x00,0x14,0x00,0x00,0x00,0x00,0x00,0x0e,0x00,0x18,0x00,0x14,0x00,0x10,0x00,0x0c,0x00,0x08,0x00,0x04,0x00,0x0e,0x00,0x00,0x00,0x14,0x00,0x00,0x00,0x1c,0x00,0x00,0x00,0x14,0x01,0x00,0x00,0x18,0x01,0x00,0x00,0x1c,0x01,0x00,0x00,0x04,0x00,0x00,0x00,0x6d,0x61,0x69,0x6e,0x00,0x00,0x00,0x00,0x04,0x00,0x00,0x00,0xbc,0x00,0x00,0x00,0x74,0x00,0x00,0x00,0x3c,0x00,0x00,0x00,0x04,0x00,0x00,0x00,0x62,0xff,0xff,0xff,0x14,0x00,0x00,0x00,0x00,0x00,0x00,0x08,0x10,0x00,0x00,0x00,0x14,0x00,0x00,0x00,0x04,0x00,0x04,0x00,0x04,0x00,0x00,0x00,0x01,0x00,0x00,0x00,0x0c,0x00,0x00,0x00,0x03,0x00,0x00,0x00,0x0b,0x00,0x00,0x00,0x02,0x00,0x00,0x00,0x01,0x00,0x00,0x00,0x96,0xff,0xff,0xff,0x10,0x00,0x00,0x00,0x00,0x00,0x00,0x08,0x10,0x00,0x00,0x00,0x14,0x00,0x00,0x00,0x86,0xff,0xff,0xff,0x00,0x00,0x00,0x01,0x01,0x00,0x00,0x00,0x0b,0x00,0x00,0x00,0x03,0x00,0x00,0x00,0x0a,0x00,0x00,0x00,0x04,0x00,0x00,0x00,0x03,0x00,0x00,0x00,0xca,0xff,0xff,0xff,0x10,0x00,0x00,0x00,0x00,0x00,0x00,0x08,0x10,0x00,0x00,0x00,0x14,0x00,0x00,0x00,0xba,0xff,0xff,0xff,0x00,0x00,0x00,0x01,0x01,0x00,0x00,0x00,0x0a,0x00,0x00,0x00,0x03,0x00,0x00,0x00,0x09,0x00,0x00,0x00,0x06,0x00,0x00,0x00,0x05,0x00,0x00,0x00,0x00,0x00,0x0e,0x00,0x16,0x00,0x00,0x00,0x10,0x00,0x0c,0x00,0x0b,0x00,0x04,0x00,0x0e,0x00,0x00,0x00,0x18,0x00,0x00,0x00,0x00,0x00,0x00,0x08,0x18,0x00,0x00,0x00,0x1c,0x00,0x00,0x00,0x00,0x00,0x06,0x00,0x08,0x00,0x07,0x00,0x06,0x00,0x00,0x00,0x00,0x00,0x00,0x01,0x01,0x00,0x00,0x00,0x09,0x00,0x00,0x00,0x03,0x00,0x00,0x00,0x00,0x00,0x00,0x00,0x08,0x00,0x00,0x00,0x07,0x00,0x00,0x00,0x01,0x00,0x00,0x00,0x0c,0x00,0x00,0x00,0x01,0x00,0x00,0x00,0x00,0x00,0x00,0x00,0x0d,0x00,0x00,0x00,0x18,0x06,0x00,0x00,0xa0,0x05,0x00,0x00,0x24,0x05,0x00,0x00,0xc0,0x04,0x00,0x00,0x5c,0x04,0x00,0x00,0xf8,0x03,0x00,0x00,0x94,0x03,0x00,0x00,0x30,0x03,0x00,0x00,0xcc,0x02,0x00,0x00,0x08,0x02,0x00,0x00,0x44,0x01,0x00,0x00,0x80,0x00,0x00,0x00,0x04,0x00,0x00,0x00,0x32,0xfa,0xff,0xff,0x00,0x00,0x00,0x01,0x18,0x00,0x00,0x00,0x20,0x00,0x00,0x00,0x3c,0x00,0x00,0x00,0x0d,0x00,0x00,0x00,0x00,0x00,0x00,0x09,0x50,0x00,0x00,0x00,0x02,0x00,0x00,0x00,0xff,0xff,0xff,0xff,0x01,0x00,0x00,0x00,0x1c,0xfa,0xff,0xff,0x08,0x00,0x00,0x00,0x10,0x00,0x00,0x00,0x01,0x00,0x00,0x00,0x8b,0xff,0xff,0xff,0xff,0xff,0xff,0xff,0x01,0x00,0x00,0x00,0x8d,0xbc,0x8f,0x3e,0x1b,0x00,0x00,0x00,0x53,0x74,0x61,0x74,0x65,0x66,0x75,0x6c,0x50,0x61,0x72,0x74,0x69,0x74,0x69,0x6f,0x6e,0x65,0x64,0x43,0x61,0x6c,0x6c,0x5f,0x31,0x3a,0x30,0x00,0x02,0x00,0x00,0x00,0x01,0x00,0x00,0x00,0x01,0x00,0x00,0x00,0xaa,0xfa,0xff,0xff,0x00,0x00,0x00,0x01,0x18,0x00,0x00,0x00,0x20,0x00,0x00,0x00,0x40,0x00,0x00,0x00,0x0c,0x00,0x00,0x00,0x00,0x00,0x00,0x09,0x98,0x00,0x00,0x00,0x02,0x00,0x00,0x00,0xff,0xff,0xff,0xff,0x20,0x00,0x00,0x00,0x94,0xfa,0xff,0xff,0x08,0x00,0x00,0x00,0x14,0x00,0x00,0x00,0x01,0x00,0x00,0x00,0x80,0xff,0xff,0xff,0xff,0xff,0xff,0xff,0x00,0x00,0x00,0x00,0x01,0x00,0x00,0x00,0x58,0x31,0xae,0x3d,0x5e,0x00,0x00,0x00,0x73,0x65,0x71,0x75,0x65,0x6e,0x74,0x69,0x61,0x6c,0x5f,0x33,0x5f,0x31,0x2f,0x64,0x65,0x6e,0x73,0x65,0x5f,0x39,0x5f,0x31,0x2f,0x4d,0x61,0x74,0x4d,0x75,0x6c,0x3b,0x73,0x65,0x71,0x75,0x65,0x6e,0x74,0x69,0x61,0x6c,0x5f,0x33,0x5f,0x31,0x2f,0x64,0x65,0x6e,0x73,0x65,0x5f,0x39,0x5f,0x31,0x2f,0x52,0x65,0x6c,0x75,0x3b,0x73,0x65,0x71,0x75,0x65,0x6e,0x74,0x69,0x61,0x6c,0x5f,0x33,0x5f,0x31,0x2f,0x64,0x65,0x6e,0x73,0x65,0x5f,0x39,0x5f,0x31,0x2f,0x42,0x69,0x61,0x73,0x41,0x64,0x64,0x00,0x00,0x02,0x00,0x00,0x00,0x01,0x00,0x00,0x00,0x20,0x00,0x00,0x00,0x6a,0xfb,0xff,0xff,0x00,0x00,0x00,0x01,0x18,0x00,0x00,0x00,0x20,0x00,0x00,0x00,0x40,0x00,0x00,0x00,0x0b,0x00,0x00,0x00,0x00,0x00,0x00,0x09,0x98,0x00,0x00,0x00,0x02,0x00,0x00,0x00,0xff,0xff,0xff,0xff,0x20,0x00,0x00,0x00,0x54,0xfb,0xff,0xff,0x08,0x00,0x00,0x00,0x14,0x00,0x00,0x00,0x01,0x00,0x00,0x00,0x80,0xff,0xff,0xff,0xff,0xff,0xff,0xff,0x00,0x00,0x00,0x00,0x01,0x00,0x00,0x00,0x6c,0xaa,0x11,0x3d,0x5e,0x00,0x00,0x00,0x73,0x65,0x71,0x75,0x65,0x6e,0x74,0x69,0x61,0x6c,0x5f,0x33,0x5f,0x31,0x2f,0x64,0x65,0x6e,0x73,0x65,0x5f,0x38,0x5f,0x31,0x2f,0x4d,0x61,0x74,0x4d,0x75,0x6c,0x3b,0x73,0x65,0x71,0x75,0x65,0x6e,0x74,0x69,0x61,0x6c,0x5f,0x33,0x5f,0x31,0x2f,0x64,0x65,0x6e,0x73,0x65,0x5f,0x38,0x5f,0x31,0x2f,0x52,0x65,0x6c,0x75,0x3b,0x73,0x65,0x71,0x75,0x65,0x6e,0x74,0x69,0x61,0x6c,0x5f,0x33,0x5f,0x31,0x2f,0x64,0x65,0x6e,0x73,0x65,0x5f,0x38,0x5f,0x31,0x2f,0x42,0x69,0x61,0x73,0x41,0x64,0x64,0x00,0x00,0x02,0x00,0x00,0x00,0x01,0x00,0x00,0x00,0x20,0x00,0x00,0x00,0x2a,0xfc,0xff,0xff,0x00,0x00,0x00,0x01,0x18,0x00,0x00,0x00,0x20,0x00,0x00,0x00,0x40,0x00,0x00,0x00,0x0a,0x00,0x00,0x00,0x00,0x00,0x00,0x09,0x98,0x00,0x00,0x00,0x02,0x00,0x00,0x00,0xff,0xff,0xff,0xff,0x20,0x00,0x00,0x00,0x14,0xfc,0xff,0xff,0x08,0x00,0x00,0x00,0x14,0x00,0x00,0x00,0x01,0x00,0x00,0x00,0x80,0xff,0xff,0xff,0xff,0xff,0xff,0xff,0x00,0x00,0x00,0x00,0x01,0x00,0x00,0x00,0x74,0xb3,0xa1,0x3c,0x5e,0x00,0x00,0x00,0x73,0x65,0x71,0x75,0x65,0x6e,0x74,0x69,0x61,0x6c,0x5f,0x33,0x5f,0x31,0x2f,0x64,0x65,0x6e,0x73,0x65,0x5f,0x37,0x5f,0x31,0x2f,0x4d,0x61,0x74,0x4d,0x75,0x6c,0x3b,0x73,0x65,0x71,0x75,0x65,0x6e,0x74,0x69,0x61,0x6c,0x5f,0x33,0x5f,0x31,0x2f,0x64,0x65,0x6e,0x73,0x65,0x5f,0x37,0x5f,0x31,0x2f,0x52,0x65,0x6c,0x75,0x3b,0x73,0x65,0x71,0x75,0x65,0x6e,0x74,0x69,0x61,0x6c,0x5f,0x33,0x5f,0x31,0x2f,0x64,0x65,0x6e,0x73,0x65,0x5f,0x37,0x5f,0x31,0x2f,0x42,0x69,0x61,0x73,0x41,0x64,0x64,0x00,0x00,0x02,0x00,0x00,0x00,0x01,0x00,0x00,0x00,0x20,0x00,0x00,0x00,0x5e,0xfd,0xff,0xff,0x00,0x00,0x00,0x01,0x14,0x00,0x00,0x00,0x30,0x00,0x00,0x00,0x09,0x00,0x00,0x00,0x00,0x00,0x00,0x09,0x3c,0x00,0x00,0x00,0xc4,0xfc,0xff,0xff,0x08,0x00,0x00,0x00,0x10,0x00,0x00,0x00,0x01,0x00,0x00,0x00,0x00,0x00,0x00,0x00,0x00,0x00,0x00,0x00,0x01,0x00,0x00,0x00,0xd0,0x72,0x83,0x3b,0x12,0x00,0x00,0x00,0x74,0x66,0x6c,0x2e,0x70,0x73,0x65,0x75,0x64,0x6f,0x5f,0x71,0x63,0x6f,0x6e,0x73,0x74,0x37,0x00,0x00,0x02,0x00,0x00,0x00,0x20,0x00,0x00,0x00,0x01,0x00,0x00,0x00,0xbe,0xfd,0xff,0xff,0x00,0x00,0x00,0x01,0x14,0x00,0x00,0x00,0x34,0x00,0x00,0x00,0x08,0x00,0x00,0x00,0x00,0x00,0x00,0x02,0x40,0x00,0x00,0x00,0x24,0xfd,0xff,0xff,0x08,0x00,0x00,0x00,0x14,0x00,0x00,0x00,0x01,0x00,0x00,0x00,0x00,0x00,0x00,0x00,0x00,0x00,0x00,0x00,0x00,0x00,0x00,0x00,0x01,0x00,0x00,0x00,0x79,0xf4,0xa4,0x39,0x12,0x00,0x00,0x00,0x74,0x66,0x6c,0x2e,0x70,0x73,0x65,0x75,0x64,0x6f,0x5f,0x71,0x63,0x6f,0x6e,0x73,0x74,0x36,0x00,0x00,0x01,0x00,0x00,0x00,0x20,0x00,0x00,0x00,0x1e,0xfe,0xff,0xff,0x00,0x00,0x00,0x01,0x14,0x00,0x00,0x00,0x30,0x00,0x00,0x00,0x07,0x00,0x00,0x00,0x00,0x00,0x00,0x09,0x3c,0x00,0x00,0x00,0x84,0xfd,0xff,0xff,0x08,0x00,0x00,0x00,0x10,0x00,0x00,0x00,0x01,0x00,0x00,0x00,0x00,0x00,0x00,0x00,0x00,0x00,0x00,0x00,0x01,0x00,0x00,0x00,0xf3,0x9c,0x0d,0x3c,0x12,0x00,0x00,0x00,0x74,0x66,0x6c,0x2e,0x70,0x73,0x65,0x75,0x64,0x6f,0x5f,0x71,0x63,0x6f,0x6e,0x73,0x74,0x35,0x00,0x00,0x02,0x00,0x00,0x00,0x20,0x00,0x00,0x00,0x20,0x00,0x00,0x00,0x7e,0xfe,0xff,0xff,0x00,0x00,0x00,0x01,0x14,0x00,0x00,0x00,0x34,0x00,0x00,0x00,0x06,0x00,0x00,0x00,0x00,0x00,0x00,0x02,0x40,0x00,0x00,0x00,0xe4,0xfd,0xff,0xff,0x08,0x00,0x00,0x00,0x14,0x00,0x00,0x00,0x01,0x00,0x00,0x00,0x00,0x00,0x00,0x00,0x00,0x00,0x00,0x00,0x00,0x00,0x00,0x00,0x01,0x00,0x00,0x00,0xf3,0xe5,0x32,0x39,0x12,0x00,0x00,0x00,0x74,0x66,0x6c,0x2e,0x70,0x73,0x65,0x75,0x64,0x6f,0x5f,0x71,0x63,0x6f,0x6e,0x73,0x74,0x34,0x00,0x00,0x01,0x00,0x00,0x00,0x20,0x00,0x00,0x00,0xde,0xfe,0xff,0xff,0x00,0x00,0x00,0x01,0x14,0x00,0x00,0x00,0x30,0x00,0x00,0x00,0x05,0x00,0x00,0x00,0x00,0x00,0x00,0x09,0x3c,0x00,0x00,0x00,0x44,0xfe,0xff,0xff,0x08,0x00,0x00,0x00,0x10,0x00,0x00,0x00,0x01,0x00,0x00,0x00,0x00,0x00,0x00,0x00,0x00,0x00,0x00,0x00,0x01,0x00,0x00,0x00,0x5c,0xbc,0x1d,0x3c,0x12,0x00,0x00,0x00,0x74,0x66,0x6c,0x2e,0x70,0x73,0x65,0x75,0x64,0x6f,0x5f,0x71,0x63,0x6f,0x6e,0x73,0x74,0x33,0x00,0x00,0x02,0x00,0x00,0x00,0x20,0x00,0x00,0x00,0x20,0x00,0x00,0x00,0x3e,0xff,0xff,0xff,0x00,0x00,0x00,0x01,0x14,0x00,0x00,0x00,0x34,0x00,0x00,0x00,0x04,0x00,0x00,0x00,0x00,0x00,0x00,0x02,0x40,0x00,0x00,0x00,0xa4,0xfe,0xff,0xff,0x08,0x00,0x00,0x00,0x14,0x00,0x00,0x00,0x01,0x00,0x00,0x00,0x00,0x00,0x00,0x00,0x00,0x00,0x00,0x00,0x00,0x00,0x00,0x00,0x01,0x00,0x00,0x00,0x63,0x81,0xb3,0x39,0x12,0x00,0x00,0x00,0x74,0x66,0x6c,0x2e,0x70,0x73,0x65,0x75,0x64,0x6f,0x5f,0x71,0x63,0x6f,0x6e,0x73,0x74,0x32,0x00,0x00,0x01,0x00,0x00,0x00,0x20,0x00,0x00,0x00,0x9e,0xff,0xff,0xff,0x00,0x00,0x00,0x01,0x14,0x00,0x00,0x00,0x30,0x00,0x00,0x00,0x03,0x00,0x00,0x00,0x00,0x00,0x00,0x09,0x3c,0x00,0x00,0x00,0x04,0xff,0xff,0xff,0x08,0x00,0x00,0x00,0x10,0x00,0x00,0x00,0x01,0x00,0x00,0x00,0x00,0x00,0x00,0x00,0x00,0x00,0x00,0x00,0x01,0x00,0x00,0x00,0xb4,0x37,0x07,0x3c,0x12,0x00,0x00,0x00,0x74,0x66,0x6c,0x2e,0x70,0x73,0x65,0x75,0x64,0x6f,0x5f,0x71,0x63,0x6f,0x6e,0x73,0x74,0x31,0x00,0x00,0x02,0x00,0x00,0x00,0x01,0x00,0x00,0x00,0x20,0x00,0x00,0x00,0x00,0x00,0x16,0x00,0x1c,0x00,0x18,0x00,0x17,0x00,0x10,0x00,0x0c,0x00,0x08,0x00,0x00,0x00,0x00,0x00,0x00,0x00,0x07,0x00,0x16,0x00,0x00,0x00,0x00,0x00,0x00,0x01,0x14,0x00,0x00,0x00,0x30,0x00,0x00,0x00,0x02,0x00,0x00,0x00,0x00,0x00,0x00,0x02,0x3c,0x00,0x00,0x00,0x7c,0xff,0xff,0xff,0x08,0x00,0x00,0x00,0x10,0x00,0x00,0x00,0x01,0x00,0x00,0x00,0x00,0x00,0x00,0x00,0x00,0x00,0x00,0x00,0x01,0x00,0x00,0x00,0xd9,0x03,0x38,0x3a,0x11,0x00,0x00,0x00,0x74,0x66,0x6c,0x2e,0x70,0x73,0x65,0x75,0x64,0x6f,0x5f,0x71,0x63,0x6f,0x6e,0x73,0x74,0x00,0x00,0x00,0x01,0x00,0x00,0x00,0x01,0x00,0x00,0x00,0x00,0x00,0x16,0x00,0x20,0x00,0x1c,0x00,0x1b,0x00,0x14,0x00,0x10,0x00,0x0c,0x00,0x00,0x00,0x00,0x00,0x08,0x00,0x07,0x00,0x16,0x00,0x00,0x00,0x00,0x00,0x00,0x01,0x18,0x00,0x00,0x00,0x2c,0x00,0x00,0x00,0x4c,0x00,0x00,0x00,0x01,0x00,0x00,0x00,0x00,0x00,0x00,0x09,0x64,0x00,0x00,0x00,0x02,0x00,0x00,0x00,0xff,0xff,0xff,0xff,0x01,0x00,0x00,0x00,0x0c,0x00,0x0c,0x00,0x00,0x00,0x00,0x00,0x08,0x00,0x04,0x00,0x0c,0x00,0x00,0x00,0x08,0x00,0x00,0x00,0x14,0x00,0x00,0x00,0x01,0x00,0x00,0x00,0xff,0xff,0xff,0xff,0xff,0xff,0xff,0xff,0x00,0x00,0x00,0x00,0x01,0x00,0x00,0x00,0xa1,0xa0,0xa0,0x3d,0x1f,0x00,0x00,0x00,0x73,0x65,0x72,0x76,0x69,0x6e,0x67,0x5f,0x64,0x65,0x66,0x61,0x75,0x6c,0x74,0x5f,0x69,0x6e,0x70,0x75,0x74,0x5f,0x6c,0x61,0x79,0x65,0x72,0x5f,0x33,0x3a,0x30,0x00,0x02,0x00,0x00,0x00,0x01,0x00,0x00,0x00,0x01,0x00,0x00,0x00,0x01,0x00,0x00,0x00,0x10,0x00,0x00,0x00,0x0c,0x00,0x10,0x00,0x0f,0x00,0x00,0x00,0x08,0x00,0x04,0x00,0x0c,0x00,0x00,0x00,0x09,0x00,0x00,0x00,0x04,0x00,0x00,0x00,0x00,0x00,0x00,0x09};
const unsigned int g_kasus_b_nl_model_3_int8_model_data_len = 5272;

#endif // G_KASUS_B_NL_MODEL_3_INT8_H
