// File ini dibuat secara otomatis
#ifndef G_KASUS_C_MODEL_1_FLOAT_H
#define G_KASUS_C_MODEL_1_FLOAT_H

// Model: Kasus C Model 1 Float
// 1L, 8N, float32
// Size: 2360 bytes (2.30 KB)
const unsigned char g_kasus_c_model_1_float_model_data[] = {0x1c,0x00,0x00,0x00,0x54,0x46,0x4c,0x33,0x14,0x00,0x20,0x00,0x1c,0x00,0x18,0x00,0x14,0x00,0x10,0x00,0x0c,0x00,0x00,0x00,0x08,0x00,0x04,0x00,0x14,0x00,0x00,0x00,0x1c,0x00,0x00,0x00,0x8c,0x00,0x00,0x00,0xe4,0x00,0x00,0x00,0x88,0x04,0x00,0x00,0x98,0x04,0x00,0x00,0xd4,0x08,0x00,0x00,0x03,0x00,0x00,0x00,0x01,0x00,0x00,0x00,0x04,0x00,0x00,0x00,0x2e,0xfb,0xff,0xff,0x0c,0x00,0x00,0x00,0x1c,0x00,0x00,0x00,0x3c,0x00,0x00,0x00,0x0f,0x00,0x00,0x00,0x73,0x65,0x72,0x76,0x69,0x6e,0x67,0x5f,0x64,0x65,0x66,0x61,0x75,0x6c,0x74,0x00,0x01,0x00,0x00,0x00,0x04,0x00,0x00,0x00,0x90,0xff,0xff,0xff,0x07,0x00,0x00,0x00,0x04,0x00,0x00,0x00,0x08,0x00,0x00,0x00,0x6f,0x75,0x74,0x70,0x75,0x74,0x5f,0x30,0x00,0x00,0x00,0x00,0x01,0x00,0x00,0x00,0x04,0x00,0x00,0x00,0x1a,0xfc,0xff,0xff,0x04,0x00,0x00,0x00,0x0d,0x00,0x00,0x00,0x69,0x6e,0x70,0x75,0x74,0x5f,0x6c,0x61,0x79,0x65,0x72,0x5f,0x31,0x00,0x00,0x00,0x02,0x00,0x00,0x00,0x34,0x00,0x00,0x00,0x04,0x00,0x00,0x00,0xdc,0xff,0xff,0xff,0x0a,0x00,0x00,0x00,0x04,0x00,0x00,0x00,0x13,0x00,0x00,0x00,0x43,0x4f,0x4e,0x56,0x45,0x52,0x53,0x49,0x4f,0x4e,0x5f,0x4d,0x45,0x54,0x41,0x44,0x41,0x54,0x41,0x00,0x08,0x00,0x0c,0x00,0x08,0x00,0x04,0x00,0x08,0x00,0x00,0x00,0x09,0x00,0x00,0x00,0x04,0x00,0x00,0x00,0x13,0x00,0x00,0x00,0x6d,0x69,0x6e,0x5f,0x72,0x75,0x6e,0x74,0x69,0x6d,0x65,0x5f,0x76,0x65,0x72,0x73,0x69,0x6f,0x6e,0x00,0x0b,0x00,0x00,0x00,0xa0,0x03,0x00,0x00,0x98,0x03,0x00,0x00,0x68,0x03,0x00,0x00,0x4c,0x03,0x00,0x00,0x1c,0x03,0x00,0x00,0xac,0x00,0x00,0x00,0xa4,0x00,0x00,0x00,0x9c,0x00,0x00,0x00,0x94,0x00,0x00,0x00,0x74,0x00,0x00,0x00,0x04,0x00,0x00,0x00,0xc2,0xfc,0xff,0xff,0x04,0x00,0x00,0x00,0x60,0x00,0x00,0x00,0x10,0x00,0x00,0x00,0x00,0x00,0x00,0x00,0x08,0x00,0x0e,0x00,0x08,0x00,0x04,0x00,0x08,0x00,0x00,0x00,0x10,0x00,0x00,0x00,0x24,0x00,0x00,0x00,0x00,0x00,0x06,0x00,0x08,0x00,0x04,0x00,0x06,0x00,0x00,0x00,0x04,0x00,0x00,0x00,0x00,0x00,0x00,0x00,0x0c,0x00,0x18,0x00,0x14,0x00,0x10,0x00,0x0c,0x00,0x04,0x00,0x0c,0x00,0x00,0x00,0x55,0xc7,0x49,0x0d,0x30,0x7b,0xc5,0x7d,0x02,0x00,0x00,0x00,0x02,0x00,0x00,0x00,0x04,0x00,0x00,0x00,0x06,0x00,0x00,0x00,0x32,0x2e,0x31,0x38,0x2e,0x30,0x00,0x00,0x2e,0xfd,0xff,0xff,0x04,0x00,0x00,0x00,0x10,0x00,0x00,0x00,0x31,0x2e,0x31,0x34,0x2e,0x30,0x00,0x00,0x00,0x00,0x00,0x00,0x00,0x00,0x00,0x00,0xf4,0xf8,0xff,0xff,0xf8,0xf8,0xff,0xff,0xfc,0xf8,0xff,0xff,0x56,0xfd,0xff,0xff,0x04,0x00,0x00,0x00,0x60,0x02,0x00,0x00,0x50,0x6a,0xc5,0xbe,0x03,0x4a,0x72,0x3d,0x7f,0x72,0xe0,0xbe,0x1e,0x71,0x1b,0xbf,0x1e,0x0f,0xdf,0xbe,0x4f,0x88,0x75,0xbe,0x33,0x11,0x17,0x3e,0x57,0x47,0x8d,0xbe,0xa7,0x93,0xe6,0x3d,0x60,0xe9,0xbf,0x3e,0x22,0x27,0x93,0xbe,0xba,0x47,0x9b,0xbe,0x6e,0xb2,0x71,0xbd,0x52,0x28,0xfb,0xbe,0x71,0x81,0x83,0xbd,0x3d,0xd2,0x9f,0x3d,0x9e,0xe7,0x2f,0x3e,0x7a,0xd2,0x72,0xbc,0xf6,0xd9,0x85,0x3d,0xc5,0xe3,0xb7,0x3e,0x53,0xf0,0xfa,0x3b,0xf1,0x21,0x3a,0xbe,0x08,0x4b,0x01,0xbf,0xca,0xfa,0xb9,0xbe,0x56,0x21,0xa6,0xbd,0x5f,0x57,0x53,0x3e,0x9b,0x89,0x92,0x3e,0xb5,0xe0,0xf0,0xbd,0x1d,0xe9,0xcf,0x3d,0x60,0x9e,0x15,0x3f,0xc1,0xd6,0xe6,0xbc,0x1d,0x25,0x21,0xbc,0x5f,0x1d,0x93,0xbe,0x61,0x8a,0xc0,0x3e,0x60,0x97,0x4e,0x3e,0x7d,0xab,0xa7,0xbd,0x0d,0x39,0x91,0x3e,0x4d,0x7e,0x0d,0xbe,0x72,0xa6,0xd5,0xbd,0x88,0x0b,0x3c,0xbe,0x26,0x31,0xc4,0x3e,0xba,0x75,0xf9,0xbe,0xc8,0x3d,0xb3,0xbe,0x07,0xe4,0xb8,0xbd,0x05,0xdc,0xf1,0xbe,0x5c,0xf0,0xb5,0x3d,0x34,0xdb,0x0a,0x3e,0xb2,0xb7,0xbb,0x3d,0x7b,0x0d,0x71,0xbe,0x14,0x56,0x9c,0xbe,0x4d,0x54,0x49,0xbd,0x53,0xa8,0x27,0xbf,0xbd,0xf5,0xc9,0x3e,0x2e,0xb5,0x9d,0xbe,0x6d,0x17,0x47,0xbe,0x01,0xfd,0x96,0x3e,0x2d,0x12,0x0e,0x3f,0xe0,0x73,0x59,0x3d,0x77,0xb5,0x0f,0xbe,0x81,0x49,0xbe,0xbe,0x97,0x2f,0xce,0x3d,0x03,0x63,0x1d,0xbe,0x2b,0xe1,0x1c,0x3e,0x9a,0x6c,0x21,0x3d,0xc3,0x5e,0xb4,0x3e,0x7c,0x4b,0x17,0xbe,0xbc,0x5d,0xd9,0xbe,0xc9,0x36,0xd6,0xbe,0xaa,0xb5,0x63,0xbd,0x67,0xe2,0x6e,0xbd,0xcf,0xdc,0x2f,0x3f,0x8e,0x52,0x46,0x3d,0x7b,0x39,0x57,0xbe,0x77,0x2f,0x51,0xbe,0x47,0x87,0x08,0xbe,0xf7,0x5c,0xc5,0xbe,0x14,0x8a,0x21,0x3c,0x86,0xda,0x78,0xbe,0x3b,0x4e,0xdf,0x3e,0x92,0x7a,0x14,0xbf,0x5b,0xf5,0xda,0xbd,0x5b,0x47,0x93,0x3d,0x08,0x96,0xdf,0x3d,0x9b,0xea,0xcb,0x3d,0x6c,0x53,0x8f,0x3e,0x6e,0x19,0x94,0xbd,0x93,0x9d,0x29,0xbe,0xab,0x9e,0x8f,0x3e,0x7f,0xc9,0x61,0x3e,0x89,0x87,0x17,0xbf,0xe7,0xcb,0x38,0x3f,0x4e,0x08,0xc3,0x3d,0xe6,0xe0,0xe8,0xbe,0xf0,0x67,0x13,0xbf,0x99,0x73,0x7e,0xbd,0x08,0x11,0x91,0x3e,0x9c,0xe7,0x6f,0xbc,0x12,0xeb,0x83,0x3d,0x9f,0xeb,0x2e,0xbc,0x47,0x11,0xa7,0x3e,0x24,0xa6,0x78,0xbe,0x9d,0xeb,0xce,0x3e,0xfd,0x78,0xe0,0x3e,0xec,0x55,0x9e,0xbe,0xfe,0xb1,0x94,0x3e,0x15,0x7b,0x67,0xbe,0x9d,0xea,0x56,0xbd,0x7d,0xee,0x07,0xbf,0x7e,0xdb,0xe7,0xbc,0xea,0xe3,0x20,0x3e,0x4e,0x1c,0x4a,0x3e,0x5e,0xd3,0xef,0x3e,0x7a,0xce,0x14,0x3f,0x7b,0x93,0x60,0xbe,0x1f,0x16,0xd5,0x3e,0xbe,0xe5,0x1b,0x3f,0x90,0xe3,0x83,0x3e,0x7d,0xd3,0x2a,0x3f,0x5b,0x2f,0x6c,0x3e,0x9e,0xee,0x08,0x3f,0x1e,0x0e,0x2c,0x3d,0xd8,0xcc,0xb8,0x3e,0x55,0x8a,0x16,0xbd,0xa3,0x7c,0x25,0x3e,0x0f,0x32,0xab,0x3d,0xde,0x21,0x19,0xbf,0x30,0x4b,0x35,0xbc,0x23,0xa1,0x09,0xbe,0x96,0x56,0x9e,0xbe,0xbc,0xe7,0xca,0x3e,0x40,0x7e,0x07,0x3f,0x33,0x66,0xe2,0xbd,0x3c,0xab,0xb8,0xbd,0x7d,0xbb,0x0d,0x3f,0x0c,0x03,0x00,0xbd,0x23,0xa0,0xf6,0xbd,0xe9,0x40,0x5a,0x3e,0x8d,0x59,0x52,0x3c,0x2d,0xdf,0xdd,0x3e,0xbd,0xf6,0x0f,0x3f,0xb7,0xfc,0x85,0x3d,0x52,0x0a,0xbb,0xbe,0x50,0x8e,0x11,0xbe,0xef,0x9c,0x57,0xbe,0xca,0xbd,0xcd,0xbe,0x2e,0x4b,0xc4,0xbe,0x2c,0xb6,0x92,0x3e,0x16,0x5a,0x44,0xbf,0x4b,0x89,0x23,0x3c,0x26,0xee,0xdb,0x3e,0x49,0xed,0x0e,0x3f,0xeb,0xc3,0x6e,0x3e,0xc2,0xff,0xff,0xff,0x04,0x00,0x00,0x00,0x20,0x00,0x00,0x00,0xbb,0xe0,0x7c,0x3d,0xe6,0xe3,0x45,0x3d,0x0a,0xca,0x66,0x3e,0x12,0x8b,0x75,0x3d,0xdb,0x82,0x88,0x3e,0xe1,0x5d,0x4e,0x3e,0x90,0x65,0x8d,0x3e,0x51,0xfb,0x9c,0x3e,0xee,0xff,0xff,0xff,0x04,0x00,0x00,0x00,0x04,0x00,0x00,0x00,0xee,0xe7,0xa5,0x3d,0x00,0x00,0x06,0x00,0x08,0x00,0x04,0x00,0x06,0x00,0x00,0x00,0x04,0x00,0x00,0x00,0x20,0x00,0x00,0x00,0x44,0xbc,0x43,0xbf,0xc0,0xb0,0x2e,0xbf,0x89,0x92,0x75,0xbf,0x07,0x95,0x20,0x3f,0x8e,0x52,0xf3,0xbe,0x2b,0x6b,0x08,0x3f,0xc5,0xb8,0x13,0x3f,0xbd,0x16,0xc5,0x3e,0xdc,0xfb,0xff,0xff,0xe0,0xfb,0xff,0xff,0x0f,0x00,0x00,0x00,0x4d,0x4c,0x49,0x52,0x20,0x43,0x6f,0x6e,0x76,0x65,0x72,0x74,0x65,0x64,0x2e,0x00,0x01,0x00,0x00,0x00,0x14,0x00,0x00,0x00,0x00,0x00,0x0e,0x00,0x18,0x00,0x14,0x00,0x10,0x00,0x0c,0x00,0x08,0x00,0x04,0x00,0x0e,0x00,0x00,0x00,0x14,0x00,0x00,0x00,0x1c,0x00,0x00,0x00,0xd0,0x00,0x00,0x00,0xd4,0x00,0x00,0x00,0xd8,0x00,0x00,0x00,0x04,0x00,0x00,0x00,0x6d,0x61,0x69,0x6e,0x00,0x00,0x00,0x00,0x03,0x00,0x00,0x00,0x78,0x00,0x00,0x00,0x34,0x00,0x00,0x00,0x10,0x00,0x00,0x00,0x00,0x00,0x0a,0x00,0x10,0x00,0x0c,0x00,0x08,0x00,0x04,0x00,0x0a,0x00,0x00,0x00,0x0c,0x00,0x00,0x00,0x10,0x00,0x00,0x00,0x01,0x00,0x00,0x00,0x01,0x00,0x00,0x00,0x07,0x00,0x00,0x00,0x01,0x00,0x00,0x00,0x06,0x00,0x00,0x00,0xce,0xff,0xff,0xff,0x10,0x00,0x00,0x00,0x00,0x00,0x00,0x08,0x0c,0x00,0x00,0x00,0x10,0x00,0x00,0x00,0x84,0xfc,0xff,0xff,0x01,0x00,0x00,0x00,0x06,0x00,0x00,0x00,0x03,0x00,0x00,0x00,0x05,0x00,0x00,0x00,0x01,0x00,0x00,0x00,0x02,0x00,0x00,0x00,0x00,0x00,0x0e,0x00,0x16,0x00,0x00,0x00,0x10,0x00,0x0c,0x00,0x0b,0x00,0x04,0x00,0x0e,0x00,0x00,0x00,0x18,0x00,0x00,0x00,0x00,0x00,0x00,0x08,0x18,0x00,0x00,0x00,0x1c,0x00,0x00,0x00,0x00,0x00,0x06,0x00,0x08,0x00,0x07,0x00,0x06,0x00,0x00,0x00,0x00,0x00,0x00,0x01,0x01,0x00,0x00,0x00,0x05,0x00,0x00,0x00,0x03,0x00,0x00,0x00,0x00,0x00,0x00,0x00,0x04,0x00,0x00,0x00,0x03,0x00,0x00,0x00,0x01,0x00,0x00,0x00,0x07,0x00,0x00,0x00,0x01,0x00,0x00,0x00,0x00,0x00,0x00,0x00,0x08,0x00,0x00,0x00,0xd8,0x02,0x00,0x00,0x80,0x02,0x00,0x00,0x2c,0x02,0x00,0x00,0xd0,0x01,0x00,0x00,0x80,0x01,0x00,0x00,0xe0,0x00,0x00,0x00,0x60,0x00,0x00,0x00,0x04,0x00,0x00,0x00,0x5e,0xfd,0xff,0xff,0x00,0x00,0x00,0x01,0x14,0x00,0x00,0x00,0x1c,0x00,0x00,0x00,0x1c,0x00,0x00,0x00,0x08,0x00,0x00,0x00,0x34,0x00,0x00,0x00,0x02,0x00,0x00,0x00,0xff,0xff,0xff,0xff,0x01,0x00,0x00,0x00,0x48,0xfd,0xff,0xff,0x1b,0x00,0x00,0x00,0x53,0x74,0x61,0x74,0x65,0x66,0x75,0x6c,0x50,0x61,0x72,0x74,0x69,0x74,0x69,0x6f,0x6e,0x65,0x64,0x43,0x61,0x6c,0x6c,0x5f,0x31,0x3a,0x30,0x00,0x02,0x00,0x00,0x00,0x01,0x00,0x00,0x00,0x01,0x00,0x00,0x00,0xb6,0xfd,0xff,0xff,0x00,0x00,0x00,0x01,0x14,0x00,0x00,0x00,0x1c,0x00,0x00,0x00,0x1c,0x00,0x00,0x00,0x07,0x00,0x00,0x00,0x58,0x00,0x00,0x00,0x02,0x00,0x00,0x00,0xff,0xff,0xff,0xff,0x01,0x00,0x00,0x00,0xa0,0xfd,0xff,0xff,0x3c,0x00,0x00,0x00,0x73,0x65,0x71,0x75,0x65,0x6e,0x74,0x69,0x61,0x6c,0x5f,0x31,0x5f,0x31,0x2f,0x64,0x65,0x6e,0x73,0x65,0x5f,0x33,0x5f,0x31,0x2f,0x4d,0x61,0x74,0x4d,0x75,0x6c,0x3b,0x73,0x65,0x71,0x75,0x65,0x6e,0x74,0x69,0x61,0x6c,0x5f,0x31,0x5f,0x31,0x2f,0x64,0x65,0x6e,0x73,0x65,0x5f,0x33,0x5f,0x31,0x2f,0x41,0x64,0x64,0x00,0x00,0x00,0x00,0x02,0x00,0x00,0x00,0x01,0x00,0x00,0x00,0x01,0x00,0x00,0x00,0x32,0xfe,0xff,0xff,0x00,0x00,0x00,0x01,0x14,0x00,0x00,0x00,0x1c,0x00,0x00,0x00,0x1c,0x00,0x00,0x00,0x06,0x00,0x00,0x00,0x78,0x00,0x00,0x00,0x02,0x00,0x00,0x00,0xff,0xff,0xff,0xff,0x08,0x00,0x00,0x00,0x1c,0xfe,0xff,0xff,0x5e,0x00,0x00,0x00,0x73,0x65,0x71,0x75,0x65,0x6e,0x74,0x69,0x61,0x6c,0x5f,0x31,0x5f,0x31,0x2f,0x64,0x65,0x6e,0x73,0x65,0x5f,0x32,0x5f,0x31,0x2f,0x4d,0x61,0x74,0x4d,0x75,0x6c,0x3b,0x73,0x65,0x71,0x75,0x65,0x6e,0x74,0x69,0x61,0x6c,0x5f,0x31,0x5f,0x31,0x2f,0x64,0x65,0x6e,0x73,0x65,0x5f,0x32,0x5f,0x31,0x2f,0x52,0x65,0x6c,0x75,0x3b,0x73,0x65,0x71,0x75,0x65,0x6e,0x74,0x69,0x61,0x6c,0x5f,0x31,0x5f,0x31,0x2f,0x64,0x65,0x6e,0x73,0x65,0x5f,0x32,0x5f,0x31,0x2f,0x42,0x69,0x61,0x73,0x41,0x64,0x64,0x00,0x00,0x02,0x00,0x00,0x00,0x01,0x00,0x00,0x00,0x08,0x00,0x00,0x00,0x22,0xff,0xff,0xff,0x00,0x00,0x00,0x01,0x10,0x00,0x00,0x00,0x10,0x00,0x00,0x00,0x05,0x00,0x00,0x00,0x2c,0x00,0x00,0x00,0xa8,0xfe,0xff,0xff,0x1f,0x00,0x00,0x00,0x73,0x65,0x71,0x75,0x65,0x6e,0x74,0x69,0x61,0x6c,0x5f,0x31,0x5f,0x31,0x2f,0x64,0x65,0x6e,0x73,0x65,0x5f,0x32,0x5f,0x31,0x2f,0x4d,0x61,0x74,0x4d,0x75,0x6c,0x00,0x02,0x00,0x00,0x00,0x08,0x00,0x00,0x00,0x13,0x00,0x00,0x00,0x6e,0xff,0xff,0xff,0x00,0x00,0x00,0x01,0x10,0x00,0x00,0x00,0x10,0x00,0x00,0x00,0x04,0x00,0x00,0x00,0x3c,0x00,0x00,0x00,0xf4,0xfe,0xff,0xff,0x2f,0x00,0x00,0x00,0x73,0x65,0x71,0x75,0x65,0x6e,0x74,0x69,0x61,0x6c,0x5f,0x31,0x5f,0x31,0x2f,0x64,0x65,0x6e,0x73,0x65,0x5f,0x32,0x5f,0x31,0x2f,0x42,0x69,0x61,0x73,0x41,0x64,0x64,0x2f,0x52,0x65,0x61,0x64,0x56,0x61,0x72,0x69,0x61,0x62,0x6c,0x65,0x4f,0x70,0x00,0x01,0x00,0x00,0x00,0x08,0x00,0x00,0x00,0xc6,0xff,0xff,0xff,0x00,0x00,0x00,0x01,0x10,0x00,0x00,0x00,0x10,0x00,0x00,0x00,0x03,0x00,0x00,0x00,0x1c,0x00,0x00,0x00,0x4c,0xff,0xff,0xff,0x0f,0x00,0x00,0x00,0x61,0x72,0x69,0x74,0x68,0x2e,0x63,0x6f,0x6e,0x73,0x74,0x61,0x6e,0x74,0x31,0x00,0x01,0x00,0x00,0x00,0x01,0x00,0x00,0x00,0x00,0x00,0x16,0x00,0x18,0x00,0x14,0x00,0x00,0x00,0x10,0x00,0x0c,0x00,0x08,0x00,0x00,0x00,0x00,0x00,0x00,0x00,0x07,0x00,0x16,0x00,0x00,0x00,0x00,0x00,0x00,0x01,0x10,0x00,0x00,0x00,0x10,0x00,0x00,0x00,0x02,0x00,0x00,0x00,0x1c,0x00,0x00,0x00,0x9c,0xff,0xff,0xff,0x0e,0x00,0x00,0x00,0x61,0x72,0x69,0x74,0x68,0x2e,0x63,0x6f,0x6e,0x73,0x74,0x61,0x6e,0x74,0x00,0x00,0x02,0x00,0x00,0x00,0x01,0x00,0x00,0x00,0x08,0x00,0x00,0x00,0x00,0x00,0x16,0x00,0x1c,0x00,0x18,0x00,0x00,0x00,0x14,0x00,0x10,0x00,0x0c,0x00,0x00,0x00,0x00,0x00,0x08,0x00,0x07,0x00,0x16,0x00,0x00,0x00,0x00,0x00,0x00,0x01,0x14,0x00,0x00,0x00,0x20,0x00,0x00,0x00,0x20,0x00,0x00,0x00,0x01,0x00,0x00,0x00,0x3c,0x00,0x00,0x00,0x02,0x00,0x00,0x00,0xff,0xff,0xff,0xff,0x13,0x00,0x00,0x00,0x04,0x00,0x04,0x00,0x04,0x00,0x00,0x00,0x1f,0x00,0x00,0x00,0x73,0x65,0x72,0x76,0x69,0x6e,0x67,0x5f,0x64,0x65,0x66,0x61,0x75,0x6c,0x74,0x5f,0x69,0x6e,0x70,0x75,0x74,0x5f,0x6c,0x61,0x79,0x65,0x72,0x5f,0x31,0x3a,0x30,0x00,0x02,0x00,0x00,0x00,0x01,0x00,0x00,0x00,0x13,0x00,0x00,0x00,0x02,0x00,0x00,0x00,0x20,0x00,0x00,0x00,0x04,0x00,0x00,0x00,0xf4,0xff,0xff,0xff,0x0e,0x00,0x00,0x00,0x00,0x00,0x00,0x0e,0x0c,0x00,0x0c,0x00,0x0b,0x00,0x00,0x00,0x00,0x00,0x04,0x00,0x0c,0x00,0x00,0x00,0x09,0x00,0x00,0x00,0x00,0x00,0x00,0x09};
const unsigned int g_kasus_c_model_1_float_model_data_len = 2360;

#endif // G_KASUS_C_MODEL_1_FLOAT_H
