// File ini dibuat secara otomatis
#ifndef G_KASUS_C_MODEL_3_FLOAT_H
#define G_KASUS_C_MODEL_3_FLOAT_H

// Model: Kasus C Model 3 Float
// 3L, 32N, float32
// Size: 13616 bytes (13.30 KB)
const unsigned char g_kasus_c_model_3_float_model_data[] = {0x1c,0x00,0x00,0x00,0x54,0x46,0x4c,0x33,0x14,0x00,0x20,0x00,0x1c,0x00,0x18,0x00,0x14,0x00,0x10,0x00,0x0c,0x00,0x00,0x00,0x08,0x00,0x04,0x00,0x14,0x00,0x00,0x00,0x1c,0x00,0x00,0x00,0x8c,0x00,0x00,0x00,0xe4,0x00,0x00,0x00,0xb8,0x2d,0x00,0x00,0xc8,0x2d,0x00,0x00,0xcc,0x34,0x00,0x00,0x03,0x00,0x00,0x00,0x01,0x00,0x00,0x00,0x04,0x00,0x00,0x00,0xf6,0xd1,0xff,0xff,0x0c,0x00,0x00,0x00,0x1c,0x00,0x00,0x00,0x3c,0x00,0x00,0x00,0x0f,0x00,0x00,0x00,0x73,0x65,0x72,0x76,0x69,0x6e,0x67,0x5f,0x64,0x65,0x66,0x61,0x75,0x6c,0x74,0x00,0x01,0x00,0x00,0x00,0x04,0x00,0x00,0x00,0x90,0xff,0xff,0xff,0x0d,0x00,0x00,0x00,0x04,0x00,0x00,0x00,0x08,0x00,0x00,0x00,0x6f,0x75,0x74,0x70,0x75,0x74,0x5f,0x30,0x00,0x00,0x00,0x00,0x01,0x00,0x00,0x00,0x04,0x00,0x00,0x00,0x4a,0xd3,0xff,0xff,0x04,0x00,0x00,0x00,0x0d,0x00,0x00,0x00,0x69,0x6e,0x70,0x75,0x74,0x5f,0x6c,0x61,0x79,0x65,0x72,0x5f,0x33,0x00,0x00,0x00,0x02,0x00,0x00,0x00,0x34,0x00,0x00,0x00,0x04,0x00,0x00,0x00,0xdc,0xff,0xff,0xff,0x10,0x00,0x00,0x00,0x04,0x00,0x00,0x00,0x13,0x00,0x00,0x00,0x43,0x4f,0x4e,0x56,0x45,0x52,0x53,0x49,0x4f,0x4e,0x5f,0x4d,0x45,0x54,0x41,0x44,0x41,0x54,0x41,0x00,0x08,0x00,0x0c,0x00,0x08,0x00,0x04,0x00,0x08,0x00,0x00,0x00,0x0f,0x00,0x00,0x00,0x04,0x00,0x00,0x00,0x13,0x00,0x00,0x00,0x6d,0x69,0x6e,0x5f,0x72,0x75,0x6e,0x74,0x69,0x6d,0x65,0x5f,0x76,0x65,0x72,0x73,0x69,0x6f,0x6e,0x00,0x11,0x00,0x00,0x00,0xd0,0x2c,0x00,0x00,0xc8,0x2c,0x00,0x00,0x38,0x2c,0x00,0x00,0x20,0x1c,0x00,0x00,0x10,0x0c,0x00,0x00,0x80,0x0b,0x00,0x00,0xf0,0x0a,0x00,0x00,0xdc,0x0a,0x00,0x00,0x4c,0x0a,0x00,0x00,0xbc,0x00,0x00,0x00,0xb4,0x00,0x00,0x00,0xac,0x00,0x00,0x00,0xa4,0x00,0x00,0x00,0x9c,0x00,0x00,0x00,0x94,0x00,0x00,0x00,0x74,0x00,0x00,0x00,0x04,0x00,0x00,0x00,0x0a,0xd4,0xff,0xff,0x04,0x00,0x00,0x00,0x60,0x00,0x00,0x00,0x10,0x00,0x00,0x00,0x00,0x00,0x00,0x00,0x08,0x00,0x0e,0x00,0x08,0x00,0x04,0x00,0x08,0x00,0x00,0x00,0x10,0x00,0x00,0x00,0x24,0x00,0x00,0x00,0x00,0x00,0x06,0x00,0x08,0x00,0x04,0x00,0x06,0x00,0x00,0x00,0x04,0x00,0x00,0x00,0x00,0x00,0x00,0x00,0x0c,0x00,0x18,0x00,0x14,0x00,0x10,0x00,0x0c,0x00,0x04,0x00,0x0c,0x00,0x00,0x00,0x9d,0xcb,0x7e,0x8d,0xeb,0x42,0xe0,0xc2,0x02,0x00,0x00,0x00,0x02,0x00,0x00,0x00,0x04,0x00,0x00,0x00,0x06,0x00,0x00,0x00,0x32,0x2e,0x31,0x38,0x2e,0x30,0x00,0x00,0x76,0xd4,0xff,0xff,0x04,0x00,0x00,0x00,0x10,0x00,0x00,0x00,0x31,0x2e,0x31,0x34,0x2e,0x30,0x00,0x00,0x00,0x00,0x00,0x00,0x00,0x00,0x00,0x00,0x14,0xcd,0xff,0xff,0x18,0xcd,0xff,0xff,0x1c,0xcd,0xff,0xff,0x20,0xcd,0xff,0xff,0x24,0xcd,0xff,0xff,0xa6,0xd4,0xff,0xff,0x04,0x00,0x00,0x00,0x80,0x09,0x00,0x00,0xd9,0xb6,0x94,0x3e,0xb5,0x42,0xda,0x3d,0xf3,0x31,0x91,0x3e,0xe5,0x1e,0xd0,0x3d,0x10,0x18,0xab,0x3e,0x5c,0xae,0xae,0xbd,0x76,0x4d,0xcb,0xbc,0xc0,0x1b,0x9a,0x3d,0x3d,0x10,0xf9,0xbd,0xbb,0xc7,0x7b,0xbd,0x7b,0x24,0xf9,0xbd,0x00,0xd6,0x4e,0xbe,0x28,0x06,0xc6,0xbe,0x57,0x90,0x0c,0xbe,0x7f,0x7a,0x6d,0xbe,0x18,0x25,0x65,0x3e,0x3e,0x2d,0x99,0x3e,0xde,0x01,0x1f,0xbe,0xdd,0x68,0xaa,0x3d,0x64,0xbd,0xbc,0xbe,0xcb,0xfb,0x9d,0xbe,0xa9,0x09,0x12,0xbe,0x2d,0xa3,0x8b,0x3e,0x99,0xa2,0xdf,0x3d,0x5e,0x72,0xd7,0xbc,0xa7,0x63,0xc4,0xbc,0xb7,0xbd,0x95,0xbe,0x9c,0xab,0xd4,0x3d,0x95,0xd1,0x99,0xbe,0xdf,0x51,0xfa,0x3d,0xb1,0x61,0x94,0xbe,0x90,0x9c,0xaf,0x3c,0x1d,0xc8,0x33,0x3e,0xc2,0x7e,0xb7,0x3e,0x55,0x5a,0xb9,0xbd,0x2a,0xb4,0x30,0xbc,0xf0,0x12,0x5e,0x3e,0xc5,0x4d,0xf8,0xbc,0xa6,0x7a,0x53,0xbe,0x47,0xb7,0xab,0xbe,0x6c,0xb5,0x8b,0xbe,0xca,0xb7,0x1f,0xbe,0x53,0x5e,0x00,0x3e,0xc7,0x6a,0x64,0xbe,0x36,0xc1,0x7a,0x3e,0xf8,0x5f,0x9c,0xbe,0x22,0x69,0xad,0xbe,0xcd,0xf1,0x1b,0x3d,0xd9,0x1d,0xcc,0x3c,0x30,0x61,0x1e,0xbe,0x61,0x4a,0x30,0xbe,0x14,0x4e,0xd5,0xbd,0x29,0xf5,0xda,0x3e,0xd3,0x61,0x3a,0xbe,0xff,0x44,0x71,0xbe,0x0e,0xb8,0x61,0x3e,0x0b,0xf0,0xb9,0xbd,0x30,0xb6,0x71,0x3c,0xb0,0xef,0x66,0xbe,0xca,0xe4,0xbc,0x3d,0xc9,0xb6,0x47,0x3d,0x15,0x8d,0x40,0xbe,0xa5,0xb7,0x4d,0x3e,0x95,0xf8,0x38,0xbe,0x7e,0xa6,0x98,0x3e,0x6f,0x3b,0x82,0xbe,0xa8,0x86,0x31,0x3b,0xe4,0x26,0x6f,0x3e,0xd4,0xff,0x4f,0x3e,0xba,0xd4,0xb8,0xbd,0xc1,0x47,0xbb,0xbe,0xaf,0xa6,0xcd,0x3d,0x3c,0xbf,0x7e,0xbe,0x27,0x84,0x99,0xbe,0xeb,0xb5,0x27,0xbe,0x0b,0xef,0x82,0x3e,0xee,0x78,0x7d,0x3e,0x43,0x8e,0x9a,0xbe,0xb3,0x3e,0x47,0xbc,0x67,0xb7,0x9f,0x3e,0xec,0x72,0xa4,0x3c,0xbd,0x31,0x3e,0x3e,0xef,0xc0,0x91,0x3e,0xad,0xdb,0x26,0x3e,0xfe,0x2a,0xd1,0x3b,0xbe,0xfc,0x78,0x3b,0x78,0xb1,0x80,0xbe,0xdd,0xf3,0x23,0xbe,0x37,0x01,0x21,0x3d,0x59,0x08,0xdc,0x3d,0xda,0x99,0x19,0x3e,0xd1,0x42,0x4d,0x3e,0x12,0x87,0x5a,0x3e,0x00,0xd0,0x37,0x3c,0x88,0xa4,0x8c,0xbe,0x3b,0xa6,0xb9,0x3d,0x5d,0x51,0x3e,0x3c,0xd1,0xd2,0x8b,0xbe,0x3d,0x80,0x89,0xbe,0x36,0xa0,0x8f,0xbd,0x40,0x2f,0x72,0xbe,0x3a,0x23,0x3b,0x3e,0x20,0x87,0x29,0xbe,0x66,0xa4,0x97,0x3c,0x3e,0x59,0x83,0xbc,0x6e,0x7d,0x98,0xbe,0xf3,0xd7,0xc7,0xbd,0xd6,0x47,0x4a,0x3e,0x2b,0xf1,0x8c,0x3e,0xf4,0xce,0x1e,0x3e,0x57,0x79,0x7b,0xbe,0x24,0xf1,0x9d,0xbe,0xb1,0xf9,0x09,0xbe,0xca,0xb7,0x90,0x3e,0xd4,0x83,0xa7,0xbe,0x9b,0xbe,0xaa,0xbd,0x45,0x9e,0x2b,0x3e,0xd9,0x94,0x82,0x3e,0x7d,0xba,0xb3,0xbe,0x9c,0x2d,0xdf,0xbd,0x96,0x8d,0x4e,0xbe,0x0f,0x1b,0x2b,0xbe,0xd1,0xcd,0x1a,0xbe,0x7d,0x9e,0x02,0xbe,0xe6,0xe2,0xb0,0x3e,0x0f,0x7e,0x93,0xbe,0x55,0xdc,0x95,0x3e,0xd8,0x0c,0xb9,0x3e,0x8e,0xe1,0xbe,0xbe,0xbd,0xff,0x40,0xbe,0x38,0xc6,0x98,0x3d,0x79,0x0c,0x0b,0xbe,0x1c,0x39,0x33,0x3e,0xdb,0x3a,0xa5,0x3e,0x7c,0x3b,0x93,0xbe,0x2c,0x6a,0xc3,0x3d,0x63,0x8b,0x0d,0x3e,0x1a,0x17,0x09,0x3e,0xcb,0xce,0x72,0x3e,0x5c,0x79,0x0e,0x3e,0x4c,0x38,0x57,0xbe,0x04,0x5f,0x10,0xbe,0x05,0xd8,0x76,0x3e,0x6e,0x3d,0x51,0x3e,0x42,0x05,0x50,0xbc,0x31,0x7e,0x81,0x3d,0x04,0x06,0x0d,0x3d,0x30,0x84,0x87,0xbe,0x18,0x67,0x38,0xbe,0x65,0xbd,0x0d,0xbe,0x55,0x8c,0x74,0xbe,0xce,0x61,0xd7,0x3d,0x90,0x95,0x4d,0xbd,0x70,0xa1,0xcf,0x3d,0x7d,0x7a,0xc6,0xbd,0x8a,0x86,0x69,0xbd,0x1a,0xc3,0x35,0xbe,0xc2,0x86,0x60,0xbe,0x85,0xd4,0x9a,0xbe,0x05,0xa7,0x15,0x3e,0x88,0x11,0xd6,0x3e,0x4c,0x40,0x10,0xbd,0xdf,0x6c,0xb5,0xbc,0xac,0xe4,0x66,0xbe,0x07,0xaa,0x4a,0x3e,0x30,0xb7,0xb5,0x3e,0x77,0x50,0xa1,0xbd,0x10,0xa2,0x8b,0xbc,0x0e,0xd8,0xbc,0x3d,0xb0,0xa9,0x9b,0x3d,0x5e,0x3c,0x92,0xbe,0x13,0xdb,0x25,0x3e,0x21,0x4b,0x8b,0x3d,0xec,0x04,0xdf,0xbd,0x08,0x3b,0x9c,0x3e,0xe3,0x10,0x9e,0x3e,0x4b,0xa4,0x8b,0xbc,0x21,0x2b,0xb1,0x3e,0xbf,0xae,0x0a,0xbe,0x44,0x3f,0x96,0xbe,0xaa,0x5a,0x1b,0xbe,0xfc,0x89,0x7e,0x3e,0x3d,0x33,0x39,0xbe,0x3d,0x4d,0x6e,0xbe,0xb8,0xd1,0x9a,0x3e,0xe8,0x55,0xb5,0xbe,0x41,0x8b,0x97,0xbd,0x70,0x92,0xae,0x3d,0xcf,0xc4,0x76,0xbd,0x73,0x0b,0xf6,0x3a,0xe6,0xf3,0x93,0xbe,0xa4,0x33,0xb5,0x3e,0x5a,0xaa,0x4e,0xbd,0x3c,0xf0,0x2b,0xbe,0xeb,0xd5,0x27,0x3e,0x18,0xed,0x11,0x3e,0xd0,0x06,0x85,0xbe,0x07,0xda,0xa5,0x3e,0xe5,0x32,0xe9,0xbd,0xdd,0x80,0x0e,0x3d,0x8f,0xff,0x09,0xbe,0x01,0x7e,0x3b,0xbe,0x43,0xbb,0x80,0x3e,0x81,0x9f,0x67,0x3e,0x8c,0x5b,0xe1,0xbe,0x4a,0xae,0x5f,0x3e,0x8f,0xb2,0x8b,0x3e,0x3d,0xee,0x44,0x3e,0x1e,0x43,0xc0,0xbd,0xe0,0x0a,0x3f,0x3e,0x62,0x01,0x08,0xbd,0x4a,0xa5,0x2a,0xbe,0x6c,0xc1,0x04,0xbe,0x45,0x87,0x0d,0xbd,0x00,0xcf,0x62,0xbe,0x88,0x81,0xa5,0xbe,0x4a,0x15,0x9d,0x3d,0xe3,0xa1,0xc4,0x3d,0x28,0xfc,0x96,0xbe,0xc9,0x1c,0x09,0xbe,0x01,0x55,0xf8,0xbd,0xc4,0xd3,0x5e,0x3e,0x3f,0xba,0xc5,0xbe,0x49,0x7c,0xb4,0x3e,0xdd,0x34,0x2c,0xbd,0xb2,0x72,0x4a,0x3e,0x44,0xf3,0xbd,0xbe,0x3e,0x90,0x97,0x3e,0xd9,0x02,0x3f,0x3e,0xe8,0xd1,0x3b,0xbe,0xcd,0xfe,0x11,0x3e,0x4b,0x40,0x44,0x3e,0x44,0xe7,0x7f,0x3e,0x9a,0x1b,0x81,0x3e,0x6f,0xed,0xb7,0x3e,0x47,0xb9,0xd0,0x3e,0xe0,0x08,0x76,0xbe,0x40,0x66,0x41,0x3e,0x4d,0xd2,0xc7,0xbe,0x4a,0x4f,0x66,0x3e,0x7c,0x6b,0x1f,0x3e,0x4d,0x71,0x38,0xbe,0xcf,0x47,0xaf,0xbe,0x62,0xb8,0xcb,0xbd,0x43,0x79,0xe7,0xbd,0xcc,0x02,0xd6,0x3d,0x1f,0x4f,0x47,0xbe,0x8b,0xc7,0x09,0xbe,0x14,0x45,0x08,0x3d,0x07,0xb5,0xac,0xbd,0x6d,0xdb,0x92,0x3e,0x16,0x10,0xda,0xbd,0xee,0xe2,0xae,0x3c,0x07,0xa3,0xff,0x3d,0x60,0x54,0x3b,0x3e,0xc1,0x0e,0x4a,0x3c,0x40,0x5e,0x7a,0xbe,0x91,0x5c,0x44,0x3e,0x8b,0x53,0xb0,0xbe,0x7c,0xdb,0x1f,0x3e,0x84,0x17,0xa8,0xbd,0x5d,0xe4,0x89,0x3e,0x38,0x0b,0x92,0xbe,0x4b,0x03,0xde,0x3c,0xe3,0x80,0x0e,0x3e,0x12,0x68,0xac,0xbd,0x7f,0x54,0x82,0x3e,0x06,0x05,0x58,0xbe,0x18,0xc3,0xb0,0x3e,0x17,0x56,0xe1,0xbd,0x58,0x42,0x92,0x3e,0x80,0x68,0x5f,0xbe,0xe4,0x32,0x8e,0xbe,0x79,0x29,0x56,0x3c,0xa7,0x26,0x2d,0x3e,0x75,0x4a,0x5c,0x3e,0xde,0xec,0x2e,0xbe,0x6e,0x64,0xf8,0xbd,0xff,0x91,0xda,0xbd,0x02,0x01,0x1b,0x3e,0x38,0xd7,0xb1,0x3e,0xf0,0x1e,0x31,0xbc,0xae,0x8a,0xdb,0xbc,0x81,0x9c,0x34,0x3e,0x91,0xc8,0x9c,0x3e,0xe6,0xb4,0xe2,0xbd,0x45,0x9a,0xc6,0x3c,0x99,0x83,0x9a,0x3e,0xc9,0xca,0x1a,0x3e,0x60,0x70,0x0a,0x3e,0x8a,0x96,0xa6,0xbc,0xf9,0xa8,0x35,0xbe,0x15,0xd2,0x88,0x3e,0xf6,0x20,0x86,0xbd,0xf3,0x07,0x8f,0x3e,0x2e,0x0f,0x99,0x3e,0x58,0x25,0x23,0xbd,0xf0,0x09,0x35,0xbd,0x5c,0x2c,0xf3,0x3d,0xbb,0x36,0x2b,0xbe,0x7e,0x25,0x9c,0x3d,0xbb,0x61,0xe0,0xbd,0xc5,0x8b,0x9c,0xbe,0x92,0xa3,0x74,0x3e,0x48,0x2b,0x7e,0x3c,0x55,0x19,0xcb,0x3e,0xba,0x22,0x9f,0x3d,0xfa,0xc1,0x28,0xbd,0x13,0x55,0x3a,0x3d,0xa5,0x62,0x20,0x3e,0x06,0x39,0xa1,0xbd,0x21,0xd5,0x3a,0xbd,0x86,0x5a,0x5c,0xbe,0x64,0x66,0x27,0x3e,0xc8,0x67,0x4c,0x3e,0xf5,0x8b,0x80,0xbd,0xb2,0xbb,0xa4,0xbe,0x90,0xe8,0x2a,0x3e,0x80,0x8b,0x1c,0xbe,0x45,0x11,0xcc,0xbd,0xdd,0xf8,0x8a,0x3e,0x81,0x41,0x96,0xbe,0xd1,0xae,0x84,0xbe,0x47,0xc7,0xf2,0xba,0xba,0x8e,0x5e,0xbd,0xf1,0xce,0x69,0xbe,0x49,0xd5,0xa6,0x3d,0xab,0x4a,0xca,0x3d,0x4f,0x3b,0x2f,0x3e,0xb0,0xac,0x8b,0xbe,0x38,0xbc,0x99,0xbe,0x62,0x8d,0x60,0x3e,0x63,0x3c,0x93,0x3d,0x17,0xbb,0xa1,0xbd,0xe3,0x83,0x7b,0xbe,0x8e,0xc1,0x4b,0x3e,0xc5,0xe1,0x98,0x3d,0xb7,0x54,0x75,0x3d,0x5e,0xf7,0xf8,0xbd,0x9f,0x02,0x7d,0x3e,0x68,0xe6,0xa0,0xbe,0x9f,0x46,0x6d,0x3e,0x66,0xad,0x63,0x3b,0xe1,0x16,0x22,0x3e,0x1c,0xdf,0x15,0xbe,0xc7,0x2f,0x74,0xbe,0xed,0x8d,0x9e,0x3e,0xb8,0xe6,0x35,0x3e,0x5d,0x2d,0x73,0xbe,0x2c,0xaf,0x68,0x3e,0x8c,0xe8,0x8c,0x3e,0xd5,0xed,0xba,0x3e,0xe3,0xb8,0x44,0xbe,0x61,0x3f,0xba,0xbd,0x05,0x0d,0x7b,0xbe,0x62,0x33,0x86,0xbe,0x8e,0xc0,0x03,0x3e,0x93,0x01,0x95,0xbe,0x08,0x20,0xa5,0x3e,0xe5,0x32,0xbd,0xbe,0xa9,0x9d,0x57,0xbe,0x3c,0x31,0x9e,0x3e,0x29,0xe9,0x77,0x3e,0xcf,0xcc,0xce,0x3c,0x05,0x3c,0xcb,0x3e,0x0d,0x77,0xc3,0x3c,0x4f,0x8c,0x50,0xbe,0x0e,0xa6,0xd9,0xbc,0x51,0xc4,0x09,0xbe,0x6c,0x71,0xb9,0x3d,0x80,0x8a,0x95,0x3d,0xec,0x37,0x96,0xbd,0xad,0x4c,0x4a,0xbe,0xc5,0x8d,0x64,0x3e,0x55,0x44,0xd7,0x3e,0xe5,0x15,0x9e,0xbe,0x31,0xc4,0x5d,0xbe,0x9e,0xef,0xa7,0xbe,0x02,0xc7,0xac,0x3a,0x42,0x50,0x49,0xbe,0xad,0x4a,0xb7,0xbe,0xab,0xc8,0xa0,0xbe,0xe4,0x71,0x93,0xbe,0xb1,0x3b,0xb6,0xbd,0x89,0x5f,0xa0,0xbd,0xcc,0x36,0x06,0xbe,0x05,0x2f,0x8e,0xbe,0x0e,0xe5,0x99,0xbe,0xf4,0xd5,0x7a,0xbe,0xd3,0xe8,0x3f,0xbd,0xe7,0x28,0x8f,0x3e,0xdb,0xf1,0x72,0xbe,0xb3,0x72,0x1d,0xbd,0x50,0x04,0xa2,0xbe,0xe0,0x48,0x8a,0x3e,0x18,0xbc,0xa3,0xbe,0x11,0x32,0x74,0x3e,0x50,0xa0,0x9c,0xbe,0xa8,0xa6,0xeb,0x3d,0xe0,0x52,0x3d,0x3e,0xbf,0xa1,0x71,0xbd,0xdd,0x53,0x2f,0xbe,0x61,0xcf,0x41,0x3c,0xd1,0x54,0xb5,0xbe,0x02,0xf1,0x04,0x3e,0x3a,0xb7,0xa7,0xbe,0xa1,0x42,0x8b,0xbe,0x54,0x16,0x18,0xbd,0x05,0x82,0xa2,0xbe,0x4e,0x3b,0x36,0x3e,0x53,0x42,0x6d,0x3e,0x23,0x78,0x41,0x3e,0x73,0xeb,0xd0,0xbe,0x14,0x36,0x41,0xbd,0x5a,0xd7,0xb5,0xbe,0xce,0xdf,0x85,0xbe,0x5e,0x16,0x44,0x3b,0xc1,0xa0,0x06,0xbd,0xf8,0xbc,0x69,0x3d,0x4b,0x9a,0x11,0x3e,0xc2,0x4f,0xb1,0x3c,0x03,0xbd,0x67,0x3e,0xa8,0xba,0x9c,0xbe,0xc5,0x12,0x8d,0x3e,0x97,0x4a,0x98,0xbe,0x2f,0x16,0xd0,0x3c,0xcd,0x56,0x50,0x3e,0x27,0x25,0x83,0xbe,0x83,0xd1,0x1b,0xbe,0xcb,0xaf,0x28,0xbe,0x79,0x2f,0x83,0x3e,0xa0,0xa4,0x8f,0xbc,0x4f,0x00,0x92,0x3e,0x08,0xed,0x39,0xbe,0x57,0x63,0x3d,0xbe,0x7e,0x10,0x16,0x3e,0xc6,0x23,0xa7,0x3e,0x72,0x0f,0x1a,0xbd,0x66,0x9a,0xaf,0x3e,0x8b,0x10,0xa5,0xbd,0x0d,0xbd,0x72,0xbe,0x99,0xc3,0x5a,0xbe,0x17,0x03,0x23,0x3d,0xf9,0x35,0x72,0x3d,0x47,0x28,0x39,0xbe,0xb6,0x96,0x4d,0x3e,0xea,0xd2,0x6e,0x3e,0x77,0xe3,0x81,0x3d,0xfa,0xe6,0x45,0x3e,0xd3,0x7d,0x0a,0x3e,0xeb,0xa6,0x89,0xbb,0x63,0x64,0x18,0xbd,0x8a,0x05,0xdc,0xbd,0x1d,0x5d,0xab,0x3e,0xc6,0x36,0x96,0x3e,0xa7,0xf9,0x9b,0x3c,0x37,0xef,0x7a,0x3d,0x18,0x25,0x31,0xbe,0xf0,0xb3,0x82,0x3c,0x2c,0xb4,0xcb,0x3d,0xf5,0xc8,0x6a,0xbe,0xaa,0x78,0x83,0x3e,0xfd,0x9d,0xb3,0xbe,0x6b,0x0f,0x57,0x3e,0x61,0x88,0xa0,0xbe,0x79,0xd3,0x04,0xbc,0x9e,0x4c,0xaf,0xbd,0x86,0x81,0xd9,0x3d,0x11,0xf3,0x83,0xbc,0xde,0x50,0xba,0xbe,0x8d,0xb7,0xd4,0xbc,0xd0,0xdd,0x34,0x3e,0x59,0x16,0xa8,0xbd,0x8d,0x6f,0x3c,0xbe,0x44,0x31,0xad,0x3e,0x54,0xa3,0x62,0xbe,0x74,0x2c,0x9a,0xbd,0x7e,0x40,0x85,0xbd,0x08,0x72,0xab,0xbe,0x7a,0x52,0xa8,0xbe,0x42,0xe3,0x1f,0x3e,0x61,0x8e,0x38,0xbe,0x04,0x8d,0x05,0xbe,0x9c,0x12,0xba,0xbe,0xd9,0xfa,0x35,0x3d,0x87,0x7a,0x36,0x3d,0xd4,0xce,0xb7,0x3e,0x93,0xe0,0x82,0x3e,0x60,0xb7,0x01,0x3e,0x56,0x2d,0x8d,0xbd,0x80,0xbf,0x0f,0x3d,0xd2,0xf2,0x8d,0xbe,0x75,0xbe,0xf1,0xbd,0x8f,0x77,0x82,0xbe,0x9b,0xdb,0x01,0xbe,0xb2,0x22,0xbd,0xbc,0x87,0x58,0x82,0x3e,0x1d,0xb8,0xb7,0x3d,0x06,0x68,0xfa,0x3d,0x43,0x8b,0x8e,0x3d,0x7a,0xb8,0xb1,0xbd,0xce,0xdd,0x59,0x3e,0xb9,0x9b,0xc1,0xbd,0xb2,0xa9,0x7c,0x3e,0xba,0xf0,0x86,0x3d,0x56,0x4c,0xaa,0x3e,0xde,0x92,0xfa,0x3d,0x5b,0x50,0xad,0xbe,0x02,0x4e,0x89,0x3e,0x8f,0x68,0x84,0xbe,0xe0,0xec,0x72,0xbe,0x0d,0x8b,0x0b,0x3e,0xf6,0x1e,0x81,0x3e,0x6f,0xf8,0x6b,0x3e,0x60,0xda,0x5a,0xbe,0x92,0x2b,0xfb,0xbd,0x2a,0x27,0x91,0xbd,0xaf,0x83,0x2a,0x3c,0x21,0x3e,0xf5,0xbd,0x57,0x52,0x06,0xbe,0x30,0xfe,0xf5,0xbd,0x93,0x74,0x75,0xbe,0x2f,0x70,0x8a,0x3d,0x5e,0xa9,0xc3,0xbd,0x78,0x54,0x5b,0xbe,0x15,0x62,0x65,0x3e,0x05,0x9d,0x6a,0xbe,0x4b,0x5c,0x2e,0xbd,0xed,0x36,0x8d,0xbd,0x9b,0xe0,0x0e,0x3d,0xf1,0xff,0x1c,0x3d,0x8a,0x6a,0x7d,0x3e,0x4b,0xbb,0x16,0x3d,0xe5,0x44,0x99,0xbc,0x31,0x24,0x92,0xbd,0xfc,0x69,0x7d,0x3e,0xe4,0x7e,0x23,0x3d,0x5d,0x82,0xb7,0x3e,0xbf,0x10,0x80,0xbe,0x76,0xea,0x32,0xbe,0x4b,0xcc,0xc2,0xbd,0x2b,0x01,0x9b,0xbe,0x46,0x18,0xbd,0x3d,0x86,0x55,0x30,0xbb,0x29,0x83,0x8e,0x3e,0x54,0x69,0x82,0x3d,0x22,0x58,0x79,0x3e,0xd7,0x36,0xac,0xbe,0xfc,0x55,0x37,0x3e,0xf8,0x57,0xa0,0xbe,0xeb,0x82,0x14,0x3e,0x3f,0x16,0x36,0x3c,0xec,0xf8,0x0e,0x3e,0xf8,0x46,0x8b,0x3e,0xc0,0xee,0xfa,0x3d,0x2a,0xd2,0x31,0x3d,0x50,0xfb,0x92,0xbe,0x61,0x6f,0x1c,0x3e,0x8c,0xc4,0x8b,0x3e,0x32,0x38,0xe1,0xbd,0x81,0x78,0x0c,0x3c,0xd4,0xb1,0xbc,0xbe,0x89,0xf9,0x34,0xbe,0xfa,0x72,0x4c,0xbe,0xb4,0xe0,0x34,0x3e,0x7d,0x64,0x0f,0x3e,0xa1,0x14,0x39,0x3e,0x5a,0xb6,0xb2,0x3e,0x53,0x39,0x99,0x3e,0xb5,0x55,0xba,0x3b,0xe1,0x45,0xc6,0xbd,0x6e,0x2c,0x96,0xbe,0xb3,0x82,0x17,0xbe,0x6f,0xc0,0xbc,0xbe,0xe6,0xe8,0x54,0x3e,0xcc,0xcd,0x92,0xbe,0xd7,0x26,0x19,0x3e,0x01,0x53,0x7e,0xbd,0xee,0xac,0x44,0x3e,0x6c,0xc0,0x79,0x3e,0x47,0x53,0xb9,0x3e,0x60,0x74,0x18,0x3e,0xe3,0x7f,0x94,0x3e,0x82,0x46,0x3c,0xbe,0x31,0x18,0x9f,0xbd,0x83,0x5a,0x90,0xbe,0x42,0x8a,0x96,0xbe,0x08,0x70,0x23,0xbe,0xe0,0x08,0x83,0x3e,0xd1,0x17,0x17,0xbd,0x73,0xee,0xf6,0xbd,0x23,0x9a,0xbc,0x3d,0xc2,0xc9,0x68,0x3e,0xa3,0x41,0xb6,0x3d,0x2b,0xd7,0x9c,0xbe,0x1d,0x3a,0xbe,0x3e,0x88,0x69,0x92,0x3e,0xdc,0xd2,0x12,0x3e,0xae,0x01,0xa3,0x3c,0x09,0x9c,0x2f,0xbb,0x43,0xa9,0x27,0xbe,0x0d,0x49,0x28,0x3e,0x3b,0x8f,0xaf,0x3e,0x2d,0x68,0xef,0xbd,0x19,0x8f,0x22,0xbd,0xe6,0xb9,0xa6,0xbe,0x4a,0xd5,0x09,0xbd,0x5f,0xea,0xa1,0xbe,0x32,0xde,0xff,0xff,0x04,0x00,0x00,0x00,0x80,0x00,0x00,0x00,0x46,0x3c,0x87,0x3d,0xd3,0x0b,0x35,0xbc,0x73,0x8e,0xcd,0x3d,0x11,0xc0,0xa7,0x3d,0xa6,0xa4,0x6a,0x3d,0xb2,0x5e,0x56,0x3c,0xff,0x45,0x7d,0x3d,0x19,0x0d,0x5f,0xbc,0x65,0xdc,0xc9,0x3d,0x14,0x45,0x9f,0x3d,0x93,0x4f,0x0a,0x3d,0xfc,0xed,0xa1,0x3d,0x31,0xd4,0x83,0x3d,0x13,0x62,0x3d,0xbc,0x5d,0x01,0x25,0x3d,0x36,0x53,0xc5,0xbc,0x46,0x33,0x51,0x3d,0x80,0xfe,0x4c,0xbc,0x72,0x06,0x4b,0x3c,0x3b,0x83,0xe1,0x3d,0xca,0x17,0xd4,0x3d,0xb5,0x4f,0xd0,0x3c,0x6c,0x42,0x97,0xbc,0x72,0xa5,0x6c,0xbc,0x07,0x5c,0x4e,0x3d,0x0d,0x9c,0x2c,0x3d,0x0a,0xeb,0x4b,0x3d,0xf8,0xac,0xd4,0xbb,0x7c,0x5c,0x50,0x3d,0x20,0xb5,0x8a,0x3d,0xa4,0x5a,0x04,0x3d,0xab,0xdc,0xa8,0x3d,0xbe,0xde,0xff,0xff,0x04,0x00,0x00,0x00,0x04,0x00,0x00,0x00,0xe8,0x37,0xb2,0x3c,0xce,0xde,0xff,0xff,0x04,0x00,0x00,0x00,0x80,0x00,0x00,0x00,0xbc,0x28,0x5b,0x3d,0x00,0x00,0x00,0x00,0x05,0x55,0xb3,0xbc,0x00,0x00,0x00,0x00,0x3e,0x28,0x9c,0x3d,0x1f,0x60,0x4a,0x3c,0x95,0x64,0x2e,0x3c,0x22,0x1b,0x77,0x3d,0x93,0x51,0xab,0xbc,0xe1,0x16,0x32,0xbd,0x4b,0xad,0x2e,0x3d,0x8d,0x88,0x70,0x3d,0xe4,0x04,0xc8,0xbc,0x75,0x31,0x79,0x3d,0x5a,0x17,0x19,0xbd,0xe7,0x5a,0x33,0x3d,0xd8,0x36,0xbc,0x3d,0xdb,0xd7,0x11,0x3c,0x28,0x5e,0xa9,0xbc,0xce,0xd2,0x61,0x3d,0x5b,0x4d,0x7f,0x3d,0xb9,0x62,0x8c,0x3d,0x63,0x2b,0x2d,0x3d,0xc9,0x6a,0x4f,0x3d,0x3f,0x7a,0x81,0x3d,0x35,0x37,0x13,0x3d,0x1a,0xcc,0xe5,0x3d,0x9d,0xa1,0xdf,0xbc,0xf1,0x9a,0x72,0x3d,0x2b,0x3f,0x3d,0x3c,0xb7,0x10,0xaf,0xba,0x77,0xb7,0x43,0x3c,0x5a,0xdf,0xff,0xff,0x04,0x00,0x00,0x00,0x80,0x00,0x00,0x00,0x9d,0xce,0x1b,0x3c,0x41,0x91,0x5d,0x3d,0xb1,0x6b,0x31,0x3b,0x90,0xdf,0x15,0x3d,0x2c,0x93,0xb7,0x3d,0x72,0xef,0x2c,0x3d,0x13,0x90,0x2a,0x3d,0xda,0x9d,0x17,0xbc,0x32,0xc5,0xea,0x3a,0x64,0xfe,0xbf,0x3d,0x67,0x80,0x26,0x3d,0xa3,0x1d,0x56,0x3d,0x58,0x1f,0x19,0x3c,0xd2,0x97,0xf7,0x3c,0x09,0x48,0xfc,0x3c,0xb0,0x2b,0x29,0xbd,0x91,0x4d,0x93,0x3d,0xac,0x3b,0x83,0x3d,0x4d,0xcb,0xee,0x3c,0x20,0x3b,0xbd,0xbc,0x03,0x62,0x3d,0x3d,0x50,0xeb,0x5d,0x3d,0xba,0x24,0x8f,0x3c,0xae,0x21,0x01,0xbd,0xd8,0x25,0x56,0x3d,0x13,0xae,0xe4,0x3d,0x2e,0x3a,0x00,0x3d,0xea,0x53,0xdc,0xbb,0x44,0xc1,0x21,0x3c,0xd6,0xa9,0xc3,0x3c,0xeb,0x69,0x4a,0xbb,0x9c,0x26,0xff,0xbc,0xe6,0xdf,0xff,0xff,0x04,0x00,0x00,0x00,0x00,0x10,0x00,0x00,0x98,0x29,0x64,0x3e,0x40,0x25,0x69,0xbe,0x49,0xde,0x3d,0x3c,0x5c,0x02,0x46,0x3e,0x68,0x59,0x84,0x3e,0x12,0xa8,0x9d,0x3c,0x62,0x94,0x8b,0x3e,0x23,0xef,0x6c,0x3e,0xc0,0x40,0x6e,0x3e,0xbd,0xb1,0x5b,0x3e,0x60,0x22,0x26,0xbe,0xf3,0xd5,0x15,0xbe,0xa6,0xad,0x55,0x3e,0x34,0x2a,0xe4,0xbd,0xe3,0x56,0x65,0x3e,0x69,0x2c,0x2b,0xbe,0xc9,0x03,0x77,0x3e,0x63,0x27,0x20,0x3e,0x75,0xdd,0x0f,0xba,0xa4,0x56,0x8d,0x3e,0xa8,0x9d,0x82,0xbe,0xf1,0xb7,0x9b,0x3d,0xcd,0xf1,0x03,0xbe,0x96,0xb4,0x64,0x3e,0x6a,0x5b,0x67,0x3e,0x88,0xd4,0x5c,0xbd,0x4c,0x6e,0x8e,0xbc,0x21,0x81,0xcd,0xbd,0x4f,0x77,0x71,0x3d,0x1f,0x8c,0x49,0x3e,0x5a,0x90,0x94,0xbe,0xb6,0x46,0x8a,0xbd,0x23,0x0a,0x88,0xbe,0x24,0xe4,0x45,0xbe,0x34,0xdb,0xd1,0xbd,0x48,0x97,0x52,0xbd,0x80,0x8e,0x4f,0x3b,0x08,0xb4,0x10,0x3d,0x18,0xdc,0x5a,0x3d,0x4a,0xa1,0x8b,0xbe,0xc6,0xf6,0x56,0xbe,0x04,0xca,0xd5,0x3d,0x60,0x85,0xfd,0xbd,0x78,0x12,0x52,0xbd,0x26,0xe9,0x91,0xbd,0x40,0x37,0x5d,0xbe,0x85,0xf7,0x6b,0xbe,0x9b,0x61,0x0d,0xbe,0x80,0x7e,0xa5,0x3c,0x2c,0xf3,0x4c,0xbe,0xbc,0xa9,0xe6,0xbd,0xfc,0x82,0xb6,0x3d,0xa6,0xb0,0x5d,0xbe,0xec,0xc8,0xf5,0x3d,0xcc,0x90,0x96,0xbe,0x20,0x44,0x51,0xbe,0xf3,0x28,0x81,0x3e,0x1a,0x2e,0xe1,0xbd,0xcc,0x68,0x2f,0x3e,0x27,0xae,0x93,0xbe,0x50,0x82,0x27,0xbd,0xfa,0xcb,0x1f,0x3e,0x08,0xff,0xe0,0x3d,0xc0,0x46,0xdd,0xbd,0x4a,0x7c,0x3b,0x3e,0x25,0x37,0x70,0x3d,0x1f,0x9a,0x01,0xbe,0xe9,0xe6,0x28,0xbe,0x55,0x6f,0x81,0xbd,0x4b,0xa5,0x33,0x3e,0x46,0xc0,0xb4,0x3d,0xfc,0xc5,0x90,0x3d,0xf3,0xe5,0x60,0xbe,0xab,0x53,0x7e,0xbe,0xee,0x96,0x1a,0x3c,0x1b,0xc3,0x4a,0x3d,0xcd,0xc5,0x24,0xbe,0xd0,0xc1,0xaf,0xbd,0xee,0xfc,0x81,0x3e,0xdc,0x71,0x12,0x3e,0xf3,0x31,0x82,0xbe,0x98,0x31,0xd0,0x3d,0xde,0x23,0x13,0x3d,0xa4,0xa7,0x55,0xbe,0x4d,0xd7,0x0b,0x3d,0x79,0xa0,0x11,0x3e,0xce,0x62,0x85,0x3e,0x4d,0xca,0x2f,0xbd,0x2c,0x20,0x0b,0xbe,0x62,0x37,0x2f,0xbe,0x20,0xb7,0x61,0x3e,0x04,0x2a,0x2a,0xbe,0xe2,0x83,0x98,0xbe,0x40,0x40,0x56,0xbe,0xcc,0x80,0x84,0xbe,0x73,0x90,0x86,0xbe,0x1b,0xf8,0x80,0x3e,0x52,0x07,0x2e,0xbe,0x6b,0xce,0x0f,0xbe,0xfc,0x2c,0xab,0x3d,0x58,0xa9,0x6b,0xbe,0x88,0x51,0x45,0xbe,0x4b,0x80,0x91,0xbe,0xc0,0x11,0x23,0xbd,0xae,0x34,0x8e,0xbe,0xb7,0x48,0x89,0xbe,0x90,0xa5,0x6b,0x3d,0x33,0xf3,0x30,0xbe,0x6a,0x50,0x67,0xbe,0xde,0x31,0x1f,0x3e,0xe7,0xe4,0x93,0xbe,0x42,0x3b,0x91,0xbe,0x9c,0x13,0x84,0xbe,0x20,0x46,0x92,0xbe,0x2a,0x7b,0x80,0xbe,0xe7,0x0d,0x0f,0xbe,0xe0,0x83,0xa8,0x3d,0xa2,0xfd,0x4a,0x3e,0x20,0x52,0x5e,0xbe,0x1e,0xa8,0x4a,0x3e,0x60,0x74,0x03,0xbc,0xac,0x35,0xc9,0xbd,0xd4,0xcf,0x80,0xbe,0x61,0xcd,0x84,0xbe,0x10,0x7a,0x72,0x3d,0xe2,0x90,0x78,0xbe,0xd8,0x83,0x67,0x3d,0xa2,0x4b,0x87,0xbd,0x72,0x5f,0xac,0x3e,0xf2,0x9b,0x2e,0x3e,0xeb,0x15,0xa4,0x3c,0x8b,0xe7,0xc1,0xbc,0xd9,0x4d,0x08,0xbe,0x1f,0x70,0x68,0x3e,0x72,0xe2,0x3f,0x3d,0xbb,0xb1,0xbd,0xbd,0x7a,0x75,0x13,0x3e,0x1c,0xac,0x58,0xbc,0x41,0xf4,0x58,0x3e,0x15,0x2c,0x51,0x3e,0x31,0xee,0x9f,0x3e,0xf0,0x60,0x8c,0x3d,0xfe,0x4e,0xd0,0xbd,0xcf,0xef,0x20,0xbe,0x42,0xa0,0x56,0x3e,0xd4,0xa6,0xaa,0xbd,0x64,0xb1,0xa2,0x3e,0x34,0x0c,0x68,0xbe,0xc7,0x9f,0x82,0x3b,0x7f,0xd9,0x74,0x3e,0xe5,0x0e,0x22,0x39,0x2e,0xf7,0x99,0x3e,0xb6,0x51,0x98,0x3e,0xf2,0x2b,0x7c,0x3e,0x53,0x9d,0x2a,0xbd,0xe3,0x36,0x6b,0x3e,0x6b,0x3a,0xbe,0x3e,0xb0,0x9f,0x22,0x3e,0xcd,0xa8,0x23,0x3e,0x2f,0x2d,0x14,0x3e,0x3c,0x14,0x10,0xbe,0xc9,0x78,0x99,0xbe,0x41,0x19,0x84,0x3e,0x06,0x41,0x44,0xbe,0xbf,0xea,0x75,0xbd,0xa0,0x90,0xd0,0xbd,0x5a,0xb7,0x9b,0x3e,0x9a,0x05,0x97,0x3e,0x50,0x25,0xb8,0x3c,0x26,0x0c,0x98,0xba,0x7d,0xef,0x63,0xbe,0xd9,0xcc,0xc4,0xbd,0xcc,0x4c,0x63,0x3e,0x66,0xc0,0x94,0x3e,0x66,0x20,0x4c,0x3d,0x82,0x50,0x06,0xbe,0x29,0xc8,0x92,0x3e,0xbd,0x83,0xfb,0x3d,0xda,0xd6,0x02,0x3e,0xc7,0x90,0x38,0xbe,0x65,0xe5,0x9a,0x3d,0x0c,0x00,0x04,0x3e,0x3f,0x42,0x28,0x3e,0xd1,0x63,0x82,0x3e,0x55,0x34,0xd1,0xbd,0xe3,0xa8,0x2f,0xbe,0x86,0x53,0x66,0xbe,0x6f,0x67,0x88,0xbe,0xd1,0x16,0x6e,0xbe,0x78,0xed,0x4a,0x3e,0x7d,0x2e,0x1c,0xbe,0x60,0x4f,0x32,0xbc,0xaa,0xfb,0xb5,0xbc,0x3d,0xd9,0x49,0xbe,0xa7,0xdf,0xab,0x3d,0x90,0xb0,0xa1,0x3d,0xbd,0xdd,0x49,0xbd,0x6c,0x2b,0x4d,0xbd,0x4c,0xa8,0xb4,0x3c,0xbe,0x10,0x17,0xbd,0xc7,0xa1,0x62,0x3d,0xf8,0xd3,0x2f,0x3e,0x22,0x5f,0xac,0x3d,0x73,0xcb,0x2e,0x3e,0x8f,0x68,0x00,0xbe,0xc4,0x6a,0x22,0x3d,0x85,0x03,0x9e,0xbc,0x54,0xe7,0x35,0xbe,0x76,0x77,0x80,0x3e,0xca,0x0e,0x4f,0x3e,0x08,0x79,0x22,0xbe,0xf5,0x8f,0x81,0x3e,0xcc,0x5c,0x27,0xbe,0xc5,0xa9,0x44,0xbe,0xef,0x96,0x3f,0x3e,0x8d,0xff,0x59,0xbe,0xfa,0x88,0x38,0xbe,0xd4,0xf9,0x58,0x3e,0x98,0x5f,0x7b,0xbe,0x5c,0x03,0x00,0xbe,0x84,0x91,0x6d,0x3e,0x2e,0x55,0x0a,0xbe,0x42,0x91,0x0d,0x3e,0x46,0x17,0xb3,0x3e,0xc2,0x63,0x87,0xbd,0x9c,0xf6,0x1f,0x3e,0x35,0x17,0xc5,0x3e,0xfc,0x40,0xb9,0x3e,0xe3,0x77,0x77,0xbd,0x87,0x5f,0x26,0x3e,0xea,0xb2,0xf5,0x3d,0x9c,0x1b,0x29,0xbe,0xa3,0xc4,0x54,0xbe,0xb5,0xaa,0x86,0xbe,0xd4,0xb0,0x78,0xbe,0x61,0x20,0x8a,0x3e,0xb4,0x44,0x4a,0xbe,0xbc,0x8d,0x8d,0x3d,0xb4,0x66,0x1e,0xbe,0xdd,0xf0,0x5a,0x3e,0x00,0x2b,0x2c,0xbe,0xfa,0xb4,0x10,0x3e,0xad,0x8b,0x23,0x3e,0xe4,0x3c,0xa6,0xbe,0x66,0x3c,0x90,0x3e,0xed,0xf3,0x5f,0xbe,0xc6,0xbe,0x19,0xbe,0x24,0x69,0x27,0x3e,0xe8,0xf2,0x74,0x3e,0x3e,0x38,0x8f,0x3e,0x09,0xd9,0xa4,0x3e,0xdc,0xb0,0x46,0xbe,0x27,0x4d,0x51,0x3e,0x05,0xa5,0xc1,0xbd,0x9f,0x44,0xa2,0x3e,0xe3,0x44,0xc0,0x38,0x74,0x68,0x57,0x3e,0xc4,0x95,0xa2,0x3d,0x00,0x7d,0x80,0x3e,0x09,0xa4,0xd1,0x3d,0xc8,0x22,0x05,0xbe,0x31,0xb8,0x51,0xbd,0x38,0xe0,0x81,0xbd,0x5c,0xaa,0x94,0xbc,0xeb,0xce,0x8d,0xbd,0xd5,0x5b,0x0a,0x3d,0xb4,0x48,0xcf,0x3d,0x75,0x27,0x85,0xbe,0xf0,0xaa,0x08,0xbe,0x06,0xd6,0x6a,0xbe,0x1b,0xf1,0x37,0xbe,0x15,0x2c,0x95,0xbe,0x38,0x04,0x6d,0xbe,0x34,0xf5,0x83,0xbe,0x29,0xc8,0xc0,0xbd,0x8f,0x6c,0xf7,0x3d,0xda,0xf4,0x9f,0x3e,0x35,0x00,0xa3,0x3e,0xb4,0xc3,0x90,0x3e,0xfb,0xc9,0x1d,0x3e,0x20,0xab,0x61,0x3e,0xbb,0xad,0xe8,0xbd,0xc9,0xb1,0xca,0xbc,0x77,0x97,0x35,0x3e,0x28,0xc4,0xf5,0x3c,0xf2,0x64,0x99,0x3d,0x91,0x85,0x9a,0x3e,0xb4,0x03,0xf2,0x3c,0x92,0x06,0xa4,0xbd,0x06,0x13,0x51,0xbe,0x07,0x43,0xeb,0xbd,0x00,0xd4,0x81,0xbd,0x36,0x54,0x63,0x3e,0xf7,0xb1,0x96,0xbd,0x86,0x1e,0x50,0xbd,0xf7,0x86,0x88,0xbe,0x13,0x0a,0xd6,0xbc,0xe4,0x6f,0x41,0x3e,0xf5,0x7a,0x3c,0x3e,0x12,0xf6,0x52,0xbe,0xbd,0x23,0x96,0xbe,0x73,0x55,0x23,0xbe,0xd1,0xdb,0x32,0x3e,0x38,0x80,0x4d,0xbe,0x29,0xff,0x69,0x3e,0x0e,0x68,0xfb,0x3d,0xac,0xd7,0xce,0xbd,0xe1,0xf8,0xa0,0xbe,0xde,0xed,0xe7,0x3d,0x27,0x5e,0x6b,0xbe,0xa4,0xbe,0x35,0xbe,0x89,0x03,0xe4,0xbd,0xca,0x07,0x7b,0x3e,0x53,0xbd,0x83,0x3a,0x42,0x48,0x60,0x3e,0x81,0xeb,0x01,0xbe,0xaa,0x42,0x50,0x3d,0xf8,0xe7,0xd7,0xbc,0x04,0x5b,0xa9,0x3d,0xd0,0x3b,0x9c,0x3d,0x25,0x90,0x72,0x3e,0xd4,0x43,0x66,0x3e,0xd4,0x6f,0x0b,0xbd,0x15,0x5b,0x63,0xbd,0xc4,0x6a,0x6c,0x3e,0xc7,0x32,0x88,0x3e,0x23,0x8c,0x19,0xbe,0x45,0xc6,0x61,0xbe,0xcb,0xb1,0x4c,0x3d,0x71,0xd2,0xa9,0xbe,0x26,0x62,0x11,0xbe,0x50,0x76,0x07,0x3e,0x39,0x79,0x79,0x3d,0xc5,0x9f,0x3c,0x3d,0x5e,0x2b,0xb9,0x3d,0x4f,0x8d,0x24,0xbd,0x93,0x28,0x91,0x3e,0x23,0x2e,0x6b,0xbd,0x18,0x4d,0xdd,0xbd,0x94,0x7c,0xb4,0xbe,0x3c,0x34,0xa0,0x3e,0x3f,0xd9,0x0d,0x3e,0x5b,0xcd,0xd6,0x3d,0x7c,0x3c,0x6b,0x3d,0xcd,0x0a,0x4d,0x3d,0xe2,0x18,0x61,0x3d,0x0b,0x0f,0xb6,0xbc,0xe5,0xa6,0x09,0x3e,0x42,0x56,0xcc,0xbd,0xbd,0x37,0x40,0xbe,0x41,0x60,0x40,0x3e,0x96,0xd6,0x87,0x3d,0x94,0x25,0x8d,0x3e,0x2f,0x57,0xf5,0x3c,0xb6,0xff,0x6f,0xbe,0x6c,0x2a,0x1d,0xbd,0xa9,0x4a,0x5c,0xbe,0xda,0x7b,0x08,0xbe,0xa9,0x4a,0x5f,0xbe,0xc9,0x4b,0x02,0x3e,0xd8,0xb5,0xb0,0xbd,0x51,0x3e,0xb1,0xbd,0xa3,0xaa,0xf6,0x3d,0x01,0xfa,0x27,0x3a,0xee,0xe4,0xc5,0xbc,0x75,0xcd,0x7a,0x3e,0xa8,0xad,0xb9,0x3b,0x1e,0xc8,0xae,0xbc,0x59,0xb9,0xd7,0xbd,0x36,0xbc,0x77,0xbd,0x0d,0xf8,0x30,0xbd,0x19,0x18,0x88,0xbe,0x80,0x3e,0x20,0x3e,0xa1,0x14,0x68,0x3d,0xf4,0x0a,0x3c,0xbe,0x5f,0xfd,0x60,0x3e,0xf8,0x6b,0x09,0x3e,0x11,0x57,0xe7,0x3d,0xd5,0xfa,0xab,0x3e,0x87,0x9a,0x6f,0xbd,0xf7,0x8f,0x20,0x3e,0x81,0xbc,0x4e,0x3d,0x80,0xc2,0x49,0x3e,0x72,0x95,0xba,0x3d,0x14,0x57,0x38,0xbd,0x10,0x1c,0x00,0x3e,0xa9,0x10,0xe7,0xbc,0x12,0x99,0x28,0x3e,0xcf,0x93,0x4b,0x3d,0x39,0x73,0xd6,0x3d,0x2b,0xf1,0x8d,0xbd,0x4d,0xc4,0x29,0x3e,0x7c,0x87,0xfd,0x3d,0x3a,0x31,0x51,0x3e,0x90,0x1d,0x68,0xbe,0x06,0x97,0x4d,0xbd,0xe1,0x4f,0x87,0xbe,0x27,0xc2,0xea,0xbd,0xa5,0x1c,0x42,0xbe,0xcc,0x41,0x11,0x3e,0x85,0x5b,0x1b,0xbe,0xb5,0x96,0xfd,0xbb,0x24,0x2b,0x2d,0x3d,0x91,0xdc,0xdf,0x3d,0x71,0x3b,0x0d,0xbc,0x91,0x21,0x03,0xbd,0xee,0xee,0xa4,0x3d,0x1f,0x3e,0xdc,0x3d,0xe7,0xaa,0x2f,0x3d,0xd9,0x02,0x5b,0x3e,0x92,0x81,0x51,0x3e,0xa4,0x4b,0x8b,0xbd,0x6b,0x1d,0xa4,0xbb,0xee,0x62,0x2a,0xbe,0x1c,0xbb,0x6e,0xbe,0x23,0x98,0x73,0xbe,0xcd,0x5e,0xd5,0xbb,0xb6,0xbf,0x65,0xbd,0xf5,0x52,0xb5,0x3e,0x2c,0x39,0x7a,0x3e,0x0d,0xa8,0x4c,0xbe,0xc1,0x9b,0x25,0xbd,0x3e,0x4b,0x70,0x3e,0xf6,0xc6,0x42,0xbe,0x91,0x3b,0x0e,0x3e,0x7a,0xca,0x62,0xbe,0xdc,0xe3,0xf3,0xbd,0xbf,0xdc,0x52,0x3e,0x63,0x03,0xf0,0xbd,0xff,0x2b,0x26,0xbe,0xec,0x60,0x9d,0x3e,0x86,0xa7,0xd6,0xbb,0x34,0xb5,0x29,0x3e,0x74,0x58,0x83,0x3d,0x2a,0xbf,0x30,0x3e,0x03,0x94,0xdd,0xbd,0x63,0xd5,0x9d,0x3e,0xd3,0xb0,0x66,0xbd,0x3c,0x09,0x5d,0x3c,0xdb,0xb6,0x57,0xbe,0xe2,0x6b,0xb4,0x3e,0x3e,0x45,0x6c,0xbe,0x6e,0xe7,0x09,0xbc,0x01,0x2d,0x92,0x3d,0x89,0x03,0x24,0xbe,0x4f,0x94,0xa9,0xbd,0xf0,0x4c,0x6b,0x3a,0xb9,0x0c,0xb4,0xbd,0x3f,0x0a,0x61,0xbe,0xb9,0x4e,0x0f,0x3d,0x7c,0xba,0xab,0xbd,0x8f,0xb5,0xf6,0xbd,0x19,0x0f,0x8f,0x3e,0xd5,0xc7,0x99,0xbd,0xe8,0x48,0x36,0xbe,0xce,0x33,0x72,0xbe,0xbe,0xd4,0x74,0xbd,0xd5,0x87,0x8b,0xbe,0x63,0x5c,0x41,0x3c,0x63,0x29,0x3e,0xbe,0xee,0xe2,0xf7,0x3d,0x07,0xe0,0x0a,0xbe,0x49,0xd9,0x9a,0xbe,0x6e,0x1e,0x1d,0xbe,0x6c,0x47,0x84,0xbe,0x28,0xc6,0x88,0x3e,0x6e,0x14,0xa5,0xbe,0x5c,0xee,0xa5,0x3c,0x81,0xab,0xf4,0x3d,0x77,0x43,0x97,0x3d,0xfc,0xb7,0x8e,0xbd,0x20,0x75,0x95,0x3d,0x7b,0x79,0x2f,0xbd,0x1f,0x5d,0x25,0x3d,0xd8,0x8b,0xd5,0x3d,0xc9,0x55,0xf7,0xbc,0x62,0x5f,0x77,0x3e,0x3d,0xe7,0x2d,0x3e,0x18,0x1a,0x90,0xbe,0x3e,0x87,0x6e,0xbe,0x60,0x67,0x0a,0x3e,0xeb,0x50,0x53,0x3e,0x0b,0x78,0x6f,0x3e,0x4e,0x0b,0x2a,0xbe,0x5a,0xa0,0x42,0xbe,0xb6,0xff,0xcb,0xbd,0x55,0x32,0xa9,0xbd,0x10,0xf7,0x84,0xbe,0x52,0x2f,0x0f,0xbe,0xb3,0xcf,0x4a,0xbe,0xfd,0x24,0x40,0xbe,0x0c,0x0d,0x17,0x3e,0x2c,0x1f,0x73,0x3d,0xd6,0x06,0xcb,0xbd,0xe7,0x3f,0x41,0x3e,0xb4,0xe2,0x34,0xbe,0x0b,0xe6,0xda,0xbc,0x62,0x52,0x46,0xbe,0x38,0xa2,0x4d,0x3e,0xe1,0x9a,0xad,0x3e,0x1e,0x59,0xf0,0x3d,0x29,0x3d,0xa1,0xbd,0x94,0x52,0x4e,0xbe,0xb1,0x32,0x68,0xbe,0xd4,0x0b,0x96,0xbe,0xa0,0xdf,0x6d,0xbe,0x8b,0xe7,0xbe,0x3d,0x6b,0x1d,0x5d,0x3e,0xf8,0xc8,0xcf,0xbd,0x64,0x6f,0x2e,0xbe,0x14,0x52,0x00,0xbe,0x1b,0x1a,0xaa,0x3e,0xf1,0xe7,0x1f,0x3e,0x38,0xcc,0xfe,0x3d,0xc5,0x79,0xb9,0x3e,0xee,0xfc,0xa7,0x3e,0x53,0x32,0x37,0xbe,0xf7,0x8b,0xc3,0xbd,0x13,0x1b,0xe6,0x3c,0xf8,0x6c,0xf1,0xbd,0x31,0xa7,0xe3,0x3d,0x33,0xde,0x0e,0xbe,0x0f,0x5a,0x93,0xbe,0xd3,0xab,0x24,0x3e,0x80,0x9a,0xfc,0xbd,0x78,0x0d,0x3e,0x3e,0x4c,0x67,0x93,0x3e,0x15,0xa1,0xe2,0xbd,0x38,0x4c,0x3e,0xbe,0xea,0xe2,0x32,0xbe,0x27,0x5f,0x3a,0xbe,0x11,0xca,0x26,0xbe,0xb3,0xd2,0x87,0x3e,0xfb,0x03,0x85,0x3e,0x09,0x1b,0x36,0x3d,0xa2,0xe0,0x58,0xbe,0x56,0x24,0x2d,0xbe,0x33,0xa8,0x71,0x3e,0x14,0x9b,0x88,0x3e,0x6e,0x02,0xf3,0xbd,0x84,0x7e,0x3b,0xbe,0xd0,0xd6,0x52,0xbd,0x10,0x19,0x4b,0x3e,0x25,0x69,0x41,0xbd,0x62,0x3b,0xa6,0xbd,0xa5,0x67,0x03,0x3e,0x66,0xb1,0x90,0xbe,0x86,0xce,0x2b,0xbe,0x72,0xc0,0xb0,0xbd,0x47,0x6d,0xe6,0xbd,0x4b,0x17,0x72,0xbd,0xb9,0x8e,0xde,0x3d,0xee,0x0c,0x21,0x3d,0x6c,0x27,0x81,0x3e,0xd3,0xe7,0xa5,0xbe,0x41,0x61,0x42,0x3e,0x39,0xf9,0x2e,0xbd,0x84,0x8d,0x88,0xbc,0x34,0xec,0x5f,0x3d,0x57,0x39,0xcd,0xbc,0x2d,0x33,0x22,0x3e,0x13,0xeb,0x2e,0x3e,0x66,0x2e,0x41,0xbe,0xc8,0x2a,0x66,0x3e,0x4c,0x0d,0xf8,0xbc,0xc1,0x48,0xf1,0x3d,0x31,0x38,0xea,0xbd,0x27,0x52,0x84,0x3e,0x0d,0x32,0x6c,0x3e,0xd8,0xca,0x60,0x3c,0xd6,0xb5,0xb9,0x3d,0x6b,0x43,0xd2,0x3c,0x57,0xfb,0x49,0x3d,0xa4,0xac,0x93,0xbe,0xcb,0x9f,0x83,0xbe,0x4e,0xa6,0x90,0xbe,0xfd,0xb4,0xee,0xbd,0xb0,0xd4,0xad,0xbd,0x8b,0xac,0x79,0xbd,0x96,0x61,0x44,0x3b,0x3e,0xee,0x9d,0xbd,0xcf,0x58,0x94,0x3e,0xfd,0x0d,0x58,0xbd,0x84,0x9c,0x88,0x3d,0xa5,0x0f,0x88,0xbe,0xf4,0x32,0xa9,0x3d,0xad,0x08,0x45,0x3e,0x7f,0xbc,0x2f,0xbd,0x3b,0xa2,0x3a,0xbe,0xd8,0x69,0x44,0xbe,0x98,0xbe,0x9d,0x3d,0x8a,0xf0,0x54,0x3d,0x4c,0xd9,0x74,0x3d,0x78,0xa6,0x52,0x3e,0x54,0x48,0x8c,0x3e,0x64,0x93,0x4e,0xbe,0x18,0x52,0x87,0xbd,0x06,0xc5,0x2b,0xbe,0xbe,0xe7,0x33,0xbe,0x36,0x62,0x8f,0xbc,0x80,0xcb,0x18,0x3e,0x0a,0x24,0x25,0x3d,0x1b,0x0d,0x54,0x3e,0x54,0x15,0xd1,0xbd,0xb9,0x99,0x7a,0x3e,0x1e,0x60,0xe7,0x3d,0xe8,0x74,0x89,0xbe,0x62,0x42,0x4c,0xbe,0x49,0x58,0x4a,0x3d,0x3e,0x94,0xa8,0xb9,0xa6,0xc6,0x19,0xbe,0xb0,0x0f,0x71,0x3e,0xc9,0x8f,0x89,0x3e,0x7a,0xfc,0xb3,0x3d,0x2a,0xf2,0x0b,0x3d,0x7a,0x17,0xf5,0xbd,0xfa,0x9b,0x26,0xbd,0xee,0xff,0x93,0x3e,0x8a,0xe5,0x8d,0xbe,0xcf,0x9b,0x86,0x3c,0x05,0x79,0xbc,0x3b,0xb0,0x97,0x20,0xbc,0x15,0xab,0xf2,0xbd,0xa9,0x6e,0x8d,0xbe,0x08,0xe8,0x4d,0xbe,0xbb,0x1a,0xe3,0xbd,0xb8,0xcc,0x15,0x3e,0xd3,0x6a,0x29,0x3e,0x8e,0xf6,0x65,0xbe,0xf6,0xc0,0x50,0xbd,0xbb,0xb5,0x97,0x3e,0xf6,0xce,0x7f,0xbe,0x97,0xc5,0x97,0x3e,0x17,0xa8,0xa5,0x3e,0x8f,0x8b,0xa8,0x3e,0x5c,0xde,0x38,0x3d,0xe9,0xe0,0x8e,0x3e,0xb6,0x32,0xa8,0x3e,0x96,0x5c,0x7a,0x3e,0xc0,0xd5,0x3e,0xbd,0x13,0x02,0x8a,0x3e,0xd6,0x84,0x9c,0x3d,0xf9,0x27,0x1c,0x3e,0xd4,0xf2,0x2e,0x3e,0x91,0x67,0xa6,0x3e,0xd0,0x57,0x75,0xbd,0xe2,0xcd,0x6f,0x3e,0xc6,0x8c,0x6d,0x3e,0x8e,0xa9,0x87,0x3c,0x3f,0x39,0x59,0x3e,0xa8,0x89,0x65,0x3e,0x72,0x20,0x6a,0xbd,0xdd,0xea,0x02,0x3e,0x01,0xa4,0x8b,0xbe,0xd2,0x71,0xa6,0xbe,0x3b,0xcd,0x0c,0x3e,0xa1,0x50,0xbb,0x3d,0xe8,0x0f,0x14,0xbe,0xe7,0x55,0x41,0xbe,0x65,0x43,0x92,0xbd,0xb5,0xef,0x10,0x3e,0xda,0xb6,0x70,0xbd,0x6f,0x65,0x1e,0x3e,0x57,0x91,0x8f,0xbe,0xd3,0xea,0x65,0xbd,0x79,0x22,0x43,0x3e,0xe6,0x64,0x17,0x3e,0xe1,0xa4,0x45,0xbe,0x73,0x2c,0x34,0x3c,0xba,0x4a,0x53,0xbe,0x67,0xb7,0xbc,0xbd,0xba,0xf0,0x01,0x3e,0x6f,0xca,0x92,0x3d,0x8a,0x61,0xc6,0xbd,0x34,0xeb,0x87,0x3e,0x31,0xe0,0x0d,0x3e,0x6b,0xb3,0x81,0xbd,0xff,0x81,0x3e,0xbe,0xb8,0x59,0x1d,0x3e,0x0b,0xce,0x52,0x3e,0x78,0x52,0xae,0x3e,0xbd,0xf3,0xba,0x3e,0x50,0x43,0x8a,0x3c,0xef,0x92,0xec,0x3d,0xde,0x2c,0x19,0xbe,0x68,0x63,0x8e,0xbe,0x79,0x5f,0x5b,0x3b,0x18,0xd0,0xac,0x3d,0xb3,0xf4,0xd1,0xbc,0xec,0x2d,0x2f,0x3e,0x55,0xcc,0x56,0xbe,0x41,0x09,0xc7,0x3c,0x33,0xab,0x03,0xbe,0x1e,0xce,0xbe,0xbd,0x4a,0xac,0xbf,0xbb,0xb3,0x4d,0xa2,0xbd,0x86,0xcd,0x7b,0xbe,0x19,0x0d,0xce,0x3d,0x12,0x8b,0x68,0xbe,0xf3,0x4d,0x90,0xbe,0x0d,0x77,0x31,0x3e,0x95,0xdc,0x27,0xbe,0x51,0xf9,0x40,0x3d,0x0d,0xa6,0x44,0x3e,0x16,0xbe,0xad,0x3d,0x08,0x8b,0x7b,0x3e,0xcc,0x3f,0x51,0xbe,0x3f,0xa1,0x1f,0x3e,0x3a,0x50,0xc1,0xbd,0x95,0x31,0x78,0xbe,0xf9,0xdc,0x17,0x3e,0x12,0x7d,0x76,0x3e,0x2c,0x07,0x98,0x3d,0x62,0xd3,0x10,0xbd,0x47,0xc1,0xa3,0x3e,0x92,0xec,0x39,0xbe,0x7f,0x54,0x56,0x3e,0x2c,0x02,0x16,0x3d,0x4c,0x5c,0x76,0x3e,0xe4,0x0d,0xfa,0xbd,0x4c,0x1a,0x62,0x3e,0x5b,0x56,0x03,0xbe,0xe9,0xf9,0x28,0xbe,0x22,0x5f,0x4c,0x3e,0xf6,0x0a,0x99,0xbe,0xbe,0xb8,0x4c,0x3d,0x8a,0x17,0x3c,0xbe,0xde,0xb9,0x1b,0x3e,0x94,0x66,0x39,0x3e,0x50,0x03,0x44,0x3e,0xbb,0xd2,0x40,0xbe,0x58,0x1f,0x67,0x3c,0x1c,0xa8,0x17,0xbe,0x80,0x67,0xce,0x3a,0xa8,0xf1,0x4b,0xbe,0x79,0x3c,0x5c,0xbd,0xf4,0xdd,0x83,0xbd,0xf1,0x68,0x1e,0xbe,0xc4,0xc5,0x56,0x3e,0xa1,0x46,0xa2,0x3e,0x1f,0x15,0x93,0x3e,0x50,0xa3,0x1c,0x3e,0xf9,0x66,0xac,0xbd,0x3a,0x34,0x80,0xbe,0x16,0xbd,0x69,0x3e,0xb2,0x30,0x53,0xbe,0x4c,0x99,0x94,0xbe,0x91,0x8d,0x1e,0xbe,0x8d,0xba,0x58,0xbe,0x12,0xd2,0x06,0xbd,0x92,0x54,0x9b,0x3e,0xaa,0x81,0x13,0x3e,0x4a,0x2b,0x65,0x3e,0xe1,0x3c,0xaa,0x3e,0x86,0x9e,0x16,0x3d,0xa9,0x7f,0x93,0x3d,0x7b,0x92,0x79,0x3e,0x4d,0xb1,0x0a,0x3e,0x40,0xd7,0x41,0x3e,0xdb,0x7e,0xe6,0xbc,0xe7,0xa1,0x79,0x3d,0x7b,0x8f,0x07,0xbd,0x72,0xd0,0x1c,0x3c,0xb7,0xf3,0xd0,0x3d,0x67,0x3c,0xc2,0x3d,0xa8,0x7d,0x19,0x3c,0x2e,0x45,0x9e,0x3e,0xbf,0x15,0x08,0x3e,0x98,0xf1,0xfe,0xbd,0x66,0x19,0x2d,0x3a,0xf1,0x06,0x7b,0xbe,0x6d,0x9c,0x04,0xbd,0xac,0xe1,0x94,0x3e,0x2f,0x28,0x9f,0x3e,0x55,0xb1,0x49,0xbe,0xff,0x3b,0x02,0xbd,0x5e,0x44,0xab,0x3d,0xa2,0x22,0xaa,0xbd,0x07,0x64,0x96,0x3e,0x65,0x17,0x92,0x3c,0x02,0x69,0x65,0x3e,0x0c,0xb3,0xe8,0xbd,0x66,0xde,0x6a,0xbe,0xd7,0x5d,0x31,0x3e,0x86,0xf3,0xf3,0x3d,0x1e,0x86,0xcd,0x3d,0x21,0xde,0x3b,0xbe,0x84,0xa7,0xa7,0x3e,0x84,0x96,0x3b,0x3e,0xf5,0x8f,0x81,0x3c,0x83,0xa0,0x7f,0x3d,0xc3,0xc4,0x00,0x3e,0xe2,0xb6,0x4e,0xbd,0x4f,0x8e,0xeb,0xbd,0xd3,0x41,0xb3,0xbd,0x80,0xfe,0xd6,0xbc,0xad,0x9d,0xb2,0xbd,0x24,0xeb,0x98,0x3e,0x91,0xe9,0xcb,0xbd,0xfa,0x11,0x4f,0x3e,0xf5,0x3f,0xb6,0x3e,0x42,0x42,0x89,0xbe,0xda,0x3c,0x24,0x3e,0x28,0xbd,0x84,0x3d,0x91,0x44,0x3d,0x3e,0xef,0xae,0x27,0xbe,0x70,0x09,0x37,0xbe,0x6f,0x65,0xb9,0x3d,0x9d,0xe6,0xa3,0x3e,0x44,0xec,0xe4,0x3d,0x4d,0xd6,0x5e,0x3e,0x77,0x83,0xf6,0xbd,0x88,0x75,0x5d,0xbe,0xde,0xb3,0x8c,0x3e,0x95,0xdc,0x67,0xbe,0x92,0xb5,0x37,0xbe,0x71,0xd1,0x1d,0x3e,0x98,0x31,0xa5,0xbe,0x7d,0xe1,0x85,0xbe,0xbd,0xfa,0x3a,0x3e,0x91,0x04,0x1d,0x3e,0xde,0x7a,0x5f,0x3e,0xfd,0x16,0xa2,0xbd,0x46,0xc0,0x73,0x3e,0x19,0x70,0xc9,0x3d,0xec,0x85,0xad,0xbd,0xa2,0x3e,0x27,0x3d,0xa5,0xc7,0x45,0x3e,0xec,0xdc,0x67,0x3c,0x52,0x22,0xab,0x3e,0xbb,0xe1,0xf1,0x3d,0xcc,0x5f,0xe1,0x3d,0x35,0xdd,0x3b,0xbd,0x04,0x2c,0x10,0xbe,0xc6,0x51,0x37,0xbe,0xe5,0xe7,0x06,0xbe,0x47,0x3b,0x0d,0x3e,0xa1,0x51,0x48,0x3e,0x52,0x11,0x85,0x3d,0x8e,0x74,0xcc,0x3e,0x57,0x49,0x16,0xbe,0xd8,0x18,0x38,0x3e,0x80,0xaa,0xe8,0x3d,0xf2,0xf2,0xcd,0xbd,0x9e,0x3b,0x50,0x3e,0xa6,0xac,0x19,0xbe,0xae,0x9d,0x5b,0xbe,0xfa,0x9f,0xdb,0xbb,0x53,0xae,0x45,0x3e,0x5f,0xbc,0x1e,0x3e,0x43,0xb7,0x58,0xbe,0x4f,0x64,0x91,0x3e,0x61,0xfc,0x24,0xbe,0x39,0x97,0x34,0xbe,0x4f,0xd4,0x9c,0xbd,0xa9,0xf2,0x77,0x3e,0x43,0x81,0x87,0x3d,0x70,0x04,0x53,0xbe,0xa1,0xf2,0x89,0xbc,0x9b,0x5c,0xf6,0xbd,0x6b,0xce,0x8b,0x3b,0x05,0xb8,0x92,0x3e,0x73,0x37,0x6c,0xbe,0x7b,0x0d,0x1f,0x3d,0x15,0x50,0x5c,0xbe,0x4e,0x5e,0x60,0xbe,0x23,0xcb,0x4e,0xbe,0xab,0xbb,0xdb,0xbc,0xf8,0x4e,0x89,0xbe,0x51,0x8d,0xd2,0xbc,0x46,0x67,0x98,0xbe,0xcc,0x35,0x81,0x3d,0xe4,0x93,0x8d,0xbe,0x77,0x62,0x47,0x3d,0xb6,0x72,0x5e,0x3e,0x8d,0x99,0x59,0x3e,0x88,0x73,0x77,0xbe,0xb7,0x63,0x24,0xbe,0xaa,0x49,0x9d,0xbe,0x98,0x23,0x41,0xbe,0xe8,0x62,0x17,0xbe,0xec,0xc1,0xcc,0xbd,0x15,0xa0,0x8b,0x3e,0x7f,0xa3,0x54,0x3e,0x04,0xc8,0xe0,0xbd,0x2e,0x1c,0x8b,0x3e,0xef,0x52,0xa6,0xbe,0xbf,0x99,0xf3,0x3c,0xa8,0xab,0x70,0xbe,0x65,0x81,0x64,0xbe,0xce,0xdc,0xbb,0x3d,0xf5,0xf0,0x05,0x3c,0x38,0xb4,0xd2,0x3c,0xd3,0x72,0x99,0xbc,0x08,0xcf,0x3f,0xbe,0xb8,0x31,0x80,0xbe,0x6d,0x92,0xae,0x3e,0xba,0xdb,0x0e,0x3e,0x90,0x33,0x1c,0xbd,0x0b,0x35,0x76,0xbe,0x93,0x0a,0xaa,0xbc,0xf7,0xf3,0x65,0x3d,0x86,0xbd,0xe7,0x3d,0xb3,0x76,0x6b,0xbe,0x40,0xe0,0x4e,0x3d,0xc6,0x43,0x85,0x3e,0x76,0x8e,0xe4,0xbd,0xc4,0xbd,0x85,0xbe,0xcd,0x07,0xad,0x3e,0xfe,0x29,0x74,0x3d,0x2a,0x43,0xad,0x3c,0x91,0x91,0xbe,0x3e,0x7e,0xb8,0x2f,0xbe,0xb9,0x7e,0x2d,0xbe,0x80,0x6a,0xc2,0xbd,0x3d,0x01,0x05,0xbe,0xb8,0x35,0x6f,0xbd,0x87,0x20,0x1c,0xbc,0x26,0x32,0x2c,0x3e,0x14,0x6a,0x00,0xbe,0x31,0x17,0x5c,0xbe,0x0d,0xab,0x5b,0x3d,0x41,0xb9,0x0f,0xbe,0x5b,0xf2,0x9a,0xbd,0x04,0x3b,0xa0,0x3d,0xbe,0x56,0x86,0x3e,0xd0,0x4c,0xb2,0xbd,0xe4,0xaf,0xb0,0x3e,0x64,0x4b,0x72,0x3e,0xb3,0x1f,0x3a,0x3e,0x5f,0x2b,0xe2,0xbd,0x90,0xc3,0x56,0xbe,0xc6,0x41,0x90,0xbd,0xb7,0x3b,0xbe,0x3d,0xaa,0xbd,0x8e,0xbd,0x7d,0x81,0x02,0xbe,0xfc,0x4c,0x51,0x3d,0xe1,0xe9,0x25,0xbe,0xd6,0x1e,0x58,0x3e,0xfc,0xac,0x3f,0xbc,0x09,0x18,0x85,0x3c,0xae,0x1b,0x57,0x3d,0x3b,0x9c,0x86,0x3e,0xb4,0x92,0xf7,0xbd,0xae,0x77,0xbd,0x3d,0xd2,0x02,0x51,0x3e,0x68,0xcb,0x6c,0x3d,0xf0,0xdb,0x87,0xbe,0x08,0x2b,0x03,0xbc,0x22,0x09,0x98,0x3d,0x05,0x53,0xa1,0xbd,0xc8,0x82,0xf2,0xbd,0xdf,0xd5,0x96,0x3d,0xd2,0xa3,0x6f,0xbd,0x6d,0x70,0x4c,0xbe,0x6d,0xbd,0x99,0x3e,0x52,0x74,0xa9,0x3e,0xec,0xbb,0xf1,0xbc,0x65,0xdf,0xf3,0xbc,0x9a,0xd3,0x47,0x3d,0x42,0x9a,0xc8,0xbc,0x15,0xcb,0x78,0xbe,0x78,0x08,0xcc,0xbb,0xa8,0x66,0x2e,0xbe,0x4b,0x68,0xd3,0xb9,0xe0,0x32,0x6e,0xbb,0x7f,0xab,0x64,0xbe,0x73,0x75,0x7b,0x3e,0x26,0x77,0x63,0x3e,0x3c,0xc9,0xcd,0xbd,0xf2,0xde,0x2c,0x3d,0x62,0x42,0x22,0xbe,0xe2,0xe7,0xb6,0xbb,0x87,0xf0,0x0c,0xbe,0xcc,0xe6,0xad,0x3c,0x31,0x05,0x23,0x3e,0x3f,0x4b,0xf4,0xbb,0xf0,0xa6,0xd0,0xbc,0xb4,0x83,0xe6,0xbd,0x70,0xb5,0x70,0x3c,0xb9,0x3d,0x25,0x3e,0x80,0xc5,0x56,0x3e,0x79,0x3a,0x80,0xbe,0xc1,0xa2,0x4a,0x3e,0x7a,0xc8,0x8e,0xbd,0xb6,0x9b,0x74,0xbe,0xb0,0xc1,0x9f,0x3d,0x22,0x22,0x1f,0xbe,0x98,0x27,0x9a,0xbe,0x8b,0x17,0x86,0x3e,0x74,0x35,0xd4,0xbc,0xc7,0xdf,0xf8,0xbd,0xc0,0x96,0x56,0xbe,0xfa,0xdd,0x46,0x3e,0xb8,0xa7,0x28,0x3e,0xd8,0x8c,0x10,0x3e,0x11,0xe0,0x62,0xbe,0xd6,0x40,0x50,0x3d,0x29,0x70,0x8b,0xbe,0x5a,0x13,0xa1,0x3d,0xcd,0x73,0x07,0x3d,0xf6,0xa3,0xfa,0x3d,0x07,0x6c,0x8b,0xbe,0xb0,0xbc,0x9d,0x3e,0x85,0xc4,0xd4,0xbd,0xa1,0x73,0xe6,0x3d,0x90,0xf1,0x8f,0xbd,0x64,0x76,0x82,0xbe,0x61,0xce,0x3b,0xbb,0x59,0x0a,0x82,0xbe,0x7d,0x8f,0x0b,0x3e,0x6a,0x05,0xb6,0xbe,0xcf,0x4a,0xbb,0x3e,0x71,0xdf,0xa7,0x3e,0x04,0x6d,0x3c,0x3e,0x79,0x31,0x1e,0x3e,0xd8,0x31,0x3b,0xbe,0x08,0xe3,0x8f,0x3e,0x7e,0xfd,0x7c,0x3e,0x6d,0xe8,0x82,0x3d,0x66,0x08,0x91,0x3e,0x4e,0x73,0x79,0x3e,0x57,0xa3,0x3f,0xbe,0xe1,0xdc,0x8b,0x3c,0xf2,0xef,0xff,0xff,0x04,0x00,0x00,0x00,0x00,0x10,0x00,0x00,0xfe,0x94,0x94,0xbc,0x38,0x0f,0x9b,0xbe,0x06,0x8e,0x53,0x3e,0x3e,0x58,0xc6,0xbd,0xfd,0x34,0xc9,0xbd,0x29,0xf6,0x97,0xbe,0x65,0x14,0x0b,0x3d,0xc3,0x46,0x50,0x3e,0x05,0x66,0x89,0x3c,0xe5,0xb1,0xca,0x3d,0x6a,0xcf,0x11,0xbe,0xdd,0x4c,0x3a,0xbe,0x9b,0x02,0x8b,0x3e,0xbf,0xa7,0x94,0xbe,0xc8,0x4f,0xec,0xbd,0x5f,0xdf,0x88,0x3e,0x94,0x5d,0x03,0x3e,0x0f,0xbd,0xcd,0xbd,0x63,0xad,0xd7,0xbd,0x3e,0xb5,0x6d,0x3e,0xb8,0x55,0xe4,0x3d,0xcc,0x95,0xae,0x3e,0xec,0x67,0xb7,0xbd,0xc4,0xe1,0x67,0xbe,0x63,0xa5,0x6a,0x3e,0x9a,0x16,0x2d,0x3e,0xbf,0xbe,0x10,0x3e,0x5f,0xfa,0x07,0x3d,0x24,0x19,0x85,0x3e,0x7d,0x7a,0x10,0xbd,0x6c,0xc1,0x2d,0xbe,0x74,0x91,0x57,0x3d,0x78,0xa4,0xfb,0xbd,0xee,0xb3,0x8c,0xbe,0x32,0xe3,0x95,0x3d,0xff,0xa8,0x94,0x3e,0xe5,0x55,0x62,0xbe,0xc6,0xaa,0x80,0x3e,0xf2,0x04,0x50,0x3d,0x70,0xe8,0x7c,0x3e,0x96,0xac,0xab,0x3d,0x82,0xe8,0x8c,0xbe,0x17,0xfa,0x8f,0x3d,0xe9,0xb7,0x05,0x3d,0x14,0x9b,0x84,0x3e,0x61,0xff,0x4f,0x3d,0x4f,0xc6,0x11,0xbe,0x9d,0x0f,0x88,0xbe,0x03,0x5d,0x2e,0x3e,0x76,0xff,0x37,0xbe,0x8a,0x44,0x83,0x3e,0xd8,0xe0,0x22,0xbe,0x2f,0xb9,0x19,0xbd,0x40,0xb9,0x8c,0xbe,0x20,0x77,0x4c,0xbe,0xf3,0xa3,0x31,0x3d,0x70,0xa6,0x88,0x3d,0xa7,0xbc,0x7d,0x3e,0xc8,0x11,0x32,0xbe,0xc5,0x97,0x9b,0x3e,0x4f,0xe1,0x6f,0x3e,0x62,0x0f,0x5a,0xbd,0x93,0xbf,0xb5,0x3d,0x04,0xbc,0xbf,0x3e,0x14,0x36,0x1b,0xbe,0xf8,0x4a,0xe5,0x3d,0x6f,0x34,0x9a,0xbe,0x6d,0xd1,0x82,0x3e,0x70,0x03,0x53,0x3e,0xb2,0xf5,0x90,0x3e,0x4f,0xeb,0x34,0xbe,0xc5,0x01,0xd4,0xbd,0x57,0x30,0x90,0xbe,0xd7,0x90,0xb7,0x3c,0xa7,0x79,0xa6,0xbe,0x18,0x28,0x63,0xbd,0xce,0x03,0x60,0x3e,0xbe,0x3c,0x51,0x3d,0x32,0x09,0x32,0xbe,0xe6,0xec,0x83,0x3c,0x18,0x3e,0x4c,0x3e,0x31,0x4a,0xa1,0x3d,0x8f,0x39,0xb2,0xbd,0x71,0x22,0x53,0xbe,0xbe,0xc3,0x26,0xbe,0xeb,0x74,0x22,0x3e,0x9e,0xf3,0x14,0xbe,0x7e,0x5b,0x98,0x3e,0x92,0xdc,0x70,0xbc,0x28,0x17,0x83,0x3e,0x4e,0xd5,0x8c,0x3e,0x14,0x5e,0x71,0xbe,0x06,0x33,0x24,0x3d,0x86,0x3d,0xf9,0xbd,0x9c,0x96,0x59,0x3e,0xea,0x14,0x74,0xbe,0x1c,0x46,0x85,0xbb,0xfe,0x49,0x2a,0x3e,0xdd,0xec,0xd7,0x3d,0x28,0xdf,0x80,0xbe,0x4a,0x7f,0x08,0xbe,0x11,0x3f,0x91,0xbd,0x1a,0xe2,0x47,0x3d,0xec,0xfd,0x03,0x3d,0xa1,0xfa,0xdd,0xbd,0x8a,0xdd,0x56,0x39,0x19,0x41,0x18,0xbe,0x52,0xeb,0x44,0xbe,0x9e,0x37,0x8e,0xbe,0x58,0x0a,0x80,0x3e,0x88,0x43,0xa0,0x3e,0xea,0xe8,0x7d,0x3e,0x48,0x1e,0xc3,0xbd,0xaf,0x53,0xee,0xbd,0xea,0x43,0xad,0x3c,0x63,0x52,0x38,0xbe,0x6c,0xa4,0x77,0x3e,0xd9,0x18,0x24,0xbd,0x02,0x94,0xc5,0x3d,0x7d,0x2a,0x16,0x3d,0xbb,0xb5,0xa1,0xbe,0x8d,0x53,0x8d,0x3e,0xa4,0x17,0x8e,0xbd,0xb2,0xdf,0xc2,0xbc,0xa3,0x8a,0x9d,0xbe,0x82,0xae,0x54,0xbb,0x3f,0x1d,0x87,0xbe,0x28,0x15,0xe2,0x3d,0x7e,0xb1,0x2e,0xbd,0xc0,0x82,0xa2,0xbb,0x17,0xeb,0x6d,0x3e,0x20,0xa6,0x48,0xbe,0x46,0xf2,0x58,0x3e,0x3c,0x44,0x08,0x3d,0x62,0xf1,0x1c,0xbd,0x61,0x8b,0x81,0xbe,0x80,0x90,0x63,0xbd,0x47,0x36,0xd8,0x3d,0xd4,0x31,0x8b,0xbe,0x85,0x30,0xae,0x3d,0xb9,0x85,0x54,0x3e,0xf1,0xcb,0xbe,0xbd,0x21,0xcc,0x0b,0x3e,0xdd,0x0e,0x3a,0xbe,0xe0,0x72,0x60,0x3e,0xec,0x0d,0x11,0xbd,0xdf,0x00,0xe2,0x3d,0xd9,0xe6,0xfd,0xbd,0x4d,0x0b,0x53,0x3e,0xba,0xcc,0x86,0x3d,0xc7,0x3b,0x80,0x3e,0xf3,0x19,0x7e,0xbe,0x05,0x17,0xa2,0xbd,0xa4,0x69,0x25,0xbe,0xae,0x91,0xdf,0x3e,0xb6,0x52,0x60,0xbe,0x51,0x63,0x15,0x3e,0x7a,0x4e,0x97,0x3d,0x49,0x3c,0xef,0x3c,0x41,0xb8,0x23,0x3c,0x13,0xf3,0x97,0xbe,0xe2,0xe6,0x93,0xbe,0x29,0x5e,0x7e,0xbe,0x4c,0x83,0xbe,0xbd,0x7f,0xea,0x97,0x3e,0x14,0xb0,0x14,0xbe,0xb7,0x73,0x83,0xbe,0xda,0xcd,0xf9,0x3d,0x9a,0x53,0xf4,0xbd,0x4c,0xeb,0x07,0x3e,0x25,0x44,0x83,0x3e,0xe4,0xd2,0x72,0x3e,0x6f,0xc0,0x90,0xbc,0x62,0x9d,0x48,0xbb,0x17,0x2d,0x2e,0x3e,0x86,0x2a,0xc1,0x3d,0x85,0xa1,0x8b,0x3e,0x42,0xe5,0xea,0xbc,0xa2,0xd7,0x5e,0x3e,0x33,0xff,0xa6,0x3e,0x46,0xd4,0x7a,0xbe,0x85,0x64,0x52,0x3e,0x6b,0x65,0x82,0x3c,0xa5,0x63,0xd9,0xbd,0xc2,0x61,0x1d,0xbd,0x46,0xa9,0x6f,0xbe,0xd2,0x17,0x32,0xbd,0xb1,0x93,0x84,0xbe,0xd9,0xc4,0x37,0x3e,0xf9,0x71,0x85,0xbe,0x8d,0x4f,0x6e,0xbe,0x31,0x93,0x1f,0x3e,0xf1,0xcd,0xe5,0xbd,0x17,0x88,0x95,0xbe,0x39,0x85,0x7a,0xbe,0x60,0x9f,0x10,0xbc,0x61,0xda,0x81,0x3e,0xe7,0x96,0x0d,0xbe,0x45,0x53,0xd3,0x3d,0x92,0x59,0x96,0x3e,0xdd,0x37,0xe3,0x3d,0xc1,0x73,0xac,0x3d,0xd2,0x37,0x23,0xbe,0x7f,0xd6,0x0b,0x3d,0x75,0xf8,0xa2,0x3e,0x3c,0x09,0xe7,0x3d,0x8c,0xa6,0x8a,0x3e,0x1d,0x7f,0xa0,0xbd,0x71,0x47,0xe7,0x3d,0x94,0x7c,0x91,0x3e,0xf3,0xcd,0x66,0xbe,0x26,0x47,0xa2,0x3e,0xe8,0xef,0xfd,0xbd,0x10,0x20,0x71,0x3d,0xce,0x6e,0x63,0x3d,0x3f,0x34,0x40,0xbd,0x70,0x5b,0xa8,0xbe,0xbb,0x32,0x81,0xbc,0x5f,0x7a,0xf4,0xbd,0x4d,0xe3,0x02,0xbe,0x7a,0x98,0xb9,0xbd,0x3f,0x32,0x8a,0xbd,0xb1,0x47,0x81,0x3e,0x73,0x2e,0x92,0x3d,0x18,0x54,0x9b,0x3e,0xa0,0xfe,0x33,0x3c,0x93,0x11,0x9a,0x3e,0x30,0x73,0x66,0x3d,0x13,0xe7,0x5d,0xbd,0xf5,0x56,0x9c,0x3d,0xeb,0x72,0x44,0xbe,0x82,0x47,0x8c,0xbe,0xdf,0x7c,0x3b,0xbd,0xa9,0x04,0x89,0xbe,0xcc,0x13,0x7e,0xbd,0x24,0x72,0x9f,0x3e,0xb3,0xdc,0x16,0xbe,0xff,0xb6,0x78,0xbe,0x86,0x0b,0x89,0xbe,0xe2,0xe6,0x91,0x3d,0x5e,0x23,0xa5,0xbe,0x44,0x4c,0x7e,0xbe,0x19,0x88,0x3d,0x3e,0x89,0x2e,0x2e,0xbe,0x9f,0x64,0xea,0xbd,0xea,0xa1,0x14,0x3e,0x98,0xac,0x71,0x3d,0x47,0x38,0x67,0xbe,0xbe,0x8d,0x8d,0x3e,0x45,0x33,0xb8,0xbc,0x79,0x78,0xfb,0x3d,0x3e,0xea,0xef,0x3d,0xd8,0x79,0x8c,0x3e,0x02,0x0e,0xe9,0xbd,0x6e,0x18,0xf2,0xbd,0x7f,0x4f,0x01,0x3e,0xd1,0xf5,0x5e,0x3e,0xd9,0xa6,0x88,0x3e,0xcd,0x24,0x25,0x3d,0xd8,0x4e,0x0d,0x3d,0x6a,0xd0,0x7c,0xbe,0x7a,0xac,0x5e,0x3e,0x45,0x93,0xc6,0x3d,0x67,0x5e,0x41,0x3c,0xc1,0xe7,0x2e,0x3d,0x05,0xe4,0x3d,0x3e,0x0a,0x36,0x08,0xbe,0xbb,0xff,0x09,0xbe,0xd4,0x1f,0x12,0x3d,0xc2,0x0a,0x48,0x3e,0x7b,0x0f,0xdd,0x3c,0x6f,0x0b,0xa4,0x3e,0xa7,0x56,0x90,0xbd,0x14,0x7d,0x91,0x3e,0x8f,0xbb,0x65,0xbe,0x99,0x13,0x01,0x3e,0x1e,0x0d,0x76,0xbe,0xa6,0x7c,0x07,0xbd,0xb8,0x19,0x5d,0xbe,0xf3,0x10,0x06,0x3e,0xc1,0xc6,0x59,0xbd,0x28,0x59,0x51,0x3e,0x82,0xee,0x00,0x3e,0xf3,0x6e,0x6d,0xbe,0x9c,0xc6,0x14,0x3e,0x01,0xa2,0x48,0x3e,0x8e,0x7d,0xc2,0xbb,0x73,0x93,0xaf,0xbd,0x6b,0xaa,0x39,0x3e,0xa0,0xc1,0x54,0x3d,0xd2,0x1d,0xc1,0xbc,0x28,0xe1,0xcb,0xbd,0x59,0x44,0x5a,0x3e,0xd3,0x0e,0x61,0xbe,0xb8,0x06,0x6f,0x3e,0xea,0xad,0xa8,0xbd,0x32,0x66,0x35,0xbd,0xc1,0x69,0x62,0xbe,0x42,0xc1,0x8d,0xbd,0x04,0xe3,0x8a,0x3d,0x81,0xe3,0x68,0xbe,0xee,0x39,0xd0,0xbb,0x26,0xcf,0x20,0x3e,0xd8,0x32,0x82,0x3d,0xfb,0x92,0x07,0x3e,0xd4,0x7a,0x4e,0x3e,0x0b,0x30,0x1b,0xbe,0x1d,0xc3,0x31,0x3d,0xb3,0x74,0x40,0x3e,0x35,0x0f,0xa6,0x3e,0x53,0xa7,0x9c,0x3d,0x56,0xc5,0xff,0xbd,0x25,0xba,0x8f,0x3e,0x28,0x27,0x1e,0xbe,0xf4,0x6d,0xc4,0x3e,0x6d,0xfd,0x24,0xbe,0x76,0x63,0x2f,0x3e,0xf0,0x12,0x4e,0xbe,0xce,0xc6,0x8a,0x3e,0x94,0xd1,0x99,0xbe,0x0f,0xa2,0x9f,0x3e,0x84,0xde,0x89,0xbe,0xcc,0xf7,0x31,0x3e,0x76,0x7b,0x7d,0x3e,0x21,0xb8,0x29,0x3e,0x23,0x3a,0x5b,0xbd,0xa9,0x87,0xc2,0xbc,0xe8,0x65,0x5d,0xbd,0xaf,0xfe,0x92,0xbe,0x77,0xeb,0xfb,0xbc,0xac,0xf3,0x9e,0xbd,0x73,0x64,0x94,0xbe,0x06,0x1d,0x32,0x3e,0xb0,0x55,0xf5,0x3c,0x51,0x1c,0x01,0x3e,0x67,0xfe,0x2e,0xbe,0x27,0x0c,0x94,0xbe,0x8e,0x45,0x9d,0xbe,0x97,0x7c,0xbb,0x3d,0x4f,0x27,0x2b,0x3e,0xe9,0x94,0x4d,0xbe,0x73,0x97,0xc1,0x3d,0xa1,0x85,0xbd,0x3d,0x53,0x4f,0x98,0x3d,0xc0,0x44,0xab,0x3d,0x90,0xf8,0x71,0x3e,0xca,0x99,0x82,0xbd,0x18,0x2a,0xfc,0x3d,0x2a,0x20,0x8c,0x3e,0x1e,0x12,0x1e,0xbd,0xd7,0xb5,0x91,0xbd,0x1a,0x4b,0x3f,0x3e,0x52,0x9e,0x29,0x3e,0x18,0xfc,0x28,0x3e,0x16,0xf2,0x80,0x3e,0xae,0x64,0x14,0xbe,0x92,0x38,0xad,0x3e,0xb3,0x2a,0xc8,0xbd,0xa5,0x88,0x50,0xbc,0xb2,0x5a,0x50,0xbe,0x15,0x02,0x07,0xbe,0x28,0xd4,0x88,0xbe,0x14,0xfa,0xb0,0xbd,0xd2,0x77,0xc8,0x3d,0x30,0x39,0x3e,0xbe,0x82,0xa9,0xf1,0x3d,0x9f,0xb5,0x43,0xbe,0xf6,0xd4,0xa7,0x3e,0x86,0xcd,0x42,0xbe,0xaa,0x36,0x7f,0xbd,0x99,0xcc,0x08,0xbe,0xf6,0xbb,0xe4,0xbd,0xb1,0x6e,0x8d,0x3e,0x99,0x40,0x0b,0x3e,0x0f,0xcc,0x45,0x3e,0xd1,0xf0,0x1d,0xbe,0xc1,0xc6,0xb9,0x3e,0x92,0x91,0x7b,0x3e,0x29,0x68,0x63,0xbd,0xf8,0xdb,0x4c,0xbe,0x2e,0xe5,0x93,0x3e,0x91,0x42,0x93,0x3d,0x20,0x50,0x27,0x3e,0x7c,0x2e,0x65,0xbe,0xae,0xbd,0x5e,0xbe,0x38,0x8a,0x71,0x3d,0x60,0x01,0x35,0xbe,0x97,0xd3,0x6a,0xbe,0xe2,0xfa,0xc6,0x3d,0x49,0x9a,0x8b,0x3d,0x2d,0xae,0xc3,0xbd,0x3b,0xe5,0xe9,0xbd,0x0f,0xaf,0xd2,0x3d,0x22,0x16,0x61,0x3e,0x61,0x5f,0x37,0x3e,0xa3,0xe9,0xfc,0xbd,0xb5,0x40,0x99,0x3e,0x50,0x17,0xa5,0x3e,0x8e,0x52,0x95,0xbd,0x35,0xc3,0x4f,0x3e,0x5f,0xde,0x90,0x3e,0xf0,0xd0,0x69,0xbe,0x85,0x5e,0x38,0x3c,0x43,0xab,0xae,0x3d,0x23,0x4e,0x62,0xbe,0x04,0xe5,0x78,0xbe,0xe0,0x6b,0x5e,0xbe,0x32,0x6d,0xd5,0x3c,0x63,0x3e,0x13,0x3e,0x21,0x96,0x1f,0xbd,0xef,0xaf,0xbd,0x3c,0x13,0x30,0x45,0xbd,0x77,0x45,0x92,0x3d,0xc7,0x7e,0xc5,0x3d,0xf3,0x7e,0xad,0x3d,0x38,0xaf,0x68,0x3d,0x1d,0x7c,0xf6,0x3b,0xf0,0x08,0x42,0xbe,0x19,0xa0,0xd7,0xbc,0x38,0xff,0x60,0x3d,0xf1,0x9e,0x8d,0xbd,0x0f,0xfb,0x06,0x3e,0x76,0x04,0x5e,0xbd,0x16,0xd5,0x5d,0x3d,0x9d,0x30,0xa1,0x3d,0xcd,0xfd,0x98,0xbd,0x9c,0x74,0xc6,0x3e,0xdd,0x53,0x9b,0xbd,0x5f,0x4a,0x63,0x3d,0xd3,0x33,0xe1,0x3d,0x85,0xac,0x90,0xbd,0x90,0xeb,0x8d,0xbe,0x07,0x4d,0xa4,0x3e,0x26,0xc8,0x6c,0xbe,0x19,0xeb,0x9e,0x3d,0xb1,0xef,0xab,0xbc,0x92,0xca,0x73,0x3e,0x75,0xd0,0x29,0x3e,0x25,0xcb,0x5a,0xbe,0x22,0xc0,0x3e,0x3e,0x7c,0x38,0x2b,0x3e,0xd2,0xb0,0x7a,0xbb,0x93,0xfb,0x8e,0xbe,0xda,0x74,0x2c,0x3e,0x47,0x14,0x0b,0xbe,0xc3,0x95,0x96,0x3e,0xce,0x50,0x94,0xbe,0x20,0xe2,0x74,0x3d,0xdc,0x51,0xb3,0x3e,0x7a,0x14,0x42,0x3e,0x27,0xb4,0x20,0xbd,0x5c,0x8f,0x3b,0x3e,0xd3,0x08,0x13,0x3e,0x9b,0x65,0x83,0x3e,0x40,0xe4,0xad,0x3e,0xc0,0x73,0x0a,0x3e,0x53,0xbf,0xfb,0xbd,0xf3,0xfa,0x10,0xbe,0xc9,0x4d,0xce,0xbc,0x93,0x22,0x8f,0xbe,0xad,0x90,0x96,0x3d,0x50,0xd8,0x52,0xbe,0xf4,0xc7,0xa3,0xbe,0xaf,0x2f,0x73,0xbe,0x04,0x6a,0xc2,0xbd,0x6d,0x99,0x21,0xbe,0x38,0x5b,0xcd,0x3d,0x2a,0xcf,0x6e,0x3d,0xf5,0xc9,0x8a,0x3e,0x5d,0xe3,0x5b,0x3e,0x8a,0x36,0x6a,0xbe,0xa6,0x3a,0xfe,0xbd,0x53,0x95,0xe3,0xbd,0x72,0xdc,0x66,0x3e,0x84,0xea,0xc0,0x3e,0x47,0x27,0x81,0x3e,0xed,0x23,0x8a,0x3e,0x31,0x5a,0x35,0x3d,0x4b,0xf9,0xd7,0x3d,0x29,0x44,0x4c,0xbd,0x36,0xfa,0x06,0xbe,0xac,0xff,0xa9,0x3d,0xe3,0x65,0x7c,0x3e,0x08,0xd0,0xf7,0x3d,0x96,0x98,0x1d,0xbe,0xee,0x5c,0xa2,0xbe,0x2b,0xed,0x26,0xbe,0x9f,0x40,0xf2,0xbd,0xa4,0x98,0x24,0xbe,0x15,0xbe,0xa3,0x3d,0xf9,0xca,0x86,0xbd,0x44,0xa5,0x6b,0x3d,0x69,0x3c,0x8b,0x3e,0xc4,0xc7,0x03,0x3e,0x35,0x6b,0x4a,0x3e,0x49,0x34,0x0f,0xbe,0x64,0xfb,0x32,0xbe,0xe7,0x0c,0xfd,0xbd,0x8a,0x54,0xf9,0xbc,0x35,0x64,0x90,0xbe,0x7d,0xee,0x82,0x3e,0xe1,0x24,0xfb,0xbb,0x00,0xe9,0x87,0xbd,0x82,0x63,0x3c,0xbe,0x7f,0xd2,0x0f,0x3e,0xee,0x2e,0x1d,0x3e,0xa2,0xb2,0xb6,0xbd,0x4d,0x86,0xc4,0xbd,0x6a,0x5b,0x63,0x3e,0xb7,0x1b,0xdd,0xbd,0xfd,0x85,0x70,0x3e,0xdc,0x13,0x4a,0xbd,0x08,0x59,0x2f,0x3e,0xea,0x28,0x4c,0x3e,0x7a,0xcd,0xa8,0x3d,0x56,0x5f,0xf6,0xbd,0x92,0x7d,0xfe,0xbd,0xeb,0xbd,0xda,0x3d,0x9c,0x8d,0x09,0xbe,0x0e,0xc7,0xad,0xbe,0xab,0x62,0x1e,0xbd,0x8d,0xe5,0x81,0xbd,0x07,0x8f,0x5e,0x3e,0x03,0x36,0x41,0x3e,0x3b,0xd3,0xb9,0xbd,0xa8,0xd3,0x3b,0x3e,0x54,0xc3,0x83,0xbe,0x2e,0x35,0xae,0x3e,0x7e,0xea,0x2f,0xbe,0x0f,0x29,0x28,0x3e,0x3e,0x03,0x33,0xbe,0xc4,0x39,0x89,0x3e,0xe8,0x4e,0xb3,0x3e,0x73,0x61,0x02,0x3e,0xc3,0xa3,0x7f,0x3e,0xdf,0xd5,0x71,0x3e,0xd1,0x5e,0x33,0xbd,0xa3,0x0a,0xca,0x3d,0x63,0x22,0x50,0x3e,0xd6,0xb0,0x56,0x3c,0xc8,0xcf,0x04,0xbe,0x69,0x8b,0x41,0xbe,0xc2,0xf6,0x87,0x3e,0xaf,0x7a,0x25,0xbe,0x9e,0xc7,0xed,0x3b,0xfc,0x16,0x94,0xbd,0x1c,0x2d,0x41,0x3e,0xc8,0xd5,0xf1,0x3d,0x5b,0x95,0xae,0x3d,0x14,0xa2,0xcc,0x3d,0x59,0x6a,0x95,0x3e,0x78,0x23,0xc1,0x3d,0x29,0x8f,0xb9,0x3b,0x68,0x3b,0x8b,0x3e,0x8c,0x7e,0x84,0xbe,0xc5,0x11,0xa7,0x3e,0x3a,0xaa,0xdf,0x3c,0x01,0x56,0x7e,0xbe,0x25,0x66,0x8d,0x3e,0x16,0x7e,0x5d,0xbe,0x96,0xc6,0xc9,0x3d,0x83,0xd2,0xba,0xbd,0x24,0x8f,0x14,0xbe,0x5f,0x8d,0xf0,0xbd,0xbf,0xb7,0xe4,0x3d,0x23,0x58,0xd5,0x3d,0x51,0x33,0x8f,0x3e,0x17,0x55,0x57,0xbe,0x3d,0xa6,0x32,0xbe,0xf0,0x2d,0xea,0xbd,0xd2,0x67,0x04,0xbe,0x6c,0x84,0x20,0xbc,0x90,0xc8,0x93,0x3e,0x89,0x3f,0x07,0x3d,0xb4,0xcb,0x82,0x3e,0x74,0x80,0x83,0xbe,0x3b,0x5e,0x5b,0x3e,0x99,0xaa,0x8c,0x3e,0x93,0x00,0xda,0x3d,0xdd,0x35,0x04,0xbe,0xb9,0x2e,0x03,0x3e,0x06,0x60,0x59,0x3e,0x23,0x8f,0x3c,0xbe,0xa0,0xe2,0x01,0xbb,0xc2,0x13,0x96,0xbe,0xad,0x8b,0x86,0x3e,0x56,0x76,0x9a,0x3d,0x8e,0xda,0x81,0x3e,0xf2,0x99,0x8a,0xbe,0x0d,0x58,0x87,0xbe,0x5d,0x9c,0x84,0x3e,0x4a,0xe7,0x98,0x3e,0x65,0x70,0x54,0xbe,0x8c,0x9a,0x5f,0x3e,0xad,0x8c,0x1f,0xbe,0x73,0x5d,0x18,0xbe,0x4f,0x0d,0x91,0x3e,0x95,0x0c,0x19,0x3d,0xcc,0x68,0x3d,0x3e,0xa4,0x99,0x72,0x3e,0x14,0xe6,0xdc,0x3d,0x8e,0xd9,0x2f,0x3e,0x22,0x12,0x94,0xbd,0xf7,0xfa,0xb3,0xbc,0x5c,0x28,0x8b,0x3e,0xcd,0x25,0xd6,0xbc,0x13,0xd9,0x6f,0xbe,0x78,0xdf,0xa3,0xbc,0x79,0xd2,0xb6,0x3c,0xa2,0x3a,0x7f,0x3e,0xdb,0x1d,0x83,0x3d,0x4e,0xb1,0x63,0xbe,0x6c,0x76,0xc1,0xbd,0x59,0xc4,0x16,0x3e,0xce,0x12,0xed,0x3d,0x0b,0xf3,0x7d,0x3e,0x0f,0x2e,0x45,0xbd,0x36,0x88,0x75,0xbd,0x86,0x2a,0x8f,0xbe,0x78,0x8b,0x04,0xbe,0x27,0x40,0x81,0x3e,0x3e,0xde,0x85,0xbe,0x4d,0x82,0xd6,0x3d,0xfd,0xed,0x8b,0x3e,0x25,0x46,0x11,0x3e,0xf3,0xd3,0x86,0xbd,0xaa,0x34,0x01,0xbd,0x62,0x8b,0xa5,0xbe,0x92,0x86,0xf3,0x3d,0xbb,0x31,0x1a,0xbe,0x50,0x73,0x67,0xbd,0x39,0x05,0x8c,0x3d,0x2d,0x94,0x6e,0xbe,0x59,0xde,0x76,0xbd,0x5c,0x9c,0x7d,0x3e,0xb7,0x78,0xde,0xbd,0xeb,0x0e,0x13,0x3e,0xf5,0xfd,0x33,0xbe,0xad,0x9a,0x12,0x3e,0x9e,0xbc,0x2a,0xbd,0x38,0x37,0x65,0xbe,0x6f,0xcc,0x8f,0x3e,0xf7,0xba,0x3f,0x3e,0xc4,0xfd,0x25,0x3e,0x52,0x25,0xfd,0x3c,0x2d,0xf8,0x7c,0x3e,0xd6,0xd7,0xfd,0xbd,0xf3,0x2c,0x55,0x3e,0xfd,0x34,0x17,0xbe,0x57,0x44,0x7d,0xbe,0x4e,0x46,0xdc,0xbd,0x50,0x27,0x31,0x3e,0x94,0xe1,0x4c,0xbe,0x51,0x0e,0x94,0x3e,0xc5,0x71,0x5b,0xbe,0xed,0xbe,0x88,0x3e,0x93,0x26,0xa1,0x3e,0x25,0x19,0x4d,0x3d,0x5e,0x57,0x73,0x3e,0x39,0xd5,0xaf,0x3e,0x9e,0x38,0x18,0xbe,0x7e,0xe9,0x3c,0x3d,0x78,0x92,0xc3,0xbc,0x35,0x83,0xac,0x3e,0xf2,0x2e,0x59,0xbe,0x7e,0x04,0xbd,0x3a,0xc0,0x62,0xa5,0x3d,0x2b,0xbd,0x93,0xbd,0xaf,0xc1,0x8a,0xbe,0xd3,0x87,0xab,0x3e,0x09,0xe7,0x02,0xbb,0x7d,0x7f,0xb8,0xbd,0xfb,0x7b,0x68,0xbe,0x10,0x6d,0xc6,0x3c,0x8f,0x50,0x8b,0xbe,0x50,0xd8,0xc7,0xbd,0xcb,0x75,0x83,0xbd,0x89,0x70,0x79,0x3e,0x8e,0xdd,0x39,0xbe,0x21,0x35,0xad,0x3e,0x37,0xcc,0x6d,0x3e,0x36,0xe2,0xf5,0xbb,0x90,0x32,0x11,0x3e,0xc3,0x87,0x41,0xbe,0xb0,0x00,0xfa,0xbd,0x79,0x6e,0xa0,0xbd,0xbd,0x1d,0x44,0xbe,0x8f,0x64,0x9e,0xbd,0xf7,0x33,0x7f,0x3e,0x60,0x12,0x00,0x3c,0x44,0xa2,0x5d,0x3e,0xb2,0xe7,0x6b,0x3e,0xae,0x34,0x2a,0x3e,0xe1,0x62,0xe2,0xbc,0x8f,0x11,0x67,0x3e,0x0b,0xd1,0x39,0x3d,0xc3,0x52,0x9d,0xbe,0x4a,0x42,0xa3,0x3e,0x9c,0x34,0xb0,0xbe,0xb5,0x1d,0x17,0xbe,0x2e,0x05,0xa1,0xbe,0xee,0xce,0x49,0x3a,0xb1,0x86,0x90,0xbe,0x23,0xdb,0xe9,0x3d,0xf9,0x2a,0x7b,0x3e,0x40,0x7b,0x7e,0x3d,0x91,0xd6,0xe3,0x3d,0xc9,0xef,0x03,0xbe,0xb5,0x01,0x1a,0xbc,0x85,0x3e,0x14,0x3e,0x9a,0xf9,0x47,0x3e,0xbb,0xc3,0x41,0xbd,0xb5,0xeb,0x3c,0xbe,0x2f,0x75,0xb7,0xbd,0x81,0x6c,0xb6,0x3d,0xd4,0x49,0x2d,0xbe,0x8f,0x4f,0x30,0x3e,0x65,0x44,0x81,0x3e,0x0c,0xcd,0x88,0xbe,0x7c,0x87,0x0e,0xbd,0x7e,0x43,0x59,0xbe,0x36,0x40,0x21,0xbe,0x8e,0xed,0x65,0xbe,0x5d,0xba,0xf0,0x3d,0x21,0xe7,0x4b,0x3d,0x8a,0xaa,0xb9,0x3e,0x14,0xcf,0xe0,0xbd,0xbb,0x81,0x85,0x3e,0xec,0x32,0x05,0x3e,0x3d,0xd1,0x3e,0x3d,0x2e,0x90,0xd7,0x3e,0x48,0xf2,0xa6,0x3d,0x51,0x57,0x04,0xbd,0xf3,0xb3,0x94,0xbd,0x5a,0xe0,0x42,0x3e,0xb4,0x7b,0x3a,0xbe,0x62,0xea,0x32,0x3d,0x29,0xb7,0x4e,0xbe,0x5a,0x7d,0x10,0xbe,0x66,0x74,0x4d,0x3e,0xa7,0x2e,0x60,0x3e,0xb9,0xa4,0x99,0xbe,0xe5,0x36,0x04,0xbe,0x29,0xbc,0x8d,0x3e,0x56,0xc4,0x8d,0xbe,0x2f,0xde,0x1b,0xbe,0xa7,0x2e,0x30,0xbe,0xe4,0x75,0xd6,0x3b,0x59,0x0e,0xf6,0xbd,0xf6,0x03,0x02,0xbe,0x1c,0x41,0xd9,0x3c,0x09,0x8c,0x3b,0x3c,0x1c,0x00,0x20,0x3d,0x90,0x70,0x16,0x3e,0xe8,0x7d,0x0d,0x3e,0x1b,0xb9,0x26,0x3e,0x42,0xeb,0x62,0xbe,0xa0,0x1f,0x94,0xbe,0xa1,0xad,0x2e,0xbd,0x43,0xb5,0x16,0x3e,0xd8,0x2a,0xf3,0x3d,0xc9,0x97,0x92,0xbe,0xfa,0x79,0x4b,0x3e,0xbb,0x15,0x49,0x3e,0x9b,0xf3,0x00,0x3e,0xba,0xb3,0x8d,0xbe,0x5a,0xd2,0x36,0xbd,0x5b,0xa8,0x57,0xbe,0xb6,0x5f,0xa5,0x3e,0x95,0x51,0x98,0xbe,0x86,0x30,0x90,0xbe,0xa4,0x69,0x0b,0xbe,0xb7,0xc7,0x8b,0x3e,0x81,0x14,0x92,0x3e,0xe8,0x8f,0x03,0xbe,0xf1,0x53,0xb4,0xbd,0x82,0x80,0x97,0xbe,0xba,0xde,0x5b,0xbe,0xa2,0x6c,0x77,0xbe,0x2f,0x94,0x6f,0xbe,0xf5,0xf9,0x05,0x3e,0x36,0x0b,0xa2,0xbe,0x14,0xa9,0xd2,0x3c,0x13,0x73,0xaa,0x3d,0x71,0x5c,0x38,0xbe,0xc1,0x49,0x53,0x3e,0x7e,0x62,0xe3,0x3d,0xc4,0x67,0x93,0x3e,0x2c,0x5a,0x7e,0x3c,0x36,0xf3,0xc5,0x3e,0x70,0x60,0x14,0xbe,0x4a,0x17,0xb8,0x3d,0xb5,0xfd,0xba,0x3e,0x0f,0x3a,0xc9,0x3e,0x60,0x39,0xd4,0x3e,0xb9,0xb4,0x03,0x3e,0x65,0x8a,0x9f,0x3d,0x38,0x2b,0x05,0x3e,0x62,0x5f,0x0e,0x3e,0x90,0x8d,0xa3,0x3d,0x0c,0x7f,0x03,0xbe,0x6d,0xdc,0x84,0x3e,0x25,0x35,0x81,0xbe,0x48,0xd7,0x19,0xbe,0x2d,0x89,0x42,0x3e,0x92,0xac,0x87,0x3e,0x03,0xa1,0x69,0x3e,0x67,0x9a,0x4c,0xbe,0x97,0x2e,0x46,0xbe,0xdb,0xe4,0x26,0xbe,0xd0,0x4a,0xd8,0xbd,0xcb,0x42,0x0c,0xbe,0x31,0xdf,0x06,0x3e,0x2a,0x16,0xe5,0xbd,0x8b,0x64,0x59,0x3e,0x45,0x74,0x4a,0xbe,0x6f,0xee,0xa9,0x38,0x59,0x43,0xb2,0x3d,0xb3,0xfa,0x57,0x3d,0xbe,0x76,0x8c,0x3e,0xcc,0xb4,0xa9,0xbd,0x68,0xff,0xa8,0x3e,0xdf,0x8b,0xa4,0x3e,0x2f,0x3c,0x2e,0xbe,0x21,0xd9,0x20,0xbe,0x43,0x9b,0x89,0x3e,0x96,0xf8,0xb4,0xbd,0x0c,0x1b,0x3a,0xbe,0x7c,0x90,0xb0,0x3e,0x0d,0x07,0xf6,0xbd,0xaa,0x04,0x7e,0xbe,0xeb,0x1a,0x17,0xbe,0x1e,0xb6,0x94,0xbe,0x04,0xab,0x15,0xbe,0x71,0xac,0x1f,0x3d,0x06,0x3c,0x47,0xbe,0x4c,0xda,0x99,0x3e,0x7c,0x71,0x94,0x3e,0x88,0x47,0xef,0xbc,0xbf,0x96,0xac,0x3e,0x65,0x45,0x63,0x3e,0xd0,0x4a,0xa2,0x3d,0x7d,0x8c,0xc1,0x3c,0xd0,0xe3,0xac,0x3e,0x9f,0xa9,0x60,0x3e,0x79,0x2a,0x1f,0xbe,0xc5,0xd1,0xc7,0xbd,0x0a,0xe3,0x06,0xbe,0x85,0x2d,0xa8,0x3e,0x3a,0xd8,0x7e,0xbe,0x2c,0xc0,0x94,0xbe,0xef,0x66,0xb5,0x3c,0x9b,0x9d,0x1c,0x3c,0xf2,0xe5,0x34,0xbe,0xe5,0x26,0x91,0xbe,0xb8,0x06,0x4f,0x3e,0x9d,0xed,0xd4,0xbd,0xcd,0x4b,0x4a,0xbd,0x2b,0x33,0x84,0xbe,0x43,0x27,0x1c,0x3e,0xde,0xea,0x48,0x3e,0x2e,0xaa,0xea,0x3d,0x81,0x1d,0xd7,0xbd,0x9c,0x0f,0x3e,0xbd,0x32,0xd4,0xd5,0x3d,0x1d,0xfb,0x5f,0xbe,0x3d,0x6e,0x3c,0x3e,0x00,0x1d,0xcd,0x3b,0x96,0xbd,0x9c,0x3d,0xee,0x44,0x90,0x3d,0x5e,0xea,0x6f,0x3e,0x66,0x2b,0x87,0x3c,0xb2,0x22,0x86,0xbe,0x3e,0xef,0x2e,0xbe,0x9d,0x44,0x18,0x3e,0xb7,0x66,0x56,0x3e,0xed,0x1f,0xc1,0x3d,0x13,0x80,0x88,0xbe,0x5d,0xc5,0x5a,0x3e,0xd1,0x83,0x11,0xbe,0x97,0xef,0xef,0x3d,0x28,0xe4,0x45,0xbe,0xb7,0x6b,0x05,0xbe,0x6d,0xea,0x1f,0xbe,0x12,0x61,0x31,0x3e,0x13,0x90,0x8f,0x3e,0xd8,0xa6,0x5e,0x3e,0xa2,0x1b,0x40,0xbe,0x32,0x25,0xa2,0x3e,0xeb,0x52,0xd9,0xbd,0xe2,0xa0,0x96,0x3e,0x00,0x28,0x22,0x3e,0xfb,0xef,0x66,0xbe,0x43,0x6a,0x12,0x3e,0x6b,0x91,0xee,0x3d,0x56,0x9d,0x37,0x3e,0xe3,0xc4,0x72,0xbe,0x80,0x77,0x5f,0xbc,0x1f,0x32,0xde,0xbb,0x16,0x79,0x4f,0x3e,0xab,0xbf,0x2d,0x3e,0xbd,0xdd,0x91,0xbc,0xf6,0x8a,0xd5,0x3d,0xec,0xd9,0x14,0x3e,0x70,0x3a,0xa6,0x3d,0x6c,0x1e,0x9a,0xbe,0x3a,0x60,0x98,0x3e,0xcb,0x5f,0x6e,0x3d,0xed,0xcc,0x9d,0xbd,0xcf,0xe4,0x28,0x3e,0x32,0xed,0x86,0x3d,0x11,0xad,0x0c,0x3e,0xba,0x94,0x32,0xbd,0xd7,0x86,0x70,0x3e,0xeb,0x8a,0x90,0x3e,0x65,0x3c,0x96,0x3e,0x22,0xc4,0x83,0x3e,0x85,0x70,0x7c,0xbe,0x33,0x4c,0xfd,0x3d,0x24,0xd9,0x89,0x3e,0x82,0x77,0x97,0xbe,0xe4,0x15,0x7c,0xbe,0x1b,0xa9,0x18,0xbe,0xe6,0xa1,0x0a,0xbe,0x05,0x15,0x64,0x3e,0x08,0x07,0xca,0xbd,0x2e,0x50,0x1c,0x3c,0x56,0x9b,0x91,0x3e,0x04,0x38,0xda,0x3d,0x58,0xc0,0xcd,0x3d,0x45,0x76,0x7f,0xbe,0x21,0xc0,0x55,0xbe,0x37,0x80,0xa8,0x3e,0xcc,0x07,0x5b,0xbe,0xbe,0x23,0x80,0xbe,0xc7,0x63,0x8e,0x3e,0xf6,0x25,0x10,0x3e,0x61,0xa7,0x1b,0xbe,0xed,0xad,0x30,0x3e,0xcb,0x1e,0xfa,0xbc,0x3d,0x10,0x05,0xbe,0x78,0x2e,0xe2,0x3d,0x53,0x4a,0x41,0xbb,0xd9,0x40,0x94,0x3e,0xe8,0xa0,0xb8,0x3e,0x6c,0x98,0x69,0xbb,0x53,0x98,0x25,0xbe,0xc3,0x2c,0x36,0xbe,0xf0,0xcc,0x7a,0x3c,0xde,0x9c,0xab,0xbe,0xf8,0x5e,0x9c,0xbe,0x3f,0x06,0x00,0x3e,0xe4,0xe4,0x52,0x3e,0xe4,0x9e,0x85,0xbe,0x43,0xc3,0x0c,0x3e,0x65,0x41,0x3a,0xbe,0x51,0xaf,0x88,0xbe,0x68,0x9f,0x70,0x3e,0x0c,0x2e,0x03,0xbe,0x23,0xb0,0xa3,0x3e,0x60,0x6e,0x11,0xbe,0xcc,0x42,0xa3,0x3d,0x7a,0x72,0x4d,0xbe,0x32,0xc8,0x89,0xbd,0xce,0x26,0x78,0xbe,0x0b,0x5f,0x87,0x3c,0xe9,0x1d,0x65,0x3e,0xa0,0x7d,0xea,0xbd,0x87,0x85,0x4d,0x3e,0x0f,0xef,0xc3,0x3d,0x5e,0x4a,0x64,0x3d,0xc0,0xdc,0x2c,0xbe,0x34,0x3f,0x29,0x3e,0x3a,0x25,0x13,0x3e,0xa6,0xa1,0x62,0xbe,0x2c,0x63,0x66,0xbb,0xcf,0x9a,0x99,0x3d,0xaa,0xef,0x7d,0xbe,0xad,0xb9,0xf7,0x3b,0x8a,0x28,0x73,0xbe,0x8a,0x73,0x5b,0xbe,0x4a,0x0a,0x40,0xbe,0x85,0xaa,0x02,0xbe,0xf2,0x6b,0xd4,0xbd,0x1d,0x88,0x8b,0xbe,0x62,0xc8,0x36,0x3e,0x92,0xac,0x72,0x3e,0xc8,0x75,0x19,0x3e,0x65,0x9e,0xcc,0xbd,0xdb,0x37,0x1a,0x3e,0xce,0xb6,0x0f,0x3e,0x68,0x24,0x36,0xbe,0x1a,0xf5,0x6a,0xbd,0xa8,0xbc,0xf7,0x3d,0xa2,0xb5,0x1c,0x3e,0xc0,0x83,0xcd,0xbd,0xf1,0xc6,0xe5,0x3c,0x25,0xfd,0x7c,0x3d,0x2e,0x4a,0x71,0xbe,0x76,0x33,0x5d,0xbe,0xe5,0x07,0x18,0x3d,0x8b,0x82,0x34,0x3a,0x41,0xf9,0x4c,0xbe,0x7a,0x0c,0xba,0x3d,0xc5,0x73,0x1c,0xbe,0xb2,0x8b,0xe0,0x3d,0x99,0x65,0x80,0x3e,0x04,0x8b,0x4f,0x3e,0x69,0xa3,0x51,0x3c,0xea,0x50,0x67,0x3e,0xe5,0x6c,0x01,0x3d,0xb2,0x72,0x18,0xbe,0xd4,0xd0,0x78,0xbe,0xd4,0x7f,0xa7,0x3d,0xa1,0x3c,0x83,0x3e,0x5e,0x5a,0x44,0xbd,0x8c,0xae,0xda,0x3d,0x61,0x98,0x66,0xbe,0x9e,0x6a,0x36,0xbd,0x25,0xd6,0xb2,0xbc,0x04,0xa5,0x5a,0x3e,0x15,0xa3,0x79,0xbe,0x69,0xde,0x5f,0x3e,0x1e,0x88,0x6b,0xbe,0x00,0x00,0x06,0x00,0x08,0x00,0x04,0x00,0x06,0x00,0x00,0x00,0x04,0x00,0x00,0x00,0x80,0x00,0x00,0x00,0x2d,0x82,0xb4,0x3e,0x3a,0x64,0x19,0xbe,0xaa,0x31,0x88,0x3e,0x4d,0xec,0xa8,0xbe,0xbe,0xdd,0x09,0x3f,0x2e,0x31,0xae,0xbe,0xf8,0xf1,0xce,0xbe,0xf0,0x05,0x0f,0x3d,0xde,0xf1,0x7f,0x3e,0x9a,0xf3,0xd5,0x3e,0xd9,0xdf,0xbe,0x3d,0x79,0x1f,0x02,0x3f,0x1b,0x8d,0xf0,0xbe,0xf6,0xdc,0x71,0xbe,0x41,0xe8,0x92,0x3e,0xf0,0xb2,0xab,0xbe,0x14,0xd6,0xb4,0x3e,0x2d,0x7b,0xb1,0x3e,0xc6,0x73,0xa2,0x3e,0x21,0x85,0xb9,0x3e,0x00,0xbe,0xe4,0xbe,0x8a,0x9c,0x95,0xbe,0x38,0x23,0xd1,0x3e,0x33,0x9e,0x64,0xbe,0x1e,0x2d,0x7d,0x3d,0x4f,0x64,0x7f,0x3e,0xdc,0xb4,0x19,0xbe,0x92,0xba,0xb5,0x3e,0x53,0xcd,0xae,0xbe,0x70,0x14,0x56,0xbe,0x6d,0x73,0x33,0xbe,0x7c,0xeb,0xa9,0xbe,0x14,0xf9,0xff,0xff,0x18,0xf9,0xff,0xff,0x0f,0x00,0x00,0x00,0x4d,0x4c,0x49,0x52,0x20,0x43,0x6f,0x6e,0x76,0x65,0x72,0x74,0x65,0x64,0x2e,0x00,0x01,0x00,0x00,0x00,0x14,0x00,0x00,0x00,0x00,0x00,0x0e,0x00,0x18,0x00,0x14,0x00,0x10,0x00,0x0c,0x00,0x08,0x00,0x04,0x00,0x0e,0x00,0x00,0x00,0x14,0x00,0x00,0x00,0x1c,0x00,0x00,0x00,0x40,0x01,0x00,0x00,0x44,0x01,0x00,0x00,0x48,0x01,0x00,0x00,0x04,0x00,0x00,0x00,0x6d,0x61,0x69,0x6e,0x00,0x00,0x00,0x00,0x05,0x00,0x00,0x00,0xe8,0x00,0x00,0x00,0xa0,0x00,0x00,0x00,0x68,0x00,0x00,0x00,0x34,0x00,0x00,0x00,0x10,0x00,0x00,0x00,0x00,0x00,0x0a,0x00,0x10,0x00,0x0c,0x00,0x08,0x00,0x04,0x00,0x0a,0x00,0x00,0x00,0x0c,0x00,0x00,0x00,0x10,0x00,0x00,0x00,0x01,0x00,0x00,0x00,0x01,0x00,0x00,0x00,0x0d,0x00,0x00,0x00,0x01,0x00,0x00,0x00,0x0c,0x00,0x00,0x00,0x66,0xff,0xff,0xff,0x10,0x00,0x00,0x00,0x00,0x00,0x00,0x08,0x0c,0x00,0x00,0x00,0x10,0x00,0x00,0x00,0xc4,0xf9,0xff,0xff,0x01,0x00,0x00,0x00,0x0c,0x00,0x00,0x00,0x03,0x00,0x00,0x00,0x0b,0x00,0x00,0x00,0x01,0x00,0x00,0x00,0x06,0x00,0x00,0x00,0x96,0xff,0xff,0xff,0x10,0x00,0x00,0x00,0x00,0x00,0x00,0x08,0x10,0x00,0x00,0x00,0x14,0x00,0x00,0x00,0x86,0xff,0xff,0xff,0x00,0x00,0x00,0x01,0x01,0x00,0x00,0x00,0x0b,0x00,0x00,0x00,0x03,0x00,0x00,0x00,0x0a,0x00,0x00,0x00,0x02,0x00,0x00,0x00,0x04,0x00,0x00,0x00,0xca,0xff,0xff,0xff,0x10,0x00,0x00,0x00,0x00,0x00,0x00,0x08,0x10,0x00,0x00,0x00,0x14,0x00,0x00,0x00,0xba,0xff,0xff,0xff,0x00,0x00,0x00,0x01,0x01,0x00,0x00,0x00,0x0a,0x00,0x00,0x00,0x03,0x00,0x00,0x00,0x09,0x00,0x00,0x00,0x03,0x00,0x00,0x00,0x05,0x00,0x00,0x00,0x00,0x00,0x0e,0x00,0x16,0x00,0x00,0x00,0x10,0x00,0x0c,0x00,0x0b,0x00,0x04,0x00,0x0e,0x00,0x00,0x00,0x18,0x00,0x00,0x00,0x00,0x00,0x00,0x08,0x18,0x00,0x00,0x00,0x1c,0x00,0x00,0x00,0x00,0x00,0x06,0x00,0x08,0x00,0x07,0x00,0x06,0x00,0x00,0x00,0x00,0x00,0x00,0x01,0x01,0x00,0x00,0x00,0x09,0x00,0x00,0x00,0x03,0x00,0x00,0x00,0x00,0x00,0x00,0x00,0x08,0x00,0x00,0x00,0x07,0x00,0x00,0x00,0x01,0x00,0x00,0x00,0x0d,0x00,0x00,0x00,0x01,0x00,0x00,0x00,0x00,0x00,0x00,0x00,0x0e,0x00,0x00,0x00,0x30,0x05,0x00,0x00,0xd8,0x04,0x00,0x00,0x80,0x04,0x00,0x00,0x40,0x04,0x00,0x00,0x04,0x04,0x00,0x00,0xc8,0x03,0x00,0x00,0x6c,0x03,0x00,0x00,0x10,0x03,0x00,0x00,0xc0,0x02,0x00,0x00,0x20,0x02,0x00,0x00,0x80,0x01,0x00,0x00,0xe0,0x00,0x00,0x00,0x60,0x00,0x00,0x00,0x04,0x00,0x00,0x00,0x1e,0xfb,0xff,0xff,0x00,0x00,0x00,0x01,0x14,0x00,0x00,0x00,0x1c,0x00,0x00,0x00,0x1c,0x00,0x00,0x00,0x0e,0x00,0x00,0x00,0x34,0x00,0x00,0x00,0x02,0x00,0x00,0x00,0xff,0xff,0xff,0xff,0x01,0x00,0x00,0x00,0x08,0xfb,0xff,0xff,0x1b,0x00,0x00,0x00,0x53,0x74,0x61,0x74,0x65,0x66,0x75,0x6c,0x50,0x61,0x72,0x74,0x69,0x74,0x69,0x6f,0x6e,0x65,0x64,0x43,0x61,0x6c,0x6c,0x5f,0x31,0x3a,0x30,0x00,0x02,0x00,0x00,0x00,0x01,0x00,0x00,0x00,0x01,0x00,0x00,0x00,0x76,0xfb,0xff,0xff,0x00,0x00,0x00,0x01,0x14,0x00,0x00,0x00,0x1c,0x00,0x00,0x00,0x1c,0x00,0x00,0x00,0x0d,0x00,0x00,0x00,0x58,0x00,0x00,0x00,0x02,0x00,0x00,0x00,0xff,0xff,0xff,0xff,0x01,0x00,0x00,0x00,0x60,0xfb,0xff,0xff,0x3e,0x00,0x00,0x00,0x73,0x65,0x71,0x75,0x65,0x6e,0x74,0x69,0x61,0x6c,0x5f,0x33,0x5f,0x31,0x2f,0x64,0x65,0x6e,0x73,0x65,0x5f,0x31,0x30,0x5f,0x31,0x2f,0x4d,0x61,0x74,0x4d,0x75,0x6c,0x3b,0x73,0x65,0x71,0x75,0x65,0x6e,0x74,0x69,0x61,0x6c,0x5f,0x33,0x5f,0x31,0x2f,0x64,0x65,0x6e,0x73,0x65,0x5f,0x31,0x30,0x5f,0x31,0x2f,0x41,0x64,0x64,0x00,0x00,0x02,0x00,0x00,0x00,0x01,0x00,0x00,0x00,0x01,0x00,0x00,0x00,0xf2,0xfb,0xff,0xff,0x00,0x00,0x00,0x01,0x14,0x00,0x00,0x00,0x1c,0x00,0x00,0x00,0x1c,0x00,0x00,0x00,0x0c,0x00,0x00,0x00,0x78,0x00,0x00,0x00,0x02,0x00,0x00,0x00,0xff,0xff,0xff,0xff,0x20,0x00,0x00,0x00,0xdc,0xfb,0xff,0xff,0x5e,0x00,0x00,0x00,0x73,0x65,0x71,0x75,0x65,0x6e,0x74,0x69,0x61,0x6c,0x5f,0x33,0x5f,0x31,0x2f,0x64,0x65,0x6e,0x73,0x65,0x5f,0x39,0x5f,0x31,0x2f,0x4d,0x61,0x74,0x4d,0x75,0x6c,0x3b,0x73,0x65,0x71,0x75,0x65,0x6e,0x74,0x69,0x61,0x6c,0x5f,0x33,0x5f,0x31,0x2f,0x64,0x65,0x6e,0x73,0x65,0x5f,0x39,0x5f,0x31,0x2f,0x52,0x65,0x6c,0x75,0x3b,0x73,0x65,0x71,0x75,0x65,0x6e,0x74,0x69,0x61,0x6c,0x5f,0x33,0x5f,0x31,0x2f,0x64,0x65,0x6e,0x73,0x65,0x5f,0x39,0x5f,0x31,0x2f,0x42,0x69,0x61,0x73,0x41,0x64,0x64,0x00,0x00,0x02,0x00,0x00,0x00,0x01,0x00,0x00,0x00,0x20,0x00,0x00,0x00,0x8e,0xfc,0xff,0xff,0x00,0x00,0x00,0x01,0x14,0x00,0x00,0x00,0x1c,0x00,0x00,0x00,0x1c,0x00,0x00,0x00,0x0b,0x00,0x00,0x00,0x78,0x00,0x00,0x00,0x02,0x00,0x00,0x00,0xff,0xff,0xff,0xff,0x20,0x00,0x00,0x00,0x78,0xfc,0xff,0xff,0x5e,0x00,0x00,0x00,0x73,0x65,0x71,0x75,0x65,0x6e,0x74,0x69,0x61,0x6c,0x5f,0x33,0x5f,0x31,0x2f,0x64,0x65,0x6e,0x73,0x65,0x5f,0x38,0x5f,0x31,0x2f,0x4d,0x61,0x74,0x4d,0x75,0x6c,0x3b,0x73,0x65,0x71,0x75,0x65,0x6e,0x74,0x69,0x61,0x6c,0x5f,0x33,0x5f,0x31,0x2f,0x64,0x65,0x6e,0x73,0x65,0x5f,0x38,0x5f,0x31,0x2f,0x52,0x65,0x6c,0x75,0x3b,0x73,0x65,0x71,0x75,0x65,0x6e,0x74,0x69,0x61,0x6c,0x5f,0x33,0x5f,0x31,0x2f,0x64,0x65,0x6e,0x73,0x65,0x5f,0x38,0x5f,0x31,0x2f,0x42,0x69,0x61,0x73,0x41,0x64,0x64,0x00,0x00,0x02,0x00,0x00,0x00,0x01,0x00,0x00,0x00,0x20,0x00,0x00,0x00,0x2a,0xfd,0xff,0xff,0x00,0x00,0x00,0x01,0x14,0x00,0x00,0x00,0x1c,0x00,0x00,0x00,0x1c,0x00,0x00,0x00,0x0a,0x00,0x00,0x00,0x78,0x00,0x00,0x00,0x02,0x00,0x00,0x00,0xff,0xff,0xff,0xff,0x20,0x00,0x00,0x00,0x14,0xfd,0xff,0xff,0x5e,0x00,0x00,0x00,0x73,0x65,0x71,0x75,0x65,0x6e,0x74,0x69,0x61,0x6c,0x5f,0x33,0x5f,0x31,0x2f,0x64,0x65,0x6e,0x73,0x65,0x5f,0x37,0x5f,0x31,0x2f,0x4d,0x61,0x74,0x4d,0x75,0x6c,0x3b,0x73,0x65,0x71,0x75,0x65,0x6e,0x74,0x69,0x61,0x6c,0x5f,0x33,0x5f,0x31,0x2f,0x64,0x65,0x6e,0x73,0x65,0x5f,0x37,0x5f,0x31,0x2f,0x52,0x65,0x6c,0x75,0x3b,0x73,0x65,0x71,0x75,0x65,0x6e,0x74,0x69,0x61,0x6c,0x5f,0x33,0x5f,0x31,0x2f,0x64,0x65,0x6e,0x73,0x65,0x5f,0x37,0x5f,0x31,0x2f,0x42,0x69,0x61,0x73,0x41,0x64,0x64,0x00,0x00,0x02,0x00,0x00,0x00,0x01,0x00,0x00,0x00,0x20,0x00,0x00,0x00,0x1a,0xfe,0xff,0xff,0x00,0x00,0x00,0x01,0x10,0x00,0x00,0x00,0x10,0x00,0x00,0x00,0x09,0x00,0x00,0x00,0x2c,0x00,0x00,0x00,0xa0,0xfd,0xff,0xff,0x1f,0x00,0x00,0x00,0x73,0x65,0x71,0x75,0x65,0x6e,0x74,0x69,0x61,0x6c,0x5f,0x33,0x5f,0x31,0x2f,0x64,0x65,0x6e,0x73,0x65,0x5f,0x37,0x5f,0x31,0x2f,0x4d,0x61,0x74,0x4d,0x75,0x6c,0x00,0x02,0x00,0x00,0x00,0x20,0x00,0x00,0x00,0x13,0x00,0x00,0x00,0x66,0xfe,0xff,0xff,0x00,0x00,0x00,0x01,0x10,0x00,0x00,0x00,0x10,0x00,0x00,0x00,0x08,0x00,0x00,0x00,0x3c,0x00,0x00,0x00,0xec,0xfd,0xff,0xff,0x2f,0x00,0x00,0x00,0x73,0x65,0x71,0x75,0x65,0x6e,0x74,0x69,0x61,0x6c,0x5f,0x33,0x5f,0x31,0x2f,0x64,0x65,0x6e,0x73,0x65,0x5f,0x37,0x5f,0x31,0x2f,0x42,0x69,0x61,0x73,0x41,0x64,0x64,0x2f,0x52,0x65,0x61,0x64,0x56,0x61,0x72,0x69,0x61,0x62,0x6c,0x65,0x4f,0x70,0x00,0x01,0x00,0x00,0x00,0x20,0x00,0x00,0x00,0xbe,0xfe,0xff,0xff,0x00,0x00,0x00,0x01,0x10,0x00,0x00,0x00,0x10,0x00,0x00,0x00,0x07,0x00,0x00,0x00,0x3c,0x00,0x00,0x00,0x44,0xfe,0xff,0xff,0x2c,0x00,0x00,0x00,0x73,0x65,0x71,0x75,0x65,0x6e,0x74,0x69,0x61,0x6c,0x5f,0x33,0x5f,0x31,0x2f,0x64,0x65,0x6e,0x73,0x65,0x5f,0x31,0x30,0x5f,0x31,0x2f,0x41,0x64,0x64,0x2f,0x52,0x65,0x61,0x64,0x56,0x61,0x72,0x69,0x61,0x62,0x6c,0x65,0x4f,0x70,0x00,0x00,0x00,0x00,0x01,0x00,0x00,0x00,0x01,0x00,0x00,0x00,0x16,0xff,0xff,0xff,0x00,0x00,0x00,0x01,0x10,0x00,0x00,0x00,0x10,0x00,0x00,0x00,0x06,0x00,0x00,0x00,0x1c,0x00,0x00,0x00,0x9c,0xfe,0xff,0xff,0x0f,0x00,0x00,0x00,0x61,0x72,0x69,0x74,0x68,0x2e,0x63,0x6f,0x6e,0x73,0x74,0x61,0x6e,0x74,0x34,0x00,0x01,0x00,0x00,0x00,0x20,0x00,0x00,0x00,0x4e,0xff,0xff,0xff,0x00,0x00,0x00,0x01,0x10,0x00,0x00,0x00,0x10,0x00,0x00,0x00,0x05,0x00,0x00,0x00,0x1c,0x00,0x00,0x00,0xd4,0xfe,0xff,0xff,0x0f,0x00,0x00,0x00,0x61,0x72,0x69,0x74,0x68,0x2e,0x63,0x6f,0x6e,0x73,0x74,0x61,0x6e,0x74,0x33,0x00,0x01,0x00,0x00,0x00,0x20,0x00,0x00,0x00,0x86,0xff,0xff,0xff,0x00,0x00,0x00,0x01,0x10,0x00,0x00,0x00,0x10,0x00,0x00,0x00,0x04,0x00,0x00,0x00,0x1c,0x00,0x00,0x00,0x0c,0xff,0xff,0xff,0x0f,0x00,0x00,0x00,0x61,0x72,0x69,0x74,0x68,0x2e,0x63,0x6f,0x6e,0x73,0x74,0x61,0x6e,0x74,0x32,0x00,0x02,0x00,0x00,0x00,0x20,0x00,0x00,0x00,0x20,0x00,0x00,0x00,0xc2,0xff,0xff,0xff,0x00,0x00,0x00,0x01,0x10,0x00,0x00,0x00,0x10,0x00,0x00,0x00,0x03,0x00,0x00,0x00,0x1c,0x00,0x00,0x00,0x48,0xff,0xff,0xff,0x0f,0x00,0x00,0x00,0x61,0x72,0x69,0x74,0x68,0x2e,0x63,0x6f,0x6e,0x73,0x74,0x61,0x6e,0x74,0x31,0x00,0x02,0x00,0x00,0x00,0x20,0x00,0x00,0x00,0x20,0x00,0x00,0x00,0x00,0x00,0x16,0x00,0x18,0x00,0x14,0x00,0x00,0x00,0x10,0x00,0x0c,0x00,0x08,0x00,0x00,0x00,0x00,0x00,0x00,0x00,0x07,0x00,0x16,0x00,0x00,0x00,0x00,0x00,0x00,0x01,0x10,0x00,0x00,0x00,0x10,0x00,0x00,0x00,0x02,0x00,0x00,0x00,0x1c,0x00,0x00,0x00,0x9c,0xff,0xff,0xff,0x0e,0x00,0x00,0x00,0x61,0x72,0x69,0x74,0x68,0x2e,0x63,0x6f,0x6e,0x73,0x74,0x61,0x6e,0x74,0x00,0x00,0x02,0x00,0x00,0x00,0x01,0x00,0x00,0x00,0x20,0x00,0x00,0x00,0x00,0x00,0x16,0x00,0x1c,0x00,0x18,0x00,0x00,0x00,0x14,0x00,0x10,0x00,0x0c,0x00,0x00,0x00,0x00,0x00,0x08,0x00,0x07,0x00,0x16,0x00,0x00,0x00,0x00,0x00,0x00,0x01,0x14,0x00,0x00,0x00,0x20,0x00,0x00,0x00,0x20,0x00,0x00,0x00,0x01,0x00,0x00,0x00,0x3c,0x00,0x00,0x00,0x02,0x00,0x00,0x00,0xff,0xff,0xff,0xff,0x13,0x00,0x00,0x00,0x04,0x00,0x04,0x00,0x04,0x00,0x00,0x00,0x1f,0x00,0x00,0x00,0x73,0x65,0x72,0x76,0x69,0x6e,0x67,0x5f,0x64,0x65,0x66,0x61,0x75,0x6c,0x74,0x5f,0x69,0x6e,0x70,0x75,0x74,0x5f,0x6c,0x61,0x79,0x65,0x72,0x5f,0x33,0x3a,0x30,0x00,0x02,0x00,0x00,0x00,0x01,0x00,0x00,0x00,0x13,0x00,0x00,0x00,0x02,0x00,0x00,0x00,0x20,0x00,0x00,0x00,0x04,0x00,0x00,0x00,0xf4,0xff,0xff,0xff,0x0e,0x00,0x00,0x00,0x00,0x00,0x00,0x0e,0x0c,0x00,0x0c,0x00,0x0b,0x00,0x00,0x00,0x00,0x00,0x04,0x00,0x0c,0x00,0x00,0x00,0x09,0x00,0x00,0x00,0x00,0x00,0x00,0x09};
const unsigned int g_kasus_c_model_3_float_model_data_len = 13616;

#endif // G_KASUS_C_MODEL_3_FLOAT_H
