// File ini dibuat secara otomatis
#ifndef G_KASUS_C_MODEL_2_FLOAT_H
#define G_KASUS_C_MODEL_2_FLOAT_H

// Model: Kasus C Model 2 Float
// 2L, 16N, float32
// Size: 4500 bytes (4.39 KB)
const unsigned char g_kasus_c_model_2_float_model_data[] = {0x1c,0x00,0x00,0x00,0x54,0x46,0x4c,0x33,0x14,0x00,0x20,0x00,0x1c,0x00,0x18,0x00,0x14,0x00,0x10,0x00,0x0c,0x00,0x00,0x00,0x08,0x00,0x04,0x00,0x14,0x00,0x00,0x00,0x1c,0x00,0x00,0x00,0x8c,0x00,0x00,0x00,0xe4,0x00,0x00,0x00,0x90,0x0b,0x00,0x00,0xa0,0x0b,0x00,0x00,0x30,0x11,0x00,0x00,0x03,0x00,0x00,0x00,0x01,0x00,0x00,0x00,0x04,0x00,0x00,0x00,0x22,0xf4,0xff,0xff,0x0c,0x00,0x00,0x00,0x1c,0x00,0x00,0x00,0x3c,0x00,0x00,0x00,0x0f,0x00,0x00,0x00,0x73,0x65,0x72,0x76,0x69,0x6e,0x67,0x5f,0x64,0x65,0x66,0x61,0x75,0x6c,0x74,0x00,0x01,0x00,0x00,0x00,0x04,0x00,0x00,0x00,0x90,0xff,0xff,0xff,0x0a,0x00,0x00,0x00,0x04,0x00,0x00,0x00,0x08,0x00,0x00,0x00,0x6f,0x75,0x74,0x70,0x75,0x74,0x5f,0x30,0x00,0x00,0x00,0x00,0x01,0x00,0x00,0x00,0x04,0x00,0x00,0x00,0x32,0xf5,0xff,0xff,0x04,0x00,0x00,0x00,0x0d,0x00,0x00,0x00,0x69,0x6e,0x70,0x75,0x74,0x5f,0x6c,0x61,0x79,0x65,0x72,0x5f,0x32,0x00,0x00,0x00,0x02,0x00,0x00,0x00,0x34,0x00,0x00,0x00,0x04,0x00,0x00,0x00,0xdc,0xff,0xff,0xff,0x0d,0x00,0x00,0x00,0x04,0x00,0x00,0x00,0x13,0x00,0x00,0x00,0x43,0x4f,0x4e,0x56,0x45,0x52,0x53,0x49,0x4f,0x4e,0x5f,0x4d,0x45,0x54,0x41,0x44,0x41,0x54,0x41,0x00,0x08,0x00,0x0c,0x00,0x08,0x00,0x04,0x00,0x08,0x00,0x00,0x00,0x0c,0x00,0x00,0x00,0x04,0x00,0x00,0x00,0x13,0x00,0x00,0x00,0x6d,0x69,0x6e,0x5f,0x72,0x75,0x6e,0x74,0x69,0x6d,0x65,0x5f,0x76,0x65,0x72,0x73,0x69,0x6f,0x6e,0x00,0x0e,0x00,0x00,0x00,0xa8,0x0a,0x00,0x00,0xa0,0x0a,0x00,0x00,0x50,0x0a,0x00,0x00,0x38,0x06,0x00,0x00,0x24,0x06,0x00,0x00,0xd4,0x05,0x00,0x00,0x84,0x05,0x00,0x00,0xb4,0x00,0x00,0x00,0xac,0x00,0x00,0x00,0xa4,0x00,0x00,0x00,0x9c,0x00,0x00,0x00,0x94,0x00,0x00,0x00,0x74,0x00,0x00,0x00,0x04,0x00,0x00,0x00,0xe6,0xf5,0xff,0xff,0x04,0x00,0x00,0x00,0x60,0x00,0x00,0x00,0x10,0x00,0x00,0x00,0x00,0x00,0x00,0x00,0x08,0x00,0x0e,0x00,0x08,0x00,0x04,0x00,0x08,0x00,0x00,0x00,0x10,0x00,0x00,0x00,0x24,0x00,0x00,0x00,0x00,0x00,0x06,0x00,0x08,0x00,0x04,0x00,0x06,0x00,0x00,0x00,0x04,0x00,0x00,0x00,0x00,0x00,0x00,0x00,0x0c,0x00,0x18,0x00,0x14,0x00,0x10,0x00,0x0c,0x00,0x04,0x00,0x0c,0x00,0x00,0x00,0xe2,0xf9,0x06,0x0a,0xbf,0x3d,0xcd,0x40,0x02,0x00,0x00,0x00,0x02,0x00,0x00,0x00,0x04,0x00,0x00,0x00,0x06,0x00,0x00,0x00,0x32,0x2e,0x31,0x38,0x2e,0x30,0x00,0x00,0x52,0xf6,0xff,0xff,0x04,0x00,0x00,0x00,0x10,0x00,0x00,0x00,0x31,0x2e,0x31,0x34,0x2e,0x30,0x00,0x00,0x00,0x00,0x00,0x00,0x00,0x00,0x00,0x00,0xa4,0xf0,0xff,0xff,0xa8,0xf0,0xff,0xff,0xac,0xf0,0xff,0xff,0xb0,0xf0,0xff,0xff,0x7e,0xf6,0xff,0xff,0x04,0x00,0x00,0x00,0xc0,0x04,0x00,0x00,0xef,0xc7,0x9f,0x3c,0x49,0x26,0x0f,0xbe,0x3b,0x95,0x58,0x3e,0x49,0x15,0x1c,0x3e,0xd6,0x95,0x2a,0x3e,0x75,0x5c,0x9e,0x3c,0xae,0x13,0x32,0xbd,0xed,0x8d,0xf0,0x3e,0x06,0xcb,0x99,0xbd,0x2e,0xf2,0x6a,0xbe,0x1a,0x2a,0xa7,0xbe,0x3f,0x9f,0xae,0xbe,0x26,0xe3,0x32,0xbe,0x01,0x6e,0xdb,0x3e,0x6f,0xfe,0x1f,0xbf,0x41,0x80,0x7a,0x3d,0x34,0x4a,0x9b,0x3e,0x9e,0xdf,0xdb,0x3d,0xf1,0x7e,0xcf,0xbe,0x29,0x86,0x5b,0x3e,0x62,0xc3,0x97,0x3e,0x32,0x9d,0xd3,0x3e,0x55,0x37,0x99,0xbd,0x46,0xdc,0x2d,0x3e,0x40,0x7f,0x99,0x3e,0x1d,0x4c,0x9e,0x3e,0x26,0x0b,0x8b,0xbe,0xee,0xa7,0x82,0xbc,0xbd,0xc3,0x95,0xbd,0xbc,0xb8,0xbc,0x3e,0xce,0x99,0x30,0xbe,0x51,0x4e,0x9b,0x3e,0x72,0xeb,0x20,0x3e,0x9e,0x07,0x9a,0xbe,0xa7,0x1e,0x8c,0x3d,0xb5,0xf2,0xce,0x3e,0x9a,0x3d,0x90,0xbd,0x67,0x91,0x52,0x3e,0x8a,0x27,0x97,0xbe,0x16,0x83,0xfc,0xbe,0x1f,0xdd,0x84,0x3e,0x4d,0xc3,0x81,0xbe,0x7a,0x8e,0x60,0xbe,0x4b,0x08,0x9c,0xbd,0xad,0xed,0x2e,0x3e,0xf4,0x9d,0x5b,0xbe,0x85,0x36,0x47,0x3d,0x6d,0xad,0x9d,0x3e,0x06,0x80,0x65,0x3d,0x60,0x93,0x50,0x3e,0x08,0x34,0x80,0xbe,0x51,0x91,0x23,0xbf,0x03,0xb7,0x33,0x3d,0xbf,0xc2,0x36,0x3e,0x01,0xde,0x3d,0xbe,0x8f,0x73,0xe3,0xbe,0xa0,0x8c,0x82,0x3e,0xfc,0x50,0x22,0xbe,0x94,0xe8,0x04,0xbe,0x13,0x54,0x6a,0xbd,0x8b,0xdd,0xd9,0x3e,0x7a,0xf3,0x6b,0xbe,0x88,0xdd,0xd8,0x3e,0xa9,0x8f,0x18,0x3d,0x27,0x55,0x32,0x3e,0x32,0x1d,0xdb,0x3d,0xb1,0xa0,0xe4,0xbe,0xa0,0x53,0x6e,0x3e,0xc3,0xdb,0x14,0xbe,0x8b,0xd5,0x32,0xbe,0x5b,0x1e,0x5a,0x3e,0x06,0xfd,0xde,0xbe,0xa3,0xa7,0x72,0x3d,0x77,0x4d,0x0c,0xbe,0x92,0xe7,0x3c,0x3e,0x15,0x4a,0xaa,0xbe,0x8d,0xf0,0x00,0x3f,0x69,0xbc,0x4e,0xbe,0xd6,0xaa,0xd8,0xbe,0x35,0x66,0x32,0x3e,0x12,0x2d,0xcf,0x3d,0xb9,0x11,0x02,0x3c,0x48,0x3b,0x29,0x3e,0x0c,0xd4,0x1c,0x3e,0x7e,0xb2,0xd6,0xbe,0x19,0x95,0x05,0x3d,0x53,0xb8,0xf9,0xbe,0xb5,0x64,0x83,0x3e,0xef,0xd6,0x79,0xbe,0xd4,0xd9,0x34,0x3d,0xf3,0x77,0xa0,0x3e,0x95,0x9f,0x1b,0xbe,0x44,0x1e,0x49,0x3d,0x0a,0xb5,0x99,0xbe,0x89,0x52,0xee,0xbe,0x5b,0x57,0x87,0x3d,0x43,0x4d,0x09,0x3f,0xfe,0xb5,0xa5,0x3e,0x95,0xb2,0x83,0x3e,0x73,0x24,0x2b,0x3e,0x56,0x51,0x0e,0x3e,0x85,0xab,0xea,0x3e,0x46,0xd1,0x2a,0x3e,0xf3,0xd0,0xb8,0xbd,0x93,0x26,0xa1,0x3b,0xb3,0xda,0x85,0xbe,0x6e,0xd2,0x23,0xbe,0x83,0x1e,0x90,0xbe,0x27,0x04,0xed,0x3d,0x0e,0x14,0x91,0x3d,0xdc,0x98,0xda,0x3e,0xb5,0x5c,0x6e,0xbd,0x10,0x28,0x59,0x3e,0x7d,0xaa,0x74,0x3e,0xf5,0x53,0x7b,0xbd,0x33,0x86,0xfd,0xbd,0xe1,0x31,0xbb,0x3e,0x56,0x9a,0x1f,0x3e,0x7f,0x4f,0xec,0x3e,0x8d,0x9e,0x7e,0x3e,0xb3,0x47,0xb6,0x3e,0x69,0x52,0xba,0xbe,0x01,0x03,0xa2,0xbd,0xd1,0x9a,0xd3,0xbe,0x66,0xfe,0xb1,0x3e,0x17,0xdb,0x66,0x3e,0x45,0x86,0xa5,0x3e,0xe7,0x61,0x5d,0xbe,0xf5,0x15,0x52,0x3e,0xe1,0xd7,0x4f,0xbd,0x96,0x6d,0x98,0x3e,0x97,0x5f,0x80,0x3e,0xd0,0xb3,0xd9,0xbd,0x68,0x48,0x40,0xbe,0xe2,0x4a,0x00,0xbf,0x4b,0x30,0x8a,0x3e,0xbc,0x30,0x8f,0xbe,0xf4,0xfe,0xcb,0xbe,0xb0,0xd3,0x00,0x3e,0x29,0xcf,0x81,0xbe,0x5d,0x4c,0x88,0x3e,0xaa,0xd1,0x1d,0x3e,0x72,0xdb,0x4d,0x3e,0xea,0x56,0x32,0x3e,0x83,0xc1,0x7c,0xbe,0xd4,0x24,0x3b,0xbe,0x19,0xb8,0xa5,0xbd,0x75,0x49,0xd1,0x3d,0xf5,0xf7,0x9c,0xbd,0x8f,0xb8,0x81,0xbd,0xae,0xb1,0xe8,0xbe,0x5c,0x60,0x68,0xbe,0x67,0xa8,0x9c,0xbe,0x5b,0xe1,0x48,0x3e,0x04,0xe8,0x92,0xbe,0x37,0x5a,0x9d,0x3e,0x7f,0xa0,0xbc,0xbe,0x85,0xf3,0xb8,0xbe,0x05,0xf2,0x00,0xbd,0xec,0xe2,0x71,0xbe,0x80,0x46,0x59,0xbe,0x1d,0xe1,0x2f,0xbe,0x2d,0x99,0x3c,0xbd,0x21,0x0d,0xce,0x3e,0x67,0x24,0x46,0xbe,0xfd,0x30,0xd3,0x3b,0xca,0xd9,0x8a,0x3e,0xd5,0xe8,0xf0,0xbe,0x39,0x98,0xa3,0xbe,0xfa,0x6c,0x45,0x3d,0x38,0xc9,0x94,0xbe,0x59,0x67,0xe1,0xbd,0xb4,0x52,0x92,0x3c,0x4b,0xc9,0x8f,0xbc,0x50,0x2e,0x84,0x3e,0xf8,0x23,0x2a,0x3e,0x6b,0x92,0x1d,0xbe,0x3b,0x0b,0x21,0xbe,0xa5,0xc3,0x9c,0x3e,0x54,0xae,0xb3,0xbd,0x74,0x90,0x99,0x3d,0x6c,0x64,0xc0,0x3e,0x8b,0x66,0x95,0x3e,0x9d,0xfa,0x99,0xbe,0x1f,0xb7,0xf0,0xbd,0x65,0x81,0x82,0x3e,0xaa,0x43,0x8d,0xbd,0xe6,0x0f,0xdc,0x3d,0x23,0x04,0x32,0x3e,0x84,0x86,0x0d,0xbe,0x2f,0x68,0x16,0xbe,0x7e,0x50,0xa5,0x3e,0x9c,0x69,0xc6,0x3e,0x9c,0xd0,0xa0,0xbd,0x1a,0x23,0x42,0x3d,0x4c,0x54,0xf4,0x3e,0xb9,0xd1,0x58,0xbc,0x47,0xde,0x06,0x3e,0xcc,0x3b,0x59,0x3e,0x8d,0xc6,0x3c,0x3d,0x3d,0x41,0xb5,0xbe,0x4f,0xef,0x98,0xbe,0x15,0x34,0xc6,0x3e,0xee,0x7c,0x22,0x3f,0x10,0xc2,0x4b,0xbe,0x7a,0x39,0x22,0x3e,0x7f,0x24,0xba,0xbb,0x49,0x8b,0x0d,0x3d,0xcc,0x46,0x81,0xbe,0x7d,0xb4,0xaf,0xbe,0x4c,0x1e,0xc8,0xbd,0x0d,0x5e,0x62,0xbd,0x92,0x46,0x61,0xbe,0xe3,0xd1,0x06,0x3e,0xf2,0xec,0xd8,0x3e,0xb2,0x01,0x5e,0xbe,0xd1,0xa0,0x04,0x3e,0x23,0x66,0xc5,0xbe,0x38,0xa4,0x95,0xbe,0x0d,0x33,0x49,0x3e,0x97,0x93,0x4a,0xbe,0xe8,0xeb,0x85,0x3d,0xd8,0xcc,0x5a,0x3d,0x22,0x39,0x90,0x3e,0x6a,0xe0,0xa8,0x3d,0xa0,0x9e,0x9f,0x3e,0x09,0x4f,0xde,0x3e,0x3c,0x97,0x70,0xbe,0x8f,0x3e,0x83,0x3e,0xb0,0x23,0xdf,0x3d,0x87,0xc8,0xc4,0xbe,0xa5,0x26,0x92,0x3e,0x2b,0x7f,0xd1,0x3d,0x99,0xb6,0xbe,0x3e,0x61,0xc4,0x8f,0x3e,0xf4,0xe7,0xfc,0x3e,0x91,0x3e,0x37,0x3e,0x16,0xd7,0x16,0xbe,0xbb,0xa4,0xb4,0xbe,0xab,0x7a,0x18,0xbd,0xeb,0x9d,0xf7,0x3d,0x03,0xca,0x96,0x3b,0xcf,0xb5,0xe9,0xbe,0x84,0x3d,0x99,0xbe,0x58,0x38,0xcf,0xbe,0x1a,0xad,0xe8,0xbe,0x98,0x30,0x8a,0x3e,0xfe,0xb8,0x6a,0x3e,0x78,0x1c,0xaf,0x3d,0x37,0x96,0x0b,0xbe,0x76,0xdd,0xa0,0xbd,0xc1,0xff,0xad,0x3e,0xa5,0x3f,0x3f,0xbe,0x98,0x5e,0x43,0x3e,0x6e,0x3d,0xd5,0xbe,0xb8,0x11,0x00,0xbe,0x17,0x13,0x5a,0x3e,0x86,0x52,0xf6,0xbd,0x54,0xea,0x53,0xbe,0x2f,0x81,0xac,0xbe,0x7f,0x6d,0xee,0x3d,0x44,0x80,0x1c,0xbf,0xbe,0x75,0x8c,0x3e,0x68,0xf8,0xfe,0x3e,0xb8,0xd0,0x30,0x3e,0x68,0xb5,0x2a,0x3e,0x15,0xe4,0x14,0x3d,0x2c,0x91,0xc0,0xbe,0x18,0x91,0x07,0xbe,0x7c,0xd1,0x65,0xbe,0xf6,0x29,0x60,0x3e,0x89,0x6f,0x0c,0x3e,0x52,0xd1,0xda,0xbc,0x5f,0x2c,0x77,0x3e,0x99,0xd5,0xc7,0x3d,0xeb,0x71,0x23,0xbd,0x12,0x91,0x69,0x3e,0xea,0xd0,0xe9,0x3d,0x5d,0x4c,0x2a,0xbd,0xf4,0x61,0x92,0xbe,0xdc,0xfa,0x15,0x3d,0x7e,0xd3,0x53,0xbe,0x29,0x12,0x33,0xbe,0xf6,0x23,0x1f,0xbd,0xf0,0xaf,0xbd,0x3e,0xf0,0xf7,0xcf,0xbe,0x01,0xef,0x9a,0x3d,0xda,0xf2,0x9f,0xbc,0xba,0x27,0xf5,0xbe,0x54,0x69,0x6b,0x3e,0x54,0x45,0x81,0x3e,0x30,0xe3,0xd3,0xbe,0x58,0x55,0x25,0x3e,0xf2,0xd7,0xf2,0xbe,0x05,0x1a,0xa3,0xbe,0x7d,0xd7,0xd9,0x3b,0xd2,0xf7,0x65,0xbe,0xb9,0x33,0xa8,0x3e,0x6a,0xc9,0x8a,0x3c,0x13,0x64,0x1e,0x3e,0xa8,0xea,0x0b,0xbf,0x48,0x17,0x97,0xbe,0xf7,0x5a,0x90,0xbe,0xdb,0xcf,0x89,0x3e,0x4a,0xfb,0xff,0xff,0x04,0x00,0x00,0x00,0x40,0x00,0x00,0x00,0xce,0x46,0x39,0x3e,0x17,0x1b,0xc0,0x3d,0xde,0x26,0x40,0x3e,0x0d,0x66,0x2e,0x3e,0xc6,0x8d,0xa3,0x3d,0x81,0xdd,0x35,0x3d,0xa5,0xd6,0x1b,0x3e,0x35,0x6f,0xd3,0x3d,0x87,0xc5,0x08,0x3e,0x8e,0xe0,0xe2,0xbd,0x82,0xd7,0x21,0x3e,0x10,0xc5,0x02,0xbd,0x08,0x95,0x38,0x3e,0xda,0x99,0x48,0x3e,0x89,0xaa,0x82,0x3d,0xfb,0x15,0x03,0x3e,0x96,0xfb,0xff,0xff,0x04,0x00,0x00,0x00,0x40,0x00,0x00,0x00,0xa6,0xe3,0x03,0x3e,0xc4,0x57,0xd5,0x3d,0x76,0x62,0xeb,0x3d,0x07,0xf2,0xaf,0x3d,0x8e,0x33,0x81,0xbd,0x3b,0x0a,0x8f,0xbd,0x03,0x4b,0xd7,0x3d,0x96,0x74,0xe0,0x3d,0x0e,0x3b,0x22,0xbd,0xf5,0x2a,0x2d,0x3e,0xdc,0x81,0x16,0xbd,0xb6,0xff,0x2a,0x3d,0xe0,0xc5,0x8d,0x3d,0x8f,0xfc,0x0c,0x3e,0x67,0x81,0x08,0xbd,0xea,0xef,0xe9,0x3d,0xe2,0xfb,0xff,0xff,0x04,0x00,0x00,0x00,0x04,0x00,0x00,0x00,0xdb,0x47,0xb6,0x3c,0xf2,0xfb,0xff,0xff,0x04,0x00,0x00,0x00,0x00,0x04,0x00,0x00,0xa5,0x9c,0x46,0xbd,0x5e,0x92,0x7a,0x3d,0x89,0x60,0x75,0x3e,0xdb,0x75,0x0e,0x3f,0xb5,0xdd,0xb1,0x39,0xf8,0xb8,0xbc,0x3d,0x07,0xce,0x60,0x3e,0x35,0x37,0xa8,0xbe,0xfa,0x9b,0x9b,0xbd,0xee,0xc8,0xdc,0xbe,0xed,0x39,0x88,0x3e,0x60,0x7a,0xd6,0x3d,0xe2,0x06,0x11,0x3f,0x8a,0x3a,0x1d,0x3e,0x60,0xb4,0x03,0xbe,0x93,0xb2,0x9c,0x3d,0xf3,0xae,0xb1,0xbe,0x4e,0xd8,0x6e,0xbd,0x33,0x90,0xcd,0x3d,0x24,0x60,0x28,0x3e,0xfc,0xab,0xee,0xbd,0x86,0x78,0x30,0xbe,0x73,0x31,0x33,0x3e,0xfb,0x3c,0xd3,0x3e,0x5c,0xfc,0xcf,0x3d,0x8a,0x2a,0xed,0x3d,0x90,0xb6,0xed,0xbd,0x5a,0x24,0xf2,0x3e,0xa9,0xd0,0x64,0x3e,0x52,0x76,0x87,0xbe,0xa4,0xf6,0x96,0x3e,0x5b,0xf6,0xd8,0x3d,0xaa,0xf9,0xe3,0xbe,0x16,0x46,0xac,0xbe,0x9a,0x61,0xd7,0x3e,0xd2,0x80,0xfe,0xbd,0xa1,0x4c,0xfe,0x3e,0xe3,0x92,0x58,0xbd,0xa7,0x1a,0x69,0x3e,0xba,0xa8,0x2b,0x3e,0xd3,0xdd,0x52,0x3e,0x0b,0x0d,0x97,0xbe,0x00,0x34,0x2a,0x3e,0xa0,0x2e,0x4c,0xbe,0x2d,0x1e,0x44,0xbe,0xe6,0x9e,0x36,0xbe,0xe0,0x49,0x58,0x3e,0xf1,0xa2,0x94,0x3e,0x59,0xd2,0xd9,0xbe,0x1e,0xf9,0x20,0x3e,0x1f,0x2b,0xad,0x3e,0x7a,0xfc,0xaa,0x3d,0x70,0xba,0xb6,0x3e,0x7d,0x2b,0xae,0xbe,0x70,0x11,0x94,0xbe,0xcd,0xc6,0x98,0x3e,0x3c,0x7e,0x08,0x3f,0x95,0xc3,0x8f,0xbe,0x39,0x5a,0x83,0x3e,0xc1,0x39,0x4d,0xbe,0x04,0xdf,0xcb,0xbe,0x93,0xdc,0xe2,0xbe,0xb3,0x1c,0xb6,0x3e,0x79,0x64,0x42,0x3e,0x25,0x94,0xa9,0xbd,0x81,0xb3,0x96,0xbd,0x63,0x2b,0x2c,0x3e,0xda,0x5c,0x4a,0xbe,0x4a,0xf8,0x9e,0x3e,0x32,0x69,0x2d,0xbe,0xf1,0x05,0xfe,0x3d,0x03,0x10,0x38,0x3e,0xc7,0x0e,0x1e,0x3e,0xa4,0x32,0xe7,0x3d,0x4c,0xc7,0x07,0xbe,0x01,0x0f,0x62,0xbe,0x31,0xf7,0xbc,0x3e,0xf8,0x9f,0x2a,0xbe,0xfe,0x1b,0x09,0xbe,0x8f,0x74,0x07,0xbf,0x26,0xe0,0xb5,0x3e,0xef,0x8f,0xc4,0x3d,0x3f,0x17,0xa0,0xbe,0x47,0x11,0x5c,0xbe,0x1f,0xea,0x86,0xbe,0xaf,0xff,0x4c,0xbd,0x97,0x85,0x6b,0xbe,0x0f,0xe4,0x55,0xbe,0x88,0xe5,0xa1,0xbe,0xa2,0xf4,0xe7,0xbd,0xc4,0x05,0x13,0x3d,0x98,0x65,0x13,0xbe,0x98,0x44,0x6f,0xba,0x38,0x1d,0x61,0xbe,0xdb,0xf0,0x43,0xbe,0x45,0xb2,0xab,0x3e,0xb6,0x4f,0x97,0xbe,0xdd,0xdb,0x19,0x3e,0x28,0x40,0xa3,0x3d,0x8a,0x65,0x95,0x3e,0x16,0x6f,0x94,0x3e,0x55,0x53,0x07,0x3f,0x15,0x54,0x07,0x3e,0x70,0x5c,0x4d,0xbe,0x80,0xd9,0xfe,0x3c,0xa1,0x34,0xb7,0xbe,0xfb,0x3b,0x04,0x3f,0x84,0x08,0x80,0x3e,0xfa,0x54,0x04,0x3f,0xd4,0x67,0xeb,0x3e,0xe8,0x9e,0xcc,0xbe,0x43,0x2b,0x39,0xbe,0x47,0xcb,0x5a,0x3e,0x32,0x03,0x25,0xbe,0x52,0x73,0x0f,0x3f,0x6e,0x47,0x94,0xbe,0x73,0xfb,0x90,0xbd,0x27,0x51,0x96,0xbe,0xfc,0x70,0xcc,0x3e,0x1a,0x32,0xd0,0xbd,0xcf,0x80,0xbd,0x3e,0x5f,0x88,0xe8,0x3c,0x5e,0x2f,0x0d,0xbe,0xbd,0x74,0xe5,0x3d,0x3f,0x09,0xa7,0xbe,0x83,0x43,0x1a,0xbd,0x36,0xe4,0x78,0x3e,0x4b,0x8a,0x2c,0x3d,0xe5,0xd3,0x1f,0x3e,0xf4,0xad,0xb4,0xbe,0xb8,0x3c,0x82,0x3e,0xaa,0xa8,0xab,0xbe,0xc5,0x1f,0xcf,0xbe,0xf7,0x2d,0xbe,0x3d,0x85,0xfd,0x49,0xbe,0x77,0x86,0xf3,0x3e,0xb0,0x0f,0xc3,0x3e,0xd1,0x5d,0x2a,0x3d,0x22,0xb5,0x59,0xbe,0xdd,0xfb,0x98,0xbe,0x24,0x94,0x6a,0x3c,0x1e,0x54,0x97,0x3e,0xd8,0xc7,0xbb,0xbd,0xb7,0x7d,0xc7,0x3d,0x19,0x04,0x2c,0x3e,0x89,0xa4,0x81,0xbd,0xbe,0xaf,0xa6,0x3e,0xd6,0x1b,0xe9,0xbb,0x8f,0xfd,0x6f,0x3e,0x86,0x1f,0x26,0xbe,0x4c,0x37,0x9d,0x3e,0x28,0xb4,0x5a,0xbd,0x3e,0xeb,0x83,0x3c,0xfe,0x6c,0x36,0xbe,0x03,0x17,0xbb,0xbe,0x0e,0x30,0xac,0x3e,0x78,0xa1,0xca,0xbe,0x0d,0xc9,0xf1,0xbe,0x41,0xfd,0x19,0x3d,0xef,0xa1,0x18,0xbe,0xba,0x98,0xc3,0x3e,0x42,0x75,0x02,0xbe,0x4d,0x10,0x53,0x3e,0x90,0x35,0x10,0x3d,0x9b,0x24,0xa0,0x3e,0xc7,0x8f,0xb7,0xbd,0x0b,0x71,0x2e,0xbd,0x48,0x0f,0x88,0xbd,0x77,0xe2,0x9b,0xbe,0x2b,0x57,0x53,0x3e,0x3f,0xd1,0x49,0xbe,0x9a,0x1c,0x35,0x3e,0x7b,0xd4,0x32,0xbd,0x72,0x3e,0x0a,0x3f,0x42,0xcf,0xb1,0xbe,0x65,0xd2,0x40,0x3e,0x8e,0xda,0xd3,0x3e,0xb1,0xad,0x5c,0xbe,0x98,0x8d,0x98,0xbe,0x3e,0x63,0x98,0x3e,0xc1,0x54,0x1a,0x3e,0xe6,0x82,0xc7,0x3e,0xcc,0xd7,0x2b,0x3e,0xf2,0xc3,0x23,0xbe,0x9d,0x6b,0x10,0xbe,0x04,0x76,0x9b,0x3e,0x8e,0xdf,0x43,0x3c,0x8e,0x6a,0x8d,0xbc,0x4c,0x69,0x8d,0xbd,0xfe,0xe7,0xc2,0x3e,0x5e,0x8f,0xc1,0x3d,0xcf,0x5e,0x01,0x3e,0x76,0x8f,0x3f,0xbe,0xda,0x65,0xcd,0xbe,0x32,0xae,0x49,0x3e,0xc6,0x03,0x3e,0x3e,0x32,0x94,0x11,0x3e,0xe0,0x96,0x6d,0xbe,0x01,0xb4,0xb5,0x3c,0xc4,0x00,0x51,0x3e,0x4a,0xfe,0xd3,0x3d,0x83,0x6e,0x10,0xbd,0x99,0xd2,0x19,0x3e,0x2e,0x47,0x35,0xbe,0xeb,0x4c,0xd6,0x3c,0x77,0xcd,0x04,0xbf,0x39,0x81,0x0c,0xbd,0x9b,0xae,0x93,0x3e,0xeb,0x00,0xf1,0x3e,0x39,0x13,0xc1,0x3e,0xa8,0x26,0xda,0xbe,0xf1,0x69,0x06,0x3f,0x71,0x6f,0x47,0x3e,0x6c,0xa7,0xcb,0x3d,0xe6,0x5f,0xa5,0xbe,0xc0,0xe0,0xde,0x3e,0xdf,0xd2,0x09,0x3d,0x45,0x36,0xcf,0xbe,0xae,0x6b,0x13,0x3f,0xc9,0x2a,0xb5,0x3e,0xc5,0xf1,0x0c,0x3d,0xea,0xf6,0x34,0xbe,0x64,0x5b,0x60,0xbe,0x80,0x36,0xa1,0xbe,0x49,0x95,0x61,0xbe,0xd2,0x30,0x98,0xbe,0xef,0x8a,0x57,0x3c,0x0d,0x90,0x4b,0x3e,0xcb,0x3e,0x7f,0x3e,0xdd,0xb2,0x34,0x3e,0x2e,0x8e,0x9b,0x3d,0xbe,0xc3,0xb7,0x3d,0xb2,0x8e,0x1f,0x3d,0x34,0x91,0x94,0xbe,0x7a,0xf3,0x9f,0x3d,0x67,0x3c,0x01,0x3f,0x71,0xa7,0xa2,0x3d,0xae,0x81,0x2a,0x3e,0xe1,0x0a,0xa6,0x3e,0x24,0xd7,0x08,0x3f,0x2d,0xba,0xfe,0xbe,0x7e,0x02,0x81,0x3e,0xb3,0x30,0xfd,0x3e,0x7a,0x05,0xb2,0xbe,0xfe,0x79,0x81,0x3e,0x45,0x19,0xa9,0xbe,0x45,0xf3,0x5c,0x3e,0x72,0x55,0x06,0x3f,0x55,0xd7,0x8a,0x3e,0xdc,0xe9,0x87,0xbe,0x06,0x7b,0x1d,0xbe,0xc4,0x1f,0x96,0x3d,0x19,0x78,0x33,0xbc,0x45,0x30,0x07,0xbf,0xc5,0x84,0xae,0x3d,0x8f,0x5f,0x33,0xbd,0x00,0x00,0x06,0x00,0x08,0x00,0x04,0x00,0x06,0x00,0x00,0x00,0x04,0x00,0x00,0x00,0x40,0x00,0x00,0x00,0x94,0x5e,0xdb,0x3e,0x59,0xf7,0x16,0xbf,0xdd,0x1b,0x4b,0xbf,0xb4,0x7c,0x7f,0xbe,0xb4,0x91,0xce,0x3e,0x5f,0x09,0xa5,0xbe,0x00,0x0d,0x13,0x3f,0xbc,0xda,0xe2,0xbe,0xd9,0xb6,0x0a,0xbf,0x4b,0xae,0x10,0xbf,0x9c,0x96,0x06,0x3f,0x14,0x13,0x39,0x3f,0x0c,0x58,0x0d,0xbf,0xbc,0x71,0xaa,0x3e,0x6d,0x05,0x0d,0xbf,0xdc,0xac,0x1d,0xbf,0x88,0xfa,0xff,0xff,0x8c,0xfa,0xff,0xff,0x0f,0x00,0x00,0x00,0x4d,0x4c,0x49,0x52,0x20,0x43,0x6f,0x6e,0x76,0x65,0x72,0x74,0x65,0x64,0x2e,0x00,0x01,0x00,0x00,0x00,0x14,0x00,0x00,0x00,0x00,0x00,0x0e,0x00,0x18,0x00,0x14,0x00,0x10,0x00,0x0c,0x00,0x08,0x00,0x04,0x00,0x0e,0x00,0x00,0x00,0x14,0x00,0x00,0x00,0x1c,0x00,0x00,0x00,0x08,0x01,0x00,0x00,0x0c,0x01,0x00,0x00,0x10,0x01,0x00,0x00,0x04,0x00,0x00,0x00,0x6d,0x61,0x69,0x6e,0x00,0x00,0x00,0x00,0x04,0x00,0x00,0x00,0xb0,0x00,0x00,0x00,0x68,0x00,0x00,0x00,0x34,0x00,0x00,0x00,0x10,0x00,0x00,0x00,0x00,0x00,0x0a,0x00,0x10,0x00,0x0c,0x00,0x08,0x00,0x04,0x00,0x0a,0x00,0x00,0x00,0x0c,0x00,0x00,0x00,0x10,0x00,0x00,0x00,0x01,0x00,0x00,0x00,0x01,0x00,0x00,0x00,0x0a,0x00,0x00,0x00,0x01,0x00,0x00,0x00,0x09,0x00,0x00,0x00,0x9a,0xff,0xff,0xff,0x10,0x00,0x00,0x00,0x00,0x00,0x00,0x08,0x0c,0x00,0x00,0x00,0x10,0x00,0x00,0x00,0x34,0xfb,0xff,0xff,0x01,0x00,0x00,0x00,0x09,0x00,0x00,0x00,0x03,0x00,0x00,0x00,0x08,0x00,0x00,0x00,0x01,0x00,0x00,0x00,0x03,0x00,0x00,0x00,0xca,0xff,0xff,0xff,0x10,0x00,0x00,0x00,0x00,0x00,0x00,0x08,0x10,0x00,0x00,0x00,0x14,0x00,0x00,0x00,0xba,0xff,0xff,0xff,0x00,0x00,0x00,0x01,0x01,0x00,0x00,0x00,0x08,0x00,0x00,0x00,0x03,0x00,0x00,0x00,0x07,0x00,0x00,0x00,0x02,0x00,0x00,0x00,0x04,0x00,0x00,0x00,0x00,0x00,0x0e,0x00,0x16,0x00,0x00,0x00,0x10,0x00,0x0c,0x00,0x0b,0x00,0x04,0x00,0x0e,0x00,0x00,0x00,0x18,0x00,0x00,0x00,0x00,0x00,0x00,0x08,0x18,0x00,0x00,0x00,0x1c,0x00,0x00,0x00,0x00,0x00,0x06,0x00,0x08,0x00,0x07,0x00,0x06,0x00,0x00,0x00,0x00,0x00,0x00,0x01,0x01,0x00,0x00,0x00,0x07,0x00,0x00,0x00,0x03,0x00,0x00,0x00,0x00,0x00,0x00,0x00,0x06,0x00,0x00,0x00,0x05,0x00,0x00,0x00,0x01,0x00,0x00,0x00,0x0a,0x00,0x00,0x00,0x01,0x00,0x00,0x00,0x00,0x00,0x00,0x00,0x0b,0x00,0x00,0x00,0xf4,0x03,0x00,0x00,0x9c,0x03,0x00,0x00,0x44,0x03,0x00,0x00,0x08,0x03,0x00,0x00,0xcc,0x02,0x00,0x00,0x70,0x02,0x00,0x00,0x20,0x02,0x00,0x00,0x80,0x01,0x00,0x00,0xe0,0x00,0x00,0x00,0x60,0x00,0x00,0x00,0x04,0x00,0x00,0x00,0x4e,0xfc,0xff,0xff,0x00,0x00,0x00,0x01,0x14,0x00,0x00,0x00,0x1c,0x00,0x00,0x00,0x1c,0x00,0x00,0x00,0x0b,0x00,0x00,0x00,0x34,0x00,0x00,0x00,0x02,0x00,0x00,0x00,0xff,0xff,0xff,0xff,0x01,0x00,0x00,0x00,0x38,0xfc,0xff,0xff,0x1b,0x00,0x00,0x00,0x53,0x74,0x61,0x74,0x65,0x66,0x75,0x6c,0x50,0x61,0x72,0x74,0x69,0x74,0x69,0x6f,0x6e,0x65,0x64,0x43,0x61,0x6c,0x6c,0x5f,0x31,0x3a,0x30,0x00,0x02,0x00,0x00,0x00,0x01,0x00,0x00,0x00,0x01,0x00,0x00,0x00,0xa6,0xfc,0xff,0xff,0x00,0x00,0x00,0x01,0x14,0x00,0x00,0x00,0x1c,0x00,0x00,0x00,0x1c,0x00,0x00,0x00,0x0a,0x00,0x00,0x00,0x58,0x00,0x00,0x00,0x02,0x00,0x00,0x00,0xff,0xff,0xff,0xff,0x01,0x00,0x00,0x00,0x90,0xfc,0xff,0xff,0x3c,0x00,0x00,0x00,0x73,0x65,0x71,0x75,0x65,0x6e,0x74,0x69,0x61,0x6c,0x5f,0x32,0x5f,0x31,0x2f,0x64,0x65,0x6e,0x73,0x65,0x5f,0x36,0x5f,0x31,0x2f,0x4d,0x61,0x74,0x4d,0x75,0x6c,0x3b,0x73,0x65,0x71,0x75,0x65,0x6e,0x74,0x69,0x61,0x6c,0x5f,0x32,0x5f,0x31,0x2f,0x64,0x65,0x6e,0x73,0x65,0x5f,0x36,0x5f,0x31,0x2f,0x41,0x64,0x64,0x00,0x00,0x00,0x00,0x02,0x00,0x00,0x00,0x01,0x00,0x00,0x00,0x01,0x00,0x00,0x00,0x22,0xfd,0xff,0xff,0x00,0x00,0x00,0x01,0x14,0x00,0x00,0x00,0x1c,0x00,0x00,0x00,0x1c,0x00,0x00,0x00,0x09,0x00,0x00,0x00,0x78,0x00,0x00,0x00,0x02,0x00,0x00,0x00,0xff,0xff,0xff,0xff,0x10,0x00,0x00,0x00,0x0c,0xfd,0xff,0xff,0x5e,0x00,0x00,0x00,0x73,0x65,0x71,0x75,0x65,0x6e,0x74,0x69,0x61,0x6c,0x5f,0x32,0x5f,0x31,0x2f,0x64,0x65,0x6e,0x73,0x65,0x5f,0x35,0x5f,0x31,0x2f,0x4d,0x61,0x74,0x4d,0x75,0x6c,0x3b,0x73,0x65,0x71,0x75,0x65,0x6e,0x74,0x69,0x61,0x6c,0x5f,0x32,0x5f,0x31,0x2f,0x64,0x65,0x6e,0x73,0x65,0x5f,0x35,0x5f,0x31,0x2f,0x52,0x65,0x6c,0x75,0x3b,0x73,0x65,0x71,0x75,0x65,0x6e,0x74,0x69,0x61,0x6c,0x5f,0x32,0x5f,0x31,0x2f,0x64,0x65,0x6e,0x73,0x65,0x5f,0x35,0x5f,0x31,0x2f,0x42,0x69,0x61,0x73,0x41,0x64,0x64,0x00,0x00,0x02,0x00,0x00,0x00,0x01,0x00,0x00,0x00,0x10,0x00,0x00,0x00,0xbe,0xfd,0xff,0xff,0x00,0x00,0x00,0x01,0x14,0x00,0x00,0x00,0x1c,0x00,0x00,0x00,0x1c,0x00,0x00,0x00,0x08,0x00,0x00,0x00,0x78,0x00,0x00,0x00,0x02,0x00,0x00,0x00,0xff,0xff,0xff,0xff,0x10,0x00,0x00,0x00,0xa8,0xfd,0xff,0xff,0x5e,0x00,0x00,0x00,0x73,0x65,0x71,0x75,0x65,0x6e,0x74,0x69,0x61,0x6c,0x5f,0x32,0x5f,0x31,0x2f,0x64,0x65,0x6e,0x73,0x65,0x5f,0x34,0x5f,0x31,0x2f,0x4d,0x61,0x74,0x4d,0x75,0x6c,0x3b,0x73,0x65,0x71,0x75,0x65,0x6e,0x74,0x69,0x61,0x6c,0x5f,0x32,0x5f,0x31,0x2f,0x64,0x65,0x6e,0x73,0x65,0x5f,0x34,0x5f,0x31,0x2f,0x52,0x65,0x6c,0x75,0x3b,0x73,0x65,0x71,0x75,0x65,0x6e,0x74,0x69,0x61,0x6c,0x5f,0x32,0x5f,0x31,0x2f,0x64,0x65,0x6e,0x73,0x65,0x5f,0x34,0x5f,0x31,0x2f,0x42,0x69,0x61,0x73,0x41,0x64,0x64,0x00,0x00,0x02,0x00,0x00,0x00,0x01,0x00,0x00,0x00,0x10,0x00,0x00,0x00,0xae,0xfe,0xff,0xff,0x00,0x00,0x00,0x01,0x10,0x00,0x00,0x00,0x10,0x00,0x00,0x00,0x07,0x00,0x00,0x00,0x2c,0x00,0x00,0x00,0x34,0xfe,0xff,0xff,0x1f,0x00,0x00,0x00,0x73,0x65,0x71,0x75,0x65,0x6e,0x74,0x69,0x61,0x6c,0x5f,0x32,0x5f,0x31,0x2f,0x64,0x65,0x6e,0x73,0x65,0x5f,0x34,0x5f,0x31,0x2f,0x4d,0x61,0x74,0x4d,0x75,0x6c,0x00,0x02,0x00,0x00,0x00,0x10,0x00,0x00,0x00,0x13,0x00,0x00,0x00,0xfa,0xfe,0xff,0xff,0x00,0x00,0x00,0x01,0x10,0x00,0x00,0x00,0x10,0x00,0x00,0x00,0x06,0x00,0x00,0x00,0x3c,0x00,0x00,0x00,0x80,0xfe,0xff,0xff,0x2f,0x00,0x00,0x00,0x73,0x65,0x71,0x75,0x65,0x6e,0x74,0x69,0x61,0x6c,0x5f,0x32,0x5f,0x31,0x2f,0x64,0x65,0x6e,0x73,0x65,0x5f,0x34,0x5f,0x31,0x2f,0x42,0x69,0x61,0x73,0x41,0x64,0x64,0x2f,0x52,0x65,0x61,0x64,0x56,0x61,0x72,0x69,0x61,0x62,0x6c,0x65,0x4f,0x70,0x00,0x01,0x00,0x00,0x00,0x10,0x00,0x00,0x00,0x52,0xff,0xff,0xff,0x00,0x00,0x00,0x01,0x10,0x00,0x00,0x00,0x10,0x00,0x00,0x00,0x05,0x00,0x00,0x00,0x1c,0x00,0x00,0x00,0xd8,0xfe,0xff,0xff,0x0f,0x00,0x00,0x00,0x61,0x72,0x69,0x74,0x68,0x2e,0x63,0x6f,0x6e,0x73,0x74,0x61,0x6e,0x74,0x33,0x00,0x01,0x00,0x00,0x00,0x10,0x00,0x00,0x00,0x8a,0xff,0xff,0xff,0x00,0x00,0x00,0x01,0x10,0x00,0x00,0x00,0x10,0x00,0x00,0x00,0x04,0x00,0x00,0x00,0x1c,0x00,0x00,0x00,0x10,0xff,0xff,0xff,0x0f,0x00,0x00,0x00,0x61,0x72,0x69,0x74,0x68,0x2e,0x63,0x6f,0x6e,0x73,0x74,0x61,0x6e,0x74,0x32,0x00,0x01,0x00,0x00,0x00,0x01,0x00,0x00,0x00,0xc2,0xff,0xff,0xff,0x00,0x00,0x00,0x01,0x10,0x00,0x00,0x00,0x10,0x00,0x00,0x00,0x03,0x00,0x00,0x00,0x1c,0x00,0x00,0x00,0x48,0xff,0xff,0xff,0x0f,0x00,0x00,0x00,0x61,0x72,0x69,0x74,0x68,0x2e,0x63,0x6f,0x6e,0x73,0x74,0x61,0x6e,0x74,0x31,0x00,0x02,0x00,0x00,0x00,0x10,0x00,0x00,0x00,0x10,0x00,0x00,0x00,0x00,0x00,0x16,0x00,0x18,0x00,0x14,0x00,0x00,0x00,0x10,0x00,0x0c,0x00,0x08,0x00,0x00,0x00,0x00,0x00,0x00,0x00,0x07,0x00,0x16,0x00,0x00,0x00,0x00,0x00,0x00,0x01,0x10,0x00,0x00,0x00,0x10,0x00,0x00,0x00,0x02,0x00,0x00,0x00,0x1c,0x00,0x00,0x00,0x9c,0xff,0xff,0xff,0x0e,0x00,0x00,0x00,0x61,0x72,0x69,0x74,0x68,0x2e,0x63,0x6f,0x6e,0x73,0x74,0x61,0x6e,0x74,0x00,0x00,0x02,0x00,0x00,0x00,0x01,0x00,0x00,0x00,0x10,0x00,0x00,0x00,0x00,0x00,0x16,0x00,0x1c,0x00,0x18,0x00,0x00,0x00,0x14,0x00,0x10,0x00,0x0c,0x00,0x00,0x00,0x00,0x00,0x08,0x00,0x07,0x00,0x16,0x00,0x00,0x00,0x00,0x00,0x00,0x01,0x14,0x00,0x00,0x00,0x20,0x00,0x00,0x00,0x20,0x00,0x00,0x00,0x01,0x00,0x00,0x00,0x3c,0x00,0x00,0x00,0x02,0x00,0x00,0x00,0xff,0xff,0xff,0xff,0x13,0x00,0x00,0x00,0x04,0x00,0x04,0x00,0x04,0x00,0x00,0x00,0x1f,0x00,0x00,0x00,0x73,0x65,0x72,0x76,0x69,0x6e,0x67,0x5f,0x64,0x65,0x66,0x61,0x75,0x6c,0x74,0x5f,0x69,0x6e,0x70,0x75,0x74,0x5f,0x6c,0x61,0x79,0x65,0x72,0x5f,0x32,0x3a,0x30,0x00,0x02,0x00,0x00,0x00,0x01,0x00,0x00,0x00,0x13,0x00,0x00,0x00,0x02,0x00,0x00,0x00,0x20,0x00,0x00,0x00,0x04,0x00,0x00,0x00,0xf4,0xff,0xff,0xff,0x0e,0x00,0x00,0x00,0x00,0x00,0x00,0x0e,0x0c,0x00,0x0c,0x00,0x0b,0x00,0x00,0x00,0x00,0x00,0x04,0x00,0x0c,0x00,0x00,0x00,0x09,0x00,0x00,0x00,0x00,0x00,0x00,0x09};
const unsigned int g_kasus_c_model_2_float_model_data_len = 4500;

#endif // G_KASUS_C_MODEL_2_FLOAT_H
